#version: 0.2
▁. .</w>
▁있 있</w>
▁, ,</w>
▁) )</w>
▁( (</w>
으 로</w>
에 서</w>
▁것 것</w>
니 다</w>
▁및 및</w>
한 다</w>
▁그 그</w>
▁않 않</w>
▁대 한</w>
▁는 는</w>
▁경 우</w>
▁상 기</w>
다 는</w>
습 니다</w>
0 0</w>
▁없 없</w>
▁사 용</w>
▁연 구</w>
다 고</w>
▁한 다</w>
▁‘ ‘</w>
된 다</w>
▁· ·</w>
▁포 함</w>
▁’ ’</w>
▁2 0
에 게</w>
▁% %</w>
▁“ “</w>
▁한 한</w>
부 터</w>
▁필 요</w>
▁본 본</w>
▁따 라</w>
지 만</w>
▁- -</w>
▁같 같</w>
▁우 리</w>
▁” ”</w>
▁나 타
▁위 해</w>
▁더 더</w>
▁" "</w>
▁또 는</w>
▁되 되</w>
▁실 시</w>
▁결 과</w>
까 지</w>
▁관 련</w>
▁받 받</w>
▁높 높</w>
▁통 해</w>
▁다 른</w>
도 록</w>
▁말 말</w>
▁? ?</w>
해 서</w>
▁위 한</w>
▁많 많</w>
▁가 능</w>
▁정 보</w>
▁한 국</w>
▁할 할</w>
▁때 문</w>
면 서</w>
▁20 1
▁장 치</w>
▁분 석</w>
▁환 자</w>
▁를 를</w>
▁문 제</w>
▁따 른</w>
▁교 육</w>
▁이 러</w>
▁두 두</w>
라 고</w>
▁1 0</w>
보 다</w>
▁발 생</w>
▁이 상</w>
▁다 양</w>
이 터</w>
▁프 로
▁사 람</w>
▁이 용</w>
으 며</w>
▁' '</w>
▁아 니</w>
▁제 공</w>
▁증 가</w>
▁지 역</w>
▁하 나</w>
▁영 향</w>
▁가 장</w>
▁을 을</w>
라 는</w>
▁확 인</w>
▁방 법</w>
▁다 음</w>
▁구 성</w>
1 0</w>
▁시 간</w>
▁형 성</w>
▁사 회</w>
는 데</w>
▁데 이터</w>
▁기 업</w>
▁가 지</w>
▁했 했</w>
으 로
▁지 원</w>
▁대 해</w>
▁좋 좋</w>
▁발 명</w>
▁평 가</w>
이 나</w>
▁학 생</w>
▁진 행</w>
어 요</w>
▁수 행</w>
▁영 역</w>
▁함 께</w>
▁설 명</w>
2 0</w>
해 야</w>
▁1 00</w>
▁결 정</w>
▁중 요</w>
거 나</w>
▁미 국</w>
▁대 상</w>
▁효 과</w>
▁생 각</w>
▁당 신</w>
▁안 안</w>
▁/ /</w>
▁과 정</w>
▁변 화</w>
▁된 다</w>
▁적 용</w>
▁의 미</w>
입 니다</w>
▁의 해</w>
▁내 용</w>
비 스</w>
▁운 영</w>
▁이 후</w>
▁경 기
▁모 두</w>
▁해 당</w>
▁특 히</w>
▁현 재</w>
▁참 여</w>
▁큰 큰</w>
▁모 든</w>
어 서</w>
▁기 준</w>
▁정 부</w>
▁경 제</w>
▁신 호</w>
▁전 자</w>
는 지</w>
▁알 알</w>
▁사 이</w>
▁치 료</w>
▁같 이</w>
스 템</w>
▁상 황</w>
▁상 태</w>
▁이 번</w>
▁관 계</w>
▁국 가</w>
▁시 작</w>
▁수 준</w>
▁조 사</w>
▁선 택</w>
▁경기 도</w>
▁기 술</w>
▁사 업</w>
여 야</w>
▁1 9
▁학 습</w>
▁자 신</w>
▁2 0</w>
▁위 치</w>
▁따 르</w>
이 스</w>
▁지 난</w>
▁관 한</w>
▁시 장</w>
원 회</w>
▁일 반</w>
▁활 용</w>
▁관 리</w>
▁낮 낮</w>
▁활 동</w>
▁일 부</w>
다 면</w>
▁규 정</w>
▁크 크</w>
▁기 능</w>
▁최 근</w>
▁중 국</w>
▁될 될</w>
▁정 도</w>
시 간</w>
이 트</w>
▁불 불</w>
▁감 소</w>
▁연 결</w>
▁측 정</w>
교 육</w>
3 0</w>
▁잘 잘</w>
▁또 한</w>
그 램</w>
▁차 이</w>
▁즉 즉</w>
로 운</w>
▁시 스템</w>
▁나타 났</w>
▁밝 혔</w>
▁영 상</w>
▁서 비스</w>
▁판 단</w>
▁대 표</w>
▁부 분</w>
▁표 시</w>
▁특 성</w>
▁개 발</w>
는 다</w>
▁각 각</w>
▁고 려</w>
스 트</w>
▁서 울</w>
▁단 계</w>
레 이</w>
학 교</w>
합 니다</w>
▁학 교</w>
▁방 향</w>
▁제 어</w>
▁구 조</w>
기 업</w>
청 장</w>
▁여 기</w>
어 야</w>
▁국 내</w>
▁와 와</w>
▁3 0</w>
▁동 안</w>
▁1 2</w>
▁직 접</w>
▁개 인</w>
▁만 들</w>
▁비 교</w>
시 키</w>
▁도 시</w>
▁추 가</w>
▁전 체</w>
▁방 식</w>
▁정 책</w>
▁과 과</w>
▁볼 볼</w>
▁입 력</w>
▁대 통
▁제 시</w>
▁세 계</w>
▁처 리</w>
▁이 하</w>
▁대통 령</w>
▁에 서</w>
▁여 성</w>
▁사 실</w>
라 서</w>
▁동 작</w>
▁프로 그램</w>
▁이 유</w>
▁위 험</w>
▁인 식</w>
▁경 험</w>
▁경 기</w>
▁해 해</w>
▁존 재</w>
▁문 화</w>
▁위 하</w>
▁금 융</w>
기 관</w>
▁1 0
▁지 방</w>
▁목 적</w>
고 자</w>
로 서</w>
▁환 경</w>
▁이 해</w>
▁어 려
▁1 1</w>
▁많 이</w>
▁다 시</w>
▁새 로운</w>
▁그 룹</w>
▁요 구</w>
▁지 속</w>
▁중 심</w>
▁지 난
▁형 태</w>
로 부터</w>
▁구 청장</w>
▁설 정</w>
▁매 우</w>
▁개 선</w>
▁그 리
▁약 약</w>
▁따 라서</w>
원 장</w>
▁산 업</w>
▁동 일</w>
▁설 치</w>
▁자 료</w>
부 분</w>
▁위 위</w>
▁배 치</w>
▁값 값</w>
▁위 해서</w>
▁싶 싶</w>
루 어
▁역 할</w>
▁이 루어
▁일 본</w>
▁지 금</w>
▁인 터
▁법 법</w>
▁찾 찾</w>
▁유 지</w>
▁기 간</w>
5 0</w>
▁그 것</w>
인 다</w>
▁관 심</w>
▁교 사</w>
▁어 떤</w>
▁원 원</w>
▁제 품</w>
▁기 존</w>
미 지</w>
처 럼</w>
운 데</w>
▁여 러</w>
세 요</w>
▁복 수</w>
▁건 강</w>
▁미 치</w>
▁또 또</w>
위 원회</w>
▁대 해서</w>
▁수 업</w>
▁마 련</w>
진 다</w>
▁평 균</w>
▁생 성</w>
▁검 사</w>
▁가 운데</w>
▁이 미지</w>
▁투 자</w>
▁그 러
▁디 스
▁20 0
▁서 로</w>
▁앞 앞</w>
으 면</w>
▁요 인</w>
▁1 1
▁거 거</w>
▁보 여</w>
▁얻 얻</w>
▁시 행</w>
플 레이</w>
▁기 대</w>
▁보 이</w>
▁추 진</w>
▁대 응</w>
▁김 김</w>
으로 써</w>
▁주 요</w>
대 로</w>
▁외 부</w>
▁공 간</w>
▁확 대</w>
▁수 신</w>
▁계 획</w>
▁출 력</w>
▁주 장</w>
▁사 건</w>
▁반 응</w>
▁디스 플레이</w>
▁차 량</w>
▁경 찰</w>
▁저 장</w>
▁범 위</w>
▁북 한</w>
▁대 부분</w>
▁게 게</w>
▁기 반</w>
▁뒤 뒤</w>
▁대 하</w>
▁그리 고</w>
4 0</w>
어 도</w>
▁구 체</w>
▁보 다</w>
▁전 극</w>
▁국 민</w>
▁2 00</w>
▁측 면</w>
▁행 사</w>
시 아</w>
▁이 전</w>
▁보 인다</w>
▁제 한</w>
▁회 사</w>
시 장</w>
▁인 정</w>
▁상 대</w>
▁내 부</w>
라 도</w>
▁논 의</w>
▁활 성</w>
▁다 만</w>
▁조 직</w>
▁표 현</w>
▁노 력</w>
▁공 급</w>
▁패 턴</w>
▁특 정</w>
과 정</w>
▁사 항</w>
▁분 야</w>
▁기 초</w>
▁예 정</w>
으 나</w>
▁생 산</w>
▁이 동</w>
▁정 의</w>
▁센 서</w>
▁1 5</w>
▁맞 맞</w>
▁여 부</w>
▁제 도</w>
너 지</w>
▁프로 세
관 계</w>
▁올 해</w>
나 요</w>
▁개 념</w>
사 업</w>
▁살 펴
▁해 결</w>
▁의 한</w>
므 로</w>
▁성 장</w>
▁기 본</w>
모 리</w>
▁한 편</w>
▁비 해</w>
이 드</w>
▁정 상</w>
▁요 소</w>
▁1 2
▁나타 내</w>
▁이 런</w>
▁업 무</w>
▁알 려
▁처 음</w>
▁1 10</w>
▁모 습</w>
▁메 모리</w>
▁5 0</w>
계 자</w>
▁지난 해</w>
▁기 록</w>
▁발 전</w>
이 션</w>
▁특 징</w>
▁보 호</w>
센 터</w>
▁발 견</w>
▁당 시</w>
▁사 례</w>
▁통 신</w>
▁없 이</w>
나 라</w>
▁실 제</w>
▁자 유</w>
▁1 20</w>
▁못 하</w>
▁비 율</w>
▁유 의</w>
▁크 기</w>
▁도 입</w>
▁첫 첫</w>
▁가 치</w>
수 록</w>
▁이 것</w>
▁그러 나</w>
▁행 위</w>
▁인 해</w>
▁어 느</w>
▁예 상</w>
▁모 델</w>
▁비 용</w>
▁향 상</w>
▁먼 저</w>
▁강 화</w>
▁자 기</w>
▁의 원</w>
▁발 표</w>
▁주 민</w>
▁진 단</w>
▁가 격</w>
▁수 학</w>
▁요 청</w>
▁대 학</w>
▁전 문</w>
▁변 경</w>
▁들 어
▁인 간</w>
▁신 신</w>
▁일 정</w>
라 인</w>
▁삶 삶</w>
▁네 네</w>
▁방 문</w>
▁선 정</w>
인 지</w>
▁결 합</w>
▁추 정</w>
▁더 욱</w>
용 자</w>
시 설</w>
▁자 체</w>
정 보</w>
▁변 수</w>
▁지 적</w>
▁공 정</w>
▁기 판</w>
▁소 득</w>
▁해 석</w>
▁표 표</w>
▁이 날</w>
국 인</w>
▁작 작</w>
▁전 송</w>
▁예 측</w>
▁공 개</w>
▁이 어
▁기 관</w>
▁효 율</w>
▁< <</w>
어 부</w>
▁전 달</w>
▁안 전</w>
학 생</w>
▁규 모</w>
▁검 토</w>
▁고 객</w>
▁반 영</w>
개 월</w>
▁사 고</w>
▁된 된</w>
▁외 외</w>
▁가 족</w>
▁현 장</w>
▁사 진</w>
주 의</w>
▁목 표</w>
정 부</w>
▁계 속</w>
▁수 술</w>
▁쉽 쉽</w>
▁모 듈</w>
▁오 늘</w>
▁관 계자</w>
▁강 조</w>
▁국 제</w>
▁제 외</w>
▁아 이
떻 게</w>
▁지 지</w>
전 자</w>
▁어 떻게</w>
▁가 진</w>
▁준 비</w>
자 리</w>
▁의 료</w>
전 히</w>
▁온 도</w>
▁행 동</w>
▁전 기</w>
사 회</w>
가 지</w>
▁그 림</w>
지 사</w>
▁생 활</w>
▁교 수</w>
▁> ></w>
▁의 견</w>
▁서 울
▁지 급</w>
무 원</w>
▁적 어도</w>
▁장 애</w>
▁유 사</w>
으로 서</w>
어 나</w>
▁회 로</w>
▁조 건</w>
▁적 극</w>
▁전 압</w>
▁아 직</w>
▁역 시</w>
스 터</w>
단 체</w>
니 까</w>
▁영 화</w>
▁1 3</w>
▁무 엇</w>
▁물 질</w>
▁길 길</w>
관 리</w>
▁전 문
▁입 장</w>
▁실 험</w>
텐 츠</w>
에 요</w>
▁어 렵</w>
▁공 연</w>
▁확 보</w>
▁뿐 뿐</w>
문 화</w>
한 다는</w>
▁규 제</w>
▁도 움</w>
▁~ ~</w>
▁부 담</w>
야 기</w>
▁프로세 서</w>
시 킬</w>
▁그 래
조 사</w>
▁수 사</w>
회 사</w>
▁구 분</w>
▁파 악</w>
▁감 사</w>
▁4 0</w>
▁원 인</w>
▁최 대</w>
▁제 조</w>
▁우 선</w>
▁능 력</w>
▁아 이</w>
▁조 례</w>
▁시 민</w>
▁아 닌</w>
▁보 였</w>
▁성 공</w>
▁이 야기</w>
▁1 4</w>
▁1 3
▁왔 왔</w>
▁「 「</w>
▁」 」</w>
업 자</w>
▁세 포</w>
▁1 8</w>
▁이 미</w>
활 동</w>
▁특 별</w>
▁소 비
지 역</w>
▁해 외</w>
▁안 정</w>
▁의 사</w>
▁부 족</w>
도 체</w>
▁계 산</w>
▁작 품</w>
▁에 너지</w>
▁관 찰</w>
▁제 안</w>
▁유 형</w>
▁가 정</w>
▁날 날</w>
▁반 면</w>
▁의 하</w>
▁공 동</w>
장 치</w>
▁너 무</w>
▁상 호</w>
▁예 산</w>
▁만 큼</w>
렇 게</w>
▁동 시</w>
▁행 정</w>
▁내 지</w>
▁친 구</w>
▁절 차</w>
▁전 망</w>
▁조 절</w>
6 0</w>
가 능</w>
지 원</w>
으로 부터</w>
▁작 업</w>
▁2 5</w>
기 간</w>
▁제 기</w>
▁현 실</w>
▁책 임</w>
▁바 람
▁자 리</w>
▁나타 나</w>
▁긍 정</w>
▁물 론</w>
▁초 기</w>
▁스 마
▁1 6</w>
▁운 동</w>
▁넘 넘</w>
▁몇 몇</w>
아 가</w>
▁조 정</w>
▁바람 직</w>
▁집 단</w>
▁배 우</w>
▁전 국</w>
▁전 력</w>
▁정 치</w>
▁전문 가</w>
▁상 승</w>
▁계 약</w>
마 다</w>
▁바 로</w>
▁지 정</w>
▁으 로</w>
▁너 너</w>
랜 드</w>
▁인 한</w>
▁법 률</w>
▁작 용</w>
▁집 중</w>
▁3 00</w>
동 차</w>
▁감 독</w>
▁터 치</w>
▁참 석</w>
▁고 용</w>
▁거 래</w>
▁주 변</w>
▁살펴 보</w>
▁음 악</w>
▁소비 자</w>
▁높 이</w>
▁상 품</w>
▁조 세</w>
▁접 근</w>
▁바 이
▁참 조</w>
▁검 출</w>
▁달 리</w>
동 안</w>
▁1 30</w>
▁반 도체</w>
다 가</w>
▁지 식</w>
▁근 거</w>
▁합 니다</w>
▁통 한</w>
▁제 출</w>
▁블 록</w>
소 년</w>
▁제 작</w>
▁판 매</w>
한 다고</w>
▁오 후</w>
▁거 리</w>
▁실 행</w>
▁그 녀</w>
▁현 지</w>
▁좀 좀</w>
▁분 류</w>
A A</w>
▁보 내</w>
디 어</w>
▁촬 영</w>
7 0</w>
▁입 입</w>
▁임 상</w>
▁위 원장</w>
▁표 면</w>
▁속 도</w>
산 업</w>
▁1 8
상 자</w>
▁성 과</w>
▁사 전</w>
▁개 최</w>
▁핵 심</w>
▁주 로</w>
▁대 비</w>
▁우 려</w>
▁통 계</w>
▁시 설</w>
▁제 거</w>
▁개 정</w>
▁다 르</w>
▁2 4</w>
업 체</w>
▁최 종</w>
▁선 수</w>
▁기 회</w>
▁앞 서</w>
▁방 안</w>
▁획 득</w>
▁전 통</w>
▁분 리</w>
▁검 찰</w>
▁2 1</w>
해 요</w>
▁과 거</w>
▁고 정</w>
정 책</w>
▁재 정</w>
▁마 지
▁정 확</w>
▁노 인</w>
▁감 지</w>
▁0 00</w>
▁드 러
▁방 송</w>
▁차 지</w>
▁아 래</w>
▁통 합</w>
▁떨 어
▁연 구
▁컴 퓨
▁적 절</w>
▁마지 막</w>
▁조 성</w>
▁국 회</w>
▁마 음</w>
▁전 환</w>
▁며 며</w>
▁전 략</w>
▁구 현</w>
시 지</w>
바 이스</w>
더 라도</w>
▁협 력</w>
▁역 사</w>
▁그 렇</w>
▁한 다는</w>
▁비 롯</w>
▁현 상</w>
▁거 의</w>
▁원 칙</w>
▁디 바이스</w>
▁관 점</w>
▁미 래</w>
▁신 청</w>
▁피 해</w>
워 크</w>
▁됐 됐</w>
▁질 환</w>
▁공 유</w>
▁채 널</w>
▁측 측</w>
▁이 론</w>
▁장 기</w>
▁직 원</w>
제 도</w>
▁A AA</w>
▁시 험</w>
▁위 원회</w>
▁남 성</w>
▁통 하</w>
▁공 기</w>
▁체 계</w>
▁우 수</w>
▁1 9</w>
▁스 트
▁그 러</w>
▁주 제</w>
▁설 계</w>
▁모 형</w>
▁모 드</w>
▁작 성</w>
아 요</w>
▁예 방</w>
▁최 고</w>
▁주 목</w>
연 구</w>
▁조 치</w>
▁1 7</w>
▁메 시지</w>
▁구 축</w>
기 술</w>
사 자</w>
▁금 속</w>
▁위 원</w>
▁경 쟁</w>
▁부 정</w>
▁이 루</w>
▁자 연</w>
▁나 오</w>
행 위</w>
▁청 소년</w>
▁서 버</w>
▁관 광</w>
경 제</w>
환 경</w>
▁201 8</w>
▁연 관</w>
▁201 5</w>
▁언 급</w>
▁2 2</w>
▁1 4
▁움 직
▁음 식</w>
위 기</w>
▁구 동</w>
▁신 뢰</w>
▁6 0</w>
▁가 질</w>
의 회</w>
▁눈 눈</w>
▁한 계</w>
▁도 면</w>
▁사 용자</w>
▁병 원</w>
▁인 구</w>
트 워크</w>
▁후 보</w>
▁개 별</w>
계 획</w>
▁합 의</w>
▁노 동</w>
▁단 위</w>
▁인터 넷</w>
▁혁 신</w>
▁주 택</w>
▁수 집</w>
▁자 원</w>
▁사 랑</w>
▁등 록</w>
▁문 문</w>
레 스</w>
▁201 6</w>
메 라</w>
▁교 육
럼 프</w>
▁질 문</w>
▁셀 셀</w>
▁손 손</w>
▁부 모</w>
아 야</w>
려 는</w>
▁1 5
▁트 럼프</w>
▁의 무</w>
▁힘 힘</w>
▁일 자리</w>
▁전 반</w>
▁게 임</w>
▁비 중</w>
▁검 증</w>
규 모</w>
▁보 험</w>
▁최 소</w>
▁연 령</w>
▁독 일</w>
▁신 고</w>
로 벌</w>
특 별
▁바 탕</w>
i n
생 활</w>
▁시 기</w>
케 이션</w>
▁부 산</w>
▁라 인</w>
▁권 리</w>
▁오 전</w>
▁점 수</w>
▁쓰 쓰</w>
평 가</w>
▁향 후</w>
▁팀 팀</w>
▁증 상</w>
▁단 체</w>
▁정 리</w>
▁온 온</w>
▁글 로벌</w>
려 고</w>
▁소 개</w>
젝 트</w>
디 오</w>
▁종 류</w>
동 산</w>
▁19 9
▁독 립</w>
▁네 트워크</w>
가 요</w>
▁201 7</w>
▁열 린</w>
▁영 어</w>
▁화 면</w>
이 지</w>
거 리</w>
▁프 레
▁수 출</w>
결 과</w>
▁불 구</w>
▁다 수</w>
▁무 선</w>
▁법 원</w>
▁밖 밖</w>
리 아</w>
▁자 동차</w>
▁흐 름</w>
▁인 증</w>
▁시 도</w>
▁반 복</w>
▁2 3</w>
▁시 대</w>
1 1</w>
▁카 메라</w>
▁비 판</w>
은 행</w>
▁단 말</w>
없 이</w>
▁실 질</w>
▁이 름</w>
▁과 세</w>
소 득</w>
분 석</w>
▁공 무원</w>
▁도 전</w>
대 상</w>
▁종 합</w>
▁구 매</w>
제 로</w>
▁소 속</w>
▁방 지</w>
▁알 려</w>
▁정 신</w>
▁만 족</w>
▁이 익</w>
▁노 출</w>
단 계</w>
▁콘 텐츠</w>
▁만 나</w>
개 발</w>
▁형 상</w>
▁사 망</w>
▁시 점</w>
▁못 못</w>
준 다</w>
▁식 식</w>
▁잡 잡</w>
▁결 국</w>
▁구 비</w>
▁여 전히</w>
▁실 제로</w>
해 자</w>
▁보 도</w>
고 서</w>
▁주 주</w>
▁상 관</w>
▁업 체</w>
▁농 도</w>
특별 시</w>
▁이루어 지</w>
▁발 광</w>
▁유 기</w>
▁글 글</w>
▁중 앙</w>
▁각 종</w>
터 리</w>
▁이 제</w>
▁혐 의</w>
▁여 행</w>
▁이 렇게</w>
▁어려 움</w>
지 털</w>
▁팬 팬</w>
▁응 답</w>
▁연 장</w>
▁나 라</w>
▁기 여</w>
▁외 국인</w>
▁주 식</w>
▁해 야</w>
▁당 뇨
소 리</w>
라 이
▁씨 씨</w>
▁컴퓨 터</w>
▁가 스</w>
▁그 런</w>
▁한 국
공 사</w>
▁부 재</w>
▁부 동산</w>
▁5 00</w>
▁역 량</w>
▁반 대</w>
▁민 간</w>
▁보 장</w>
까 요</w>
▁이 내</w>
▁어 린
▁아 동</w>
▁디 지털</w>
▁읽 읽</w>
▁범 죄</w>
▁이 뤄
▁신 체</w>
▁유 도</w>
처 리</w>
이 크</w>
플 리
▁확 장</w>
▁1 50</w>
▁선 행</w>
자 인</w>
▁패 널</w>
▁혹 은</w>
▁과 제</w>
▁차 원</w>
▁이 때</w>
▁수 요</w>
▁남 북</w>
▁초 초</w>
▁못 했</w>
▁수 익</w>
▁보 유</w>
▁온 라인</w>
▁게 이트</w>
▁논 란</w>
▁회 장</w>
법 원</w>
▁조 금</w>
기 준</w>
C C</w>
낸 다</w>
▁3 1</w>
도 시</w>
▁어려 운</w>
▁직 무</w>
▁과 학</w>
▁별 도</w>
▁소 자</w>
▁노 동
구 조</w>
▁인 지</w>
▁소 비</w>
회 담</w>
▁적 합</w>
▁전 류</w>
▁담 당</w>
▁장 관</w>
스 로</w>
▁지 방
▁아 니
▁사 이
▁수 치</w>
▁끝 끝</w>
플리 케이션</w>
▁회 의</w>
▁경 영</w>
▁표 준</w>
▁당뇨 병</w>
▁직 업</w>
▁상 부</w>
▁겪 겪</w>
▁보 여
위 원장</w>
▁인 사</w>
▁회 전</w>
▁인 기</w>
▁인 상</w>
▁경 로</w>
소 기업</w>
▁태 도</w>
▁확 산</w>
▁하 지만</w>
▁상 당</w>
▁체 험</w>
▁허 용</w>
▁책 책</w>
방 법</w>
▁도 지사</w>
▁전 원</w>
자 치</w>
▁입 자</w>
▁부 과</w>
세 포</w>
▁스 스로</w>
인 데</w>
▁헌 법</w>
▁심 각</w>
호 사</w>
1 2</w>
로 자</w>
복 지</w>
▁재 료</w>
▁2 7</w>
▁정 말</w>
▁수 정</w>
요 일</w>
▁논 문</w>
▁뜻 뜻</w>
▁감 염</w>
▁예 술</w>
▁시 각</w>
a t
▁대 신</w>
▁감 정</w>
▁돈 돈</w>
▁난 난</w>
▁경 향</w>
▁하 부</w>
▁은 행</w>
밖 에</w>
교 사</w>
▁1 40</w>
대 표</w>
▁통 제</w>
서 비스</w>
▁공 공</w>
▁2 6</w>
조 제</w>
▁걸 걸</w>
▁폭 폭</w>
▁가 까
▁무 역</w>
▁영 국</w>
▁중 소기업</w>
▁2 10</w>
는 가</w>
▁레 이
▁주 문</w>
▁프레 임</w>
페 이스</w>
효 과</w>
▁더 불</w>
와 대</w>
▁청 와대</w>
▁서울 특별시</w>
아 서</w>
▁장 소</w>
▁위 반</w>
▁새 새</w>
보 험</w>
▁자 녀</w>
▁자 본</w>
▁심 사</w>
▁소 재</w>
▁판 결</w>
▁2 8</w>
▁정 하</w>
▁변 환</w>
▁미 리</w>
▁가 져
지 스터</w>
▁양 성</w>
▁청 구</w>
▁자 율</w>
작 용</w>
▁심 의</w>
▁행 복</w>
▁7 0</w>
▁: :</w>
▁나 왔</w>
▁현 대</w>
시 켜</w>
▁최 초</w>
▁못 한</w>
▁관 광
▁트 랜
▁4 00</w>
▁추 출</w>
▁유 럽</w>
▁두 께</w>
주 택</w>
라 마</w>
▁규 칙</w>
▁남 자</w>
▁수 용</w>
러 스</w>
▁늘 늘</w>
▁가 구</w>
▁라 고</w>
▁대 화</w>
▁재 산</w>
▁승 인</w>
벤 트</w>
▁한 다고</w>
▁질 병</w>
▁등 장</w>
▁대 체</w>
▁단 순</w>
스 크</w>
e r
▁의 혹</w>
▁배 터리</w>
▁공 식</w>
▁건 물</w>
▁하 루</w>
▁통 과</w>
▁언 어</w>
위 원</w>
▁지 도</w>
▁증 거</w>
▁채 채</w>
▁도 출</w>
▁디 자인</w>
▁나 누</w>
▁종 양</w>
▁연 속</w>
▁선 선</w>
▁소 송</w>
▁수 립</w>
▁미 만</w>
▁몸 몸</w>
0 1</w>
▁주 관</w>
물 질</w>
▁피 해자</w>
▁브 랜드</w>
a n
▁부 여</w>
▁배 경</w>
네 요</w>
▁스 위
주 당</w>
린 다</w>
▁호 텔</w>
▁맡 맡</w>
웨 어</w>
▁저 희</w>
▁의 도</w>
자 자</w>
변 수</w>
▁초 등</w>
▁참 가</w>
▁연 계</w>
▁달 성</w>
▁달 라
▁성 격</w>
▁여 자</w>
온 다</w>
그 룹</w>
▁돌 아
비 용</w>
▁이 벤트</w>
▁확 정</w>
e n
라 면</w>
▁충 전</w>
▁대 상자</w>
기 물</w>
▁가 상</w>
▁201 4</w>
▁취 업</w>
▁체 결</w>
▁항 목</w>
▁품 질</w>
사 항</w>
▁무 대</w>
▁대 한
머 니</w>
▁인터 페이스</w>
▁자 산</w>
▁특 수</w>
▁일 상</w>
투 자</w>
파 트</w>
▁8 0</w>
▁동 기</w>
▁도 로</w>
▁임 금</w>
▁수 입</w>
▁완 화</w>
▁완 료</w>
▁제 대로</w>
▁접 촉</w>
▁영 업</w>
회 의</w>
▁어 디</w>
▁복 합</w>
▁추 천</w>
▁건 설</w>
▁회 복</w>
▁문 제
말 기</w>
▁작 동</w>
▁압 력</w>
▁고 등
▁근 무</w>
▁생 존</w>
합 물</w>
2 1</w>
▁인 하</w>
만 큼</w>
▁음 성</w>
▁+ +</w>
방 향</w>
▁대 출</w>
▁1 6
▁비 슷</w>
려 면</w>
▁손 해</w>
▁교 과
a r
▁배 출</w>
▁저 항</w>
▁복 지</w>
▁발 달</w>
능 력</w>
▁나타 낸다</w>
▁설 립</w>
▁분 포</w>
▁그 동안</w>
▁버 스</w>
▁근 로자</w>
▁청 년</w>
▁유 발</w>
▁찾 아
▁법 인</w>
▁중 간</w>
▁얼 마
찬 가지</w>
른 다</w>
▁단 일</w>
▁마 찬가지</w>
▁전 화</w>
했 으며</w>
▁왜 왜</w>
▁알려 져</w>
▁객 체</w>
▁분 위기</w>
▁내 년</w>
▁화 학</w>
▁에 는</w>
파 수</w>
▁보 조</w>
▁얼마 나</w>
▁다 루</w>
연 구
▁단 말기</w>
▁기 억</w>
0 00</w>
결 정</w>
▁본 격</w>
▁마 을</w>
▁장 점</w>
▁도 구</w>
e r</w>
▁기 획</w>
▁정 당</w>
히 려</w>
시 킨
▁기 계</w>
▁결 론</w>
▁이 르</w>
▁오 히려</w>
학 년</w>
▁진 로</w>
▁상 당
▁공 부</w>
학 자</w>
▁피 부</w>
▁누 구</w>
▁충 분</w>
▁중 단</w>
▁식 별</w>
동 체</w>
▁인 천</w>
▁프로 젝트</w>
▁약 물</w>
▁사 유</w>
▁문제 점</w>
자 료</w>
신 부</w>
▁스마 트</w>
▁결 제</w>
▁라 는</w>
▁차 별</w>
▁동 의</w>
▁재 판</w>
▁지 표</w>
▁취 소</w>
병 원</w>
▁방 사
▁만 든</w>
분 히</w>
▁형 식</w>
▁일 치</w>
▁보 안</w>
바 일</w>
학 습</w>
▁모 르</w>
▁2 9</w>
▁갈 등</w>
▁심 리</w>
어 난</w>
▁상 담</w>
▁드 라마</w>
난 다</w>
▁축 제</w>
▁위 탁</w>
▁거 쳐</w>
▁주 파수</w>
▁움직 임</w>
▁기 기</w>
▁모 바일</w>
▁매 년</w>
▁테 스트</w>
임 금</w>
▁해 요</w>
▁빠 르</w>
▁구 간</w>
o n</w>
계 약</w>
거 래</w>
영 상</w>
▁편 편</w>
▁유 리</w>
▁연구 자</w>
▁타 당</w>
▁만 약</w>
▁카 드</w>
▁수 단</w>
▁이 외</w>
시 켰</w>
▁스 타
▁소 리</w>
▁절 연</w>
▁항 상</w>
▁불 법</w>
▁유 닛</w>
▁스마 트
가 치</w>
▁충 분히</w>
▁러 시아</w>
▁자 동</w>
▁올 올</w>
▁어린 이</w>
▁놓 놓</w>
▁구 성
▁트랜 지스터</w>
▁어 떠</w>
▁주 도</w>
▁통 해서</w>
▁_ _</w>
▁초 점</w>
▁최 최</w>
스 러
▁보 상</w>
다 며</w>
▁언 제</w>
레 이
▁필 터</w>
▁보여 준다</w>
▁입 법</w>
▁아 무
▁기 자</w>
▁자 금</w>
▁레 벨</w>
검 사</w>
▁협 상</w>
▁하 위</w>
▁교과 서</w>
▁관 객</w>
o r
▁이 어</w>
▁성 능</w>
▁나타 낸</w>
▁프 랑
영 역</w>
▁초 과</w>
▁2 20</w>
▁이어 지</w>
▁암 암</w>
▁금 액</w>
▁근 로</w>
▁넣 넣</w>
▁아 파트</w>
▁기 타</w>
장 애</w>
▁하 락</w>
▁교 과</w>
▁예 시</w>
▁느 끼</w>
▁줄 어
예 요</w>
▁그 대로</w>
▁201 9</w>
▁위 기</w>
됩 니다</w>
▁훈 련</w>
▁스마트 폰</w>
인 가</w>
▁나 온다</w>
체 계</w>
▁베 트
▁물 리</w>
▁센 터</w>
▁대 회</w>
▁연 극</w>
▁서 브</w>
병 증</w>
l e</w>
▁확 률</w>
▁9 0</w>
▁억 제</w>
▁신 장</w>
▁광 고</w>
▁신 규</w>
▁금 지</w>
▁지 시</w>
▁유 명</w>
스 럽</w>
▁다 소</w>
▁알려 졌</w>
▁소 통</w>
▁전 해
▁삼 성</w>
▁홍 보</w>
▁보 건</w>
▁점 검</w>
▁자 주</w>
▁개 방</w>
시 스템</w>
드 시</w>
▁본 다</w>
차 원</w>
▁주 체</w>
▁종 료</w>
▁나 아가</w>
한 다면</w>
▁힘 들</w>
▁실 천</w>
▁복 잡</w>
▁명 확</w>
▁선 거</w>
▁길 이</w>
였 으며</w>
▁도 덕</w>
해 도</w>
▁보 완</w>
▁반 드시</w>
▁보 고서</w>
▁표 본</w>
▁인 력</w>
▁베트 남</w>
8 0</w>
▁협 의</w>
▁코 드</w>
▁줄 이</w>
민 국</w>
▁참 가
▁노 드</w>
▁평 화</w>
▁대 형</w>
▁스트 레스</w>
▁면 역</w>
▁광 주</w>
▁1 7
방 식</w>
▁증 명</w>
대 회</w>
▁보 험
터 링</w>
▁수 지</w>
▁암 호</w>
2 2</w>
▁투 입</w>
▁개 시</w>
▁기 다
▁조 합</w>
▁발 발</w>
▁깊 깊</w>
▁201 3</w>
▁도 착</w>
부 모</w>
▁불 편</w>
▁필 수</w>
▁잘 못</w>
사 고</w>
▁지 수</w>
▁자 세</w>
▁창 업</w>
▁노 래</w>
▁명 령</w>
▁18 0</w>
의 원</w>
▁지난 달</w>
▁지 연</w>
▁항 항</w>
▁쪽 쪽</w>
▁진 출</w>
▁세 부</w>
▁권 한</w>
리 즘</w>
립 니다</w>
▁스 크
▁알 아
▁산 출</w>
가 격</w>
▁검 색</w>
▁참가 자</w>
운 드</w>
요 소</w>
▁듣 듣</w>
본 부</w>
▁이 행</w>
▁샘 플</w>
▁논 리</w>
▁연 락</w>
▁당 사자</w>
▁악 화</w>
집 단</w>
▁집 행</w>
▁올 라
▁송 신</w>
▁촉 진</w>
▁만 성</w>
운 동</w>
▁소 스</w>
재 인</w>
▁목 소리</w>
▁창 출</w>
▁삼 성
으 므로</w>
부 재</w>
▁아 시아</w>
▁실 현</w>
▁달 러</w>
▁수 도</w>
▁별 지</w>
▁빔 빔</w>
▁대 중</w>
▁언 론</w>
스 트
▁전 혀</w>
▁경 쟁
▁H CC</w>
▁임 의</w>
o n
▁추 적</w>
▁전 했</w>
▁연 기</w>
▁프랑 스</w>
▁얼 굴</w>
▁섬 유</w>
▁상 이</w>
▁보 수</w>
▁훨 씬</w>
▁나 가</w>
▁지 출</w>
▁함 함</w>
▁입 원</w>
▁커 버</w>
▁예 비</w>
▁F i
▁한 류</w>
▁로 부터</w>
이 익</w>
▁공 격</w>
▁개 입</w>
▁유 입</w>
무 자</w>
공 간</w>
미 터</w>
백 질</w>
▁추 세</w>
▁손 상</w>
▁만 드</w>
▁도 내</w>
▁대한 민국</w>
통 신</w>
▁짧 짧</w>
N A</w>
시킨 다</w>
▁형 사</w>
리 학</w>
▁고 민</w>
음 파</w>
▁성 인</w>
▁희 망</w>
▁들어 가</w>
▁유 용</w>
▁부 문</w>
▁미 칠</w>
교 육
▁기 재</w>
수 준</w>
▁둘 둘</w>
▁대 책</w>
▁10 1</w>
▁모 니
▁성 분</w>
사 장</w>
▁풀 풀</w>
▁열 리</w>
상 태</w>
▁완 전히</w>
▁성 별</w>
▁소 유</w>
▁미 술</w>
먼 지</w>
▁교 통</w>
▁외 국</w>
▁생 체</w>
▁변 형</w>
▁믿 믿</w>
▁둘 러
▁내 일</w>
▁투 자자</w>
▁요 건</w>
▁비 트</w>
▁거 주</w>
▁& &</w>
▁본 인</w>
▁나 머
▁플 랫</w>
▁인 근</w>
▁나머 지</w>
▁음 음</w>
▁공 통</w>
▁다 이
▁함 수</w>
▁전 면</w>
▁미 디어</w>
▁동 물</w>
i t
▁처 분</w>
▁변 동</w>
▁관 하</w>
▁불 과</w>
▁가 수</w>
성 장</w>
이 블</w>
▁강 한</w>
지 국</w>
서 관</w>
게 요</w>
▁일 으
▁양 자</w>
▁나 노</w>
▁조 작</w>
▁최 적</w>
▁운 용</w>
▁20 00</w>
▁조 선</w>
▁문 재인</w>
▁선 호</w>
반 기</w>
▁통 일</w>
▁수 소</w>
▁유 통</w>
▁년 년</w>
인 트</w>
▁합 리</w>
▁일 어나</w>
▁생 생</w>
체 인</w>
▁완 전</w>
세 대</w>
▁넓 넓</w>
1 3</w>
▁빛 빛</w>
▁단 지</w>
컨 대</w>
▁매 체</w>
▁투 명</w>
▁이 곳</w>
▁신 경</w>
핵 화</w>
▁예 약</w>
▁I C
▁장 면</w>
▁의 심</w>
▁성 적</w>
▁비 핵화</w>
▁내 려
▁처 벌</w>
▁민 주</w>
▁1 60</w>
▁흥 미</w>
▁문 항</w>
▁대 안</w>
▁관광 객</w>
▁받 아
▁통 화</w>
▁로 봇</w>
▁인 권</w>
▁토 대</w>
▁3 2</w>
습 니까</w>
▁2 3
▁화 소</w>
▁해 서</w>
▁의 지</w>
▁통 증</w>
레 이트</w>
▁찍 찍</w>
성 물</w>
▁실 패</w>
▁= =</w>
▁중 구</w>
▁취 득</w>
버 지</w>
▁결 혼</w>
▁스 스</w>
▁갈 갈</w>
▁3 5</w>
▁기 사</w>
문 제</w>
▁사 업자</w>
▁실 무</w>
▁합 병증</w>
▁세 상</w>
을 수록</w>
▁소 프
▁계 기</w>
▁201 2</w>
▁혈 청</w>
▁주 어
▁채 용</w>
▁유 효</w>
▁시 사</w>
자 원</w>
▁오 래</w>
▁출 신</w>
우 징</w>
범 위</w>
▁산 산</w>
▁공 사</w>
i n</w>
▁전 시</w>
▁지 점</w>
▁받아 들
▁컨 트
▁나 이</w>
▁참 참</w>
▁대 사</w>
▁단 백질</w>
▁이 사</w>
▁투 여</w>
▁차 례</w>
▁신 용</w>
▁블 록
▁구 속</w>
▁스 테
▁초 음파</w>
▁장 비</w>
▁사 업
족 도</w>
▁기 지국</w>
▁보 통</w>
▁발 행</w>
1 5</w>
▁유 동</w>
▁염 증</w>
▁수 직</w>
▁가 이드</w>
에 선</w>
▁해 소</w>
▁배 제</w>
▁강 도</w>
▁강 력</w>
▁납 부</w>
포 츠</w>
질 환</w>
▁작 가</w>
▁얘 기</w>
▁가 입</w>
▁상당 히</w>
▁운 전</w>
▁말 씀</w>
▁접 속</w>
▁인 도</w>
▁첫 째</w>
▁저 하</w>
▁마 이크</w>
▁침 해</w>
▁참 고</w>
확 히</w>
역 시</w>
▁지 배</w>
▁패 드</w>
가 스</w>
▁아 주</w>
▁입 증</w>
▁선 보
▁서울 시</w>
▁취 지</w>
▁금 리</w>
▁됩 니다</w>
▁201 0</w>
▁유 의
▁맥 락</w>
▁교 환</w>
▁정 서</w>
▁삽 입</w>
협 회</w>
우 스</w>
▁토 지</w>
으 니</w>
▁블록 체인</w>
▁화 합물</w>
▁폐 폐</w>
지 방</w>
기 능</w>
▁공 장</w>
달 러</w>
▁제 재</w>
▁학 부모</w>
▁추 구</w>
▁늦 늦</w>
드 리</w>
▁이 용자</w>
▁밤 밤</w>
▁접 수</w>
▁인 가</w>
▁이 끌</w>
지 수</w>
발 전</w>
▁채 권</w>
▁아 름
▁고등 학교</w>
▁간 주</w>
▁회 계</w>
▁제 주</w>
▁꿈 꿈</w>
▁인 물</w>
▁유 전자</w>
랍 니다</w>
▁라 이
▁듯 듯</w>
▁설 문</w>
▁파 일</w>
▁둘 째</w>
▁충 격</w>
연 금</w>
▁중 재</w>
권 자</w>
▁의 존</w>
화 물</w>
신 호</w>
▁재 생</w>
▁실 적</w>
▁부 위</w>
▁생 명</w>
▁의 식</w>
▁대 기</w>
▁견 해</w>
▁분 산</w>
▁예 컨대</w>
▁기 금</w>
듯 이</w>
협 력</w>
행 사</w>
바 이
▁혈 관</w>
▁안 내</w>
▁인터 뷰</w>
▁걱 정</w>
▁미 세
▁깊 이</w>
▁강 제</w>
0 2</w>
제 품</w>
▁계 층</w>
▁취 약</w>
▁충 족</w>
▁3 10</w>
자 체</w>
▁손 실</w>
▁노동 자</w>
▁보 고</w>
▁동 반</w>
▁순 순</w>
▁구성 원</w>
기 구</w>
▁발 현</w>
치 원</w>
▁한국 어</w>
법 인</w>
자 금</w>
▁분 할</w>
▁바 랍니다</w>
▁기 울
▁이 온</w>
주 도</w>
금 융</w>
▁화 재</w>
▁출 시</w>
▁재 발</w>
▁자 치</w>
회 장</w>
▁후 속</w>
▁통 상</w>
▁미세 먼지</w>
▁이 식</w>
드 백</w>
▁사 법</w>
▁면 적</w>
재 산</w>
▁완 성</w>
심 사</w>
▁교 류</w>
절 차</w>
은 데</w>
▁전 제</w>
▁자 극</w>
▁국 토</w>
▁혼 합</w>
▁준 준</w>
▁머 리</w>
스 테
산 물</w>
▁매 출</w>
▁걸 쳐</w>
1 4</w>
▁업 계</w>
▁폐 기물</w>
▁픽 셀</w>
▁점 차</w>
a s
▁회 원</w>
▁홈 홈</w>
국 당</w>
▁실 리
▁식 품</w>
▁선 박</w>
▁해 도</w>
요 인</w>
▁명 시</w>
▁1 70</w>
정 상</w>
▁주 기</w>
▁젊 젊</w>
▁선 발</w>
▁사 무
▁문 서</w>
주 민</w>
▁지방 세</w>
▁실 증</w>
▁스 토
▁분 명</w>
▁차 단</w>
▁물 건</w>
득 세</w>
▁혈 액</w>
▁한 정</w>
▁용 어</w>
▁하 우징</w>
▁조 기</w>
▁방 침</w>
▁거 부</w>
N S</w>
▁부 품</w>
▁경쟁 력</w>
라 며</w>
프 로
부 서</w>
▁반 사</w>
▁10 00</w>
▁동 영상</w>
▁대 법원</w>
▁전 공</w>
▁특 별
▁용 량</w>
▁커 지</w>
▁절 대</w>
주 시</w>
▁사 라
▁나 섰</w>
▁저 녁</w>
▁불 안</w>
조 정</w>
▁빠 른</w>
▁부 상</w>
처 분</w>
▁적 응</w>
▁육 성</w>
▁애 플리케이션</w>
▁그 럼</w>
▁제 정</w>
▁방사 선</w>
▁지 나
슐 린</w>
세 기</w>
▁타 이
▁그래 서</w>
▁201 1</w>
▁지 나</w>
▁서 류</w>
▁갖 추</w>
장 관</w>
▁취 하</w>
▁혹 시</w>
▁플 라
▁전 부</w>
▁맞 추</w>
▁강 강</w>
책 임</w>
▁채 택</w>
▁코 팅</w>
▁민 감</w>
▁관 측</w>
카 드</w>
반 도</w>
▁2 30</w>
▁체 중</w>
▁출 연</w>
▁변 호사</w>
▁그 렇게</w>
▁학 업</w>
▁창 의</w>
구 역</w>
▁피 드백</w>
▁탐 색</w>
▁오 른
a l
페 인</w>
▁극 복</w>
▁한 국인</w>
▁발 언</w>
▁모니 터링</w>
r o
▁현 행</w>
트 웨어</w>
▁진 술</w>
▁정 체</w>
▁인 슐린</w>
▁교 체</w>
a b
입 자</w>
▁조 성물</w>
▁인 공
▁숫 자</w>
▁골 절</w>
조 건</w>
▁이루어 질</w>
▁모 양</w>
▁고 유</w>
▁강 하</w>
예 술</w>
▁승 리</w>
▁사 장</w>
▁미 세</w>
▁전 술</w>
▁순 간</w>
스 타</w>
▁대 구</w>
▁그래 프</w>
보 호</w>
안 전</w>
는 다는</w>
▁소프 트웨어</w>
▁국 무</w>
▁가 르
고 리즘</w>
▁컨 텐츠</w>
▁최 저</w>
▁세 금</w>
해 진</w>
▁시 즌</w>
▁순 서</w>
▁부 착</w>
광 역시</w>
▁장 착</w>
▁편 의</w>
▁앱 앱</w>
▁공 동체</w>
▁강 원
▁지 위</w>
▁전 이</w>
롤 러</w>
▁필 름</w>
▁선 생</w>
▁개 혁</w>
된 다는</w>
▁주 행</w>
▁냉 각</w>
▁선 물</w>
▁알 고리즘</w>
▁페 이
▁약 속</w>
▁200 9</w>
▁전 지</w>
▁밝 혀
▁그 런
으 면서</w>
▁한 반도</w>
페 이지</w>
▁소 식</w>
스러 운</w>
대 학</w>
▁초 래</w>
▁불 리</w>
▁부 탁</w>
▁경 계</w>
▁간 격</w>
서 식</w>
▁아 침</w>
▁골 골</w>
▁치 료
단 지</w>
▁휴 대</w>
져 야</w>
▁칩 칩</w>
▁선 고</w>
▁혜 택</w>
▁판 례</w>
▁인 접</w>
폭 력</w>
▁부 당</w>
▁늘 어나</w>
▁징 수</w>
▁북 미</w>
조 금</w>
▁사 안</w>
▁빨 리</w>
티 브</w>
▁프 리
▁만 족도</w>
B S</w>
▁보 존</w>
▁흡 수</w>
▁웹 웹</w>
▁아 버지</w>
▁자 격</w>
▁바이 러스</w>
자 기</w>
▁지 사</w>
▁계 수</w>
대 학교</w>
▁빈 도</w>
▁부 작용</w>
조 직</w>
공 무원</w>
▁앞 두</w>
상 품</w>
▁도 와</w>
된 다고</w>
▁6 00</w>
▁3 3</w>
▁해 제</w>
▁일 단</w>
▁삼성 전자</w>
우 드</w>
다 운</w>
▁축 소</w>
▁제 약</w>
▁T V</w>
▁텍 스트</w>
▁주 의</w>
데 이터</w>
▁잠 재</w>
▁위 촉</w>
▁어 플리케이션</w>
▁벌 어
▁개 수</w>
행 정</w>
▁진 입</w>
▁] ]</w>
▁충 돌</w>
▁[ [</w>
▁균 형</w>
재 단</w>
▁지 능</w>
▁아이 디어</w>
▁속 성</w>
▁요 법</w>
업 무</w>
▁연 간</w>
스 틱</w>
▁전 개</w>
▁성 립</w>
▁매 개</w>
▁마 치</w>
▁렌 즈</w>
▁정 기</w>
▁상 술</w>
버 스</w>
분 기</w>
▁얼 마</w>
▁바 람</w>
▁허 가</w>
▁잃 잃</w>
2 5</w>
수 료</w>
▁대 학생</w>
▁보 관</w>
▁화 장
▁N A
테 나</w>
▁새 롭</w>
당 국</w>
▁활 발</w>
▁파 라
e s
한 테</w>
▁소 정</w>
▁4 5</w>
▁B M
a c
향 력</w>
포 르</w>
분 야</w>
▁지 침</w>
▁유의 미</w>
▁양 상</w>
▁메 뉴</w>
▁따 로</w>
▁돕 돕</w>
▁기 법</w>
▁곧 곧</w>
a l</w>
▁임 신</w>
▁인 쇄</w>
▁의 료
▁순 환</w>
▁인 수</w>
▁실 내</w>
▁내 리</w>
로 써</w>
▁유 일</w>
▁공 감</w>
▁11 2</w>
연 막</w>
공 원</w>
▁본 질</w>
무 리</w>
▁단 어</w>
지 능</w>
안 정</w>
▁현 금</w>
▁권 고</w>
▁국 립</w>
▁교 회</w>
▁인 천
▁영 향력</w>
▁무 료</w>
▁일 어
▁소 요</w>
▁센 싱</w>
유 자</w>
▁였 였</w>
▁산 정</w>
▁경 영
금 리</w>
▁토 론</w>
▁오 류</w>
▁스크 린</w>
▁프 로</w>
▁원 리</w>
▁배 선</w>
조 합</w>
▁괜 찮</w>
▁수 상</w>
▁섭 취</w>
▁알려 진</w>
자 산</w>
▁관 리
직 원</w>
▁탄 소</w>
▁이 동
▁원 고</w>
▁요 즘</w>
▁민 주당</w>
을 까요</w>
▁택 시</w>
▁조 항</w>
▁재 난</w>
▁세 대</w>
▁경 력</w>
정 안</w>
▁용 이</w>
정 식</w>
데 요</w>
▁어 제</w>
▁사 무</w>
▁나 온</w>
▁홀 홀</w>
▁지 문</w>
▁안 테나</w>
▁바 꾸</w>
▁극 극</w>
내 용</w>
▁맺 맺</w>
▁경 남</w>
▁합 성</w>
니 즘</w>
▁버 퍼</w>
▁레이 저</w>
케 팅</w>
시 경</w>
문 화
▁진 동</w>
▁시 절</w>
▁경 제
▁건 조</w>
▁감 안</w>
▁지 자체</w>
▁산 화</w>
을 지</w>
▁스위 치</w>
의 료</w>
▁특 허</w>
▁맛 맛</w>
▁과 목</w>
2 3</w>
▁긴 긴</w>
▁이 슈</w>
▁역 역</w>
i c
▁스 타</w>
▁도 달</w>
을 까</w>
대 한</w>
▁마 무리</w>
의 식</w>
▁Fi g</w>
L D</w>
▁농 업</w>
드 립니다</w>
▁자 살</w>
니 스</w>
▁마 이
▁부 인</w>
▁문 자</w>
후 군</w>
▁어 머니</w>
▁구 별</w>
T V</w>
▁졸 업</w>
D M</w>
▁평 생</w>
▁주 거</w>
▁바 라
▁인 공</w>
▁형 법</w>
▁세 무</w>
▁넘 어
회 피</w>
▁현 황</w>
▁절 반</w>
▁메 인</w>
뮤 니
▁핵 핵</w>
▁나 서</w>
▁근 본</w>
▁가 진다</w>
▁4 10</w>
▁3 20</w>
환 기</w>
거 운</w>
▁연 료</w>
수 단</w>
▁스 포츠</w>
u r
e t
소 송</w>
▁하 나
▁엄 마</w>
▁간 단</w>
▁백 백</w>
▁종 교</w>
▁임 시</w>
▁리 리</w>
▁각 도</w>
청 자</w>
1 6</w>
▁S NS</w>
▁6 5</w>
레 이션</w>
▁진 정</w>
▁밝 히</w>
기 기</w>
▁직 장</w>
▁점 점</w>
▁범 주</w>
▁축 구</w>
▁총 리</w>
▁모 집</w>
▁내 놓</w>
▁주 입</w>
▁멤 버</w>
▁구 하</w>
▁19 8
▁춤 춤</w>
▁엔 진</w>
0 3</w>
프 라</w>
▁컨트 롤러</w>
▁사 망
▁A I</w>
규 정</w>
▁사 후</w>
▁문 화
▁매 일</w>
▁돼 돼</w>
▁운 행</w>
▁봤 봤</w>
▁모 터</w>
▁간 접</w>
▁신 속</w>
스 토
속 도</w>
리 어</w>
▁생 기</w>
▁과 도</w>
▁3 6</w>
리 오</w>
▁실 실</w>
▁홍 콩</w>
▁개 편</w>
주 자</w>
리 지</w>
▁여 름</w>
이 사</w>
위 험</w>
▁체 제</w>
▁상 위</w>
▁나타 난다</w>
▁매 력</w>
▁다 중</w>
▁지 향</w>
▁정 비</w>
in g</w>
조 군</w>
▁바 뀌</w>
▁순 위</w>
▁딸 딸</w>
▁단 순
▁알 리</w>
▁실 시간</w>
▁스 피
▁타 인</w>
▁나타 난</w>
▁H B
▁융 합</w>
▁윤 리</w>
▁버 튼</w>
▁경 북</w>
▁프로세 스</w>
▁성 향</w>
장 부</w>
의 자</w>
▁출 발</w>
▁인 자</w>
▁월 월</w>
▁연 산</w>
▁떨어 지</w>
▁갔 갔</w>
▁폴 리
평 등</w>
시 험</w>
▁지 하
▁상 장</w>
기 에</w>
▁형 형</w>
▁독 자</w>
1 9</w>
▁부 채</w>
▁강원 도</w>
▁새 로</w>
▁느 낌</w>
▁가 열</w>
게 서</w>
▁하 이
▁조 명</w>
▁옷 옷</w>
▁약 간</w>
시 대</w>
▁답 변</w>
▁인공 지능</w>
▁위 협</w>
▁오 디오</w>
▁단순 히</w>
경 기</w>
▁빅 빅</w>
▁동 료</w>
▁가까 운</w>
▁11 1</w>
워 드</w>
▁혼 자</w>
▁폐 지</w>
▁방 출</w>
▁적 정</w>
▁늘 어
▁아 들</w>
▁식 사</w>
▁베 이스</w>
▁그런 데</w>
에 게서</w>
▁커 뮤니
▁발 굴</w>
▁용 액</w>
▁2 5
모 형</w>
▁3 4</w>
▁단 독</w>
▁2 50</w>
▁덧 붙
▁교 통
▁출 산</w>
▁성 취</w>
▁모 색</w>
연구 원</w>
▁첨 부</w>
▁의 장</w>
▁단 기</w>
▁여 러
▁200 8</w>
▁홈 페이지</w>
▁촉 매</w>
▁등 급</w>
참 여</w>
▁근 육</w>
세 히</w>
▁남 편</w>
▁검 정</w>
소 통</w>
▁배 송</w>
치 료</w>
▁페 이지</w>
▁케 이스</w>
▁이뤄 지
▁실리 콘</w>
▁4 2</w>
▁공 시</w>
1 7</w>
▁원 래</w>
▁소 수</w>
등 급</w>
▁운 전자</w>
▁무 기</w>
▁산 소</w>
▁광 학</w>
용 량</w>
변 인</w>
▁평 면</w>
▁유 출</w>
▁뉴 욕</w>
▁감 시</w>
변 화</w>
▁물 품</w>
▁가 설</w>
리 그</w>
▁사 실
i on</w>
▁심 장</w>
▁상 세</w>
e l
화 폐</w>
민 주당</w>
▁벗 어나</w>
준 히</w>
과 장</w>
▁바이 오</w>
▁꾸 준히</w>
▁C T</w>
합 체</w>
▁파라 미터</w>
▁미 친
C D</w>
▁코 일</w>
연 히</w>
▁증 진</w>
▁주 소</w>
3 1</w>
널 드</w>
▁출 석</w>
▁오른 쪽</w>
조 치</w>
이 프</w>
가 포르</w>
▁관 통</w>
셔 서</w>
관 리
▁줄어 들</w>
▁우 울</w>
구 성</w>
▁올 리</w>
▁5 2</w>
가 족</w>
시 민</w>
▁풍 부</w>
▁포 괄</w>
▁전 년</w>
▁사 상</w>
▁고 통</w>
비 율</w>
o l
시 킨</w>
대 책</w>
▁커 피</w>
▁일 관</w>
▁스 케
▁불 가
▁플 레이트</w>
▁자 문</w>
▁시 청</w>
혁 명</w>
지 도</w>
▁시 선</w>
과 학</w>
가 락</w>
▁실 정</w>
▁보 호
▁보 정</w>
▁도 민</w>
▁여러 분</w>
▁연 방</w>
▁싱 가포르</w>
▁다 가
▁곡 선</w>
▁가 계</w>
ab le</w>
▁중 학교</w>
▁비 례</w>
▁배 열</w>
B C</w>
▁현 대
▁문 헌</w>
2 4</w>
각 형</w>
▁생 태</w>
▁묻 묻</w>
▁최 선</w>
▁앉 앉</w>
심 히</w>
▁지 분</w>
▁유 체</w>
▁틀 틀</w>
▁주 가</w>
▁마 케팅</w>
▁공 항</w>
▁호 흡</w>
▁할 인</w>
▁김 정
사 관</w>
▁파 장</w>
▁정 지</w>
▁맞 춤</w>
▁대 체
▁하나 님</w>
▁오 염</w>
▁시 행
▁도 널드</w>
확 실</w>
건 강</w>
▁셈 셈</w>
▁국 내
험 자</w>
에 너지</w>
▁컬 러</w>
▁제 조
▁임 기</w>
▁이 란</w>
▁안 전
▁가 공</w>
▁옆 옆</w>
금 액</w>
▁호 주</w>
▁브 라
▁마 스크</w>
▁C O
▁강 의</w>
제 술</w>
▁분 쟁</w>
생 산</w>
▁요 약</w>
▁포 인트</w>
▁이루어 진</w>
▁아 울
의 무</w>
▁흡 연</w>
▁회 피</w>
▁노 조</w>
웨 이</w>
▁즉 시</w>
▁상 법</w>
▁편 리</w>
▁자 발</w>
▁사 이트</w>
▁재 무</w>
▁전 쟁</w>
▁이 중</w>
▁위 상</w>
▁대 만</w>
▁지 구</w>
▁영 양</w>
▁선 언</w>
▁2 4
E D</w>
형 태</w>
세 자</w>
▁전 형</w>
시 도</w>
▁객 관</w>
▁12 1</w>
청 구</w>
무 부</w>
▁사 정</w>
▁법 령</w>
▁박 막</w>
▁알아 보</w>
▁아 마
▁시 료</w>
▁삭 제</w>
▁널 리</w>
였 을</w>
▁주 말</w>
▁수 수료</w>
▁목 목</w>
▁당 연</w>
▁관 절</w>
▁경 찰
▁뇌 뇌</w>
상 황</w>
▁함 유</w>
증 권</w>
회 로</w>
자 는</w>
▁제 고</w>
방 안</w>
▁최 대한</w>
▁상 대
관 련</w>
▁적 층</w>
▁t t</w>
신 기</w>
▁통 보</w>
▁대 전</w>
반 응</w>
▁주 최</w>
▁펼 쳐
▁재 판
▁의 회</w>
▁200 7</w>
▁죄 송</w>
▁아 시
▁사실 상</w>
공 단</w>
▁협 약</w>
▁신 설</w>
▁수 많</w>
▁긴 급</w>
▁할 당</w>
▁분 해</w>
▁분 자</w>
느 냐</w>
▁예 외</w>
혈 압</w>
번 호</w>
마 을</w>
▁통 신부</w>
▁전 하</w>
▁인 도
조 물</w>
사 법</w>
▁병 변</w>
▁여 론</w>
▁사 태</w>
릭 터</w>
▁이 재
▁의 사
▁거 래
환 자</w>
▁어 레이</w>
해 졌</w>
세 계</w>
관 광</w>
▁인 프라</w>
▁단 자</w>
▁P C
P S</w>
출 부</w>
▁원 하</w>
▁포 기</w>
탁 자</w>
▁대체 로</w>
▁구 입</w>
▁캐 릭터</w>
드 러
기 장</w>
▁유 치</w>
▁원 장</w>
▁요 리</w>
▁부 서</w>
▁내 시경</w>
전 략</w>
이 론</w>
▁열 심히</w>
기 금</w>
▁여 지</w>
▁바 닥</w>
▁진 료</w>
▁직 후</w>
▁용 기</w>
▁선 임</w>
한 지</w>
▁상 면</w>
▁I T</w>
▁의 해서</w>
▁보 편</w>
▁함 량</w>
▁압 축</w>
▁나 와</w>
▁격 차</w>
▁판 판</w>
▁통 지</w>
▁오 브
▁간 호</w>
주 일</w>
여 금</w>
거 래
▁병 병</w>
▁매 장</w>
▁2 40</w>
▁10 2</w>
작 위</w>
운 영</w>
▁당 국</w>
▁갑 상
▁T able</w>
0 5</w>
▁주 차</w>
규 직</w>
▁비 디오</w>
아 도</w>
▁아울 러</w>
▁데 이
▁소 방</w>
▁포 도
당 자</w>
▁회 수</w>
▁오 랜</w>
▁법 정</w>
▁일 시</w>
▁대 북</w>
늘 날</w>
께 서</w>
▁의 문</w>
▁시행 령</w>
▁오 늘날</w>
▁항 체</w>
▁평 소</w>
▁이 해
▁왼 쪽</w>
▁맞 춰</w>
▁교육 부</w>
▁검 검</w>
▁누 적</w>
의 도</w>
▁제조 업</w>
▁임 대</w>
▁별 로</w>
차 례</w>
냐 는</w>
▁정 규</w>
▁효 력</w>
▁수 용
T A</w>
이 어</w>
는 다고</w>
범 죄</w>
▁심 화</w>
국 가</w>
▁횟 수</w>
▁상 징</w>
▁담 보</w>
체 제</w>
역 량</w>
▁저 자</w>
▁운 송</w>
r e
▁연 도</w>
▁5 5</w>
물 관</w>
란 다</w>
▁플 플</w>
▁의 결</w>
▁7 5</w>
▁3 7</w>
대 출</w>
▁회 귀</w>
▁캐 나
▁최 저
▁4 1</w>
총 리</w>
▁임 명</w>
관 절</w>
▁보 급</w>
▁민 원</w>
▁가 동</w>
코 딩</w>
▁타 입</w>
▁여 여</w>
▁비 하</w>
▁면 담</w>
▁날 씨</w>
▁기 부</w>
▁3 8</w>
서 트</w>
▁컨 컨</w>
i s
▁전 방</w>
▁건 축
함 수</w>
공 항</w>
▁협 조</w>
▁군 사</w>
o p</w>
게 임</w>
▁탐 구</w>
▁기다 리</w>
▁유 치원</w>
▁부 부</w>
▁떠 나</w>
▁지 각</w>
▁나타 냈</w>
▁개 정안</w>
D P</w>
전 쟁</w>
인 가요</w>
같 이</w>
▁업 종</w>
▁도 어</w>
▁4 8</w>
▁증 권</w>
▁문 장</w>
커 니즘</w>
사 건</w>
▁뉴 스</w>
▁공 정
교 통</w>
▁화 상</w>
학 원</w>
▁곡 곡</w>
▁왜 냐
▁덧붙 였</w>
출 액</w>
담 회</w>
▁원 활</w>
▁비 밀</w>
신 청</w>
▁우 승</w>
▁메 커니즘</w>
▁건 축</w>
▁지 도
▁세 트</w>
▁9 5</w>
m g</w>
a n</w>
코 올</w>
▁확 실</w>
▁액 체</w>
▁설 비</w>
▁경 과</w>
▁의사 소통</w>
리 부</w>
규 칙</w>
▁전 용</w>
▁자 연
계 수</w>
▁연 주</w>
▁번 호</w>
도 로</w>
▁질 량</w>
▁오 프
▁보 조금</w>
▁5 1</w>
▁원 내
▁롯 데</w>
식 품</w>
교육 청</w>
감 사</w>
▁원내 대표</w>
▁바 디</w>
자 동차</w>
실 히</w>
키 지</w>
배 상</w>
▁고 령</w>
▁착 용</w>
0 4</w>
교 회</w>
국 장</w>
▁캐나 다</w>
분 자</w>
▁좋 아
▁사 회
▁대 처</w>
저 히</w>
▁대 법
▁강 남</w>
요 법</w>
고 인</w>
▁기 념
▁7 00</w>
개 선</w>
▁입 주</w>
▁오 르</w>
▁법 안</w>
▁가 졌</w>
페 이</w>
▁제 일</w>
▁연 출</w>
▁아니 하</w>
▁식 당</w>
사 점</w>
▁집 합</w>
▁부 합</w>
▁바 른</w>
▁무 게</w>
▁겨 울</w>
▁흡 착</w>
▁바 라</w>
▁까 지</w>
▁․ ․</w>
1 8</w>
▁이 격</w>
▁유 전</w>
▁무 슨</w>
S S</w>
리 드</w>
▁음 향</w>
▁유 해</w>
하 면</w>
▁핀 핀</w>
▁체 육</w>
▁챔 버</w>
▁간 호사</w>
산 시</w>
지 부</w>
▁모 여</w>
▁E U</w>
나 무</w>
▁유 연</w>
▁아 닌
▁법 인
▁밀 도</w>
i l
프로 그램</w>
▁즐 기</w>
▁죽 음</w>
▁오브 젝트</w>
▁방 해</w>
든 지</w>
▁특 이</w>
▁우 주</w>
S T</w>
해 질</w>
프 트</w>
▁축 적</w>
▁둔 둔</w>
차 장</w>
주 주</w>
▁원 격</w>
▁양 국</w>
▁스 캔</w>
▁갖 춘</w>
화 제</w>
아 지</w>
로 이드</w>
▁시 술</w>
▁그 리</w>
총 회</w>
천 만</w>
개 국</w>
▁채 권자</w>
▁실 수</w>
▁서 명</w>
▁드러 나</w>
▁척 도</w>
▁중 점</w>
▁회 담</w>
▁증 대</w>
림 픽</w>
경 찰
▁촉 구</w>
▁치 매</w>
주 년</w>
인 공</w>
▁기 분</w>
▁테 이블</w>
▁양 극</w>
▁기 념</w>
▁거 기</w>
3 2</w>
▁평 양</w>
▁관 여</w>
메 일</w>
▁합 병</w>
▁된 다는</w>
▁크 리
▁유 병</w>
▁민 법</w>
훈 련</w>
활 용</w>
▁정 한</w>
▁임 임</w>
▁관 세</w>
▁20 20</w>
드 컵</w>
니 아</w>
▁폭 력</w>
본 다</w>
데 이트</w>
다 른</w>
▁단 원</w>
▁왜냐 하면</w>
▁여 건</w>
▁부 르</w>
▁어 어</w>
▁전 남</w>
▁발 급</w>
▁밀 접</w>
▁폭 행</w>
활 성</w>
화 학</w>
▁전 후</w>
▁냉 매</w>
▁경 고</w>
▁전 시
▁이 자</w>
▁시 범</w>
▁나 무</w>
▁국 방
▁분 양</w>
▁향 해</w>
▁포도 당</w>
▁패 키지</w>
▁친 환경</w>
▁최저 임금</w>
▁중 복</w>
▁정 확히</w>
▁아이 콘</w>
▁밝 힌</w>
▁국내 외</w>
영 장</w>
▁폐 쇄</w>
▁가 득</w>
튜 브</w>
▁준 다</w>
▁업 데이트</w>
▁대 로</w>
▁그 때</w>
▁관 할</w>
오 드</w>
방 송</w>
▁지 켜
▁중 첩</w>
▁물 체</w>
▁감 각</w>
이 즈</w>
▁피 하</w>
▁인 생</w>
▁벡 터</w>
▁반 발</w>
▁바 란다</w>
▁4 20</w>
제 제</w>
에 도</w>
▁학 문</w>
▁란 란</w>
▁단 축</w>
▁판 매
▁책 임
▁분 배</w>
▁담 긴</w>
▁지 니</w>
▁이어 질</w>
▁야 기</w>
▁단 점</w>
▁공 익</w>
▁트 렌
계 층</w>
▁4 3</w>
▁원 자</w>
▁압 박</w>
▁뭐 뭐</w>
▁도 서관</w>
▁소 견</w>
▁그 냥</w>
가 구</w>
▁간 염</w>
O S</w>
베 이스</w>
▁우 리
▁상대 방</w>
▁겁 니다</w>
▁탄 력</w>
▁색 상</w>
▁12 2</w>
9 0</w>
▁중 앙
▁접 착</w>
할 지</w>
▁인 재</w>
▁이 용
▁셋 째</w>
▁다 를</w>
▁8 00</w>
S A</w>
그 래
▁콘 콘</w>
▁직 경</w>
▁스피 커</w>
아 리</w>
선 거</w>
공 정</w>
▁지 불</w>
▁일 본
▁다 리</w>
순 위</w>
부 문</w>
▁유 아</w>
▁본 체</w>
▁3 30</w>
▁곳 곳</w>
네 시아</w>
▁항 공
전 지</w>
▁저 렴</w>
▁연 수</w>
▁수 탁자</w>
▁선 형</w>
▁비 상</w>
▁다 니</w>
▁교육 감</w>
▁조 화</w>
▁반 환</w>
▁땅 땅</w>
▁건 가요</w>
국 어</w>
▁편 성</w>
▁수 평</w>
▁수 면</w>
▁납 세자</w>
행 기</w>
▁취 급</w>
▁무 작위</w>
▁기 소</w>
지 구</w>
받 침</w>
▁종 종</w>
▁존 중</w>
▁임 계</w>
▁C C
시 터</w>
▁전 날</w>
▁시 사점</w>
▁독 립
▁끝 난</w>
보 장</w>
노 동
나 가</w>
▁테 테</w>
▁지 키</w>
▁끝 나</w>
▁생 산
▁국 정</w>
▁재 원</w>
▁L G</w>
e c
협 의회</w>
개 혁</w>
전 하</w>
▁코 어</w>
▁작 년</w>
▁인도 네시아</w>
▁냉 장
로 드</w>
▁요 금</w>
▁민 족</w>
▁링 크</w>
▁근 처</w>
▁진 화</w>
▁인 용</w>
▁위 주</w>
▁완 벽</w>
▁오 픈</w>
▁관 해</w>
▁아 내</w>
▁봉 사</w>
▁각 자</w>
▁19 7
타 민</w>
고 기</w>
▁움직 이</w>
▁아 르
▁성 질</w>
▁따 른다</w>
▁드러 났</w>
▁권 력</w>
행 동</w>
요 건</w>
▁혈 당</w>
▁재 질</w>
▁방 정식</w>
▁변 하</w>
▁바 다</w>
▁걷 걷</w>
m m</w>
효 율</w>
조 차</w>
스 북</w>
▁종 래</w>
▁절 제술</w>
▁쟁 점</w>
▁그러 면</w>
▁궁 금</w>
▁폭 염</w>
▁메 일</w>
▁강 사</w>
▁공 원</w>
▁공 모</w>
전 문</w>
▁중 량</w>
이 너</w>
산 화</w>
▁뚜 렷</w>
▁관리 자</w>
▁페이 스북</w>
▁눈 길</w>
▁광 범위</w>
미 래</w>
전 극</w>
▁호 소</w>
▁수 원</w>
▁상 상</w>
▁벽 벽</w>
▁나타 낼</w>
▁교 실</w>
▁정 착</w>
▁엄 격</w>
▁급 여</w>
리 카</w>
▁맛 있</w>
▁놀 이</w>
전 거</w>
▁인 성</w>
▁뒷 받침</w>
▁H C
▁입 학</w>
▁걸 리</w>
▁4 4</w>
회 계</w>
현 장</w>
▁해 양</w>
▁고 양
▁이루어 진다</w>
▁후 반</w>
▁응 용</w>
▁클 클</w>
▁충 남</w>
▁출 혈</w>
▁이 메일</w>
▁농 촌</w>
▁권 장</w>
본 법</w>
▁포 장</w>
▁부 진</w>
▁구 민</w>
▁결 함</w>
외 선</w>
▁비 록</w>
▁명 예</w>
▁낸 낸</w>
▁태 양</w>
▁신 문</w>
▁기 관
▁D NA</w>
▁첨 가</w>
▁베 이
▁구 조물</w>
▁멕 시
▁200 6</w>
했 으나</w>
전 압</w>
사 원</w>
로 그</w>
럼 에도</w>
▁훼 손</w>
▁중 독</w>
▁아이 템</w>
▁시 청자</w>
▁드 드</w>
즈 니스</w>
▁콘 서트</w>
통 부</w>
축 기</w>
▁즐 길</w>
▁종 속</w>
▁비 난</w>
▁그 럼에도</w>
평 균</w>
기 판</w>
▁항 공</w>
▁유 무</w>
▁상 관
▁당 해</w>
B B</w>
혁 신</w>
▁부 피</w>
▁매 매</w>
대 감</w>
▁혼 란</w>
▁살 아
▁리 튬</w>
▁따 라
▁김 영
▁3 9</w>
▁13 1</w>
▁프 리</w>
▁주 인공</w>
▁아 무</w>
▁시 트</w>
▁나 선</w>
직 자</w>
영 업</w>
▁국 회
이 집</w>
▁탄 성</w>
▁주어 진</w>
▁발 휘</w>
▁납 세</w>
▁끌 어
▁붙 붙</w>
▁바라 보</w>
▁메 타</w>
항 공</w>
▁탓 탓</w>
▁높 일</w>
레 이드</w>
행 자</w>
여 서</w>
▁지 지
▁인천 광역시</w>
▁규 범</w>
▁힘 든</w>
▁복 원</w>
▁복 용</w>
▁강 남
청 서</w>
실 장</w>
능 감</w>
▁폭 발</w>
▁최 소
▁대 조</w>
작 업</w>
스 처</w>
▁이 른
▁울 산</w>
▁예 후</w>
▁극 단</w>
▁개 설</w>
파 일</w>
면 도</w>
놀 이</w>
▁채 무</w>
▁악 악</w>
▁가 속</w>
주 주의</w>
전 체</w>
전 기</w>
▁아름 다운</w>
▁실 태</w>
▁손 가락</w>
▁연 금</w>
▁드 리</w>
▁도 모</w>
▁덮 덮</w>
중 앙</w>
연 합</w>
먼 트</w>
▁투 표</w>
▁컴퓨 팅</w>
▁적 발</w>
▁우리 나라</w>
▁그 간</w>
터 베이스</w>
간 다</w>
▁수 리</w>
▁200 5</w>
보 건</w>
▁창 조</w>
▁절 감</w>
▁선 별</w>
▁무 관</w>
▁극 장</w>
센 서</w>
▁좁 좁</w>
▁시 정</w>
▁드 레</w>
▁개 략</w>
▁가까 이</w>
공 개</w>
자 본</w>
▁열 렸</w>
▁어 린</w>
▁배 양</w>
트 업</w>
▁특별 히</w>
▁튜 브</w>
▁기 인</w>
▁갑상 선</w>
세 법</w>
문 지</w>
건 설</w>
▁이 웃</w>
▁국방 부</w>
재 판
약 품</w>
애 인</w>
▁플라 스틱</w>
▁조 립</w>
▁상 향</w>
▁사업 장</w>
▁달라 질</w>
▁C E
▁클 라
▁예 술
▁밸 브</w>
▁고 분자</w>
버 터</w>
혈 증</w>
▁확 립</w>
▁파 괴</w>
▁데이 터베이스</w>
▁개 성</w>
▁정 권</w>
▁돌 아가</w>
▁녹 색</w>
▁관 람
a m
재 정</w>
▁통 신
▁창 창</w>
▁연 습</w>
▁소 방
▁복 부</w>
▁나 올</w>
스 탄</w>
▁제 주도</w>
▁기 도</w>
▁주 위</w>
▁알 코올</w>
▁순 수</w>
▁면 접</w>
▁광 원</w>
진 국</w>
과 세</w>
▁전 신</w>
▁나타 날</w>
▁C A
지 출</w>
▁더 욱
▁창 작</w>
▁스타 트업</w>
▁구 역</w>
▁태 국</w>
▁이어 졌</w>
▁올 바
▁소 셜</w>
2 0
▁살펴 본</w>
▁C R
▁협 업</w>
▁기 구</w>
▁귀 귀</w>
협 약</w>
▁펀 드</w>
▁절 제</w>
▁전해 졌</w>
▁부 하</w>
▁무 시</w>
신 고</w>
▁카 페</w>
▁S K</w>
▁의 뢰</w>
▁세 기</w>
▁사 과</w>
프 레
▁펄 스</w>
▁커뮤니 티</w>
▁전 도
▁불가 피</w>
▁IC T</w>
동 맥</w>
개 소</w>
▁무 리</w>
여 부</w>
▁어려 울</w>
▁시 군</w>
▁못 할</w>
인 력</w>
▁화 제</w>
▁양 측</w>
▁기 준
할 수록</w>
스 타
산 세</w>
▁일 제</w>
스 코</w>
수 익</w>
더 십</w>
▁자 전거</w>
▁빈 빈</w>
▁더 미</w>
지 어</w>
면 적</w>
▁잇 따
▁애 애</w>
▁림 프
▁단 속</w>
▁꽃 꽃</w>
▁그 곳</w>
도 우</w>
▁지 닌</w>
▁서 술</w>
▁배 당</w>
설 팅</w>
▁임 원</w>
▁상 업</w>
▁낮 추</w>
스 크
▁사망 률</w>
▁비 즈니스</w>
▁계 정</w>
T C</w>
▁좌 우</w>
▁일 종</w>
▁사이 즈</w>
▁멕시 코</w>
▁경 비</w>
소 자</w>
▁아무 런</w>
▁거 대</w>
스 티
등 록</w>
▁매 칭</w>
▁갑 자기</w>
F C</w>
수 요</w>
▁하 반기</w>
▁원 천</w>
▁논 쟁</w>
▁국회 의원</w>
▁교 원</w>
예 산</w>
릭 스</w>
▁･ ･</w>
▁피 고인</w>
▁장 르</w>
▁외 교</w>
▁배 상</w>
▁아시 안</w>
▁수 분</w>
▁불 만</w>
▁물 가</w>
▁급 격</w>
▁5 4</w>
c m</w>
해 선</w>
상 금</w>
대 상자</w>
▁프 린
▁유 로</w>
▁쓴 쓴</w>
▁사 물</w>
▁비 타민</w>
▁이 달</w>
▁용 매</w>
▁보 인</w>
▁마 시</w>
▁대 략</w>
▁담 배</w>
▁4 6</w>
목 적</w>
▁지하 철</w>
▁증 착</w>
▁번 역</w>
▁2 6
▁잠 시</w>
▁순 차</w>
▁부 적
▁보 충</w>
▁벤 처</w>
▁벌 이</w>
▁보 육</w>
▁목 사</w>
▁목 록</w>
▁드 물</w>
업 계</w>
리 스</w>
▁리 스트</w>
▁누 군
▁누 가</w>
o m
▁치료 법</w>
▁부 장</w>
▁뛰 어
▁감 성</w>
▁5 10</w>
사 용</w>
▁판 정</w>
▁올 랐</w>
▁비 행기</w>
세 서</w>
서 부터</w>
▁향 하</w>
▁m L</w>
▁2 2
표 시</w>
란 드</w>
▁프리 미
▁철 도</w>
▁음 주</w>
▁수 렴</w>
▁따 뜻</w>
▁계 약
▁거 치</w>
▁커 패
▁억 제제</w>
▁스 페인</w>
▁계 좌</w>
▁계 열</w>
형 성</w>
허 가</w>
설 물</w>
답 자</w>
▁최소 한</w>
▁진 실</w>
▁양 식</w>
▁뼈 뼈</w>
▁단 면</w>
▁느 낄</w>
▁고 령
▁철 학</w>
▁국 세</w>
▁가 시</w>
▁점 유</w>
▁용 도</w>
▁상 반기</w>
▁장 기간</w>
▁상 환</w>
어 링</w>
부 금</w>
▁태 풍</w>
▁컸 컸</w>
▁자 회사</w>
▁스위 칭</w>
▁서 식</w>
▁면 제</w>
▁매 각</w>
▁기 온</w>
▁HB V</w>
축 제</w>
체 험</w>
아 시아</w>
▁청 소</w>
▁이른 바</w>
▁이 어서</w>
▁속 하</w>
▁보 냈</w>
▁메 이
▁5 3</w>
여 자</w>
▁행 정
▁사 료</w>
회 견</w>
현 실</w>
였 으나</w>
도 지사</w>
▁제 스처</w>
▁인 정
▁급 증</w>
▁규 명</w>
▁추 론</w>
▁줄 일</w>
o s
▁옵 션</w>
▁별 표</w>
▁C D</w>
▁B BB</w>
P D</w>
▁일 체</w>
▁이 사장</w>
▁돌 출</w>
▁협 협</w>
▁고 도</w>
패 널</w>
명 령</w>
루 미
▁카 카
▁전 파</w>
▁난 민</w>
▁권 권</w>
▁현 저</w>
▁테 러</w>
▁여 가</w>
e d</w>
울 증</w>
▁연구 원</w>
▁세 율</w>
▁판 사</w>
▁조 선
▁재 미
▁인정 받</w>
▁문 학</w>
▁나 중</w>
▁호 스트</w>
▁C S
▁짓 짓</w>
▁여 야</w>
▁수 급</w>
▁변 인</w>
▁국 제
▁가 로
▁15 1</w>
▁태 양
▁교 차</w>
▁4 7</w>
서 도</w>
리 트</w>
▁징 계</w>
▁심 한</w>
▁명 칭</w>
동 기</w>
▁자 아</w>
▁왜 곡</w>
▁담 당자</w>
전 문
사 업자</w>
링 크</w>
▁커 커</w>
▁심 혈</w>
▁심 지어</w>
▁국 어</w>
▁가 변</w>
명 히</w>
▁총 괄</w>
▁영 장</w>
▁새 벽</w>
▁대 학교</w>
적 지</w>
수 사</w>
▁프로 토
▁지 원
▁제 목</w>
▁사 립</w>
진 다는</w>
사 이트</w>
레 인</w>
라 즈</w>
▁환 율</w>
▁치 열</w>
▁종 사자</w>
▁비 만</w>
▁발 병</w>
▁리 스크</w>
▁감 면</w>
▁m m</w>
주 체</w>
어 기</w>
▁필 드</w>
▁채 무자</w>
▁중 소</w>
▁응 답자</w>
▁엄 청
▁배 려</w>
군 요</w>
▁아 쉬
▁실 습</w>
▁선 진국</w>
▁맵 맵</w>
▁T A
▁전 해</w>
▁인 원</w>
▁우 측</w>
▁서 면</w>
사 실</w>
▁하 여금</w>
▁초 반</w>
▁둘러 싼</w>
▁관 계
▁과 연</w>
▁고 찰</w>
R S</w>
규 제</w>
▁증 폭</w>
▁유 엔</w>
▁상 용</w>
▁노 후</w>
미 디어</w>
▁늘 리</w>
▁근 접</w>
라 운드</w>
등 학생</w>
기 반</w>
▁흐 르</w>
▁출 전</w>
▁미 흡</w>
▁기 업
▁기 대감</w>
수 업</w>
▁상 처</w>
▁명 확히</w>
▁당 부</w>
▁필 리
▁쓰 레
▁돌 봄</w>
▁건 립</w>
▁간 섭</w>
공 동체</w>
▁품 목</w>
▁캐 캐</w>
▁내 렸</w>
▁고 급</w>
▁희 생</w>
▁증 후군</w>
▁중 심
▁윈 도우</w>
▁사무 실</w>
▁사 용
▁금 금</w>
▁층 간</w>
▁배 정</w>
▁각 국</w>
A S</w>
보 드</w>
▁필 자</w>
▁천 천</w>
▁얇 얇</w>
▁배 분</w>
▁만 남</w>
▁구 글</w>
▁가 을</w>
섬 유</w>
리 즈</w>
▁회 회</w>
▁초 청</w>
▁에 어
▁앨 범</w>
▁무 용</w>
▁기 체</w>
센 트</w>
▁클라 우드</w>
▁주 사</w>
▁좋아 하</w>
▁종 전</w>
▁우 울증</w>
▁브라 질</w>
▁G DP</w>
4 2</w>
중 치</w>
중 심</w>
수 당</w>
모 듈</w>
동 물</w>
공 급</w>
▁종 목</w>
▁독 특</w>
▁그 린</w>
▁O E
▁8 5</w>
협 상</w>
▁의 의</w>
▁대 변인</w>
해 진다</w>
상 도</w>
변 량</w>
▁약 화</w>
▁실 력</w>
▁버 전</w>
▁당 장</w>
▁4 9</w>
▁숨 숨</w>
▁성 폭력</w>
▁분 명히</w>
▁드 라이
▁누군 가</w>
r i
▁후 술</w>
▁원 형</w>
▁낳 낳</w>
▁가 입자</w>
▁199 0</w>
착 제</w>
▁실 장</w>
▁밴 드</w>
▁무 효</w>
▁간 세포</w>
▁D M
▁6 2</w>
▁냉장 고</w>
▁경영 자</w>
r a
▁추 후</w>
▁비 행</w>
정 기</w>
소 년
▁파 워</w>
▁알 루미
▁수 강</w>
▁서 구</w>
▁멀 티</w>
▁리 더십</w>
▁결 핵</w>
▁C N
▁A C
4 1</w>
러 리</w>
▁쇼 핑</w>
▁북 부</w>
▁대 리
여 성</w>
격 히</w>
▁저 항
▁욕 구</w>
▁어린 이집</w>
▁신 뢰
▁시 뮬
▁g g</w>
지 표</w>
역 학</w>
발 성</w>
▁예 전</w>
▁본 사</w>
▁덕 분</w>
▁그 만큼</w>
▁교 정</w>
▁가 중치</w>
운 용</w>
▁합 합</w>
▁풀 이</w>
▁위 임</w>
▁위 법</w>
▁보험 료</w>
플 링</w>
에 서부터</w>
▁찾 아가</w>
▁예 고</w>
▁마 약</w>
▁극 대</w>
이 드
생 물</w>
고 리</w>
▁출 범</w>
▁중 대</w>
▁산 화물</w>
▁부 처</w>
▁공 중</w>
트 리</w>
▁액 세
▁사이 클</w>
▁모 임</w>
▁말 레이
0 7</w>
▁학 자</w>
▁둔 화</w>
▁6 4</w>
종 합</w>
람 회</w>
▁초 대</w>
▁실 효</w>
▁기 각</w>
▁고 장</w>
하 나</w>
▁클 러
▁축 하</w>
▁초 등학생</w>
▁일 반
▁인 체</w>
▁이 력</w>
▁보 일</w>
▁담 겨</w>
▁남 녀</w>
▁S E
판 사</w>
노 동</w>
▁투 과</w>
▁자 궁</w>
▁실 험
▁7 2</w>
▁전 자
▁음 식
▁열 린다</w>
결 권</w>
▁황 황</w>
▁필리 핀</w>
▁집 계</w>
▁인 과</w>
▁이 송</w>
▁불 량</w>
탄 소</w>
근 성</w>
▁지 내</w>
▁사 시도</w>
▁NA F
수 지</w>
▁허 위</w>
▁재미 있</w>
▁소 유자</w>
▁궁 극</w>
이 상</w>
▁섬 섬</w>
▁상 응</w>
▁만 날</w>
▁동 맥</w>
▁갈 수록</w>
화 점</w>
아 웃</w>
공 장</w>
▁클 래
▁임 대
▁연 동</w>
▁스타 일</w>
▁법 칙</w>
▁미 안</w>
▁김 정</w>
단 위</w>
다 수</w>
▁췌 장</w>
▁성 찰</w>
▁나 갈</w>
L T</w>
필 요</w>
코 드</w>
친 구</w>
전 소</w>
▁일 련</w>
▁생 겼</w>
▁뮤 지
▁모 으</w>
▁말레이 시아</w>
▁α α</w>
모 델</w>
▁키 우</w>
▁월 드컵</w>
▁어 떻</w>
▁동 력</w>
▁A D
R I</w>
진 흥</w>
▁표 정</w>
▁어 울
▁수 명</w>
▁소 장</w>
▁진 전</w>
▁좌 표</w>
▁종 이</w>
▁안 건</w>
▁시 나
▁된 다고</w>
▁대 가</w>
▁기 후</w>
단 히</w>
▁총 장</w>
▁산 하</w>
▁밝혀 졌</w>
▁몽 골</w>
▁리 드</w>
▁관 람</w>
▁감 감</w>
장 기</w>
경 찰</w>
▁전해 질</w>
▁대 폭</w>
▁가 중</w>
오 염</w>
예 방</w>
부 장</w>
▁주 인</w>
▁돌 연
▁후 면</w>
▁부 각</w>
▁뛰 어난</w>
2 8</w>
체 육
수 행</w>
성 부</w>
▁정 한다</w>
▁양 쪽</w>
▁BM I</w>
▁5 6</w>
▁19 6
원 칙</w>
시 트</w>
▁즐 거
▁방 송
▁± ±</w>
봉 사</w>
릴 게요</w>
▁지나 치</w>
▁일으 키</w>
▁부 회장</w>
▁김 문
3 3</w>
▁제 어기</w>
▁연 소</w>
▁세 월</w>
▁3 50</w>
P A</w>
▁수 반</w>
▁수 당</w>
e l</w>
음 악</w>
순 환</w>
레 르
▁화장 품</w>
▁프로토 콜</w>
▁복 귀</w>
▁두 드러
▁당 초</w>
▁났 났</w>
▁6 1</w>
의 장</w>
▁커패 시터</w>
▁쌓 쌓</w>
▁구 멍</w>
▁거 론</w>
▁P C</w>
장 히</w>
박 스</w>
공 제</w>
▁기 호</w>
3 5</w>
부 담</w>
▁위 축</w>
▁대 역</w>
▁굉 장히</w>
0 6</w>
작 물</w>
과 제</w>
▁통 계
▁터 키</w>
▁전시 회</w>
▁싫 싫</w>
▁대 량</w>
▁강남 구</w>
▁강 원</w>
선 언</w>
▁클 럽</w>
▁겸 겸</w>
u n
학 식</w>
▁조 각</w>
▁사이 버</w>
▁OE CD</w>
4 5</w>
3 4</w>
인 구</w>
여 행</w>
상 담</w>
물 학</w>
▁중 간
▁법인 세</w>
▁미 쳤</w>
▁노 선</w>
▁건 전</w>
판 결</w>
▁수 능</w>
▁박 물관</w>
▁동 원</w>
▁폐 렴</w>
▁편 집</w>
▁조 달</w>
▁자 영업</w>
▁업 업</w>
▁무 한</w>
▁건축 물</w>
인 식</w>
다 니</w>
▁활 약</w>
▁일 방</w>
▁외 측</w>
▁노 사</w>
▁공 제</w>
조 체</w>
로 잡</w>
▁행 렬</w>
▁폴 리</w>
▁자 랑</w>
▁용 접</w>
▁식 이</w>
▁상 속</w>
의 사</w>
문 학</w>
교 환기</w>
▁탄 생</w>
▁정 밀</w>
E T</w>
▁입 사</w>
▁이 탈
▁역 대</w>
▁상 하</w>
▁민 주주의</w>
▁두 려
▁관람 객</w>
▁고 발</w>
▁NAF LD</w>
피 스</w>
이 용</w>
변 이</w>
▁정 맥</w>
▁블 랙</w>
▁당 연히</w>
지 대</w>
일 러</w>
방 지</w>
국 제</w>
▁후 원</w>
▁하 드
▁유 인</w>
▁물 류</w>
▁드러 내</w>
▁경 화</w>
u l
소 비
▁접 근성</w>
▁매 출액</w>
▁광 역</w>
져 서</w>
리 스트</w>
교 통부</w>
계 열</w>
▁명 세서</w>
▁긴 장</w>
촬 영</w>
라 스</w>
▁추 측</w>
▁체 크</w>
▁자 아
▁설 문지</w>
▁들어 오</w>
▁2 7
차 량</w>
나 마</w>
교 환</w>
▁독 서</w>
▁낼 낼</w>
▁그래 도</w>
▁19 0</w>
M S</w>
전 화</w>
▁처 방</w>
▁와 서</w>
▁범 행</w>
▁밝 밝</w>
▁지 진</w>
▁정 황</w>
▁익 숙</w>
▁응 급</w>
▁오 랫
▁세 액</w>
▁몰 몰</w>
C A</w>
▁폐 기</w>
▁진 짜</w>
▁이루어 져</w>
▁유 튜브</w>
▁상 실</w>
▁비 정
▁돌연 변이</w>
▁냈 냈</w>
는 데요</w>
▁준 용</w>
▁윤 윤</w>
▁오랫 동안</w>
▁엔 엔</w>
▁시나 리오</w>
▁과 실</w>
▁편 차</w>
▁진 공</w>
▁연 결
▁날 짜</w>
재판 소</w>
▁접 합</w>
▁저 작</w>
▁게 다가</w>
2 6</w>
절 염</w>
여 도</w>
사 일</w>
▁카 운
▁찬 성</w>
▁보 건
▁박 사</w>
▁간 경
▁가 슴</w>
우 자</w>
▁훌 륭</w>
▁해 상</w>
▁패 킷</w>
▁토 출</w>
▁케 이</w>
▁시 급</w>
▁못 한다</w>
▁곤 란</w>
o d
전 력</w>
시 오</w>
만 족</w>
교 부</w>
▁하드 웨어</w>
▁응 원</w>
▁식 각</w>
▁5 20</w>
D A</w>
한 데</w>
된 다면</w>
▁환 불</w>
▁시뮬 레이션</w>
▁상 속
▁사용 료</w>
▁사 기</w>
▁문 건</w>
▁대 리</w>
코 더</w>
점 검</w>
▁혈 압</w>
▁포 착</w>
▁열 정</w>
출 력</w>
절 히</w>
선 수</w>
리 티</w>
▁흔 한</w>
▁팽 창</w>
▁준 수</w>
▁인 터</w>
▁여 유</w>
▁드 론</w>
▁– –</w>
주 행</w>
수 입</w>
▁진 학</w>
▁실 업</w>
▁선 출</w>
▁법 리</w>
▁받아들 이</w>
F A</w>
주 기</w>
▁흔 히</w>
▁첨 단</w>
▁재 개</w>
▁도 심</w>
▁관광 지</w>
▁11 4</w>
I D</w>
프 리카</w>
설 정</w>
구 부</w>
▁음 극</w>
▁신 탁</w>
▁당 일</w>
▁P A
지 법</w>
▁직 전</w>
▁선 도</w>
질 수록</w>
▁효 소</w>
▁피 고</w>
▁알루미 늄</w>
▁심 층</w>
▁7 1</w>
▁13 2</w>
▁11 5</w>
호 트</w>
이 온</w>
기 술
▁확 충</w>
▁할 머니</w>
▁진 보</w>
▁중 증</w>
▁소 멸</w>
▁경기 도지사</w>
▁P D</w>
위 치</w>
셔 야</w>
▁패 션</w>
▁양 도</w>
▁뽑 뽑</w>
▁떨어 진</w>
▁기 술
▁화 려</w>
▁띄 띄</w>
성 과</w>
보 고서</w>
가 량</w>
▁펼 치</w>
▁일 원</w>
▁쉬 운</w>
▁살펴 볼</w>
▁다 섯</w>
▁김문 수</w>
▁가르 치</w>
파 크</w>
보 험
공 연</w>
▁의 약품</w>
▁섬 유
▁대 립</w>
▁대 다수</w>
밀 도</w>
▁지 체</w>
▁아 세
포 구</w>
연구 소</w>
▁이루어 져야</w>
▁간 사</w>
▁4 30</w>
▁차 관</w>
▁쥐 쥐</w>
▁주 력</w>
▁균 일</w>
▁고 체</w>
i d
정 치</w>
병 률</w>
동 성</w>
▁환 경
▁향 한</w>
▁코 스
▁천 식</w>
▁일 찍</w>
▁일 대</w>
▁올 렸</w>
▁비 전</w>
▁법 관</w>
▁배 우자</w>
▁멀 멀</w>
선 다</w>
▁피 의자</w>
▁태양 광</w>
▁이 틀</w>
▁발 송</w>
▁민 사</w>
▁내 성</w>
▁김 성
▁U U</w>
비 아</w>
▁행 정부</w>
▁한 글</w>
▁압 축기</w>
1 00</w>
출 물</w>
▁코 호트</w>
▁떠 오
▁만 난</w>
▁구 리</w>
D S</w>
일 수록</w>
소 득세</w>
설 계</w>
▁휴 식</w>
▁취 임</w>
▁정 량</w>
▁알 레르
▁송 수
▁소 형</w>
▁달 하</w>
▁고 온</w>
5 1</w>
0 8</w>
▁제 작
▁정 렬</w>
▁자 세히</w>
▁음 악
▁될 까요</w>
▁김정 은</w>
블 리</w>
바이 오</w>
▁흡 입</w>
경 험</w>
▁후 방</w>
▁지 하</w>
▁장 식</w>
▁올바 른</w>
▁보 전</w>
재 료</w>
교 류</w>
▁학 원</w>
▁학 술</w>
▁펜 펜</w>
▁키 워드</w>
▁직 선</w>
▁아이 돌</w>
▁몰 입</w>
▁고 전</w>
▁건 수</w>
▁10 5</w>
i g
O C</w>
해 결</w>
▁좌 측</w>
▁이탈 리아</w>
▁양 육</w>
▁소 음</w>
▁생 략</w>
▁불 러
▁부 실</w>
▁5 7</w>
사 유</w>
사 무
독 교</w>
교 과</w>
▁합 동</w>
▁학 년</w>
▁출 장</w>
▁일 환</w>
▁올라 가</w>
▁엘 리
▁상 단</w>
▁비 대
▁병 행</w>
▁뜨 거운</w>
▁근 대</w>
▁S P
해 석</w>
급 여</w>
▁확 신</w>
▁항 공사</w>
▁퇴 직</w>
▁양 호</w>
▁밥 밥</w>
▁급 성</w>
▁그 려
▁간 담회</w>
▁I L</w>
▁헤 드</w>
▁충 북</w>
▁잊 잊</w>
▁의 학</w>
▁부 지</w>
▁국 외</w>
영 화</w>
발 생</w>
▁소 화</w>
▁반 응
▁묘 사</w>
▁둔 다</w>
▁내 측</w>
▁HC V</w>
▁10 4</w>
투 자자</w>
연 도</w>
시 티</w>
사 진</w>
▁질 서</w>
▁박 근
▁직 면</w>
▁쓰레 기</w>
▁성 형</w>
▁농 가</w>
▁남 용</w>
▁0 5</w>
해 져</w>
멘 트</w>
▁정 원</w>
▁전 기
▁식 물</w>
▁복 구</w>
R D</w>
0 9</w>
태 료</w>
유 형</w>
▁패 패</w>
▁재판 부</w>
▁시 위</w>
▁불 거
▁단 부</w>
▁교 부</w>
▁고 교</w>
▁M A
▁K T</w>
연 장</w>
대 사</w>
▁케 이블</w>
▁알 림</w>
▁붕 괴</w>
▁동 적</w>
▁고 리</w>
레 이터</w>
균 형</w>
▁하 늘</w>
▁추 추</w>
▁질 소</w>
▁정 해진</w>
▁용 역</w>
▁여 겨
▁부 가
▁결 의</w>
s t
C E</w>
증 진</w>
주 식</w>
공 인</w>
▁컨 설팅</w>
▁전 북</w>
▁자 국</w>
▁이 점</w>
▁야 당</w>
▁신뢰 도</w>
▁무 릎</w>
▁과 장</w>
▁5 9</w>
자 면</w>
▁휴 가</w>
▁폼 페이</w>
▁토 크</w>
▁조 언</w>
▁재 미</w>
▁살 아가</w>
e s</w>
R T</w>
흥 원</w>
확 도</w>
▁임 직원</w>
▁안 타
▁박 스</w>
▁모 아</w>
▁고 관절</w>
▁간 편</w>
▁! !</w>
▁연 말</w>
▁신 중</w>
▁발 열</w>
▁내 재</w>
▁가 량</w>
흡 기</w>
전문 가</w>
르 몬</w>
▁추 석</w>
▁전 담</w>
▁비 트
▁매 입</w>
▁대법 원장</w>
▁과 태료</w>
운 전</w>
돼 야</w>
농 업</w>
▁피 험자</w>
▁토 론
▁점 심</w>
▁배 달</w>
▁못 해</w>
o c
사 단</w>
매 체</w>
▁어려 워</w>
▁시 퀀
▁빠 져</w>
▁부 호</w>
▁공 공
▁V R</w>
▁7 3</w>
2 7</w>
마 크</w>
관 계자</w>
▁승 객</w>
▁상 생</w>
▁농 농</w>
▁기 상
▁국 악</w>
▁교육 청</w>
▁P D
▁12 5</w>
▁11 3</w>
▁플 래
▁펌 프</w>
▁재 현</w>
▁법 무부</w>
▁미친 다</w>
▁꼽 꼽</w>
e m
남 도</w>
▁표 기</w>
▁클 럭</w>
▁소 외</w>
▁m g</w>
▁6 3</w>
5 2</w>
산 부</w>
는 다면</w>
▁언 제
▁매 트
▁더욱 이</w>
▁대 퇴
통 제</w>
▁파 견</w>
▁정 확도</w>
▁입 지</w>
▁일 례</w>
▁이 렇</w>
▁박근 혜</w>
▁댓 글</w>
▁기 원</w>
▁200 4</w>
크 로
으 시</w>
매 매</w>
▁화장 실</w>
▁사라 지</w>
▁끊 임
▁12 3</w>
T R</w>
확 인</w>
현 예</w>
▁하 향</w>
▁태 태</w>
▁췌 장
▁이 끄</w>
▁연 대</w>
▁마 주</w>
▁동 향</w>
▁달라 지</w>
▁관 행</w>
▁19 80</w>
감 독</w>
▁피 크</w>
▁원 자
▁웃 음</w>
▁방 어</w>
보 호
맹 점</w>
▁면 서</w>
금 속</w>
▁수 석</w>
3 6</w>
신 문</w>
런 스</w>
▁웨 이
▁맞 이</w>
▁가 깝</w>
▁a n
전 부</w>
란 히</w>
던 스</w>
년 도</w>
▁죄 죄</w>
▁다 녀
▁급 격히</w>
▁β β</w>
▁에 이
▁신 분</w>
▁; ;</w>
동 구</w>
▁오 직</w>
▁오 른</w>
▁빚 빚</w>
▁단 층</w>
표 준</w>
▁자 유
▁워 드</w>
▁아무 리</w>
▁방 전</w>
▁떨어 져</w>
▁데 뷔</w>
▁결 코</w>
힌 다</w>
▁플 로
▁정 수</w>
▁앓 앓</w>
▁석 유</w>
▁상 영</w>
▁20 1</w>
C H</w>
성 분</w>
드 레스</w>
▁체 포</w>
▁전도 성</w>
▁그러 므로</w>
▁관계 없이</w>
▁공정 위</w>
▁5 8</w>
금 지</w>
▁융 자</w>
▁선보 이</w>
▁레이 어</w>
▁P op</w>
a p
지 식</w>
연 맹</w>
▁편 지</w>
▁소 지</w>
▁늘 어난</w>
L C</w>
5 3</w>
이 란</w>
생 제</w>
마 트</w>
▁출 판</w>
▁증 시</w>
▁수 십</w>
▁산 불</w>
▁마 커</w>
▁가 이드
▁d L</w>
▁R F</w>
페 이
등 학교</w>
겨 진</w>
개 념</w>
▁재 고</w>
▁세 우</w>
▁떠 올
▁L ED</w>
▁호 전</w>
▁보 낸</w>
▁발 효</w>
▁거 듭</w>
십 시오</w>
경찰 서</w>
▁흉 부</w>
▁학 력</w>
▁캡 캡</w>
▁실험 실</w>
▁상 세히</w>
▁뿌 리</w>
▁부 가</w>
▁방 문
▁독 성</w>
▁2 11</w>
C T</w>
줍 니다</w>
바 로</w>
경 영</w>
▁음 료</w>
▁보 행</w>
▁다이 오드</w>
▁9 9</w>
▁6 10</w>
고 요</w>
▁프리미 엄</w>
▁파 손</w>
▁토 요일</w>
▁침 투</w>
▁집 회</w>
▁생 겨
▁빈 곤</w>
▁뛰 뛰</w>
▁대 칭</w>
▁200 2</w>
이 랑</w>
사 례</w>
▁항 생제</w>
▁증 례</w>
▁주 차장</w>
▁정 적</w>
▁에 게</w>
▁신 념</w>
▁생 물학</w>
흥 민</w>
비 전</w>
말 로</w>
▁항공 기</w>
▁티 켓</w>
▁접 하</w>
▁이 득</w>
▁습 관</w>
▁수 질</w>
▁손 흥민</w>
▁가 사</w>
▁A P</w>
▁6 7</w>
정 원</w>
시 켜
발 광</w>
▁지 질</w>
▁재 단</w>
▁영 양
▁스 펙
▁순 서도</w>
▁소 아</w>
▁민 민</w>
▁냉 각
▁9 00</w>
o t
사 기</w>
라이 언
긴 다</w>
▁평 등</w>
▁원 소</w>
▁대 답</w>
용 품</w>
과 물</w>
▁현대 차</w>
▁학 급</w>
▁인 종</w>
▁마 감</w>
▁리 더</w>
회 관</w>
극 장</w>
▁클러 스터</w>
▁저항 성</w>
▁여 당</w>
▁언제 나</w>
▁아 기</w>
▁기 하
▁금 연</w>
▁구 상</w>
채 권</w>
조 절</w>
정 지</w>
이 버</w>
영 향</w>
사 체</w>
무 사</w>
려 야</w>
▁햅 틱</w>
▁한 인</w>
▁웃 웃</w>
▁신 경
▁스 티
▁마 우스</w>
o r</w>
M A</w>
문 항</w>
▁컴 포
▁유 행</w>
▁여 과</w>
▁어려 웠</w>
▁압 류</w>
▁문화 재</w>
▁매 니
▁공 포</w>
▁가 게</w>
▁2 60</w>
성 기</w>
미 널</w>
동 력</w>
기 록</w>
교 수</w>
▁추 상</w>
▁철 저</w>
▁유 량</w>
▁들어 갔</w>
▁규 율</w>
▁공 인</w>
at ion</w>
덱 스</w>
▁하 단</w>
▁포 트</w>
▁트 위
▁즉 각</w>
▁조 리</w>
▁재 학</w>
▁그래 픽</w>
▁k g</w>
o l</w>
의 점</w>
▁법 제</w>
▁밝 혀</w>
▁막 대</w>
▁동 네</w>
▁C h
루 션</w>
로 지</w>
로 구</w>
넌 트</w>
▁합 금</w>
▁파 트
▁트 리</w>
▁올 림픽</w>
▁수 여</w>
▁A S
v i
북 부</w>
▁투 어</w>
▁착 수</w>
▁저 감</w>
▁수 동</w>
▁내 장</w>
제 한</w>
유 산</w>
열 사</w>
라 이트</w>
도 구</w>
감 원</w>
▁정 전</w>
▁속 한</w>
▁소 중</w>
▁분 기</w>
▁벌 써</w>
▁또 래</w>
▁관 해서</w>
▁가 방</w>
▁I I</w>
▁14 1</w>
폐 기물</w>
입 니까</w>
러 닝</w>
도 서관</w>
▁홍 홍</w>
▁출 생</w>
▁세 수</w>
▁선 사</w>
▁라 며</w>
▁금 감원</w>
▁감 상</w>
마 저</w>
▁통 로</w>
▁스 프
▁수용 체</w>
▁별 개</w>
▁대 외</w>
▁국 한</w>
▁6 8</w>
속 히</w>
니 어</w>
▁핸 드
▁편 안</w>
▁고 의</w>
전 달</w>
▁연 예
▁시 설물</w>
▁습 득</w>
▁뮤지 컬</w>
▁대 선</w>
▁E S
I C</w>
테 크</w>
연 수</w>
로 나</w>
▁혼 합물</w>
▁플 렉
▁이 건</w>
▁시 편</w>
▁수 록</w>
▁송수 신</w>
▁대 표
▁골 프</w>
트 로
일 보</w>
이 점</w>
▁크리 스
▁올 린</w>
▁소 녀</w>
▁문 의</w>
▁무 상</w>
▁군 수</w>
▁구 제</w>
▁감 동</w>
집 행</w>
자 치
업 단지</w>
▁지 칭</w>
▁정 의
▁입 구</w>
▁상당 수</w>
▁빠 지</w>
▁대퇴 골</w>
i c</w>
a g
▁캠 페인</w>
▁정 치
▁육 아</w>
▁아 마</w>
▁반 성</w>
▁도 포</w>
▁C H
▁2 8
진 단</w>
▁행 하</w>
▁체 납</w>
▁사 우
▁나 쁜</w>
▁D M</w>
담 금</w>
▁협 의회</w>
▁일 차</w>
▁여 의도</w>
▁에 러</w>
▁암 시</w>
▁시 리즈</w>
▁세 계
▁기상 청</w>
▁기 독교</w>
▁결 과물</w>
▁2 70</w>
특 성</w>
▁크 로
▁심 판</w>
▁스 튜
▁생 긴</w>
▁분 말</w>
▁명 백</w>
▁S T
▁3 6
격 자</w>
▁휴 대
▁타이 밍</w>
▁자 본
▁의 결권</w>
▁본 고</w>
▁독 점</w>
일 치</w>
▁미 군</w>
▁가이드 라인</w>
▁가 맹점</w>
O P</w>
유 닛</w>
원 인</w>
델 링</w>
▁탑 재</w>
▁컴포 넌트</w>
▁지도 자</w>
▁입 시</w>
▁옛 옛</w>
▁어 깨</w>
▁실 체</w>
▁빈 번</w>
유 로</w>
더 니</w>
▁타 격</w>
▁저 해</w>
▁시퀀 스</w>
▁스토 리</w>
▁계 절</w>
▁가 끔</w>
▁4 50</w>
a y</w>
재 정부</w>
스티 벌</w>
미 드</w>
▁활 물질</w>
▁턴 턴</w>
▁정 규직</w>
▁일반 인</w>
▁일 실</w>
▁오프 라인</w>
▁오 프</w>
▁알레르 기</w>
▁심 하</w>
▁수 축</w>
▁병 리학</w>
▁반 려</w>
▁느 꼈</w>
▁느 껴
▁격 자</w>
▁p H</w>
페이 서</w>
파 이</w>
▁징 역</w>
▁썼 썼</w>
▁보 강</w>
▁광 주시</w>
▁공 급
▁거래 소</w>
▁개 구</w>
▁2 9
코 인</w>
▁후 자</w>
▁주 석</w>
▁임 무</w>
▁요 양</w>
▁역 학</w>
▁성 장
시 기</w>
소 드</w>
무 역</w>
▁학 계</w>
▁전 역</w>
▁이 탈</w>
▁용 인</w>
▁소 설</w>
▁물 량</w>
▁들 어서</w>
▁200 3</w>
▁14 2</w>
유 치원</w>
사 무</w>
르 신</w>
계 약
ur e</w>
의 견</w>
▁이 래</w>
▁관 내</w>
▁가 리
▁P T
기 본법</w>
▁장 벽</w>
▁수 량</w>
▁분 비</w>
▁루 프</w>
▁U I</w>
핑 몰</w>
장 비</w>
유 지</w>
▁지 리</w>
▁이 승
▁불 러</w>
▁로 직</w>
▁S t
담 보</w>
▁행 행</w>
▁내 면</w>
▁내 린</w>
▁C P
▁A P
세 청</w>
▁유 력</w>
▁위 생</w>
▁액세 스</w>
▁서울 대</w>
▁벌어 지</w>
▁3 40</w>
I S</w>
▁와 이어</w>
▁옳 옳</w>
▁안 보</w>
▁아마 도</w>
▁아 빠</w>
▁비 리</w>
▁봐 봐</w>
▁변 동성</w>
▁로 그</w>
▁동 아리</w>
▁능 동</w>
▁귀 속</w>
▁국 소</w>
▁가 하</w>
i m
S H</w>
A M</w>
트 럼</w>
▁한 층</w>
▁직 관</w>
▁이뤄 졌</w>
▁놀 라
▁그 치</w>
▁가 해자</w>
i v
e n</w>
서 리</w>
▁치 유</w>
▁수 신기</w>
▁대 장</w>
▁공 지</w>
▁고 위</w>
▁6 6</w>
▁판 소리</w>
▁코 딩</w>
▁적 절히</w>
▁스 웨
▁쇼 쇼</w>
▁내 세
▁금 요일</w>
현 상</w>
출 기</w>
의 실</w>
워 서</w>
구 나</w>
▁흔 들
▁협 회</w>
▁패 러
▁의료 비</w>
▁운 동
▁발 병률</w>
▁매 수</w>
▁그 게</w>
u t
차 별</w>
수 성</w>
셈 블리</w>
▁회 전
▁최 신</w>
▁원 료</w>
▁애 플</w>
▁아 프리카</w>
▁사 로잡</w>
▁비정 규직</w>
▁본 부</w>
▁변 조</w>
▁고등 학생</w>
▁I D</w>
D L</w>
합 회</w>
채 널</w>
인 과</w>
온 도</w>
모 드</w>
▁현 안</w>
▁체 류</w>
▁철 회</w>
▁전 사</w>
▁설 득</w>
▁고 향</w>
▁10 3</w>
학 기</w>
펀 드</w>
성 자</w>
▁호 응</w>
▁영 구</w>
▁백 악
▁김 동
▁경 구</w>
I A</w>
피 해</w>
집 니다</w>
년 층</w>
▁존 존</w>
▁압 압</w>
▁숙 박</w>
▁산 림</w>
▁눈 물</w>
대 비</w>
▁화 성</w>
▁호 르몬</w>
▁외 래</w>
▁스펙 트럼</w>
▁과 잉</w>
▁I P
은 이</w>
시 예</w>
과 목</w>
▁엑 스
▁소 변</w>
▁멀 리</w>
▁매 주</w>
▁마 친</w>
c h
출 산</w>
주 간</w>
세 율</w>
미 나</w>
미 경</w>
▁한 다면</w>
▁접 지</w>
▁잠 재
▁연 휴</w>
▁시 키</w>
▁CC TV</w>
소 장</w>
바 지</w>
귀 분석</w>
▁퇴 원</w>
▁인 류</w>
▁어 르신</w>
▁공 존</w>
아 이</w>
▁분 노</w>
▁부 대</w>
▁남 부</w>
▁기 상</w>
▁금 전</w>
▁200 1</w>
M P</w>
정 도</w>
실 험</w>
소 득
목 표</w>
▁현 저히</w>
▁편 의점</w>
▁인 덱스</w>
▁연결 부</w>
▁소 년</w>
▁부 산
▁보 증</w>
티 스트</w>
탄 올</w>
친 다</w>
진 다고</w>
부 채</w>
관 광
▁할 지</w>
▁써 써</w>
▁세 종</w>
▁상 임</w>
협 정</w>
▁엄청 난</w>
▁백악 관</w>
▁백 신</w>
▁마이 크로
▁μ μ</w>
e t</w>
준 비</w>
요 금</w>
▁예 수</w>
▁숲 숲</w>
▁다이 어
▁갱 신</w>
▁강 좌</w>
▁3 60</w>
휘 발성</w>
▁히 터</w>
▁특 화</w>
▁유 저</w>
▁소 관</w>
했 었</w>
프레 임</w>
퍼 스</w>
수 술</w>
메 이션</w>
▁외 환</w>
▁앞 둔</w>
▁부 총리</w>
▁미 생물</w>
▁F TA</w>
▁C O</w>
전 증</w>
시 다</w>
▁파 동</w>
▁통 일
▁징 후</w>
▁수 송</w>
▁도 중</w>
▁대 장
▁결 절</w>
▁8 2</w>
정 신</w>
오 프</w>
명 회</w>
▁휴대 폰</w>
▁트 리
▁재 량</w>
▁유 학</w>
▁시 내</w>
▁수 학자</w>
▁목 적지</w>
▁기 저</w>
▁객 실</w>
▁c m</w>
발 히</w>
려 서</w>
▁혁 명</w>
▁허 리</w>
▁함 양</w>
▁여 학생</w>
▁소 득세</w>
▁명 의</w>
▁맥 주</w>
▁마 리</w>
▁대 목</w>
▁결 정
o p
어 스</w>
소득 층</w>
▁화 물</w>
▁형 광</w>
▁표 적</w>
▁평 균
▁재 해</w>
▁이 상
▁아니 한다</w>
▁신 청서</w>
▁계 계</w>
행 법</w>
▁활 발히</w>
▁인 플
▁모 호</w>
▁끊 끊</w>
▁국 방</w>
A R</w>
협 의</w>
추 진</w>
체 육</w>
봐 야</w>
됐 으며</w>
▁중 지</w>
▁응 급
▁올 려</w>
▁예 능</w>
▁선 량</w>
▁경 사</w>
a r</w>
계 점</w>
▁호 흡기</w>
▁이 산화</w>
▁이 념</w>
▁오 해</w>
▁살펴 본다</w>
▁반 전</w>
4 3</w>
습 관</w>
소년 단</w>
사 업
레 스테
경 쟁</w>
▁측 벽</w>
▁저 소득층</w>
▁로 드</w>
▁계 열사</w>
여 건</w>
분 배</w>
디 션</w>
공 업</w>
건 축</w>
▁학 기</w>
▁중 시</w>
▁세 법</w>
▁기하 학</w>
▁교통 사고</w>
▁게 시
▁개 발
▁S W</w>
▁상 인</w>
S C</w>
타 운</w>
용 차</w>
염 병</w>
수 증</w>
▁입 찰</w>
▁㈜ ㈜</w>
D F</w>
송 법</w>
라이언 트</w>
▁연구 소</w>
▁매트 릭스</w>
▁도 쿄</w>
▁기 부금</w>
▁고양 이</w>
5 5</w>
용 부</w>
날 로그</w>
▁침 체</w>
▁출 입</w>
▁채 취</w>
▁저 축</w>
▁이 목</w>
▁살 해</w>
▁나 선다</w>
임 자</w>
서 장</w>
마 스</w>
단 부</w>
기 사</w>
▁확 실히</w>
▁안 녕</w>
▁아 날로그</w>
▁시 책</w>
▁시 인</w>
▁생 일</w>
▁방 탄
▁만 일</w>
▁근 근</w>
▁거 절</w>
천 시</w>
순 물</w>
▁추 억</w>
▁스웨 덴</w>
▁서 양</w>
▁살 인</w>
▁바 꿔</w>
▁공 고</w>
▁E C
▁9 1</w>
3 7</w>
통 합</w>
전 형</w>
넥 터</w>
▁한 도</w>
▁평 행</w>
▁코 스</w>
▁출 동</w>
▁찾아 보</w>
▁정 식</w>
▁이 민
▁예 산
▁비 추</w>
▁9 2</w>
2 9</w>
임 스</w>
먼 스</w>
▁치 환</w>
▁집 행
▁이해 관계</w>
▁약 한</w>
▁약 제</w>
▁상 정</w>
▁방 치</w>
▁동 등</w>
▁거 짓</w>
폭 행</w>
파 구</w>
의 학</w>
원 시</w>
실 적</w>
수 색</w>
닙 니다</w>
▁즐 겁</w>
▁아니 한</w>
▁신 용
▁모 델링</w>
▁되 돌
▁9 6</w>
▁7 8</w>
포 먼스</w>
측 면</w>
▁폐 경</w>
▁야 구</w>
▁압 수
▁안 착</w>
▁아 티스트</w>
▁사 법
▁명 절</w>
▁n m</w>
피 던스</w>
패 턴</w>
투 표</w>
카 르
증 후군</w>
어 지</w>
시 스</w>
수 자</w>
▁클 라이언트</w>
▁소 집</w>
▁세 라
▁방탄 소년단</w>
▁모 범</w>
▁둘러 싸</w>
▁그 건</w>
▁거 두</w>
▁』 』</w>
k g</w>
코 리아</w>
청 사</w>
법 상</w>
▁이 성</w>
▁열 처리</w>
▁동 남
▁대 행</w>
▁『 『</w>
▁‧ ‧</w>
▁8 4</w>
▁8 1</w>
텐 트</w>
선 택</w>
분 리</w>
뉴 스</w>
▁화 웨이</w>
▁재 배</w>
▁상 승
▁똑 같</w>
T E</w>
세 액</w>
보 이</w>
▁파 티</w>
▁지 명</w>
▁절 단</w>
▁운 반</w>
▁아 닐</w>
▁병 역</w>
▁미 사일</w>
▁도 금</w>
▁구 할</w>
F R</w>
질 서</w>
버 그</w>
가 정</w>
▁자 기장</w>
▁입 체</w>
▁수 비</w>
▁사 업체</w>
▁돌아 오</w>
▁광 장</w>
▁결 핍</w>
▁I g
▁10 6</w>
투 명</w>
사 지</w>
레스테 롤</w>
▁프 라이
▁트위 터</w>
▁예술 가</w>
▁문 구</w>
▁명 단</w>
▁게 재</w>
산 구</w>
▁최 우
▁청 원</w>
▁일어 났</w>
▁월 요일</w>
▁연 합</w>
▁비 치</w>
▁나 눠</w>
▁5 30</w>
▁13 5</w>
노 총</w>
▁혈 장</w>
▁해 명</w>
▁천 안</w>
▁증 언</w>
▁임 피던스</w>
▁신 발</w>
▁불 순물</w>
▁동 생</w>
▁S U
▁CO PD</w>
▁12 4</w>
V R</w>
플 라
증 자</w>
▁피 아
▁포 토</w>
▁조 합
▁숨 진</w>
▁소 상</w>
▁벤 딩</w>
▁국 경</w>
▁교 재</w>
▁공 약</w>
▁가 해</w>
▁2 12</w>
호 텔</w>
조 달</w>
장 소</w>
상 공</w>
▁지 목</w>
▁증 여</w>
▁어 우
▁생 물</w>
▁불 법
▁개 봉</w>
▁7 4</w>
원 구</w>
▁행 태</w>
▁응 응</w>
▁워 싱
▁안 팎</w>
▁미 술
▁강 릉</w>
테 이너</w>
징 금</w>
실 시</w>
담 당</w>
노 이</w>
끼 리</w>
▁한 식</w>
▁품 품</w>
▁일 요일</w>
▁외 교부</w>
▁애 니
▁쏟 쏟</w>
▁너 희</w>
▁가 짜</w>
▁M RI</w>
▁I n
T O</w>
A T</w>
호 도</w>
학 회</w>
하 우스</w>
심 리</w>
서 구</w>
버 리</w>
백 만</w>
디 자인</w>
▁현 직</w>
▁전 산</w>
▁시 너지</w>
▁송 금</w>
▁빠 진</w>
▁벌 금</w>
▁버 버</w>
▁만 났</w>
▁뉴 뉴</w>
▁경찰 관</w>
체 장</w>
정 비</w>
자 고</w>
구 청장</w>
▁편 익</w>
▁카 테
▁차 세대</w>
▁일어 날</w>
▁이 른</w>
▁보험 금</w>
▁보 낼</w>
▁밟 밟</w>
▁믿 음</w>
▁내 외</w>
▁구 단</w>
▁건 설
신 감</w>
부 처</w>
명 서</w>
▁흘 러
▁퍼 포먼스</w>
▁예 금</w>
▁상 해</w>
▁상 자</w>
▁사 운드</w>
▁문 재</w>
▁당 했</w>
▁검 진</w>
▁H b
러 블</w>
▁후 기</w>
▁효 능</w>
▁형 벌</w>
▁출 현</w>
▁청 약</w>
▁주 류</w>
▁접 목</w>
▁인 버터</w>
▁위 성</w>
▁게 시</w>
u m
종 양</w>
▁형 평</w>
▁여 권</w>
▁먼 먼</w>
▁가 벼
▁R A</w>
▁I R</w>
▁7 6</w>
혈 관</w>
비 르</w>
보 수</w>
▁차 이점</w>
▁중 립</w>
▁이 질</w>
▁스테 로이드</w>
▁서 민</w>
▁색 깔</w>
▁높 여</w>
▁I o
화 기</w>
제 재</w>
오 스</w>
▁흔 적</w>
▁한 화</w>
▁편 향</w>
▁투 수</w>
▁잠 금</w>
▁이 혼</w>
▁은 퇴</w>
▁어 셈블리</w>
▁액 티브</w>
▁상 가</w>
▁본 래</w>
▁모 순</w>
▁등 기</w>
▁공 진</w>
▁격 려</w>
▁8 3</w>
뜨 리</w>
가 액</w>
▁특 유</w>
▁추 락</w>
▁차 등</w>
▁지 상</w>
▁연예 인</w>
▁부 산시</w>
▁리 그</w>
▁대리 인</w>
▁끊임 없이</w>
▁Hb A</w>
문 서</w>
라 이드</w>
▁파 리</w>
▁워싱 턴</w>
▁아 닙니다</w>
▁블 랙
▁배 포</w>
▁돼 요</w>
▁덕 덕</w>
▁꽤 꽤</w>
▁곧 바로</w>
▁15 2</w>
평 화</w>
체육 관</w>
▁핸드 폰</w>
▁패 치</w>
▁치료 제</w>
▁짐 짐</w>
▁이 뤄</w>
▁약 정</w>
▁세 력</w>
▁돌 파</w>
▁M O
▁C M
재 판</w>
작 품</w>
생 명</w>
방 문</w>
공 학</w>
▁탑 승</w>
▁타 자</w>
▁차 트</w>
▁전 액</w>
▁여 행
▁애 초</w>
▁신 선</w>
▁수 색</w>
▁모 른다</w>
▁매 개
▁댄 스</w>
▁구 강</w>
효 소</w>
인 터
마 리</w>
릅 니다</w>
▁화 폐</w>
▁지 휘</w>
▁원 심</w>
▁무 죄</w>
▁기관 지</w>
▁국 국</w>
it y</w>
T P</w>
폭 기</w>
철 도</w>
수 인</w>
바 이</w>
▁척 추</w>
▁유 선</w>
▁압수 수색</w>
▁시 계</w>
▁난 방</w>
▁기 조</w>
▁거 친</w>
▁강 연</w>
▁감 수</w>
▁6 20</w>
효 능감</w>
재 난</w>
격 증</w>
▁환 영</w>
▁호 의</w>
▁한 계점</w>
▁파 이프</w>
▁커 넥터</w>
▁누 락</w>
▁나 눌</w>
▁기 한</w>
▁고 시</w>
제 공</w>
당 관</w>
▁중 반</w>
▁유 익</w>
▁심 볼</w>
▁소 극</w>
▁세라 믹</w>
▁분 사</w>
▁무 너
▁따 따</w>
▁드라이 버</w>
▁도 서</w>
▁단 장</w>
▁깨 끗</w>
▁고 대</w>
▁계 면</w>
e d
특 별</w>
레 드</w>
근 로자</w>
건 비</w>
▁트렌 드</w>
▁적 자</w>
▁자 치
▁쓰 이</w>
▁신 입</w>
▁스케 줄</w>
▁새 해</w>
▁맨 맨</w>
▁다 공
▁뇌 졸
▁그래 핀</w>
▁개 체</w>
o u
수 학</w>
고 용</w>
결 제</w>
▁편 광</w>
▁콜 콜</w>
▁컨 테이너</w>
▁직 직</w>
▁중 국인</w>
▁봉 지</w>
전 환</w>
운 동
▁항 원</w>
▁파트 너</w>
▁출 근</w>
▁즐거 움</w>
▁재 활</w>
▁어우 러
▁스토 리지</w>
▁수 탁</w>
▁수 령</w>
▁세 션</w>
▁부적 절</w>
▁발 령</w>
▁모 았</w>
▁모 션</w>
▁마 스터</w>
▁경제 학</w>
▁O L
▁CE O</w>
유 아</w>
되 게</w>
▁카카 오</w>
▁총 회</w>
▁젊 은이</w>
▁열 차</w>
▁범 범</w>
▁뱅 크</w>
▁돌 출부</w>
▁고령 화</w>
▁고 속</w>
총 장</w>
에 이터</w>
서 는</w>
메 달</w>
구 간</w>
▁혼 인</w>
▁타 임</w>
▁아름 다
▁산 모</w>
▁사망 자</w>
▁무 인</w>
▁둘 레</w>
▁뇌졸 중</w>
i s</w>
조 선</w>
연 합회</w>
어 진</w>
다 음</w>
너 스</w>
격 차</w>
▁해 결
▁트렌 치</w>
▁체 감</w>
▁쏟 아
▁실 용</w>
▁식 별
▁상 수</w>
▁보 증
▁떨어 졌</w>
▁단 면도</w>
▁Io T</w>
▁I S
in e</w>
C P</w>
호 화</w>
티 스</w>
취 도</w>
진 구</w>
지 요</w>
서 부</w>
▁파 형</w>
▁투 과
▁옮 겨</w>
▁부 정
▁방 북</w>
▁고 양</w>
▁P P
점 수</w>
계 획
▁합 류</w>
▁학 대</w>
▁하이 브
▁표 준
▁장 애인</w>
▁인 건비</w>
▁야 간</w>
▁슈 퍼</w>
▁방문 객</w>
▁궁 금
맨 드</w>
▁회 원
▁행 보</w>
▁정 립</w>
▁잇 잇</w>
▁이뤄 질</w>
▁유 래</w>
▁열 악</w>
▁열 람</w>
▁액 션</w>
▁베이 징</w>
▁목 숨</w>
▁만 료</w>
▁리 뷰</w>
▁당 뇨</w>
▁넘 치</w>
▁I M
▁13 3</w>
다 임</w>
개 인</w>
▁합 격</w>
▁파 급</w>
▁일본 인</w>
▁때 로</w>
▁도 핑</w>
▁O S</w>
D I</w>
출 구</w>
비 스
분 포</w>
북 도</w>
▁포 항</w>
▁의 제</w>
▁선 적</w>
▁사업 비</w>
▁보호 자</w>
▁들어 간</w>
▁과 징금</w>
▁고 마
▁8 10</w>
a d
3 8</w>
이 행</w>
수 도</w>
럭 시</w>
드 릴게요</w>
▁성 실</w>
▁북 측</w>
▁내 원</w>
▁관 장</w>
추 행</w>
이 전</w>
기 자</w>
▁탄 탄</w>
▁압 도</w>
▁쇼 핑몰</w>
▁세 제</w>
▁석 탄</w>
▁병 렬</w>
▁반응 기</w>
▁냄 새</w>
▁관 절염</w>
▁경 도</w>
▁감 축</w>
▁11 9</w>
I P</w>
C S</w>
4 4</w>
트 륨</w>
키 스탄</w>
광 고</w>
▁투 약</w>
▁컨트 롤</w>
▁전 도</w>
▁이 명
▁애니 메이션</w>
▁사 교육</w>
▁부 패</w>
▁메 르
▁대 두</w>
▁당 선</w>
▁단 서</w>
▁내 내</w>
▁기 하</w>
▁걸 렸</w>
▁갤 럭시</w>
▁D C</w>
학 과</w>
하 우</w>
토 록</w>
세 점</w>
▁흔 하</w>
▁환경 부</w>
▁해 체</w>
▁하이브 리드</w>
▁플 러
▁진 행
▁정 할</w>
▁재 직</w>
▁재 산세</w>
▁생 길</w>
▁비트 코인</w>
▁발 간</w>
▁담 론</w>
▁누 리</w>
▁노 화</w>
▁내 포</w>
▁국 면</w>
▁공 직</w>
▁경기 장</w>
▁8 7</w>
en t
품 질</w>
용 기</w>
▁활 력</w>
▁투 석</w>
▁커 질</w>
▁일 각</w>
▁이재 명</w>
▁아마 존</w>
▁불 안
▁군 집</w>
▁과 일</w>
▁P E
4 8</w>
킨 다</w>
감 독
▁평 탄</w>
▁에 어</w>
▁솔 루션</w>
▁버 리</w>
▁대 변</w>
▁노 즐</w>
▁국 장</w>
패 드</w>
징 수</w>
소 심</w>
비스 업</w>
벤 처</w>
발 기</w>
노 조</w>
기 지</w>
▁토 큰</w>
▁오 차</w>
▁아 예</w>
▁손 님</w>
▁소 위</w>
▁세 포
▁섬유 증</w>
▁병 력</w>
▁미 친</w>
▁과 학자</w>
▁과 다</w>
▁거 시</w>
▁U S
▁I P</w>
▁3 7
기 한</w>
▁하 노이</w>
▁편 견</w>
▁파 산</w>
▁칼 슘</w>
▁총 선</w>
▁분 화</w>
▁레 지
▁기 공</w>
▁19 70</w>
T S</w>
배 우</w>
▁코 치</w>
▁조 심</w>
▁인 격</w>
▁아 우
▁시 중</w>
▁깨 깨</w>
▁김 치</w>
▁김 경
▁6 9</w>
조 항</w>
이 도</w>
시 킴</w>
▁편 하</w>
▁탑 탑</w>
▁주 된</w>
▁세 입</w>
▁밀 밀</w>
▁문 턱</w>
▁드 문</w>
▁대 중
▁경 위</w>
▁7 7</w>
▁20 2</w>
▁2 21</w>
G F</w>
필 터</w>
▁파 생</w>
▁자 신감</w>
▁액 액</w>
▁생 애</w>
▁매니 저</w>
▁늘어 날</w>
▁공 조</w>
▁간경 변</w>
D C</w>
상 식</w>
문 점</w>
렇 지만</w>
▁캠 프</w>
▁추 이</w>
▁진 상</w>
▁이 슬
▁웨 어</w>
▁염 색</w>
▁실 종</w>
▁시 험
▁숙 소</w>
▁성 폭행</w>
▁선 거
▁복 제</w>
▁물 리
▁머 물</w>
▁뇌 물</w>
▁김 현
▁그 렇지만</w>
▁S i
하 고</w>
인 증</w>
와 서</w>
사무 소</w>
바이 러스</w>
▁친 절</w>
▁세 분</w>
▁모 집단</w>
▁마 음
▁M E
안 보</w>
수 석</w>
부 전</w>
랫 폼</w>
냅 니다</w>
▁충 실</w>
▁출 구</w>
▁즐 거운</w>
▁종 결</w>
▁전 수</w>
▁적 외선</w>
▁앞 선</w>
▁세 미나</w>
▁떠오 르</w>
▁나 뉘</w>
쳐 야</w>
일 지</w>
인 상</w>
고 등학교</w>
▁환 원</w>
▁폭 넓</w>
▁패러 다임</w>
▁증 폭기</w>
▁응급 실</w>
▁음식 점</w>
▁7 10</w>
인 권</w>
대 장</w>
▁한 쪽</w>
▁카테 고리</w>
▁증 증</w>
▁종 사</w>
▁점 진</w>
▁매 월</w>
▁대 거</w>
▁닿 닿</w>
▁담 겼</w>
▁나 름</w>
▁굿 굿</w>
▁S L
▁9 8</w>
재 생</w>
스토 랑</w>
노 인</w>
▁파 업</w>
▁중 기</w>
▁점 포</w>
▁이 스
▁슬 롯</w>
▁너 무
▁끼 끼</w>
▁끝 내</w>
▁개 구부</w>
해 안</w>
항 목</w>
커 스</w>
주 파</w>
서 류</w>
▁상관 없이</w>
▁미 미</w>
▁대중 교통</w>
▁군 인</w>
H z</w>
영 자</w>
베 이</w>
린 더</w>
▁｢ ｢</w>
▁폴리 머</w>
▁잇따 라</w>
▁서 초
▁부 스</w>
▁밀 집</w>
▁4 40</w>
R P</w>
5 4</w>
윤 리</w>
스 팅</w>
기 법</w>
공 동</w>
결 합</w>
▁표 지</w>
▁페 스티벌</w>
▁지 인</w>
▁외 주</w>
▁야 외</w>
▁아 미
▁시 원</w>
▁성 숙</w>
▁브 리
▁동 장</w>
▁다 룬</w>
▁가 요</w>
▁P A</w>
위 수</w>
영 리</w>
▁지 역
▁중 학생</w>
▁중 력</w>
▁조 직
▁임 용</w>
▁웨이 퍼</w>
▁용 해</w>
▁실 물</w>
▁식별 자</w>
▁뷰 뷰</w>
▁분 수</w>
▁박 람회</w>
▁몸 체</w>
▁먼 지</w>
▁내 릴</w>
▁끈 끈</w>
▁기울 이</w>
▁고 지</w>
▁C V
▁8 8</w>
▁199 7</w>
as e</w>
센 티브</w>
래 요</w>
근 무</w>
▁｣ ｣</w>
▁플 레이</w>
▁퍼 지</w>
▁토론 회</w>
▁택 배</w>
▁진행 할</w>
▁일 어난</w>
▁예산 안</w>
▁시 신</w>
▁송 신기</w>
▁상승 세</w>
▁부 딪
▁높 였</w>
▁노 하우</w>
▁노 원구</w>
▁나 설</w>
▁간 부</w>
▁가 로</w>
▁8 6</w>
k m</w>
으 니까</w>
업 소</w>
승 자</w>
▁효 용</w>
▁패 스</w>
▁콜 레스테롤</w>
▁선 호도</w>
▁별 다른</w>
▁몰 랐</w>
▁대 개</w>
▁느 껴</w>
o g
장 자리</w>
▁해결 책</w>
▁커뮤니 케이션</w>
▁커 맨드</w>
▁진 흥</w>
▁진 심</w>
▁재 능</w>
▁우 위</w>
▁비 아</w>
▁브 레
▁국 적</w>
▁골 반</w>
▁개 인
en t</w>
e p
3 9</w>
퍼 런스</w>
짜 리</w>
연 대</w>
여 서는</w>
미 술</w>
다 보</w>
다 공
끄 러
▁출 자</w>
▁접 접</w>
▁양 태</w>
▁수 주</w>
▁너무 나</w>
법 론</w>
▁케 이
▁취 득세</w>
▁인 센티브</w>
▁워 크
▁쏠 리</w>
▁무 더
▁교 역</w>
▁i n
포 럼</w>
▁포 럼</w>
▁추 산</w>
▁증 발기</w>
▁이 정
▁오 리
▁역 설</w>
▁미 러</w>
▁남 학생</w>
▁규 격</w>
▁고 조</w>
▁고 기</w>
▁강 점</w>
▁11 00</w>
생 아</w>
노 드</w>
▁중 동</w>
▁정의 당</w>
▁유 니
▁운 항</w>
▁어려 워
▁소 모</w>
▁샘 플링</w>
▁된 다면</w>
▁거 동</w>
c e</w>
서 블</w>
▁히 트</w>
▁회원 국</w>
▁포 털</w>
▁평균 값</w>
▁터 터</w>
▁증 권
▁이 게</w>
▁아닌 지</w>
▁수 백</w>
▁소 거</w>
▁미 소</w>
▁며 칠</w>
▁기 어</w>
▁7 9</w>
폴 리오</w>
쳐 서</w>
요 자</w>
공 자</w>
▁침 대</w>
▁운 송
▁신 임</w>
▁반 경</w>
▁레 스토랑</w>
▁가 상
클 럽</w>
시 즌</w>
동 조합</w>
▁하 천</w>
▁푸 푸</w>
▁최 악</w>
▁조합 원</w>
▁전 세</w>
▁외 면</w>
▁어 휘</w>
▁수 영</w>
▁그리 스</w>
▁강 요</w>
u s
판 매</w>
으 신</w>
복 합</w>
다 란</w>
교 예</w>
▁학 과</w>
▁표 창</w>
▁특 검</w>
▁임 상
▁대 우</w>
▁나 아
▁걸 릴</w>
l o
T X</w>
노동 부</w>
광 부</w>
▁자 격증</w>
▁이 수</w>
▁약 관</w>
▁습 도</w>
▁백 화점</w>
▁묶 묶</w>
▁류 류</w>
▁넘 어서</w>
▁궁금 증</w>
▁강 서구</w>
t er
산 염</w>
▁항 소심</w>
▁플 랫폼</w>
▁폭 로</w>
▁창 원</w>
▁잠재 력</w>
▁의 거</w>
▁없 애</w>
▁멀 티
▁내 수</w>
흐 름</w>
▁입 출력</w>
▁입 금</w>
▁음 원</w>
▁부 근</w>
▁대법 관</w>
▁네 이버</w>
▁고 무</w>
▁K BS</w>
▁D A
R A
올 림픽</w>
보 조</w>
▁해 상도</w>
▁판 독</w>
▁챔 피
▁찾아 볼</w>
▁지난 주</w>
▁조 율</w>
▁잔 류</w>
▁선 배</w>
▁생 리</w>
▁무 한
▁메 모</w>
▁메 메</w>
▁디 코더</w>
▁대 입</w>
▁김 종
▁199 8</w>
포 트</w>
투 스</w>
지 침</w>
실 습</w>
소 판</w>
기 계</w>
고 사</w>
▁태 아</w>
▁원 가</w>
▁안 심</w>
▁슬 라이
▁가 장자리</w>
▁S S
at e</w>
U S</w>
한 가요</w>
케 어</w>
아 동</w>
식 회사</w>
설 비</w>
보 전</w>
밀 히</w>
기술 원</w>
▁트 레이
▁최 창
▁응 력</w>
▁살 리</w>
▁복 사</w>
▁물 러
▁문 법</w>
▁그 럴</w>
▁고 위험</w>
▁가져 오</w>
▁가상 현실</w>
4 6</w>
트 랙</w>
르 트</w>
▁판 문점</w>
▁언 론
▁양 형</w>
▁액 정</w>
▁신 생아</w>
▁승 용차</w>
▁수 거</w>
▁발 주</w>
▁반 박</w>
▁그 림
카 인</w>
수 소</w>
분 간</w>
▁횡 령</w>
▁회 생</w>
▁홀 로</w>
▁포 스트</w>
▁탐 지</w>
▁우 우</w>
▁무 려</w>
▁득 점</w>
▁당 분간</w>
▁놓 여</w>
▁납 품</w>
▁고양 시</w>
u s</w>
i f
일 자리</w>
유 예</w>
▁해 방</w>
▁텔 레
▁코 리아</w>
▁정 답</w>
▁임 차
▁외 상</w>
▁아니 면</w>
▁돌 려
▁계약 서</w>
▁간 경</w>
▁12 00</w>
K D</w>
트 폴리오</w>
스 포츠</w>
구 체</w>
▁테 마</w>
▁추 출물</w>
▁철 저히</w>
▁대 피</w>
▁나 눔</w>
▁기울 기</w>
▁급 속</w>
분 해</w>
로 움</w>
가 세</w>
▁플렉 서블</w>
▁입 국</w>
▁위 함</w>
▁오 일</w>
▁영 화제</w>
▁어 른</w>
▁성 남</w>
▁농 산물</w>
▁관 심사</w>
▁검 출기</w>
▁9 7</w>
퍼 센트</w>
임 대</w>
소 송법</w>
근 로</w>
공 식</w>
▁화 해</w>
▁취 미</w>
▁정 해</w>
▁접 착제</w>
▁유 한</w>
▁염 두</w>
▁배 울</w>
▁넷 째</w>
▁공 연장</w>
▁각 기</w>
F T</w>
신 경</w>
변 동</w>
데 이</w>
다공 증</w>
▁활 성
▁불 교</w>
▁발 생
▁모 이</w>
▁라 디오</w>
▁두려 움</w>
▁노 이즈</w>
▁결 결</w>
▁개 막</w>
형 식</w>
위 탁</w>
석 자</w>
▁폐 암</w>
▁커 다란</w>
▁증 인</w>
▁접 종</w>
▁유 관</w>
▁악 기</w>
▁수 위</w>
▁브 렉</w>
▁발 사</w>
▁동 전</w>
▁대 구
▁다 운
▁국 세청</w>
▁공 단</w>
▁고 소</w>
채 무</w>
전 시</w>
시 효</w>
수 기</w>
쇼 핑</w>
보 조금</w>
료 비</w>
들 이</w>
▁향 향</w>
▁채 우</w>
▁준 공</w>
▁정 교</w>
▁어 드레스</w>
▁시 공</w>
▁뮤 직</w>
▁당 한</w>
▁냉각 수</w>
▁기 증</w>
F P</w>
학 금</w>
지 지</w>
메 인</w>
대 표
기 심</w>
▁플 립</w>
▁주 간</w>
▁승 계</w>
▁소 규모</w>
▁비 활성</w>
▁명 령
▁나 사</w>
▁골 다공증</w>
▁개 폐</w>
▁9 4</w>
R E
N G</w>
혈 구</w>
통 계</w>
유 치</w>
세 트</w>
산 지</w>
검 진</w>
▁프로 그래
▁특별 법</w>
▁사 고
▁비대 칭</w>
▁비 서</w>
▁매 핑</w>
▁동 참</w>
▁다공 성</w>
▁낫 낫</w>
▁개 통</w>
▁an d</w>
▁N S
▁7 20</w>
G A</w>
4 7</w>
지 급</w>
증 가</w>
연 자</w>
시 피</w>
대 응</w>
국 민</w>
▁효 능감</w>
▁쾌 적</w>
▁증 발</w>
▁조 처</w>
▁정 류
▁잦 잦</w>
▁유 럽
▁원 전</w>
▁스 텐</w>
▁본 원</w>
▁발 목</w>
▁공 통
주 사</w>
수 원</w>
국 적</w>
▁참 석자</w>
▁작 곡</w>
▁유럽 연합</w>
▁아 프</w>
▁성 명</w>
▁선 율</w>
▁맑 맑</w>
▁드러 냈</w>
▁김 용
▁S O
▁S C
▁H P
▁Fi g
▁A R</w>
I I</w>
A P</w>
5 00</w>
입 구</w>
보 증</w>
▁회 귀분석</w>
▁파 주</w>
▁취 업자</w>
▁셋 셋</w>
▁서초 구</w>
▁상 측</w>
▁상 시</w>
▁비 싸</w>
▁방 열</w>
▁반 하</w>
▁밀 착</w>
▁리 듬</w>
▁굳 이</w>
▁게 이
▁가 압</w>
시 로</w>
▁현 미경</w>
▁풍 경</w>
▁출 마</w>
▁영 화
▁사 찰</w>
▁들 여
▁돌 기</w>
5 7</w>
천 억</w>
예 의</w>
대 문</w>
대 문
▁환 환</w>
▁합 산</w>
▁프로 브</w>
▁칼 칼</w>
▁저 출산</w>
▁으 로부터</w>
▁스 캐
▁샀 샀</w>
▁빌 려</w>
▁랜 덤</w>
▁녹 음</w>
▁경 상
▁견 제</w>
▁건 의</w>
▁6 30</w>
합 리</w>
진 기</w>
지 인</w>
다 리</w>
▁컵 컵</w>
▁최창 식</w>
▁지 배
▁영 수증</w>
▁수 년</w>
▁배 운</w>
▁몫 몫</w>
▁모니 터</w>
▁면 허</w>
▁두 산</w>
▁고 문</w>
i t</w>
지 향</w>
재 원</w>
자 이너</w>
분 쟁</w>
바 이트</w>
룬 다</w>
검 토</w>
▁퇴 근</w>
▁중 합체</w>
▁조 약</w>
▁전 위</w>
▁장 애
▁유 료</w>
▁변 위</w>
▁범 죄
▁방 과</w>
▁반 해</w>
▁밑 밑</w>
▁독립 성</w>
▁고 안</w>
틸 렌</w>
소비 자</w>
상 승</w>
▁일으 킬</w>
▁인 코딩</w>
▁유 족</w>
▁세 그
▁보 인
▁멋 진</w>
▁경 유</w>
잡 이</w>
으 려고</w>
요 구</w>
문 회</w>
▁화 학식</w>
▁허 락</w>
▁필 터링</w>
▁포 트폴리오</w>
▁탄 핵</w>
▁커 졌</w>
▁출 제</w>
▁철 거</w>
▁진 리</w>
▁유 망</w>
▁원 본</w>
▁숨 지</w>
▁수 시로</w>
▁상 한</w>
▁사법 부</w>
▁부 드러
▁발 화</w>
▁명 목</w>
▁런 던</w>
▁래 치</w>
▁달 려</w>
▁근 위</w>
▁가져 올</w>
▁C o
R NA</w>
티 즌</w>
사 이</w>
▁팀 장</w>
▁취 할</w>
▁췌장 염</w>
▁정 면</w>
▁적 당</w>
▁의 자</w>
▁스 택</w>
▁서 비스업</w>
▁삼 각형</w>
▁김 태
▁경영 진</w>
▁D B</w>
es t</w>
통 화</w>
처 벌</w>
주 제</w>
장 감</w>
드 릴</w>
▁증 식</w>
▁전 승</w>
▁이뤄 진</w>
▁유 기
▁세 균</w>
▁부 위원장</w>
▁복 합체</w>
▁달라 진다</w>
▁균 열</w>
▁국 고</w>
▁걸 린</w>
▁거 울</w>
으 세요</w>
마 켓</w>
래 그</w>
▁하 중</w>
▁치 명</w>
▁좌 석</w>
▁이 견</w>
▁월 드</w>
▁아쉬 움</w>
▁시 상식</w>
▁스프 링</w>
▁스위 스</w>
▁생산 량</w>
▁명령 어</w>
▁기술 력</w>
▁국 무
▁계 단</w>
▁거 주자</w>
▁가벼 운</w>
▁s t
요 원</w>
밸 브</w>
년 기</w>
▁지켜 보</w>
▁지 켜</w>
▁임대 료</w>
▁악 성</w>
▁소 송
▁불안 감</w>
▁불법 행위</w>
▁든 다</w>
▁고 르</w>
▁M BC</w>
▁D P
▁8 9</w>
i p
질 량</w>
지 서</w>
보 고</w>
마 자</w>
닉 스</w>
가 치
▁헬 스</w>
▁피 곤</w>
▁터 미널</w>
▁일 면</w>
▁옮 기</w>
▁블 라
▁매 립</w>
▁마 찰</w>
▁대 금</w>
▁글 자</w>
▁국 민
▁강 아지</w>
l e
B L</w>
축 물</w>
선 형</w>
▁트 래
▁크리스 마스</w>
▁직 렬</w>
▁자 사</w>
▁의료 진</w>
▁외 관</w>
▁연 행</w>
▁아름 답</w>
▁복 복</w>
▁법 규</w>
▁던 지</w>
▁노동 조합</w>
▁기 둥</w>
▁귀 국</w>
▁굴 절</w>
▁경 주</w>
▁감 정
▁h h</w>
4 9</w>
제 어</w>
▁플러 그</w>
▁총 수</w>
▁청 주</w>
▁줬 줬</w>
▁교 장</w>
▁Fig ure</w>
i r
축 구</w>
청 인</w>
비 트</w>
분 위</w>
▁협 정</w>
▁하 원</w>
▁편 입</w>
▁탱 크</w>
▁중 합</w>
▁인 장</w>
▁이 집
▁유 죄</w>
▁벌 였</w>
▁발 의</w>
▁미 팅</w>
▁누 르</w>
▁네 덜
▁남 양
▁그 저</w>
▁경 매</w>
▁3 01</w>
주 운전</w>
르 티
▁허 브</w>
▁지원 금</w>
▁음 주운전</w>
▁올 라</w>
▁아닌 가</w>
▁빠 졌</w>
▁방 영</w>
▁매 도</w>
▁만 기</w>
▁대 인</w>
▁다 행</w>
▁기 질</w>
▁귀 사</w>
vi r</w>
박 물관</w>
▁피아 노</w>
▁클래 스</w>
▁캐 리어</w>
▁창 립</w>
▁줄어 든</w>
▁조 회</w>
▁접 어
▁일 부분</w>
▁아 베</w>
▁성 사</w>
▁로 컬</w>
▁돌 입</w>
▁다 채</w>
▁고 려
▁객 관
▁C P</w>
▁9 3</w>
행 히</w>
평 양</w>
침 해</w>
청 소년</w>
조 기</w>
졌 으며</w>
시켜 야</w>
부 민</w>
▁터 널</w>
▁인 문</w>
▁익 명</w>
▁어울 리</w>
▁스튜 디오</w>
▁스 탠
▁세그 먼트</w>
▁뷰 티</w>
▁받아들 여</w>
▁롤 롤</w>
▁닫 닫</w>
▁교 반</w>
▁갭 갭</w>
촉 직</w>
▁청 각</w>
▁찬 찬</w>
▁집 값</w>
▁중 요
▁작 곡
▁이어 진</w>
▁영 세</w>
▁엇 갈
▁스트 림</w>
▁센 센</w>
▁메 타
▁・ ・</w>
2 00</w>
희 롱</w>
언 어</w>
상 력</w>
▁통계 청</w>
▁침 입</w>
▁제 곱</w>
▁위 대</w>
▁에 지</w>
▁성 희롱</w>
▁레 지스터</w>
▁남 기</w>
▁경제 성장</w>
▁격 리</w>
▁S BS</w>
법 성</w>
공 기</w>
▁텐 데</w>
▁증 가세</w>
▁중 도</w>
▁저 지
▁재 벌</w>
▁우 유</w>
▁시 세</w>
▁슈 퍼
▁뭔 가</w>
▁명 품</w>
▁떼 떼</w>
▁들어 갈</w>
▁도 약</w>
▁기 본법</w>
▁T h
▁4 01</w>
▁11 6</w>
L A</w>
F S</w>
케 이</w>
지 점</w>
원 금</w>
였 음
로 소</w>
로 겐</w>
라 기</w>
강 도</w>
▁호 기심</w>
▁측 정치</w>
▁청 구
▁자 리
▁응 시</w>
▁열 릴</w>
▁심 근</w>
▁신 라</w>
▁멈 추</w>
▁네 티즌</w>
▁S VR</w>
E C</w>
편 차</w>
트로 피</w>
토 리</w>
택 시</w>
인 원</w>
인 드</w>
워 야</w>
버 렸</w>
▁체 력</w>
▁지 장</w>
▁줄 여</w>
▁정치 인</w>
▁정 제</w>
▁저 번</w>
▁얼 음</w>
▁싸 움</w>
▁생 계</w>
▁브 라</w>
▁미친 다는</w>
▁무 언
▁명 문</w>
▁도 산</w>
▁기 증자</w>
▁공 학</w>
▁공 감
▁경찰 청</w>
▁각 호</w>
▁I N
▁20 22</w>
▁2 1
T M</w>
촉 진</w>
인 더</w>
반 수</w>
농 가</w>
▁팩 팩</w>
▁차 폐</w>
▁직 권</w>
▁종 로구</w>
▁정 점</w>
▁점 막</w>
▁절 약</w>
▁잡 음</w>
▁인 명</w>
▁이 윤</w>
▁워크 숍</w>
▁외 식</w>
▁여 겨</w>
▁신 축</w>
▁비 대</w>
▁붉 붉</w>
▁미 니</w>
▁물 리학</w>
▁든 든</w>
▁고 등</w>
▁0 1</w>
자 마자</w>
아 티
아 버지</w>
산 서</w>
려 요</w>
동 생</w>
대 금</w>
단 원</w>
감독 원</w>
▁한 진</w>
▁크 레
▁천 연</w>
▁절 실</w>
▁전 적</w>
▁적 색</w>
▁저 소득</w>
▁위 약</w>
▁외 모</w>
▁상 반</w>
▁몰 리</w>
▁마 세요</w>
▁돼 지</w>
▁농 민</w>
▁네덜 란드</w>
▁과 반수</w>
▁걸 친</w>
측 정</w>
인터 넷</w>
▁치 킨</w>
▁즐 겨</w>
▁줄어 드</w>
▁전 주</w>
▁이어 진다</w>
▁양 질</w>
▁아 카
▁시 그
▁당 하</w>
▁늘어 났</w>
▁꾸 준</w>
▁P M
▁F I
▁13 4</w>
O D</w>
6 5</w>
장 실</w>
업 원</w>
시 청</w>
변 경</w>
덩 이</w>
▁인 형</w>
▁열 려</w>
▁에 칭</w>
▁양 심</w>
▁무 형</w>
▁대 여</w>
▁내 비
▁경 상</w>
▁M C</w>
한 가</w>
일 까</w>
사 면</w>
사 각</w>
가치 세</w>
▁핀 테크</w>
▁패 스트</w>
▁터 빈</w>
▁욕 망</w>
▁세 목</w>
▁상속 인</w>
▁부가 가치세</w>
▁배 관</w>
▁무언 가</w>
▁내 역</w>
▁경 감</w>
▁10 8</w>
u m</w>
L K</w>
A C</w>
6 2</w>
호 인</w>
작 가</w>
완 전</w>
스크 린</w>
성 향</w>
사 랑</w>
네 이트</w>
▁－ －</w>
▁청 산</w>
▁지원 자</w>
▁중 부</w>
▁조 문</w>
▁절 연
▁이슬 람</w>
▁위 안</w>
▁오 가</w>
▁손 쉽</w>
▁민 간
▁권 역</w>
▁국 비</w>
▁게시 판</w>
▁거 점</w>
▁감 당</w>
▁R A
▁2 22</w>
▁14 4</w>
T T</w>
R C</w>
즈 베
조 성</w>
제 기</w>
사 태</w>
보호 법</w>
밸 리</w>
디 아</w>
계 사</w>
▁핸 드</w>
▁포 화</w>
▁치 과</w>
▁진 지</w>
▁정 관</w>
▁전기 차</w>
▁전 직</w>
▁이 사회</w>
▁유 가</w>
▁열 기</w>
▁아 쉽</w>
▁식 단</w>
▁시 계열</w>
▁슬 릿</w>
▁소 폭</w>
▁반 대
▁말 초</w>
▁러 닝</w>
▁관 악
▁고 백</w>
▁k k</w>
통 상</w>
콘 텐츠</w>
카르 타</w>
지 체</w>
자 형</w>
소 비</w>
농 단</w>
▁태 그</w>
▁처 치</w>
▁중요 도</w>
▁연 평균</w>
▁어 두
▁방 사</w>
▁바이 어</w>
▁도 메인</w>
▁S I
▁H I
▁A l</w>
태 도</w>
자 재</w>
소 재</w>
서 요</w>
매 김</w>
▁판 시</w>
▁컨 버터</w>
▁짐 작</w>
▁중 성</w>
▁자리 매김</w>
▁운 명</w>
▁쓰 러
▁면 세점</w>
▁담 관</w>
▁권 위</w>
▁구 매
▁견 인</w>
▁I V</w>
▁C I</w>
H A</w>
폭 시</w>
야 말로</w>
소 수</w>
사 상</w>
라 엘</w>
담 당관</w>
광 장</w>
▁회전 축</w>
▁혈 중</w>
▁탈 락</w>
▁취 재</w>
▁체 납
▁창 고</w>
▁차 질</w>
▁에어 컨</w>
▁십 십</w>
▁빠 져
▁다 운</w>
▁공감 대</w>
▁공 표</w>
▁개발 자</w>
▁강 성</w>
▁갑 작
▁가 리</w>
▁3 000</w>
L P</w>
7 1</w>
캠 프</w>
체 중</w>
천 구</w>
장 법</w>
리 포
로 도</w>
▁헤 더</w>
▁프로 파일</w>
▁포 스터</w>
▁조 별</w>
▁작곡 가</w>
▁위 장</w>
▁역 동</w>
▁수 상자</w>
▁맞 물
▁뛰 어나</w>
▁긴 밀</w>
▁가 전</w>
▁DM Z</w>
▁B L</w>
▁3 8
리 라</w>
▁한 미</w>
▁표 명</w>
▁포 지
▁평 택</w>
▁카 르
▁창 문</w>
▁주 한</w>
▁자 카르타</w>
▁자 외선</w>
▁인 지도</w>
▁이 거</w>
▁울 울</w>
▁연 체</w>
▁안타 까
▁승 진</w>
▁면 책</w>
▁맞 서</w>
▁그 나마</w>
▁개 척</w>
▁OL ED</w>
짓 말</w>
증 서</w>
블 릿</w>
봉 사자</w>
라 이</w>
기 념
▁플 레이
▁투 쟁</w>
▁출 국</w>
▁주 재</w>
▁인 문학</w>
▁유 물</w>
▁우 선
▁아 나
▁비 싼</w>
▁보건 소</w>
▁독 독</w>
▁당 직</w>
▁남 쪽</w>
▁남 북
▁그 날</w>
▁거 짓말</w>
▁가 볍</w>
▁5 50</w>
P C</w>
M C</w>
7 5</w>
5 6</w>
조 화</w>
정 법</w>
점 기</w>
문화 재</w>
마 디</w>
느 라</w>
▁정 공</w>
▁이뤄지 지</w>
▁원 주</w>
▁에 폭시</w>
▁사 외</w>
▁명 성</w>
▁말 기</w>
▁라 이트</w>
▁김 진
▁I F
합 병</w>
좌 관</w>
잖 아</w>
렌 즈</w>
락 세</w>
대 전</w>
거래 법</w>
▁확 확</w>
▁피 할</w>
▁특 례</w>
▁클 수록</w>
▁첫 날</w>
▁인 연</w>
▁유 방
▁외 국어</w>
▁수 차례</w>
▁소 환</w>
▁소 급</w>
▁모 인</w>
▁댐 댐</w>
▁다가 오</w>
▁기 쁨</w>
▁공통 점</w>
▁감 도</w>
▁r r</w>
▁a l</w>
▁M I
▁C I
▁# #</w>
5 8</w>
회 복</w>
데 미</w>
냐 고</w>
▁혈 소판</w>
▁증 거
▁자 라</w>
▁임 산부</w>
▁이명 박</w>
▁이 룰</w>
▁유 전체</w>
▁와 인</w>
▁양 산</w>
▁스트 링</w>
▁성 추행</w>
▁사 이드</w>
▁사 용량</w>
▁벌어 졌</w>
▁로 우</w>
▁딱 딱</w>
▁드 립니다</w>
▁단 기간</w>
▁다 층</w>
▁꿈 꾸</w>
▁고 주파</w>
▁감 싸</w>
▁199 5</w>
티 나</w>
전 도</w>
적 으로</w>
자 율</w>
쓰 기</w>
분 류</w>
부 대</w>
▁환 기</w>
▁포 용</w>
▁체 크
▁집 안</w>
▁정 화</w>
▁정 정</w>
▁우 편</w>
▁어 쩔</w>
▁신 인</w>
▁선 두</w>
▁북 쪽</w>
▁무 산</w>
▁놀라 운</w>
▁고 가</w>
▁A N
▁23 1</w>
▁14 3</w>
F F</w>
B I</w>
창 출</w>
정 자</w>
시 행</w>
스 톤</w>
득 이</w>
강 경</w>
▁힘 입</w>
▁재 화</w>
▁이스 라엘</w>
▁유 전
▁영 업
▁열 풍</w>
▁아무 것</w>
▁부 신</w>
▁봐 야</w>
▁광 진구</w>
▁경 미</w>
▁e t</w>
▁16 1</w>
▁0 01</w>
E S</w>
존 도</w>
자 격</w>
란 트</w>
거 부</w>
▁피 사체</w>
▁탁 월</w>
▁카카 오
▁제 언</w>
▁이어 져</w>
▁유방 암</w>
▁세 정</w>
▁세 로</w>
▁상 표</w>
▁브레 이크</w>
▁불 공정</w>
▁명 명</w>
▁마 그
▁림프 절</w>
▁라이 프</w>
▁넘어 가</w>
▁기 차</w>
▁C J</w>
천 히</w>
양 성</w>
소 스</w>
사 령
▁흥 행</w>
▁휠 휠</w>
▁플 라</w>
▁판매 량</w>
▁천 천히</w>
▁짙 짙</w>
▁자 칫</w>
▁외 곽</w>
▁옮 겨
▁연 임</w>
▁여 름
▁실 외</w>
▁보 드</w>
▁법 학</w>
▁머 물
▁다이어 트</w>
▁김 재
▁고 개</w>
S I</w>
D D</w>
합 의</w>
뱅 크</w>
강 화</w>
▁한 하</w>
▁한 때</w>
▁페 르
▁판 별</w>
▁파 이
▁접 할</w>
▁우 즈베
▁외 과</w>
▁영 등
▁신 화</w>
▁신 앙</w>
▁부 터</w>
▁보 입니다</w>
▁고 수</w>
▁L A</w>
▁C KD</w>
R A</w>
일 으
은 지</w>
신 탁</w>
막 염</w>
그래 피</w>
▁종 업원</w>
▁일 산</w>
▁불 가</w>
▁농 협</w>
▁긴 장감</w>
▁기다 려</w>
▁극 히</w>
▁골 프
▁고 위
▁결 승</w>
▁23 2</w>
u b
M R</w>
B O</w>
테 리아</w>
취 량</w>
초 등</w>
워 진</w>
아 제</w>
시 점</w>
동 부</w>
▁텔레 비전</w>
▁테 크
▁총 액</w>
▁증 기</w>
▁장애 물</w>
▁장 부</w>
▁장 단</w>
▁자 립</w>
▁이 바지</w>
▁의 정부</w>
▁상 금</w>
▁사 인</w>
▁사 내</w>
▁부 득이</w>
▁미 국인</w>
▁라이 브</w>
▁돌 보</w>
▁돌 리</w>
화 성</w>
으 려는</w>
사 이
▁집 중
▁증 강</w>
▁이민 자</w>
▁융 융</w>
▁유 산</w>
▁와 이
▁서 부</w>
▁비 로소</w>
▁분 과</w>
▁발 부</w>
▁디 자이너</w>
▁등 록
▁누 설</w>
▁나 눈</w>
▁글 루
▁괴 사</w>
▁관 념</w>
▁강 구</w>
▁p op</w>
▁R O
7 2</w>
6 1</w>
페 라</w>
다 시</w>
▁항 암</w>
▁하 측</w>
▁투 기</w>
▁총 체</w>
▁중 견</w>
▁정 성</w>
▁시 차</w>
▁스테 이지</w>
▁생 활
▁비 교
▁블 루
▁보험 자</w>
▁변 이</w>
▁무 조건</w>
▁대 상
▁기 본
▁구 청</w>
▁겨 냥</w>
▁강 세</w>
▁간 과</w>
H O</w>
B M</w>
A g</w>
화 증</w>
취 업</w>
전 류</w>
장 인</w>
어 촌</w>
부 진</w>
무 기</w>
기 회</w>
▁회 동</w>
▁차 장</w>
▁제 조사</w>
▁인플 레이션</w>
▁이집 트</w>
▁의 류</w>
▁아 리
▁시 달
▁수 출
▁송 파구</w>
▁부 천</w>
▁배 웠</w>
▁맞 춰
▁노 트
▁낭 비</w>
p m</w>
e a
5 9</w>
화 문</w>
턴 스</w>
적 화</w>
성 취</w>
리 기</w>
고 받</w>
걸 음</w>
▁회 사법</w>
▁토 양</w>
▁태 블릿</w>
▁여겨 진다</w>
▁압 수</w>
▁선보 였</w>
▁배 움</w>
▁레지 스</w>
▁놓 치</w>
▁기업 가</w>
▁S i</w>
▁19 60</w>
e g
화 면</w>
산 기</w>
부 품</w>
경 영자</w>
▁프로 필</w>
▁징 징</w>
▁정 산</w>
▁아 트</w>
▁신 원</w>
▁롯 데
▁라 벨</w>
▁대 수</w>
▁다 문화
▁김 상
▁기 름</w>
▁공 직자</w>
▁강 행</w>
6 3</w>
▁주 고받</w>
▁유의 성</w>
▁여 파</w>
▁엔 트로피</w>
▁애 착</w>
▁성장 세</w>
▁방 학</w>
▁대 결</w>
▁다 량</w>
▁김 민
▁금 속
▁간 단히</w>
흥 국</w>
실 가스</w>
사 위</w>
농 도</w>
▁한 강</w>
▁피 보
▁진 주</w>
▁정 작</w>
▁장 려</w>
▁온 실가스</w>
▁성 범죄</w>
▁분 담</w>
▁다 행히</w>
▁내 게</w>
▁기 록
▁교 양</w>
▁고령 자</w>
▁경 보</w>
▁겨 울
▁TA CE</w>
▁S B
▁D A</w>
▁2 80</w>
S P</w>
플 러</w>
마 당</w>
도 인</w>
▁혐 오</w>
▁포 맷</w>
▁탭 탭</w>
▁탈 출</w>
▁철 수</w>
▁중 개</w>
▁입 법
▁일 선</w>
▁양 면</w>
▁실 린더</w>
▁수 입
▁세 웠</w>
▁베 어링</w>
▁바 꿀</w>
▁마 크</w>
▁딥 딥</w>
▁끌어 올
▁J J</w>
▁3 11</w>
조 례</w>
은 데요</w>
어 리</w>
봉 투</w>
든 요</w>
대문 구</w>
급 식</w>
거 든요</w>
▁프로세 싱</w>
▁트 트</w>
▁카카오 톡</w>
▁차 선</w>
▁지 닌
▁지 났</w>
▁의 상</w>
▁연 성</w>
▁알 부민</w>
▁심 의회</w>
▁비 장</w>
▁부 수</w>
▁맞 춘</w>
▁뒤 늦</w>
▁대 해선</w>
▁꼽 히</w>
▁걸 려</w>
▁D C
보 원</w>
랜 만</w>
감 소</w>
▁해 킹</w>
▁챔피 언</w>
▁책 무</w>
▁전 무</w>
▁오 랜만</w>
▁앞 장
▁아르 바이트</w>
▁스 팀</w>
▁소 진</w>
▁불러 일으
▁보여 준</w>
▁변 신</w>
▁라 디
▁내려 가</w>
▁나 쁘</w>
▁김 수
▁금 고</w>
▁공 화</w>
▁가 치
▁가 액</w>
▁IC O</w>
현 황</w>
포 인트</w>
조 트</w>
쟁 력</w>
자 연</w>
인 자</w>
부 가</w>
계획 서</w>
▁하 이</w>
▁하 락세</w>
▁진 다</w>
▁중 국어</w>
▁주 식회사</w>
▁전 라
▁입 니다</w>
▁위 해선</w>
▁연 봉</w>
▁선 제</w>
▁상 사</w>
▁비 해서</w>
▁비 상
▁블 레이드</w>
▁모 방</w>
▁마 취</w>
▁롤 러</w>
▁디스 크</w>
▁담 임</w>
▁다운 로드</w>
▁그리 스
▁교 대</w>
▁가 축</w>
▁S D</w>
▁K O
표 현</w>
벨 트</w>
모 임</w>
맥 류</w>
▁혈 전</w>
▁표준 편차</w>
▁코 너</w>
▁착 오</w>
▁지나 가</w>
▁제 자</w>
▁적 법</w>
▁유 추</w>
▁유 리
▁우 세</w>
▁오프 셋</w>
▁생산 자</w>
▁미 성
▁마 침
▁로 서</w>
▁드러 난</w>
▁국무 총리</w>
▁거 듭
▁감 광
이 득</w>
에 겐</w>
아 주</w>
스타 일</w>
세 제</w>
민 주</w>
▁학 학</w>
▁전 향</w>
▁연 일</w>
▁소 감</w>
▁성 매매</w>
▁선 진</w>
▁서 열</w>
P G</w>
▁혼 혼</w>
▁한 복</w>
▁포 상</w>
▁펼 쳤</w>
▁책 정</w>
▁존 경</w>
▁장 래</w>
▁일 괄</w>
▁이 른다</w>
▁유 포</w>
▁우 호</w>
▁양 승
▁싸 싸</w>
▁슬라이 딩</w>
▁미 분</w>
▁돌아 왔</w>
▁CH B</w>
G FR</w>
진 핑</w>
버 린</w>
르 크</w>
경 로</w>
▁후 생</w>
▁홈 런</w>
▁하 드</w>
▁충 성</w>
▁처 한</w>
▁재 무
▁자 석</w>
▁일 회
▁위 로</w>
▁우즈베 키스탄</w>
▁연 준</w>
▁시 진핑</w>
▁승 무원</w>
▁수 요일</w>
▁단 식</w>
▁다 국적</w>
▁극 심</w>
▁교 직</w>
▁개 관</w>
▁P V
▁P OP</w>
▁M et
▁199 9</w>
r an
통 신부</w>
지 라도</w>
접 종</w>
릴 까요</w>
관리 법</w>
▁해 설</w>
▁영 위</w>
▁연 설</w>
▁암 모
▁스 핀</w>
▁사 형</w>
▁사 퇴</w>
▁단 가</w>
▁노 무
▁고 스
▁가 령</w>
▁Z n
▁L i
▁5 40</w>
혜 택</w>
프 로</w>
스 키</w>
명 력</w>
란 색</w>
▁핫 핫</w>
▁카 자
▁진 폭</w>
▁중 계</w>
▁조 향</w>
▁아이 폰</w>
▁수 혜</w>
▁소 식
▁세 척</w>
▁세 운</w>
▁분 석
▁바 인더</w>
▁머 무
▁만 화</w>
▁마 포구</w>
▁마 디</w>
▁담 도</w>
▁교 란</w>
▁관악 구</w>
▁공급 자</w>
▁강 동구</w>
▁m in</w>
▁15 3</w>
y p
e v
헨 티나</w>
키 로</w>
케 이스</w>
머 리</w>
드 리아</w>
▁해 안</w>
▁포 스코</w>
▁치 아</w>
▁성 경</w>
▁서 서
▁산 학</w>
▁배 기</w>
▁모 자</w>
▁먹 거리</w>
▁닮 닮</w>
▁내 려</w>
▁난 이도</w>
▁꺼 내</w>
▁그 려</w>
▁구 도</w>
▁계 시</w>
▁개 막
▁S T</w>
G B</w>
입 부</w>
승 인</w>
분 권</w>
▁흉 기</w>
▁해 수
▁피 로</w>
▁폰 폰</w>
▁터 치
▁치 르</w>
▁인천 시</w>
▁시 효</w>
▁서서 히</w>
▁샌 드
▁사우 디</w>
▁비 자</w>
▁벗 어
▁모 둠</w>
▁동 종</w>
▁다 룰</w>
▁남 한</w>
▁꼽 힌다</w>
▁글 쓰기</w>
▁격 벽</w>
▁L A
▁12 6</w>
N F</w>
일 랜드</w>
영 화제</w>
분 명</w>
득 력</w>
나 갈</w>
기 압</w>
▁현 행법</w>
▁팁 팁</w>
▁통 행</w>
▁책임 자</w>
▁차 기</w>
▁지도 부</w>
▁증 세</w>
▁장 학금</w>
▁우 연</w>
▁연 쇄</w>
▁야 생</w>
▁액 상</w>
▁아시 아
▁신용 카드</w>
▁시 야</w>
▁수 시</w>
▁북 한
▁머 신</w>
▁나 란히</w>
▁끼 치</w>
▁군 대</w>
▁구 름</w>
▁결 혼
▁A S</w>
패 스</w>
판 단</w>
텍 스</w>
테 리어</w>
융 합</w>
워 하</w>
용 수</w>
부 족</w>
물 류</w>
드 렸</w>
▁표 출</w>
▁커 서</w>
▁체 체</w>
▁천 연
▁짚 짚</w>
▁지 휘
▁제 휴</w>
▁여 섯</w>
▁애 노드</w>
▁신경 망</w>
▁설 득력</w>
▁동 부</w>
▁담 낭</w>
▁그 걸</w>
▁공 무</w>
▁I C</w>
9 5</w>
해 양</w>
인 사</w>
사 이드</w>
방 위</w>
박 람회</w>
르티 코
경찰 청</w>
경 쟁력</w>
▁해 법</w>
▁키 보드</w>
▁참 사</w>
▁인 민</w>
▁여 사</w>
▁신 한</w>
▁법 익</w>
▁땀 땀</w>
▁동 화</w>
▁동 행</w>
▁5 000</w>
▁14 5</w>
트 넘</w>
완 화</w>
소 기</w>
글 로
교 실</w>
경 비</w>
▁캘 리포
▁집 권</w>
▁진 동
▁조 영</w>
▁장 시간</w>
▁우 정</w>
▁에 탄올</w>
▁안 쪽</w>
▁신 재</w>
▁빅 뱅</w>
▁변 제</w>
▁민 선</w>
▁리 셋</w>
▁드 루</w>
▁김 병
▁그 쳤</w>
▁고 압</w>
▁고 립</w>
▁가 구
증 상</w>
중 공업</w>
예 술
분 비</w>
모 전</w>
두 리</w>
담 당자</w>
구 장</w>
경 제
개 정</w>
▁청 취</w>
▁수 요자</w>
▁소 액</w>
▁부 른다</w>
▁밀 봉</w>
▁몰 드</w>
▁될 지</w>
▁깜 짝</w>
▁고스 란히</w>
창 조</w>
언 스</w>
상 체</w>
발 전소</w>
료 전지</w>
력 자</w>
대 체</w>
누 리</w>
▁회 절</w>
▁협 박</w>
▁플래 시</w>
▁평 범</w>
▁토 트넘</w>
▁취 향</w>
▁촉 발</w>
▁아르 헨티나</w>
▁소 득
▁볼 륨</w>
▁범죄 자</w>
▁떨어 질</w>
▁들 려
▁데 려
▁대한 항공</w>
▁노무 현</w>
▁끈 다</w>
▁급 등</w>
▁공 론</w>
▁공 격
▁경 관</w>
▁개 개인</w>
▁가져 가</w>
화 국</w>
전 트</w>
▁회 신</w>
▁캐 소드</w>
▁최 고
▁직 종</w>
▁자치 구</w>
▁인 출</w>
▁에 피
▁싱 글</w>
▁소 라</w>
▁상 온</w>
▁사 연</w>
▁비 유</w>
▁미 토
▁몰 려
▁농 지</w>
▁공 립</w>
▁가져 왔</w>
▁199 4</w>
지 기</w>
입 력</w>
원 전</w>
얀 마</w>
선 거
번 에</w>
▁캡 슐</w>
▁오 버
▁아 닐
▁수 습</w>
▁동 결</w>
▁달 랐</w>
▁가치 관</w>
6 4</w>
테 이션</w>
저 항</w>
시 각</w>
스 텔</w>
스 턴</w>
▁후 회</w>
▁환 상</w>
▁협 동</w>
▁칭 찬</w>
▁침 범</w>
▁최우 선</w>
▁이 례</w>
▁오 페라</w>
▁시그 널</w>
▁수 익
▁메르 스</w>
▁노트 북</w>
▁난 소</w>
▁그 랬</w>
▁고 혈압</w>
▁고 생</w>
▁결 성</w>
▁U A
▁15 5</w>
▁* *</w>
진 다면</w>
주 로</w>
제 안</w>
으 러</w>
스 피
사 채</w>
복 지부</w>
랜 차
드 린다</w>
단 체장</w>
▁해 고</w>
▁통 장</w>
▁클래 식</w>
▁침 수</w>
▁중앙 은행</w>
▁임차 인</w>
▁이 기</w>
▁원 유</w>
▁완 공</w>
▁열 전</w>
▁안 내
▁삽 삽</w>
▁베 네
▁방 법론</w>
▁바이 오
▁바이 어스</w>
▁로 이터</w>
▁골 수</w>
▁고 맙</w>
▁가져 야</w>
▁3 12</w>
토 피</w>
줘 야</w>
안 부</w>
신 청서</w>
성 능</w>
로 우</w>
대 원</w>
▁치 수</w>
▁취 한</w>
▁찾아 내</w>
▁적 립</w>
▁워 터</w>
▁어 긋
▁브리 핑</w>
▁벌 인</w>
▁발 전소</w>
▁모 서리</w>
▁로 맨
▁금 메달</w>
▁국 채</w>
▁곡 면</w>
▁거 세</w>
▁M P
n m</w>
이 지
법 규</w>
렉 스</w>
랜차 이즈</w>
▁해 군</w>
▁타이 틀</w>
▁충 청
▁주 권</w>
▁영 재</w>
▁아 웃</w>
▁신 부</w>
▁식 습관</w>
▁보 복</w>
▁벗 벗</w>
▁바 늘</w>
▁메 트</w>
▁도 래</w>
▁당 선
▁나타 났
▁구 미</w>
▁가 난</w>
▁L D
▁E B
▁B P</w>
s on</w>
품 권</w>
칼 리</w>
이 자</w>
사 람</w>
버 시</w>
래 도</w>
기 부</w>
▁환 급</w>
▁확 진</w>
▁합 계</w>
▁피보 험자</w>
▁틈 틈</w>
▁케 이크</w>
▁지 혜</w>
▁주어 진다</w>
▁절 개</w>
▁적 시</w>
▁연 인</w>
▁애 정</w>
▁안 다</w>
▁상 원</w>
▁보건 복지부</w>
▁미 얀마</w>
▁무 척</w>
▁목 격</w>
▁나 트륨</w>
▁구 호</w>
▁L T</w>
▁8 20</w>
지 검</w>
유 발</w>
엑 스</w>
성 원</w>
거 지</w>
각 화</w>
▁홀 더</w>
▁학 설</w>
▁테 이프</w>
▁타 일</w>
▁코 인</w>
▁코 로나</w>
▁카자 흐
▁지 름</w>
▁전 계</w>
▁역 전</w>
▁비 극</w>
▁붙 이</w>
▁발 전
▁미 루</w>
▁매 달</w>
▁뜨 겁</w>
▁드 릴</w>
▁뒤 집</w>
▁동 해</w>
▁동 아시아</w>
▁다 발</w>
▁나 열</w>
▁국 무부</w>
▁공 판</w>
▁골 격</w>
▁17 1</w>
T I</w>
필 름</w>
콘 드리아</w>
창 업</w>
자 유</w>
안 전
아 내</w>
신 용</w>
성 시</w>
발 점</w>
로 스</w>
기 성</w>
▁학 회</w>
▁탈 퇴</w>
▁최 적화</w>
▁집행 유예</w>
▁지 상
▁잠 깐</w>
▁음 반</w>
▁열 거</w>
▁시 멘트</w>
▁스 카
▁소 문</w>
▁민 관</w>
▁메이 저</w>
▁넓 이</w>
▁깨 닫</w>
▁S P</w>
▁D R</w>
▁10 7</w>
E A</w>
할 게요</w>
플 러스</w>
운 송</w>
연 령</w>
양 식</w>
시킨 다는</w>
부 를</w>
보 상</w>
둥 이</w>
도 민</w>
기 획</w>
기 력</w>
그 레이드</w>
▁호 출</w>
▁프로그래 밍</w>
▁조 만
▁자 진</w>
▁예 배</w>
▁안 방</w>
▁신 청인</w>
▁산 업단지</w>
▁사라 졌</w>
▁부 활</w>
▁복 강경</w>
▁민 생</w>
▁무 렵</w>
▁로 지
▁누 출</w>
▁남 긴</w>
▁까 다
▁근 원</w>
▁N FC</w>
▁4 8
9 9</w>
학 급</w>
속 도로</w>
부 세</w>
문화 원</w>
러 시</w>
돌 봄</w>
대 행</w>
▁헌 신</w>
▁해 지</w>
▁한 번</w>
▁카운 터</w>
▁지 형</w>
▁유 예</w>
▁생 태
▁바 르</w>
▁마 비</w>
▁대 단히</w>
▁대 단</w>
▁다 툼</w>
▁나 갔</w>
▁게 스트</w>
▁故 故</w>
하 여</w>
통 신
탄 력</w>
워 졌</w>
야 구</w>
손 실</w>
부 지사</w>
경 화</w>
▁행 사장</w>
▁평 형</w>
▁증권 사</w>
▁조만 간</w>
▁저 조</w>
▁자 이
▁이뤄지 고</w>
▁수 원시</w>
▁분 당</w>
▁부 양</w>
▁병 합</w>
▁배 기
▁반 납</w>
▁미토 콘드리아</w>
▁멤 멤</w>
▁농 림</w>
▁김 포</w>
▁기 침</w>
▁광 화문</w>
▁갤 러리</w>
▁o f</w>
▁C u</w>
▁C H</w>
▁C G
▁A R
▁A M
▁13 6</w>
C R</w>
현 진</w>
합 성</w>
친 화</w>
원 리</w>
영 제</w>
스 마</w>
더 링</w>
느 냐는</w>
구 민</w>
관 장</w>
▁한 창</w>
▁침 습</w>
▁전 처리</w>
▁장 내</w>
▁인 테리어</w>
▁서 사</w>
▁박 테리아</w>
▁레 일</w>
▁램 프</w>
▁드 래그</w>
▁놓 인</w>
▁기준 선</w>
▁기 피</w>
▁그 라운드</w>
▁괴 롭
▁간 극</w>
▁H A
▁C A</w>
▁2 13</w>
i a</w>
3 00</w>
혈 당</w>
중 감</w>
시 장법</w>
블 록</w>
부 하</w>
동 작</w>
각 지대</w>
▁항 의</w>
▁프라이 버시</w>
▁파 트</w>
▁콜 라
▁코스 닥</w>
▁주어 지</w>
▁위 안부</w>
▁원 산지</w>
▁엔 터</w>
▁약 하</w>
▁쏟 아지</w>
▁시 일</w>
▁스 텝</w>
▁기 르</w>
▁금 품</w>
▁그 래</w>
▁경 연</w>
▁강 렬</w>
▁A l
ec t
9 3</w>
9 2</w>
훼 손</w>
타 이드</w>
식 물</w>
산 소</w>
면 허</w>
면 체</w>
던 데</w>
다 이
납 부</w>
공 부</w>
▁힌 지</w>
▁한국 은행</w>
▁통일 부</w>
▁재 건축</w>
▁워 낙</w>
▁연 루</w>
▁안타 깝</w>
▁시 상</w>
▁본 회의</w>
▁모 회사</w>
▁로지 스틱</w>
▁독 창</w>
▁대 학원</w>
▁남 겼</w>
▁근 절</w>
▁굴 곡</w>
▁구성 도</w>
▁구 형</w>
▁G A
K I</w>
플 란트</w>
청 원</w>
정 형</w>
인 수</w>
이 브</w>
보험 료</w>
밴 드</w>
공 유</w>
▁환 수</w>
▁통신 원</w>
▁응 축</w>
▁우 연히</w>
▁여 비</w>
▁에이 전트</w>
▁수 험</w>
▁소 명</w>
▁상 상력</w>
▁분 량</w>
▁복 무</w>
▁당 기</w>
▁넌 넌</w>
▁경 피</w>
▁거 뒀</w>
▁9 10</w>
▁16 2</w>
▁12 8</w>
7 3</w>
형 물</w>
통 계
분 할</w>
부 심</w>
▁형 제</w>
▁평 판</w>
▁클 리
▁체 육
▁저 온</w>
▁자 식</w>
▁이 중
▁음식 물</w>
▁아 토피</w>
▁신 청자</w>
▁시 가</w>
▁손 목</w>
▁마침 내</w>
▁남북 한</w>
▁기업 인</w>
▁그 릇</w>
▁궤 도</w>
▁구 획</w>
▁W HO</w>
▁199 6</w>
▁10 10</w>
D R</w>
타 임</w>
아티 닌</w>
만 족도</w>
단 면</w>
건 부</w>
▁희 생
▁필 연</w>
▁풀 리</w>
▁키 트</w>
▁크레 아티닌</w>
▁원 위</w>
▁엘리 먼트</w>
▁숙 제</w>
▁샤 프트</w>
▁생 쥐</w>
▁살아 남</w>
▁빌 빌</w>
▁미 용</w>
▁달 려
▁단 편</w>
▁공 명</w>
▁가 맹</w>
▁3 21</w>
▁20 30</w>
L R</w>
치 가</w>
옵 션</w>
십 니다</w>
산 업단지</w>
바 닥</w>
▁해 산</w>
▁캠 캠</w>
▁차 입</w>
▁존 속</w>
▁조직 학</w>
▁이용 객</w>
▁언 젠
▁언 니</w>
▁어 쩌
▁약 자</w>
▁안전 성</w>
▁스트 리
▁수 납</w>
▁보 일러</w>
▁미술 관</w>
▁무 단</w>
▁매 듭</w>
▁단 절</w>
▁광 자</w>
▁곱 셈</w>
9 1</w>
연 료</w>
스 쿨</w>
수 수</w>
로 리</w>
락 처</w>
구 매</w>
교 장</w>
▁흡 착제</w>
▁휘 도</w>
▁프 랜차이즈</w>
▁풍 성</w>
▁포 토
▁펼쳐 진다</w>
▁태 어나</w>
▁커 플</w>
▁캡 쳐</w>
▁청 색</w>
▁직 류</w>
▁제 동</w>
▁원 내</w>
▁엑스 선</w>
▁업 그레이드</w>
▁아 끼</w>
▁본 선</w>
▁벨 기에</w>
▁맥 맥</w>
▁로 마</w>
▁뛰어 넘</w>
▁남 겨</w>
▁난 임</w>
▁교 섭</w>
▁광 역
▁골프 장</w>
▁가르 쳐</w>
▁L NG</w>
T D</w>
5 000</w>
푸 드</w>
특 구</w>
투 어</w>
크 로</w>
속 력</w>
셔 도</w>
대 기</w>
다 면서</w>
계 선</w>
▁흔들 리</w>
▁후 배</w>
▁하 면</w>
▁타 원</w>
▁질 의</w>
▁줄 기</w>
▁적 분</w>
▁이 민</w>
▁영 광</w>
▁상 권</w>
▁방 금</w>
▁박 정
▁바 뀐</w>
▁목 요일</w>
▁등 재</w>
▁대구 시</w>
▁대 륙</w>
▁농 축</w>
▁내 신</w>
▁공 략</w>
▁공 기
▁걸 어
▁A I
T F</w>
평 구</w>
탱 크</w>
정 리</w>
브 레인</w>
뉴 얼</w>
관 청</w>
▁흔 들</w>
▁케 어</w>
▁카자흐 스탄</w>
▁추 모</w>
▁체 인</w>
▁전 단</w>
▁작 업자</w>
▁자 재</w>
▁이 종
▁의 존도</w>
▁위 계</w>
▁스케 일</w>
▁블 블</w>
▁본 문</w>
▁떠 난</w>
▁동남 아</w>
▁데 이트</w>
▁김 기
▁기 전</w>
▁교과 목</w>
▁결 여</w>
▁T DF</w>
▁BM W</w>
o f
텍 스트</w>
턴 트</w>
커 버</w>
청 정기</w>
정 의</w>
재 진</w>
이 해</w>
민 족</w>
거래 위</w>
가 운</w>
▁회 의
▁펼쳐 지</w>
▁펴 펴</w>
▁판매 자</w>
▁특 혜</w>
▁체 질량</w>
▁종 괴</w>
▁자 동
▁운 전
▁아 까</w>
▁승 소</w>
▁스 프</w>
▁부드러 운</w>
▁모 양
▁동 질</w>
▁기념 식</w>
▁기 쁘</w>
▁근 거리</w>
▁권 익</w>
▁구 두</w>
▁공정 거래위</w>
▁개 재</w>
▁20 3</w>
의 서</w>
월 드컵</w>
식 당</w>
선 암</w>
배 출</w>
더 라</w>
남 시</w>
권 력</w>
건 물</w>
▁휴 일</w>
▁축 산</w>
▁직 장인</w>
▁재 밌</w>
▁입 주자</w>
▁알 칼리</w>
▁악 보</w>
▁실 망</w>
▁시 간
▁스 페
▁섹 션</w>
▁분 만</w>
▁부 담
▁모양 새</w>
▁단 단</w>
▁개 질</w>
▁F A</w>
▁D L</w>
특 례</w>
역 사</w>
백 화점</w>
대 리
곡 선</w>
경 색</w>
각 도</w>
가 제</w>
▁흰 색</w>
▁했 으나</w>
▁파 열</w>
▁카운 트</w>
▁채 소</w>
▁전문 의</w>
▁연 락처</w>
▁안전 사고</w>
▁신 약</w>
▁신 분
▁설 사</w>
▁민 속</w>
▁들 리</w>
▁대 대</w>
▁누 릴</w>
▁구 경</w>
▁관 상
▁감광 성</w>
▁간 략</w>
▁R E
▁PC B</w>
▁P U
9 8</w>
풀 이</w>
포 시</w>
크 기</w>
체 부</w>
심 판</w>
방 정식</w>
▁잉 크</w>
▁악 취</w>
▁불 휘발성</w>
▁기준 치</w>
▁공 백</w>
▁M C
▁A LT</w>
▁3 70</w>
하 이
타 인</w>
위 반</w>
욕 장</w>
스트 라</w>
변 환</w>
▁합 법</w>
▁프로 모
▁포 즈</w>
▁출 원</w>
▁철 강</w>
▁책임 지</w>
▁착 공</w>
▁지닌 다</w>
▁중 순</w>
▁전 임</w>
▁전 구체</w>
▁자본 주의</w>
▁유 독</w>
▁여름 철</w>
▁여 수</w>
▁에 스트
▁양승 태</w>
▁스트리 밍</w>
▁솔 로</w>
▁분 열</w>
▁미 비</w>
▁무 서
▁매 번</w>
▁마 쳤</w>
▁내 놨</w>
▁고위 급</w>
▁결 산</w>
▁R NA</w>
▁7 30</w>
o w
였음 을</w>
연 결</w>
머 스</w>
꺼 번에</w>
교육 감</w>
▁했 었</w>
▁한 꺼번에</w>
▁플 랜
▁폐 수</w>
▁팀 원</w>
▁조 용</w>
▁운송 인</w>
▁에 스</w>
▁양 성자</w>
▁아 픈</w>
▁수 학식</w>
▁수 월</w>
▁사 생활</w>
▁빨 간
▁부 종</w>
▁따라 가</w>
▁기 지</w>
▁겹 치</w>
▁L S
▁3 02</w>
7 6</w>
형 발전</w>
조 약</w>
자 량</w>
상 액</w>
비 리</w>
려 금</w>
당 사자</w>
▁후 보
▁항 소</w>
▁코 트</w>
▁입 점</w>
▁일 자</w>
▁연 료전지</w>
▁사 설</w>
▁불 분명</w>
▁박 수</w>
▁바 퀴</w>
▁로 터</w>
▁동 양</w>
▁대 주주</w>
▁농 어촌</w>
▁납 납</w>
▁관 련
▁결혼 식</w>
▁강 제
▁각 급</w>
▁W L</w>
▁G PS</w>
엘 라</w>
십 니까</w>
금 제</w>
▁희 귀</w>
▁흡 연자</w>
▁프린 터</w>
▁트 럭</w>
▁영 입</w>
▁연 이</w>
▁어 떨
▁아름다 움</w>
▁심 도</w>
▁브 로
▁부 사장</w>
▁배 수</w>
▁배 리어</w>
▁바 닷
▁마 르
▁두 꺼
▁단 락</w>
▁닦 닦</w>
▁느 낀
▁녹 화</w>
▁끊 이</w>
▁공 기업</w>
▁거 쳐야</w>
▁가 처분</w>
▁SP SS</w>
▁D P</w>
화 수소</w>
책 임자</w>
주 지</w>
정 체</w>
적 용</w>
신 자</w>
내 역</w>
기 소</w>
거래 소</w>
▁트리 거</w>
▁톤 톤</w>
▁응 하</w>
▁시 켜</w>
▁수 사관</w>
▁생 긴다</w>
▁사이 토
▁목 회</w>
▁모 유</w>
▁명 소</w>
▁뚫 뚫</w>
▁남 경
▁극 한</w>
▁고 인</w>
▁계 통</w>
▁경 정</w>
▁결 심</w>
▁N O
▁G S</w>
E V</w>
캠 퍼스</w>
일 자</w>
실 태</w>
대 교</w>
다 시피</w>
남 용</w>
공 헌</w>
계 좌</w>
▁할 아버지</w>
▁포 르
▁폐 업</w>
▁클 릭</w>
▁취 재진</w>
▁청 년층</w>
▁지지 율</w>
▁지 대</w>
▁잡 지</w>
▁이뤄지 는</w>
▁용 산</w>
▁열 화</w>
▁스크 롤</w>
▁석 석</w>
▁미 시</w>
▁무 장</w>
▁명 제</w>
▁마 다</w>
▁레 레</w>
▁동 법</w>
▁다 름</w>
▁납 입</w>
▁과 감</w>
▁공 모전</w>
▁고 정부</w>
▁T B
▁M S
M D</w>
L S</w>
총 액</w>
천 군</w>
주 석</w>
월 드</w>
보 유</w>
네 트워크</w>
▁항 산</w>
▁켜 켜</w>
▁지 루</w>
▁주 축</w>
▁원자 력</w>
▁알 파</w>
▁수 비
▁송 풍</w>
▁소 결</w>
▁사회 주의</w>
▁부 탁
▁벌어 진</w>
▁방송 사</w>
▁라 면</w>
▁넘 기</w>
▁기 무사</w>
▁z z</w>
진 행</w>
재 감</w>
요 양</w>
로 이</w>
드 라마</w>
도 전</w>
관 찰</w>
갈 등</w>
▁휘 발</w>
▁회 로도</w>
▁코스 피</w>
▁캐 시</w>
▁총 재</w>
▁주 방</w>
▁종 단</w>
▁조 도</w>
▁제 반</w>
▁잔 여</w>
▁자 기
▁이 직</w>
▁승 부</w>
▁소득 세법</w>
▁선 포</w>
▁선 전</w>
▁복 호</w>
▁마 땅</w>
▁떠 났</w>
▁도 형</w>
▁날 개</w>
▁기 업체</w>
▁공 용</w>
▁검 체</w>
▁C C</w>
u c
A N</w>
6 6</w>
지 않</w>
지 도
스 코
소비 세</w>
성 도</w>
무 용</w>
년 자</w>
꾸 로</w>
가 리</w>
▁항 만</w>
▁트 랙</w>
▁책 상</w>
▁장 악</w>
▁장 난
▁오 를</w>
▁영 토</w>
▁아 크
▁슬 라이드</w>
▁불 어
▁벨 트</w>
▁렌 더링</w>
▁동 북
▁대 면</w>
▁뉴 런</w>
▁그리 하여</w>
▁건 지</w>
▁거 둔</w>
▁가 산</w>
▁S S</w>
m H
mH g</w>
M O</w>
H D</w>
팀 장</w>
토 링</w>
지 로</w>
에 다</w>
수 량</w>
세 력</w>
법 칙</w>
▁항 구</w>
▁피 부
▁판 교</w>
▁크로 스</w>
▁초 안</w>
▁지방 간</w>
▁접어 들</w>
▁유 착</w>
▁연 통</w>
▁언젠 가</w>
▁싸 우</w>
▁사 각형</w>
▁빈 혈</w>
▁불 렀</w>
▁분 단</w>
▁범 인</w>
▁배 면</w>
▁매 진</w>
▁뜨 뜨</w>
▁놀 라</w>
▁낯 선</w>
▁구 제
▁관 료</w>
▁》 》</w>
▁《 《</w>
창 단</w>
업 종</w>
스 런</w>
비 디오</w>
민 지</w>
당 도</w>
▁함 의</w>
▁청 사</w>
▁지 갑</w>
▁준 하</w>
▁제 게</w>
▁정 차</w>
▁적 혀</w>
▁아무 래도</w>
▁시 공간</w>
▁손 해
▁박 탈</w>
▁몰 려</w>
▁멀티 미디어</w>
▁드러 난다</w>
▁독 거</w>
▁남경 필</w>
▁구매 자</w>
▁공 헌</w>
▁곱 곱</w>
▁개 장</w>
▁감 량</w>
▁P L</w>
▁Ig G</w>
6 7</w>
치 료
집 합</w>
질 랜드</w>
재 해</w>
유 통</w>
아 차</w>
소 방
▁트랜 스</w>
▁짜 짜</w>
▁주 름</w>
▁저 기</w>
▁육 체</w>
▁유 기물</w>
▁원 작</w>
▁외 형</w>
▁옛 날</w>
▁영 혼</w>
▁아 파
▁시 킬</w>
▁상 고</w>
▁사라 진</w>
▁붙 잡
▁부 담금</w>
▁변 호인</w>
▁반 입</w>
▁마 사지</w>
▁농 구</w>
▁끄 끄</w>
▁거 꾸로</w>
▁H R</w>
▁0 0</w>
o b
회 전</w>
테 일</w>
출 자</w>
장 벽</w>
염 증</w>
러 스
▁태 권</w>
▁커 플링</w>
▁출 입
▁제 로</w>
▁전 당</w>
▁육 상</w>
▁육 군</w>
▁유 가
▁오 디션</w>
▁염 려</w>
▁앞 세
▁숨 졌</w>
▁세 출</w>
▁사고 력</w>
▁비 휘발성</w>
▁벨 벨</w>
▁배 향</w>
▁동 물
▁당 황</w>
▁급 식</w>
▁건 데</w>
▁T P
▁P S
▁B L
▁8 30</w>
▁6 50</w>
큐 멘
중 단</w>
숙 사</w>
보 증
든 다</w>
대 학원</w>
고 는</w>
▁화 이트</w>
▁트레이 닝</w>
▁침 묵</w>
▁촉 각</w>
▁체 적</w>
▁중 추</w>
▁접 점</w>
▁자 질</w>
▁인 턴</w>
▁이 의</w>
▁이 영
▁위 배</w>
▁예 선</w>
▁에 코</w>
▁악 용</w>
▁식 도</w>
▁시 동</w>
▁소 각</w>
▁선 교사</w>
▁서 기</w>
▁상 습</w>
▁상 무</w>
▁사이토 카인</w>
▁사 원</w>
▁부 러
▁명 동</w>
▁메 탄</w>
▁망 막</w>
▁대 향</w>
▁단 정</w>
▁느 낀</w>
▁급 수</w>
▁근 간</w>
▁공 군</w>
▁T I
▁5 11</w>
▁25 1</w>
t er</w>
el l</w>
큐멘 터리</w>
차 이</w>
진 이</w>
제 약</w>
이 성</w>
영 어</w>
아 트</w>
무 대</w>
룸 버그</w>
돌 기</w>
검 증</w>
▁휩 싸
▁화 합</w>
▁호 평</w>
▁호 수</w>
▁헬 기</w>
▁함 몰</w>
▁평 창</w>
▁인 덕</w>
▁염 기</w>
▁여 행사</w>
▁안 산</w>
▁산 책</w>
▁블 룸버그</w>
▁봉 투</w>
▁보 행자</w>
▁박 리</w>
▁리 세</w>
▁담 합</w>
▁권 유</w>
▁간 암</w>
▁PC R</w>
▁CV D</w>
▁4 70</w>
▁17 5</w>
B D</w>
휴 일</w>
후 보</w>
활 동
화 고</w>
테 크
추 에이터</w>
존 자</w>
으 려면</w>
생 태</w>
상 거래</w>
될 지</w>
단 장</w>
니 스트</w>
걸 이</w>
▁해 임</w>
▁특 강</w>
▁줍 니다</w>
▁잠 정</w>
▁자 제</w>
▁외 신</w>
▁수 영장</w>
▁수 식</w>
▁밝 기</w>
▁뒤 따
▁뉴 질랜드</w>
▁내 다
▁괴 리</w>
▁공 업</w>
▁각 광</w>
▁A n
I ST</w>
피 아</w>
텔 링</w>
인 회</w>
유 공자</w>
용 성</w>
수 수료</w>
변 증</w>
방 학</w>
리 사</w>
글로 빈</w>
▁환 호</w>
▁현 지인</w>
▁친 숙</w>
▁충 당</w>
▁체 내</w>
▁증 감</w>
▁자 성</w>
▁인 위</w>
▁응 고</w>
▁염 료</w>
▁액 추에이터</w>
▁실 형</w>
▁실 링</w>
▁세 심</w>
▁산 재</w>
▁법 률
▁발 매</w>
▁목 포</w>
▁매 뉴얼</w>
▁따라 야</w>
▁달 아
▁김 지
▁가 정
▁Ⅱ Ⅱ</w>
▁t h
q u
f f
7 4</w>
합 부</w>
키 퍼</w>
주 얼</w>
정 서</w>
자 유
외 과</w>
법 령</w>
버 넌
버넌 스</w>
기 본</w>
국 제
▁환 승</w>
▁펼 쳐</w>
▁처 지</w>
▁조 건부</w>
▁전 기장</w>
▁자 부심</w>
▁입 각</w>
▁일어 난다</w>
▁이 걸</w>
▁위 법성</w>
▁씻 씻</w>
▁비 준</w>
▁분 실</w>
▁분 식</w>
▁먹 이</w>
▁똑 같이</w>
▁드 릴게요</w>
▁두드러 지</w>
▁내 생</w>
▁내 구</w>
▁깨 달</w>
▁금 강
▁관상 동맥</w>
▁T i
▁S h
▁R S</w>
▁4 11</w>
9 6</w>
확 대</w>
펌 프</w>
크 업</w>
철 학</w>
지 배
중 독</w>
작 자</w>
유 소</w>
여 세</w>
수 엘라</w>
복 무</w>
민 원</w>
노동 자</w>
겨 져</w>
개 발
간 담회</w>
가 루</w>
▁화 살
▁하 수</w>
▁필 기</w>
▁쿠 폰</w>
▁채 팅</w>
▁지방 산</w>
▁전 투</w>
▁잉 글
▁어두 운</w>
▁암모 니아</w>
▁심 해</w>
▁송 치</w>
▁생 성기</w>
▁베네 수엘라</w>
▁발 음</w>
▁논 증</w>
▁기 숙사</w>
▁그림 자</w>
▁구 직</w>
▁고 충</w>
▁T R</w>
y l
e y</w>
주 회사</w>
절 제술</w>
자 가</w>
옵 니다</w>
상 환</w>
동 향</w>
동 원</w>
▁희 석</w>
▁채 워</w>
▁조 용
▁은 폐</w>
▁우 회</w>
▁용 산구</w>
▁아 픔</w>
▁사회 과</w>
▁블 로그</w>
▁병 리</w>
▁명 분</w>
▁리 모</w>
▁그 릴</w>
▁공 평</w>
▁공 교육</w>
▁검 거</w>
▁강 력
▁간 판</w>
▁Met S</w>
▁7 50</w>
r on
회 원</w>
해 제</w>
학 년도</w>
코 스</w>
자 녀</w>
인 기</w>
이 닝</w>
응 력</w>
사 히</w>
사 정</w>
독 성</w>
도 어</w>
곤 란</w>
강 사</w>
▁혈 류</w>
▁학 위</w>
▁플레이 어</w>
▁포 커스</w>
▁진 영</w>
▁조 류</w>
▁유가 증권</w>
▁에스트 로겐</w>
▁엄청 나</w>
▁실 생활</w>
▁신 호
▁신 기</w>
▁소식 통</w>
▁살 려</w>
▁붙 여</w>
▁미친 다고</w>
▁목 표
▁면 역
▁리 브</w>
▁동 조</w>
▁구제 역</w>
▁골 목</w>
▁겨울 철</w>
▁감 염병</w>
▁CS R</w>
▁C F
▁BM D</w>
▁20 21</w>
▁11 8</w>
e ar
학 부</w>
유 량</w>
사 각형</w>
모 집</w>
레 이스</w>
때 로</w>
▁희생 자</w>
▁환 산</w>
▁헤 드
▁출 간</w>
▁차 분</w>
▁정 형</w>
▁이 성
▁우 즈</w>
▁영등 포구</w>
▁영 리</w>
▁연 내</w>
▁양 수</w>
▁선보 인</w>
▁배기 가스</w>
▁물 어
▁들어 온</w>
▁꺾 꺾</w>
▁간경 변증</w>
▁T B</w>
▁I II</w>
▁CN T</w>
▁199 2</w>
iv e</w>
준 영</w>
존 중감</w>
저 스</w>
자 실</w>
▁합 치</w>
▁프린 팅</w>
▁투 영</w>
▁컬 럼</w>
▁챙 기</w>
▁지상 파</w>
▁정 부
▁저 지</w>
▁외 출</w>
▁열 쇠</w>
▁앞장 서</w>
▁앞 당
▁아 님</w>
▁소 망</w>
▁성 취도</w>
▁선보 인다</w>
▁산 업
▁부 극</w>
▁베 를
▁배 타</w>
▁로 드
▁도 로
▁내 륙</w>
▁그 만
▁국 부</w>
▁걸 음</w>
▁P I
▁D AA</w>
▁A FP</w>
▁2 14</w>
i z
6 8</w>
충 분</w>
음 식</w>
에 스</w>
소 성</w>
기 세포</w>
▁희 곡</w>
▁호 에</w>
▁프린 트</w>
▁테 러
▁태 어난</w>
▁최 종
▁초 콜
▁청 정</w>
▁처 우</w>
▁직 결</w>
▁저 작물</w>
▁읍 읍</w>
▁유 류</w>
▁실 감</w>
▁선 원</w>
▁반 사
▁문 맥</w>
▁무 거운</w>
▁되돌 아
▁과 소</w>
▁고 소득</w>
▁E TR</w>
▁12 7</w>
p l
p h
N T</w>
페 니</w>
통 일</w>
채 권자</w>
자 문</w>
이 미지</w>
보 도</w>
배 치</w>
방 전</w>
▁협 동조합</w>
▁한 방</w>
▁타 깃</w>
▁친 화</w>
▁치 러
▁창 업자</w>
▁창 구</w>
▁제 보</w>
▁전 통
▁작 전</w>
▁자아 존중감</w>
▁요 구
▁오 토
▁오 븐</w>
▁스 파
▁서 해</w>
▁산 물</w>
▁사 령
▁부 자</w>
▁베 타</w>
▁방 대</w>
▁무 늬</w>
▁노동 력</w>
▁근 력</w>
▁균 등</w>
▁공기 조화</w>
▁공 적</w>
▁공 방</w>
▁계 승</w>
▁감 사원</w>
▁19 50</w>
B A</w>
9 4</w>
지 판</w>
장 단</w>
잖 아요</w>
수 산</w>
배 분</w>
몰 입</w>
도 급</w>
그 인</w>
구 속</w>
▁화살 표</w>
▁터치 스크린</w>
▁최 다</w>
▁정 말로</w>
▁이 주</w>
▁유 권자</w>
▁워 크</w>
▁액 수</w>
▁써 야</w>
▁산 지</w>
▁사 각지대</w>
▁블루 투스</w>
▁물 고기</w>
▁들어 왔</w>
▁들 이
▁더욱 더</w>
▁대 본</w>
▁늘 려</w>
▁낭 종</w>
▁김 대
▁금강 산</w>
▁구 인</w>
▁공 소</w>
▁갚 갚</w>
▁P ET</w>
▁K BO</w>
▁9 20</w>
▁6 40</w>
▁17 2</w>
o x
id e</w>
g e</w>
S E</w>
포 스</w>
찰 자</w>
주 차장</w>
용 지</w>
성 군</w>
리 금</w>
드 럽</w>
독 자</w>
다 지</w>
규 범</w>
권 한</w>
구 성원</w>
강 현실</w>
▁필 필</w>
▁태 극
▁중 금속</w>
▁오 로지</w>
▁예 보</w>
▁연 상</w>
▁어쩌 면</w>
▁양 보</w>
▁아세 안</w>
▁아니 요</w>
▁시 연</w>
▁상 충</w>
▁블 럭</w>
▁봐 도</w>
▁본 청</w>
▁본 다면</w>
▁바 깥</w>
▁둘러 싸
▁내 년도</w>
▁광 고
▁관 상</w>
▁과 시</w>
▁견 고</w>
▁가져 다</w>
▁가 교</w>
▁SL E</w>
▁P M</w>
▁2 15</w>
▁$ $</w>
R E</w>
중 개
전 공</w>
일 시</w>
응 답</w>
원 가</w>
워 요</w>
수 집</w>
사 회
부 여</w>
바 디</w>
납 니다</w>
금 형</w>
▁호 선</w>
▁평 일</w>
▁지 붕</w>
▁자 의</w>
▁자 꾸</w>
▁입 장
▁잃 어
▁이어 폰</w>
▁오 사
▁영화 관</w>
▁여 타</w>
▁업 적</w>
▁신 혼</w>
▁신 고자</w>
▁수 료
▁소방 관</w>
▁선 택
▁석 방</w>
▁살 피</w>
▁산 란</w>
▁부 드럽</w>
▁복 통</w>
▁법 조</w>
▁방 한</w>
▁바 뀔</w>
▁무 너지</w>
▁멘 토</w>
▁리 터</w>
▁류 현진</w>
▁더 위</w>
▁대 항</w>
▁니 켈</w>
▁농 장</w>
▁노동 당</w>
▁구 직자</w>
▁구 정</w>
▁가 려
▁U V</w>
▁SE M</w>
▁S G
▁P E</w>
▁M M
▁20 4</w>
▁13 00</w>
on e</w>
is t
c h</w>
P I</w>
C K</w>
환 율</w>
주 인</w>
전 이</w>
요 청</w>
매 수</w>
림 돌</w>
로 워</w>
높 이</w>
계약 자</w>
개 편</w>
▁홍 역</w>
▁피 자</w>
▁토 로</w>
▁증 강현실</w>
▁일 일
▁위 암</w>
▁생 각
▁불 신</w>
▁불 소</w>
▁머 리
▁레 이트</w>
▁동 구</w>
▁금 방</w>
▁가 늠</w>
▁× ×</w>
▁S M
▁11 10</w>
7 7</w>
주 의자</w>
전 선</w>
유 출</w>
여 진</w>
모 글로빈</w>
면 은</w>
▁통 학</w>
▁촛 불</w>
▁청 탁</w>
▁지 성</w>
▁증 여세</w>
▁잔 액</w>
▁잉글 랜드</w>
▁일으 켰</w>
▁위 장관</w>
▁안 드
▁아카 데미</w>
▁세 워</w>
▁돋 보이</w>
▁대표 자</w>
▁검 색
▁걸 림돌</w>
▁거 칠</w>
▁CR P</w>
8 2</w>
투 기</w>
진 영</w>
전 도
와 야</w>
역 폭</w>
엔 터</w>
어 져</w>
아 파트</w>
식 세포</w>
수 급</w>
부 총리</w>
부 인과</w>
라 비아</w>
당 하</w>
구 니</w>
▁플로 우</w>
▁초콜 릿</w>
▁증 류
▁정 시</w>
▁일일 이</w>
▁웰 웰</w>
▁우 체
▁어떨 까</w>
▁송 도</w>
▁선 명</w>
▁생 존자</w>
▁사 흘</w>
▁불 복</w>
▁베를 린</w>
▁백 인</w>
▁방 위</w>
▁마 당</w>
▁때 때로</w>
▁남 측</w>
▁나타났 으며</w>
▁기 초
▁기 아차</w>
▁그 만</w>
▁교 수
▁공 예</w>
▁E R
▁A V
▁4 60</w>
▁4 12</w>
a k
코 어</w>
촉 매</w>
주 가</w>
의 미</w>
비 중</w>
경 력</w>
▁허 허</w>
▁종 일</w>
▁용 의자</w>
▁여행 객</w>
▁어 릴</w>
▁알 람</w>
▁슬 픔</w>
▁상 의</w>
▁배 임</w>
▁몰 딩</w>
▁모 의
▁매개 변수</w>
▁대 역폭</w>
▁급 락</w>
▁그 다지</w>
▁공 범</w>
▁고 성</w>
▁감 소
▁감 기</w>
▁N i</w>
▁HI V</w>
▁F e</w>
▁B C
t h
케 스트라</w>
조 작</w>
래 스</w>
▁한 동안</w>
▁천 공</w>
▁채 무
▁지 면</w>
▁준 거</w>
▁전 격</w>
▁적 힌</w>
▁저 널</w>
▁의 향</w>
▁올 릴</w>
▁엉 덩이</w>
▁아닐 까</w>
▁식 생활</w>
▁부 리</w>
▁보 류</w>
▁밀 어
▁메 탈</w>
▁돋 보
▁덩 어리</w>
▁관 건</w>
▁겔 겔</w>
▁감 압</w>
▁S A
▁HP V</w>
▁4 02</w>
▁11 7</w>
7 8</w>
헌 법</w>
정 당</w>
작 구</w>
됐 으나</w>
감 도</w>
▁해 시</w>
▁하 강</w>
▁포 집</w>
▁평 평</w>
▁클 록</w>
▁췌장 암</w>
▁챙 겨</w>
▁지나 친</w>
▁조 현
▁조 짐</w>
▁잇따 르</w>
▁입 건</w>
▁인 디
▁윤 곽</w>
▁원 시</w>
▁오 피
▁식 민지</w>
▁부 호화</w>
▁부 식</w>
▁보증 금</w>
▁발 열
▁발 산</w>
▁박 성
▁로 딩</w>
▁동 반
▁대통 령
▁느 리</w>
▁냉 동</w>
▁교 감</w>
▁공 산
▁T E
▁SU V</w>
▁S N
▁S A</w>
i d</w>
C O</w>
8 4</w>
편 의</w>
캔 들</w>
출 가</w>
업 장</w>
리 브</w>
루 즈</w>
권 리</w>
▁퍼 져</w>
▁통신 사</w>
▁태극 기</w>
▁치 즈</w>
▁젖 젖</w>
▁전 선</w>
▁월 경</w>
▁예 의</w>
▁연 애</w>
▁순 천</w>
▁소프 트</w>
▁세 탁
▁성 도</w>
▁상 피</w>
▁벗 어난</w>
▁백 색</w>
▁메 이</w>
▁도 주</w>
▁대표 단</w>
▁구 사</w>
▁공 진기</w>
▁경 합</w>
▁갑 니다</w>
▁가리 키</w>
▁CP U</w>
▁3 22</w>
▁15 00</w>
o o
i b
V C</w>
행 장</w>
학 력</w>
택 항</w>
타 워</w>
전 담</w>
숙 도</w>
소 문</w>
분 산</w>
부 부</w>
보 디아</w>
버 트</w>
량 체</w>
▁포 상금</w>
▁최 상
▁주 자</w>
▁유전 자형</w>
▁시 력</w>
▁슬 러</w>
▁수 조</w>
▁선 점</w>
▁상 점</w>
▁불 명
▁바 르
▁멘 토링</w>
▁림프 구</w>
▁드라이 브</w>
▁다 각</w>
▁노 트</w>
▁꼬 리</w>
▁금 호</w>
▁국 어
▁공 동
▁골 키퍼</w>
▁거 버넌스</w>
▁개막 식</w>
▁갖 춰
▁P H
▁N S</w>
▁N I
▁I U</w>
▁2 90</w>
▁199 1</w>
1 10</w>
향 상</w>
합 니까</w>
축 산</w>
처 장</w>
직 스</w>
입 법</w>
양 호</w>
습 기</w>
수 정</w>
버 리지</w>
물 산</w>
마 티스</w>
나 오</w>
관광 공사</w>
▁하 도급</w>
▁피 치</w>
▁프로모 션</w>
▁특 색</w>
▁트 로
▁털 어
▁탈 착</w>
▁캄 보디아</w>
▁줌 줌</w>
▁입 양</w>
▁익 히</w>
▁우 대</w>
▁영 웅</w>
▁연 극
▁아 메
▁숙 련</w>
▁송 부</w>
▁빌 딩</w>
▁바 쁘</w>
▁모 은
▁레이 아웃</w>
▁독 려</w>
▁도 박</w>
▁대 식세포</w>
▁다 큐멘터리</w>
▁나타 냅니다</w>
▁금 형</w>
▁국 정원</w>
▁교 복</w>
▁거 주지</w>
▁강 경</w>
▁감 별</w>
y c
t h</w>
플 릭스</w>
스테 로이드</w>
베 이터</w>
디 움</w>
▁힐 링</w>
▁최 상</w>
▁종 량
▁적 성</w>
▁이 주
▁요 하</w>
▁연 출가</w>
▁약 점</w>
▁약 세</w>
▁약 국</w>
▁스 캔들</w>
▁법 무</w>
▁맡 기</w>
▁땐 땐</w>
▁다가 가</w>
▁넥 센</w>
▁깔 끔</w>
▁까 닭</w>
▁급 감</w>
▁관 습</w>
▁공 로</w>
▁결 렬</w>
▁간 다</w>
▁K B</w>
특 위</w>
터 스</w>
카 페</w>
줘 서</w>
정 성</w>
자치 단체</w>
어 린
스러 워</w>
수 용</w>
소년 기</w>
셉 트</w>
난 다는</w>
▁필 라
▁포지 션</w>
▁패 배</w>
▁타 결</w>
▁초 월</w>
▁직 위</w>
▁정 상
▁이 룬</w>
▁움직 일</w>
▁우 월</w>
▁수용 액</w>
▁수 련</w>
▁섬 세</w>
▁산 부인과</w>
▁반 송</w>
▁리 콜</w>
▁당 사</w>
▁넷 플릭스</w>
▁기 량</w>
▁광 전</w>
▁고 용
▁계 량</w>
9 7</w>
조 리</w>
일 링</w>
암 종</w>
산 화물</w>
로 직스</w>
간 접</w>
▁호 남</w>
▁하 청</w>
▁폴리 에
▁판 로</w>
▁통신 망</w>
▁치 안</w>
▁진 정
▁외 화</w>
▁완 충</w>
▁와이 파이</w>
▁오피 스텔</w>
▁예 쁜</w>
▁양 방향</w>
▁소 금</w>
▁선 수단</w>
▁생 화학</w>
▁생 검</w>
▁불거 진</w>
▁바 이</w>
▁라 운드</w>
▁노 광</w>
▁기 점</w>
▁m i
▁F A
▁A C</w>
u d
a s</w>
a b</w>
6 00</w>
포 스트</w>
테 스</w>
타 임스</w>
지 가</w>
절 기</w>
인 물</w>
압 류</w>
성 체</w>
법 률</w>
무 상</w>
▁품 종</w>
▁정 합</w>
▁입 수</w>
▁왕 복</w>
▁온 전</w>
▁온 수</w>
▁업 로드</w>
▁수 중</w>
▁손해 배상</w>
▁속 한다</w>
▁성 남시</w>
▁선 교</w>
▁상속 세</w>
▁상 쇄</w>
▁비 평</w>
▁문화 유산</w>
▁릴 레이</w>
▁따 지</w>
▁들 여</w>
▁내 주</w>
▁김 부
▁기록 물</w>
▁기 입</w>
▁귀 여
▁굽 굽</w>
▁구 로구</w>
타 르</w>
타 당</w>
질 지</w>
인 터</w>
육 성</w>
워 질</w>
예 고</w>
영 비</w>
약 식</w>
신 저</w>
소 증</w>
상 학</w>
배 당</w>
드 니</w>
내 시경</w>
▁허 혈</w>
▁해 운
▁한 데</w>
▁태 어
▁컨 텍스트</w>
▁접 촉
▁이 나</w>
▁유 가족</w>
▁영 감</w>
▁여 정</w>
▁악 영향</w>
▁실 례</w>
▁순 응</w>
▁사 범</w>
▁미성 년자</w>
▁뭘 뭘</w>
▁로맨 스</w>
▁대장 암</w>
▁대 부</w>
▁낮 출</w>
▁극 성</w>
▁그리 드</w>
▁군 산</w>
▁공 세</w>
▁골 든</w>
▁Ⅲ Ⅲ</w>
▁t est</w>
▁NA SH</w>
m an</w>
학 대</w>
취 소</w>
줄 링</w>
이 식</w>
유 럽</w>
연구 회</w>
소 암</w>
동 실</w>
가 이드</w>
▁페 이</w>
▁통 풍</w>
▁카 풀</w>
▁중 위수</w>
▁존 엄</w>
▁조 국</w>
▁정류 장</w>
▁정 함</w>
▁재 차</w>
▁이 원
▁용 융</w>
▁연 골</w>
▁악 재</w>
▁신 속히</w>
▁시 리아</w>
▁변 환기</w>
▁막 판</w>
▁마이 너스</w>
▁뜨 거
▁데 리</w>
▁단 행</w>
▁녹 지</w>
▁꽉 꽉</w>
▁김성 태</w>
▁건 너
▁간 식</w>
▁가 스
7 9</w>
황 실</w>
화 부</w>
할 까요</w>
퇴 근</w>
청 회</w>
찰 력</w>
슈 타인</w>
벤 션</w>
발 행</w>
미 군</w>
무 늬</w>
▁회 사채</w>
▁혼 동</w>
▁헤 모글로빈</w>
▁해 부
▁합 쳐</w>
▁통 역</w>
▁청 소년기</w>
▁전해 액</w>
▁재 심</w>
▁이 완</w>
▁외 치</w>
▁옥 상</w>
▁오사 카</w>
▁아쉬 운</w>
▁신분 증</w>
▁스테 이</w>
▁스케 줄링</w>
▁수 율</w>
▁수 강
▁빨간 색</w>
▁본 딩</w>
▁모은 다</w>
▁면 세</w>
▁메이 커</w>
▁머무 르</w>
▁리 바</w>
▁동 산</w>
▁논 하</w>
▁난 소암</w>
▁김 혜
▁그 거</w>
▁건설 업</w>
▁거 품</w>
▁H D</w>
▁20 5</w>
i m</w>
8 1</w>
편 성</w>
착 력</w>
일 리</w>
싸 움</w>
부 지</w>
레 오</w>
다이 오드</w>
권 법</w>
계 인</w>
▁흘 리</w>
▁해 변</w>
▁페 널
▁펀 딩</w>
▁테 두리</w>
▁칼 럼</w>
▁춘 천</w>
▁차 시</w>
▁진 료비</w>
▁지난 번</w>
▁제 임스</w>
▁일본 어</w>
▁이 태
▁운동 량</w>
▁영양 소</w>
▁스캐 닝</w>
▁수 유</w>
▁산 후</w>
▁불 행</w>
▁보 유자</w>
▁발 명
▁못 한다는</w>
▁도 정</w>
▁날 아
▁기 아</w>
▁광 역시</w>
▁경 량</w>
▁결 손</w>
▁검색 어</w>
▁IM F</w>
▁F C</w>
▁CN N</w>
▁8 50</w>
▁198 8</w>
a v
포 터</w>
채 용</w>
찰 청</w>
원 단</w>
엔 자</w>
식 장</w>
벅 스</w>
멸 시효</w>
매 도</w>
루 엔자</w>
렉 션</w>
레 지
등 기</w>
공 시</w>
▁화 요일</w>
▁폴 란드</w>
▁툴 툴</w>
▁측 정
▁체납 자</w>
▁천 장</w>
▁중 화</w>
▁중 위</w>
▁제 안
▁연 다</w>
▁아시아 나
▁아미 노
▁심 리학</w>
▁소 실</w>
▁소 량</w>
▁상관 없</w>
▁사 출</w>
▁분 자량</w>
▁백 혈구</w>
▁배 부</w>
▁바 쁜</w>
▁미 달</w>
▁난 다</w>
▁기 적</w>
▁기 리</w>
▁과 열</w>
▁개 월</w>
▁V I
▁199 3</w>
od e</w>
es s</w>
a t</w>
a d</w>
E R</w>
8 9</w>
확 률</w>
트 랜
텔 레
전 시
유 리</w>
용 역</w>
어 드</w>
대리 인</w>
네 슘</w>
경 원</w>
▁포 스</w>
▁템 플</w>
▁커 진다</w>
▁직 사각</w>
▁직 교</w>
▁우 린</w>
▁오 목</w>
▁염 소</w>
▁여 전</w>
▁신 비</w>
▁셀 프</w>
▁섞 섞</w>
▁사무 총장</w>
▁볼 록</w>
▁보 이스</w>
▁보 석</w>
▁보 상금</w>
▁민 정</w>
▁드 디어</w>
▁동 성
▁달 라</w>
▁놀 랍</w>
▁과 업</w>
▁경 직</w>
▁결 단</w>
▁거래 량</w>
▁T F</w>
▁C S</w>
▁8 70</w>
i on
테 러</w>
침 체</w>
종 시</w>
우 리</w>
약 자</w>
스테 론</w>
스 틴</w>
볼 루</w>
마 드</w>
론 가</w>
드 로</w>
동 의</w>
동 강</w>
▁흡 흡</w>
▁흑 인</w>
▁회 화</w>
▁행 진</w>
▁통 치</w>
▁코 미
▁침 윤</w>
▁출 발점</w>
▁집중 력</w>
▁정 사각형</w>
▁접 경</w>
▁이 면</w>
▁위 조</w>
▁우체 국</w>
▁업 소</w>
▁아시아나 항공</w>
▁성 형
▁상 품권</w>
▁삼성 물산</w>
▁분 쇄</w>
▁부 속</w>
▁배 지</w>
▁발생 기</w>
▁물리 학자</w>
▁말 단</w>
▁교육 학</w>
▁공격 수</w>
▁고 품질</w>
▁경찰 서</w>
▁감정 평가</w>
▁가 뭄</w>
▁A KI</w>
터 미널</w>
캐 피
충 격</w>
조 세</w>
제 작</w>
제 시</w>
렀 다</w>
단 자</w>
놀 로지</w>
기 초</w>
기 어</w>
구 제</w>
관 세</w>
가 설</w>
▁확 고</w>
▁화 장</w>
▁합 성
▁학 교장</w>
▁하 방</w>
▁컷 오프</w>
▁증 액</w>
▁중심 지</w>
▁중 년</w>
▁주 연</w>
▁이 를</w>
▁영 원
▁아크 릴</w>
▁아 래
▁쌍 둥이</w>
▁시 티</w>
▁슬 러리</w>
▁송 출</w>
▁소 독</w>
▁돼 서</w>
▁동 쪽</w>
▁덕 트</w>
▁겉 겉</w>
▁T NF</w>
▁S OC</w>
▁S L</w>
▁I S</w>
▁5 12</w>
▁24 2</w>
▁2 23</w>
u e</w>
U T</w>
환 자실</w>
해 본다</w>
표 본</w>
테크 노</w>
절 감</w>
둘 러</w>
▁회의 록</w>
▁회 고</w>
▁홍 채</w>
▁합 작</w>
▁학 술
▁프리 뷰</w>
▁폐 경기</w>
▁커 널</w>
▁지하 수</w>
▁증 설</w>
▁제작 진</w>
▁저지 른</w>
▁워 킹</w>
▁오 스트
▁심 폐</w>
▁수 장</w>
▁소 매</w>
▁서 쪽</w>
▁샤 워</w>
▁봅 니다</w>
▁복 음</w>
▁발 진</w>
▁맘 맘</w>
▁떠올 리</w>
▁돌아 보</w>
▁경 부</w>
▁E M
8 5</w>
화 도</w>
지 정</w>
제 표</w>
실 점</w>
속 기</w>
병 성</w>
도 와</w>
논 문</w>
급 자</w>
게 이트</w>
건 수</w>
▁흑 자</w>
▁획 기</w>
▁해부 학</w>
▁할 게요</w>
▁한 눈</w>
▁포 천</w>
▁칼 로리</w>
▁추 경</w>
▁청 렴</w>
▁천 안
▁채 점</w>
▁정 무</w>
▁와 의</w>
▁아 이스</w>
▁싸 이</w>
▁살 짝</w>
▁미 충</w>
▁무더 위</w>
▁룰 룰</w>
▁레이 더</w>
▁라 돈</w>
▁디 젤</w>
▁달라 진</w>
▁논 거</w>
▁낙 관</w>
▁김 해</w>
▁기 류</w>
▁근 데</w>
▁교 직원</w>
▁관련 자</w>
▁관 중</w>
▁공 청회</w>
▁감 추</w>
▁간 헐</w>
▁가까 워</w>
▁E L
▁24 1</w>
▁2 25</w>
6 9</w>
하 이</w>
컨 설팅</w>
시 마</w>
상 장</w>
리 우드</w>
대 치</w>
▁하 자</w>
▁터 지</w>
▁카 트
▁카 본</w>
▁이해 력</w>
▁유 압</w>
▁유 상</w>
▁월 평균</w>
▁오 존</w>
▁언론 사</w>
▁알 렸</w>
▁안 경</w>
▁아 일랜드</w>
▁쏘 쏘</w>
▁실 기</w>
▁신 생</w>
▁시달 리</w>
▁손 잡이</w>
▁로 비</w>
▁도 울</w>
▁김 명
▁계 곡</w>
▁곁 곁</w>
▁p ro
▁U E</w>
토 지</w>
일 부</w>
위 생</w>
우 터</w>
구 단</w>
강 점기</w>
가 공</w>
▁향 유</w>
▁트래 픽</w>
▁토 출구</w>
▁태 평양</w>
▁타이 어</w>
▁출 하</w>
▁출 퇴근</w>
▁체 온</w>
▁정 준영</w>
▁아 연</w>
▁신 곡</w>
▁수 확</w>
▁세 밀</w>
▁생 선</w>
▁상 회</w>
▁상 주</w>
▁상 식</w>
▁뻗 뻗</w>
▁부산 광역시</w>
▁부담 감</w>
▁부가 가치</w>
▁볼 트</w>
▁볼 거리</w>
▁받아들 일</w>
▁도 시
▁당뇨 병성</w>
▁단 량체</w>
▁다 투</w>
▁뉴 턴</w>
▁김경 수</w>
▁광 교</w>
▁고 갈</w>
▁결 합
▁객 석</w>
▁15 4</w>
▁10 9</w>
화 재</w>
화 력</w>
항 공사</w>
푸 스</w>
증 기</w>
점 유</w>
의 보</w>
원 자</w>
업 인</w>
신 가요</w>
스 리</w>
소 원</w>
성 적</w>
리 텔링</w>
리 안</w>
라 고요</w>
대 칭</w>
당 한</w>
가 입</w>
▁회 상</w>
▁호 환</w>
▁혈 증</w>
▁택 지</w>
▁장난 감</w>
▁자 택</w>
▁유 속</w>
▁아니 할</w>
▁수비 수</w>
▁서 대문구</w>
▁부 적</w>
▁발 전기</w>
▁메 신저</w>
▁리 조트</w>
▁도 장</w>
▁내다 봤</w>
▁궤 적</w>
▁공 휴일</w>
▁고 형</w>
▁고 구
▁가 습</w>
▁a c
▁S p
▁C on
▁16 5</w>
e e</w>
R L</w>
티 드</w>
태 프</w>
적 물</w>
압 력</w>
시 원</w>
셀 로나</w>
바 다</w>
밀 리</w>
미 술
례 법</w>
더 스</w>
내 리</w>
나 노</w>
▁펌 웨어</w>
▁특 허
▁캐 스팅</w>
▁중 고</w>
▁저 질
▁임상 시험</w>
▁응 집</w>
▁예 매</w>
▁염 염</w>
▁사 양</w>
▁목 재</w>
▁맞물 려</w>
▁마 켓</w>
▁당 대</w>
▁교 차
▁계 측</w>
▁〉 〉</w>
▁〈 〈</w>
▁MA C</w>
▁I B</w>
an d
지 주</w>
지 원금</w>
운 다</w>
심 원</w>
수 출</w>
서 울</w>
분 양</w>
부 자</w>
부 동산</w>
뜨 렸</w>
더 블</w>
당 증</w>
▁횡 단</w>
▁회 복
▁화 물
▁캠 핑</w>
▁중심 부</w>
▁일 기</w>
▁월 세</w>
▁영 하</w>
▁열 매</w>
▁에피 소드</w>
▁실 명</w>
▁시 약</w>
▁수강 료</w>
▁소 멸시효</w>
▁설 명력</w>
▁비교 기</w>
▁브 브</w>
▁부 를</w>
▁반 품</w>
▁민간 단체</w>
▁무 력</w>
▁러 브</w>
▁둘러 보</w>
▁독립 운동</w>
▁도 체</w>
▁달 한다</w>
▁김 학
▁구 토</w>
▁공 리</w>
▁객관 적으로</w>
O L</w>
4 00</w>
1 9
폴 트</w>
정 맥</w>
임 죄</w>
양 시</w>
악 기</w>
변 호사</w>
발 달</w>
몬 드</w>
리 타</w>
라 리</w>
교 과
교과 서</w>
감 염</w>
▁휘 발
▁홍 수</w>
▁한 전</w>
▁하 루
▁톱 톱</w>
▁탑 승자</w>
▁타 당도</w>
▁청 장</w>
▁지 낸</w>
▁자연 수</w>
▁의 한다</w>
▁응 축기</w>
▁연 세대</w>
▁여 행자</w>
▁실리 카</w>
▁스 포
▁쉴 쉴</w>
▁수 천</w>
▁수 도
▁보 였으며</w>
▁방 역</w>
▁박 원
▁미 션</w>
▁매 크로</w>
▁만 점</w>
▁마 트</w>
▁라디 칼</w>
▁동 굴</w>
▁대 세</w>
▁대 사관</w>
▁달 했</w>
▁날 카
▁국어 과</w>
▁C E</w>
차 지</w>
조 명</w>
정 보원</w>
유 증</w>
위 대</w>
서 다</w>
부 담금</w>
물 량</w>
무 게</w>
매 치</w>
될 수록</w>
단 기</w>
기 일</w>
금 고</w>
▁행 성</w>
▁학 점</w>
▁평 면도</w>
▁콘 셉트</w>
▁창 설</w>
▁조 리
▁일으 킨</w>
▁웹 툰</w>
▁양 립</w>
▁액세 서리</w>
▁쏟아 졌</w>
▁스토 리텔링</w>
▁분 진</w>
▁부 구</w>
▁벌 금형</w>
▁번 역
▁방 수</w>
▁동북 아</w>
▁당 내</w>
▁기 운</w>
▁급 변</w>
▁근 사</w>
▁곱 하</w>
▁고등 교육</w>
▁가 용</w>
▁T G</w>
▁L TE</w>
▁K TX</w>
▁C T
화 상</w>
해 상도</w>
풍 기</w>
터 닝</w>
취 득</w>
차 시</w>
진 출</w>
저 장</w>
오 버</w>
승 전</w>
분 과</w>
로 울</w>
렘 방</w>
레 저</w>
관 심</w>
▁흥 분</w>
▁환 전</w>
▁표 상</w>
▁터 져</w>
▁치 우
▁측정 값</w>
▁추 징</w>
▁창 극</w>
▁주 당</w>
▁정 직</w>
▁전라 남도</w>
▁이 병
▁올라 오</w>
▁쌍 용</w>
▁신 흥</w>
▁식 량</w>
▁수용 성</w>
▁수 료</w>
▁상관 관계</w>
▁사업 주</w>
▁부 유</w>
▁미 투</w>
▁면 밀</w>
▁메 틸</w>
▁매개 체</w>
▁도 자</w>
▁더 블</w>
▁당 위</w>
▁닭 닭</w>
▁달 린</w>
▁눈 치</w>
▁눈 빛</w>
▁노 르
▁금속 판</w>
▁가 파
▁E L</w>
▁14 6</w>
yp e</w>
E P</w>
1 0
차 익</w>
수 화물</w>
박 수</w>
바 람</w>
립 자</w>
내 막</w>
나 이
국 회</w>
▁흑 연</w>
▁피 스톤</w>
▁플래 그</w>
▁풍 력</w>
▁팝 팝</w>
▁퇴 행</w>
▁크 림</w>
▁찾아 오</w>
▁직 물</w>
▁적 격</w>
▁이 룬다</w>
▁위 험
▁원 화</w>
▁엔 드</w>
▁양 천구</w>
▁아이 디</w>
▁심 신</w>
▁수익 자</w>
▁성 황
▁보호 막</w>
▁밀 폐</w>
▁미 학</w>
▁림프 종</w>
▁떠올 랐</w>
▁다문화 가정</w>
▁느낀 다</w>
▁누 리
▁꼼 꼼</w>
▁김동 연</w>
▁기 뻐
▁광 주
▁개 원</w>
▁개 그
▁감 쇠</w>
▁US B</w>
▁A c
▁5 01</w>
o w</w>
el l
a z
행 렬</w>
하 인</w>
팡 이</w>
트 라</w>
텔레 콤</w>
지 연</w>
전 원</w>
장 이</w>
우 미</w>
심 의</w>
스 레</w>
수 리</w>
상 부</w>
산 성</w>
모 터</w>
디 언</w>
고 문</w>
갑 니다</w>
간 지</w>
▁향 기</w>
▁펼 칠</w>
▁팔 렘방</w>
▁트 레이</w>
▁침 착</w>
▁전 립
▁장 병</w>
▁일 수</w>
▁원 조</w>
▁완 벽
▁업 무상</w>
▁억 울</w>
▁안 양</w>
▁스 틸</w>
▁소 원</w>
▁산 입</w>
▁사 드</w>
▁불거 지</w>
▁부 응</w>
▁변 할</w>
▁무 덤</w>
▁못 지않</w>
▁메이 크업</w>
▁로드 맵</w>
▁랩 랩</w>
▁독 도</w>
▁도 자기</w>
▁답 답</w>
▁낙 태</w>
▁구 한</w>
▁골 자</w>
▁계 급</w>
▁경상 북도</w>
▁감 액</w>
▁P ro
▁H O
▁F O
▁D S
▁B A</w>
▁A g</w>
o v
투 석</w>
징 용</w>
집 중</w>
재 지</w>
일 성</w>
운 트</w>
알 코올</w>
수 관</w>
서 치</w>
사 선</w>
불 안</w>
병 대</w>
무 성</w>
려 진</w>
다 거나</w>
나 갔</w>
공 화국</w>
▁파 격</w>
▁탔 탔</w>
▁클리 닉</w>
▁침 전</w>
▁출 처</w>
▁차 감</w>
▁중간 재</w>
▁죽 이</w>
▁절 곡</w>
▁장 사</w>
▁자 존</w>
▁임 종
▁유 방</w>
▁유 감</w>
▁위 헌</w>
▁월 급</w>
▁에 스
▁안 성</w>
▁선보 일</w>
▁불 꽃</w>
▁보 통
▁벗어 날</w>
▁몰 래</w>
▁모 은</w>
▁모 른
▁면 밀히</w>
▁동 작구</w>
▁동 맹</w>
▁답 장</w>
▁내 분비</w>
▁길 거리</w>
▁국 산</w>
▁공 영</w>
▁고 정
▁가 죽</w>
▁가 족
▁i n</w>
▁c h
▁H DL</w>
▁D V
a y
8 8</w>
할 까</w>
필 드</w>
표 계</w>
카 메라</w>
직 히</w>
중 히</w>
유 가</w>
워 져</w>
아 이
슬 러</w>
소 시
북 구</w>
듬 해</w>
노 선</w>
공 립</w>
개 방</w>
▁현 역</w>
▁퇴 출</w>
▁통 관</w>
▁타 단</w>
▁책임 감</w>
▁지방 세법</w>
▁중 공</w>
▁존 재감</w>
▁졌 졌</w>
▁전 진</w>
▁전 염병</w>
▁잎 잎</w>
▁임 하</w>
▁이동 성</w>
▁이 듬해</w>
▁으 으</w>
▁여 동생</w>
▁신 주</w>
▁시 골</w>
▁붓 붓</w>
▁불 참</w>
▁부 분
▁본 성</w>
▁보인 다고</w>
▁몸 무게</w>
▁마 이</w>
▁레 이</w>
▁동 대문</w>
▁돌아 온</w>
▁도 봉
▁달 콤</w>
▁다 이</w>
▁논 술</w>
▁내세 우</w>
▁급 속히</w>
▁급 부</w>
▁광 선</w>
▁계 획
▁감 경</w>
▁T HA</w>
▁S M</w>
▁M R</w>
▁J T
▁E G
▁A B
▁18 1</w>
▁16 3</w>
ag e</w>
형 문화재</w>
향 성</w>
톨 릭</w>
크 라
체 의</w>
수 체</w>
수 처</w>
빈 도</w>
분 율</w>
내 버스</w>
고 객</w>
건 전</w>
▁흡 수
▁후 손</w>
▁화 석</w>
▁푸 틴</w>
▁폭 우</w>
▁토 의</w>
▁증 빙</w>
▁전 속</w>
▁전 설</w>
▁전 력
▁이해 찬</w>
▁썸 썸</w>
▁신 동
▁솔 직히</w>
▁소 성</w>
▁선 장</w>
▁생 겨</w>
▁삭 감</w>
▁발 암</w>
▁문 식</w>
▁돼 지
▁나 뉜
▁기 성</w>
▁기 계
▁교육 비</w>
▁공공 시설</w>
▁결 실</w>
▁견 적</w>
▁개 연</w>
▁간 호
▁| |</w>
▁4 21</w>
▁23 3</w>
▁19 1</w>
▁18 2</w>
G S</w>
혈 당증</w>
표 회</w>
지 노</w>
인 성</w>
상 선</w>
사 인</w>
반 부</w>
반 대</w>
미 세</w>
러 드</w>
도 청</w>
대 역</w>
규 명</w>
경 기장</w>
▁행 운</w>
▁풍 선</w>
▁펩 타이드</w>
▁특 사</w>
▁키 워</w>
▁취 해</w>
▁참 전</w>
▁주 유소</w>
▁제 척</w>
▁잘 라</w>
▁이 해도</w>
▁이 산
▁유 역</w>
▁원 동력</w>
▁어 때</w>
▁암 종</w>
▁승 낙</w>
▁생 성물</w>
▁붙잡 혔</w>
▁번 영</w>
▁백 제</w>
▁배 임죄</w>
▁몰 아
▁명 료</w>
▁마 스
▁레 드</w>
▁띈 다</w>
▁떡 떡</w>
▁들어 와</w>
▁뒷 면</w>
▁되 찾</w>
▁담 즙</w>
▁농 악</w>
▁네 트</w>
▁넘어 섰</w>
▁냉장 실</w>
▁내 각</w>
▁낭 독</w>
▁귀 결</w>
▁구 속력</w>
▁교 민</w>
▁고 집</w>
▁겨 우</w>
▁거 쳤</w>
▁N A</w>
▁K A
▁12 10</w>
횟 수</w>
한 국</w>
제 히</w>
전 송</w>
소 유자</w>
버 거</w>
기 온</w>
교 섭</w>
▁해 준다</w>
▁투 사</w>
▁친 척</w>
▁추 계</w>
▁착 한</w>
▁집 착</w>
▁제 제</w>
▁임대 차</w>
▁일 제히</w>
▁의료 인</w>
▁연 장
▁엔 지
▁신 세계</w>
▁시 비</w>
▁슛 슛</w>
▁속 초</w>
▁생 식</w>
▁비 주얼</w>
▁매 수인</w>
▁마 모</w>
▁동 계</w>
▁노 원</w>
▁냉 냉</w>
▁기준 점</w>
▁국 영</w>
▁고 부</w>
▁계 란</w>
▁개 헌</w>
▁간 소</w>
▁O P</w>
▁L H</w>
▁3 31</w>
▁13 7</w>
N D</w>
통신 망</w>
크 리트</w>
의 력</w>
어 졌</w>
암 제</w>
물 가</w>
루 브</w>
렌 지</w>
략 히</w>
교육 법</w>
▁혈 전증</w>
▁행 해</w>
▁평 택항</w>
▁타 협</w>
▁청 도</w>
▁철 학자</w>
▁좌 절</w>
▁자 매</w>
▁자 궁
▁유 대</w>
▁위 력</w>
▁온 전히</w>
▁여 신</w>
▁억 압</w>
▁어우러 져</w>
▁안전 교육</w>
▁악 수</w>
▁실 온</w>
▁신 진
▁방사 성</w>
▁문화 원</w>
▁모 의</w>
▁드 림</w>
▁넘 겨</w>
▁남 산</w>
▁강 풍</w>
▁갈 아
▁㎛ ㎛</w>
▁s c
▁P O
▁M S</w>
▁JT BC</w>
▁5 02</w>
a x</w>
a f
L L</w>
호 흡</w>
지 자</w>
지 름</w>
인 치</w>
이 탈
수 상</w>
사령 부</w>
법 안</w>
배 관</w>
민 주주의</w>
명 부</w>
린 다는</w>
로 즈</w>
더 라고요</w>
끄 럽</w>
▁휘발 유</w>
▁회 기</w>
▁한 마디</w>
▁프리미 어</w>
▁포 획</w>
▁편 광
▁진정 한</w>
▁직 속</w>
▁조 업</w>
▁제 소</w>
▁재무 제표</w>
▁자 막</w>
▁임 진
▁여 력</w>
▁엔 트리</w>
▁어 음</w>
▁송 달</w>
▁보 좌관</w>
▁미 지수</w>
▁들여 다보</w>
▁도 보</w>
▁단 차</w>
▁남 아
▁나뉜 다</w>
▁기 밀</w>
▁교 수자</w>
▁고 액</w>
▁계 엄
▁걸 로</w>
▁UA E</w>
▁O R</w>
▁M T
▁C r</w>
티 티</w>
칼 슘</w>
벌 이</w>
방 울</w>
레지 스트</w>
때 문</w>
남 부</w>
▁패 리티</w>
▁투과 율</w>
▁테크 놀로지</w>
▁캘리포 니아</w>
▁치 솟</w>
▁취 취</w>
▁찬 반</w>
▁차 익</w>
▁중 환자실</w>
▁줄 기세포</w>
▁정 해져</w>
▁임 차</w>
▁이 색</w>
▁이 뤘</w>
▁올라 왔</w>
▁솔 직</w>
▁소방 서</w>
▁성 실히</w>
▁서 해안</w>
▁빨 라</w>
▁블라 디
▁분 권</w>
▁보 람</w>
▁벽 면</w>
▁배 후</w>
▁방사 선
▁림 프</w>
▁러 러</w>
▁도 발</w>
▁달라 졌</w>
▁다 짐</w>
▁다 릅니다</w>
▁냉 기</w>
▁김 희
▁개 소</w>
▁감 자</w>
▁갈 색</w>
▁간 략히</w>
▁θ θ</w>
▁16 4</w>
b ac
ar d</w>
회 의
회 수</w>
판 매
트 웨이</w>
통계 학</w>
토 론</w>
클 리드</w>
충 전</w>
종 이</w>
저 하</w>
일 정</w>
이 미드</w>
우 수</w>
약 관</w>
설 치</w>
레 나</w>
듭 니다</w>
관리 자</w>
게 끔</w>
▁해 외
▁필 요
▁포토 레지스트</w>
▁페 이스</w>
▁통계 학</w>
▁캠 퍼스</w>
▁직 급</w>
▁지역 구</w>
▁지 주회사</w>
▁주 지</w>
▁정 복</w>
▁유 학생</w>
▁영원 히</w>
▁아미노 산</w>
▁실 비</w>
▁수 십
▁수 산</w>
▁속 속</w>
▁소 유
▁섰 섰</w>
▁비 위</w>
▁부적 합</w>
▁벤 투</w>
▁배 액</w>
▁배 리</w>
▁발 길</w>
▁박 차</w>
▁바 지</w>
▁마 드
▁로 그인</w>
▁로 고</w>
▁라 인
▁동 태</w>
▁도 청</w>
▁대 치</w>
▁대 동맥</w>
▁니 체</w>
▁느 린</w>
▁급 하</w>
▁공 복</w>
▁경상 남도</w>
▁N H
▁H F
▁G E</w>
▁CO V
▁7 40</w>
▁4 22</w>
▁198 9</w>
▁0 3</w>
y st
er s
통 령</w>
철 수</w>
일 럿</w>
소시 엄</w>
소 형</w>
비 서관</w>
믹 스</w>
린 다고</w>
레 마</w>
득 점</w>
게 이션</w>
▁흙 흙</w>
▁황 교
▁활성 탄</w>
▁형 편</w>
▁해외 여행</w>
▁플로 팅</w>
▁푸 드</w>
▁패 소</w>
▁초 미세</w>
▁전문 직</w>
▁임상 의</w>
▁의 정</w>
▁열 전달</w>
▁연 초</w>
▁엑 엑</w>
▁상 계</w>
▁빌 리</w>
▁보 훈</w>
▁발 판</w>
▁면 모</w>
▁등 지</w>
▁내비 게이션</w>
▁남양 주</w>
▁김 창
▁공 주</w>
▁D I
▁11 20</w>
l as
A D</w>
8 7</w>
확 보</w>
한 도</w>
표 면</w>
족 감</w>
입 금</w>
이탈 주민</w>
역 할</w>
여 름</w>
셔 츠</w>
브 랜드</w>
볶 이</w>
급 금</w>
▁혈 혈</w>
▁해 양
▁페널 티
▁카트 리지</w>
▁지 남</w>
▁정 통</w>
▁전 락</w>
▁전 두
▁이 수
▁이 기
▁원 정</w>
▁용 지</w>
▁와 중</w>
▁예 견</w>
▁연 안</w>
▁여행 지</w>
▁양 주</w>
▁알 선</w>
▁아 랍
▁시 드니</w>
▁스티 커</w>
▁숨 기</w>
▁수 술
▁사 소</w>
▁북한 이탈주민</w>
▁문 명</w>
▁면역 력</w>
▁만 연</w>
▁만 세</w>
▁마 주
▁뛰어 들</w>
▁따 를</w>
▁디 폴트</w>
▁돼 야</w>
▁동남 아시아</w>
▁동 두
▁노 령</w>
▁너 비</w>
▁기 생</w>
▁ST E
▁P ar
▁E n
▁3 03</w>
▁19 20</w>
il l
환 부</w>
통 장</w>
절 부</w>
저 감</w>
연 설</w>
억 제</w>
양 태</w>
안 건</w>
성 실</w>
바이 러스
바이러스 제</w>
무 실</w>
마 케팅</w>
립 지</w>
나 와</w>
교 부세</w>
건 축물</w>
▁흉 막</w>
▁혼 합
▁해수 욕장</w>
▁풀 어
▁취 업
▁차 주</w>
▁인 코더</w>
▁유 교</w>
▁원 단</w>
▁운 영비</w>
▁안 산시</w>
▁스티 븐</w>
▁스타 디움</w>
▁성장 률</w>
▁생겨 나</w>
▁분 주</w>
▁보험 계약</w>
▁무 리
▁모 래</w>
▁다 치</w>
▁농 사</w>
▁끝 날</w>
▁김 승
▁그리스 도</w>
▁고 전압</w>
▁게이 트웨이</w>
▁걸 림</w>
▁Zn O</w>
▁W TO</w>
▁3 0
흡 수</w>
휴 가</w>
킬 기</w>
추 구</w>
운동 가</w>
마 비</w>
레 탄</w>
램 프</w>
라 야</w>
디 아
네 스코</w>
날 두</w>
▁황교 안</w>
▁호 날두</w>
▁항 바이러스제</w>
▁한 참</w>
▁학 자금</w>
▁크 루즈</w>
▁퀴 즈</w>
▁코 르티코
▁출 판사</w>
▁최우 수</w>
▁첨 가제</w>
▁질 화</w>
▁주 부</w>
▁좀 처럼</w>
▁제 사</w>
▁입 맛</w>
▁일 컫</w>
▁원 합니다</w>
▁요 원</w>
▁오 빠</w>
▁오 버</w>
▁엿 볼</w>
▁아우 르</w>
▁실 무자</w>
▁시 내버스</w>
▁성황 리</w>
▁색 다른</w>
▁불 린다</w>
▁분 산
▁부 서장</w>
▁모 금</w>
▁메 시</w>
▁만 족감</w>
▁런 런</w>
▁들어 간다</w>
▁넓 히</w>
▁냉 방</w>
▁기본 소득</w>
▁교 착</w>
▁COV ID</w>
m ol</w>
en s
M I</w>
G O</w>
혜 자</w>
하 우징</w>
평 군</w>
팩 트</w>
중 소기업</w>
중 량</w>
운 서</w>
스크 림</w>
셔 널</w>
미 스</w>
리 세
동 산세</w>
도 덕</w>
다 양</w>
날 레</w>
▁현 명</w>
▁헌 재</w>
▁합 당</w>
▁표 결</w>
▁페이 스트</w>
▁파 일럿</w>
▁추 첨</w>
▁차 체</w>
▁주 머니</w>
▁조 영제</w>
▁일 가</w>
▁이 관</w>
▁육 박</w>
▁유 쾌</w>
▁욕 설</w>
▁요 산</w>
▁외 무</w>
▁엘리 베이터</w>
▁얼 룩</w>
▁어 렸</w>
▁악 의</w>
▁수 증기</w>
▁속 력</w>
▁석 회
▁사 슬</w>
▁불어 넣</w>
▁번 지</w>
▁백 성</w>
▁매 트</w>
▁매 물</w>
▁매 달
▁맛 집</w>
▁마 진</w>
▁딜 레마</w>
▁도 선</w>
▁나 옵니다</w>
▁기울 여야</w>
▁그 분</w>
▁경제 력</w>
▁결 승전</w>
▁건 너</w>
▁간 장</w>
▁각 별</w>
▁가 습기</w>
▁N M
▁F FF</w>
▁A r
u g
o m</w>
a m</w>
K T</w>
콘 서트</w>
체 어</w>
참 가</w>
워 진다</w>
외 기</w>
연 속</w>
아 라</w>
소 프트</w>
부 르크</w>
봐 도</w>
랙 션</w>
기 록
계약 서</w>
가 전</w>
▁황 금</w>
▁할 리우드</w>
▁필 러</w>
▁푸 른</w>
▁토 끼</w>
▁카 지노</w>
▁충 실히</w>
▁축 사</w>
▁추 격</w>
▁준 다고</w>
▁좌 좌</w>
▁제작 사</w>
▁제 의</w>
▁재판 소</w>
▁유 네스코</w>
▁연 주자</w>
▁신진 대사</w>
▁스토 퍼</w>
▁소비 량</w>
▁소 련</w>
▁사 임</w>
▁블 루</w>
▁분 절</w>
▁복 호화</w>
▁복 막</w>
▁백 업</w>
▁미 혼</w>
▁미 뤄</w>
▁머물 러</w>
▁리 어</w>
▁라인 업</w>
▁나 눴</w>
▁금 융
▁그 해</w>
▁귀 하</w>
▁국 공립</w>
▁구 급
▁경 협</w>
▁R FA</w>
▁P R</w>
▁N H</w>
▁G DM</w>
▁C V</w>
▁3 80</w>
▁198 7</w>
임 원</w>
시 경제</w>
스트 림</w>
소 생</w>
센 스</w>
산 율</w>
번 지</w>
물 품</w>
무 장</w>
마 토
라 드</w>
다 주</w>
농 구</w>
▁활 동
▁현 존</w>
▁향 수</w>
▁피 력</w>
▁편 집
▁파 지</w>
▁탈 세</w>
▁캔 캔</w>
▁충 청</w>
▁출 품</w>
▁천 재</w>
▁인 사
▁온 갖</w>
▁오 케스트라</w>
▁영 원</w>
▁안 료</w>
▁쌓 여</w>
▁심 전</w>
▁수 열</w>
▁세 원</w>
▁세 관</w>
▁생 소</w>
▁상 급</w>
▁봐 요</w>
▁벽 화</w>
▁방송 인</w>
▁모 를</w>
▁메 탄올</w>
▁대통령 령</w>
▁대 용량</w>
▁대 미</w>
▁논 논</w>
▁노 리</w>
▁구 부
▁거 실</w>
▁가져 온</w>
▁가르 침</w>
▁≥ ≥</w>
▁e GFR</w>
▁2 24</w>
y s
2 000</w>
협 동조합</w>
출 금</w>
체육 회</w>
제 국</w>
장 려금</w>
으 려</w>
양 도</w>
섭 단체</w>
발 표</w>
레이 브</w>
단 의</w>
그 러
개 년</w>
▁학 사</w>
▁품 격</w>
▁편 중</w>
▁출 고</w>
▁자연 환경</w>
▁잇 달</w>
▁아이 스크림</w>
▁아나 운서</w>
▁쌓 이</w>
▁신 나</w>
▁수 혜자</w>
▁수 은</w>
▁수 락</w>
▁소 화기</w>
▁생태 계</w>
▁색 채</w>
▁상 류</w>
▁붐 붐</w>
▁불명 확</w>
▁백 분율</w>
▁레 저</w>
▁도봉 구</w>
▁과 체중</w>
▁과 언</w>
▁곡 률</w>
▁고 용부</w>
▁경쟁 자</w>
▁결 재</w>
▁결 석</w>
▁거 시경제</w>
▁갑상 선암</w>
▁가 시
▁S c
▁A A</w>
▁36 5</w>
ac t
8 3</w>
학 사</w>
하 위</w>
증 대</w>
이지 장</w>
유 체</w>
영 재</w>
여 라</w>
야 지</w>
시 설물</w>
송 파</w>
보 안</w>
랑 이</w>
라 이스</w>
과 실</w>
▁화 성시</w>
▁헤 어</w>
▁핵 무기</w>
▁함 정</w>
▁통 합
▁카 테</w>
▁취 했</w>
▁추 위</w>
▁천안 시</w>
▁잔 차</w>
▁잔 존</w>
▁이 데
▁완 성도</w>
▁예 쁘</w>
▁역 류</w>
▁여 객</w>
▁약 품</w>
▁아 웃
▁승 차</w>
▁스트 립</w>
▁손 익</w>
▁셀 룰
▁샌드 위치</w>
▁버 렸</w>
▁미 래
▁물 결</w>
▁떨어 진다</w>
▁넥 슨</w>
▁낡 낡</w>
▁김 광
▁국 기</w>
▁격 격</w>
▁강력 히</w>
▁갓 갓</w>
▁가리 킨다</w>
▁℃ ℃</w>
▁w t</w>
▁R e
▁D R
▁A U
▁5 60</w>
▁198 6</w>
플 레이트</w>
총 생산</w>
주 소</w>
주 관</w>
장 품</w>
어 민</w>
실 천</w>
시 아
상 물</w>
상 권</w>
비 행</w>
납 원</w>
경 학</w>
결 핵</w>
간 다는</w>
▁회 의실</w>
▁플 랜</w>
▁폐 색</w>
▁타이 머</w>
▁총 량</w>
▁창 단</w>
▁지지 층</w>
▁지 냈</w>
▁조 인트</w>
▁전통 문화</w>
▁자본 금</w>
▁자 정</w>
▁유 적</w>
▁예 민</w>
▁영 아</w>
▁어 지
▁실 리</w>
▁수 용자</w>
▁세 탁</w>
▁성 동구</w>
▁석 면</w>
▁빼 앗</w>
▁빨 간</w>
▁부 추
▁변 론</w>
▁방송 국</w>
▁바르 셀로나</w>
▁무 증상</w>
▁모 였</w>
▁매 도인</w>
▁마이크로 폰</w>
▁돌아 갈</w>
▁낙 동강</w>
▁고려 대</w>
▁S C</w>
▁I LD</w>
▁19 30</w>
or m
i r</w>
C CH</w>
회 찬</w>
펀 딩</w>
퇴 직</w>
킵 니다</w>
은 색</w>
으 실</w>
시 절</w>
수 명</w>
부 위</w>
보 내</w>
무 스</w>
모 스</w>
드 린</w>
▁히 어
▁히 스토
▁흰 흰</w>
▁폭 탄</w>
▁테러 리즘</w>
▁컨 퍼런스</w>
▁컨 소시엄</w>
▁출 토</w>
▁총 기</w>
▁제 주
▁전자 파</w>
▁재판 관</w>
▁유 클리드</w>
▁원 했</w>
▁원 점</w>
▁오토 바이</w>
▁알 릴</w>
▁아 인
▁쌍 방</w>
▁순 회</w>
▁수 산물</w>
▁속 해</w>
▁설 탕</w>
▁비 단</w>
▁불거 졌</w>
▁부 여
▁민 원인</w>
▁문 언</w>
▁라 오스</w>
▁노 회찬</w>
▁기다 렸</w>
▁귀 추</w>
▁과 자</w>
▁경 사면</w>
▁U S</w>
▁Q R</w>
P a</w>
G E</w>
A L</w>
회의 소</w>
트랜 지스터</w>
통 형</w>
조 자</w>
슬 림</w>
속 성</w>
선거 법</w>
선 정</w>
고 속</w>
개 시</w>
감 지</w>
▁한 시</w>
▁풍 속</w>
▁폼 폼</w>
▁펜 션</w>
▁티 셔츠</w>
▁태 권
▁콜라 겐</w>
▁착 각</w>
▁직 업
▁좌 표계</w>
▁전 복</w>
▁음악 회</w>
▁유니 폼</w>
▁운동 장</w>
▁옹 호</w>
▁열 광</w>
▁여 인</w>
▁엠 엠</w>
▁안 면</w>
▁아인 슈타인</w>
▁시 드</w>
▁서 빙</w>
▁산 술</w>
▁비 닐</w>
▁블 로
▁복 장</w>
▁변 속</w>
▁벚 꽃</w>
▁물 음</w>
▁모 자
▁메 틸
▁만 찬</w>
▁마드 리드</w>
▁드 리
▁도 대체</w>
▁다 쳤</w>
▁넓 혀</w>
▁깎 깎</w>
▁그 립</w>
▁공 사장</w>
▁걸 맞</w>
▁각 지</w>
▁가 져</w>
▁G S
▁4 000</w>
▁3 13</w>
▁23 5</w>
▁20 6</w>
o t</w>
en ce</w>
형 사</w>
학 관</w>
핑 크</w>
프 리</w>
캐 스트</w>
충 돌</w>
청 문회</w>
종 일</w>
제 출</w>
재 의</w>
연 계</w>
안 타</w>
아 기</w>
시 립</w>
사 비</w>
민 세</w>
무 지</w>
려 던</w>
당 했</w>
담 배</w>
다 르</w>
계 기</w>
▁황 제</w>
▁항 변</w>
▁함 침</w>
▁팝 업</w>
▁콘 크리트</w>
▁체 외</w>
▁청구 인</w>
▁지방 분</w>
▁중앙 값</w>
▁줄어 든다</w>
▁주 성분</w>
▁조용 히</w>
▁조 종
▁조 망</w>
▁재 편</w>
▁유 보</w>
▁여 객
▁양 단</w>
▁야 채</w>
▁알 파
▁스튜 어드</w>
▁수출 입</w>
▁빛 나</w>
▁본 연</w>
▁벤 치
▁범 프</w>
▁밝혀 진</w>
▁모 시</w>
▁명 예
▁메타 데이터</w>
▁룸 룸</w>
▁롱 롱</w>
▁따 져</w>
▁되 게</w>
▁돌 파구</w>
▁궤 양</w>
▁굵 굵</w>
▁고 농</w>
▁c on
▁P I</w>
▁M g</w>
▁M P</w>
▁C R</w>
▁3 04</w>
N O</w>
I T</w>
칩 니다</w>
체 결</w>
중 학교</w>
이 후</w>
어 서다</w>
스크 바</w>
손 상</w>
섯 째</w>
상 수</w>
사 학</w>
비 례</w>
보 기</w>
문 단</w>
리 루
리루 빈</w>
구 심</w>
▁흘 러</w>
▁획 일</w>
▁혼 잡</w>
▁펼쳐 졌</w>
▁태권 도</w>
▁코미 디</w>
▁친 한</w>
▁차 액</w>
▁지 주</w>
▁자궁 경
▁일 행</w>
▁일 탈</w>
▁인 산염</w>
▁이 강
▁원 통</w>
▁요 오드</w>
▁연 차</w>
▁스캐 너</w>
▁숙 박
▁세 련</w>
▁사무 관</w>
▁사 역</w>
▁사 모</w>
▁모 성</w>
▁모 노
▁명 백
▁마 침</w>
▁대 화
▁대 학
▁놀 랐</w>
▁낙 후</w>
▁나아 갈</w>
▁글 씨</w>
▁구성 요건</w>
▁관 찰자</w>
▁곤 충</w>
▁경 로
▁가 담</w>
▁P X</w>
▁L DL</w>
▁CS I</w>
▁6 01</w>
▁3 32</w>
▁20 25</w>
▁14 00</w>
▁0 2</w>
or t
i l</w>
an d</w>
a p</w>
회 기</w>
헤 드</w>
텐 셜</w>
케 이터</w>
체 스터</w>
진 료</w>
지 르</w>
정 화</w>
재 교육</w>
오 르</w>
시 안</w>
스테 르</w>
보 트</w>
내 외</w>
고 속도로</w>
개 서</w>
▁후 퇴</w>
▁후 유증</w>
▁학술 지</w>
▁학 부</w>
▁피 우</w>
▁파 주시</w>
▁컨 디션</w>
▁촬 상</w>
▁정 신
▁접 한</w>
▁점 도</w>
▁전 동</w>
▁재 계</w>
▁의 안</w>
▁울 리</w>
▁요 철</w>
▁예 우</w>
▁여 주</w>
▁엄 밀</w>
▁신 조</w>
▁슬 립</w>
▁소 홀</w>
▁셧 다운</w>
▁선 종</w>
▁사 채</w>
▁사 면</w>
▁비 례
▁불 길</w>
▁북 구</w>
▁보 좌</w>
▁미 묘</w>
▁모 아
▁모 스크바</w>
▁막 히</w>
▁뚜 껑</w>
▁동 포</w>
▁돌아 다니</w>
▁닫 힌</w>
▁내 국</w>
▁납 치</w>
▁근 래</w>
▁가 톨릭</w>
▁가 용성</w>
▁가 래</w>
▁3 15</w>
▁13 10</w>
e x</w>
e m</w>
C L</w>
타 입</w>
진 제</w>
증 도</w>
유 총</w>
위 해</w>
위 한</w>
쇄 성</w>
소 방</w>
비 티</w>
불 이행</w>
내 기</w>
기 원</w>
경 우</w>
결 혼</w>
▁화 가</w>
▁헝 가리</w>
▁해 촉</w>
▁해 운</w>
▁해 석
▁피 질</w>
▁표 방</w>
▁포 항
▁토론 토</w>
▁큐 큐</w>
▁추 운</w>
▁즉 흥</w>
▁주 소
▁종량 제</w>
▁조 형</w>
▁정 밀도</w>
▁재 건</w>
▁임 박</w>
▁일으 켜</w>
▁이동 하</w>
▁의 구심</w>
▁육 육</w>
▁우 버</w>
▁오 렌지</w>
▁여 배우</w>
▁앵 커</w>
▁아 스
▁십 이지장</w>
▁심 미</w>
▁소 주</w>
▁세 로
▁삼 각</w>
▁모 사</w>
▁맛 볼</w>
▁마그 네슘</w>
▁로 버트</w>
▁레 버</w>
▁동 요</w>
▁돌아 올</w>
▁느껴 졌</w>
▁노 래
▁네 이
▁넘 겨진</w>
▁냉 동실</w>
▁내 용
▁김 의</w>
▁그 랜드</w>
▁국제 법</w>
▁교 환기</w>
▁공 극</w>
▁갖 춰</w>
▁가 성</w>
▁T i</w>
▁P TC</w>
▁L C</w>
in g
ig h
en d
O N</w>
B P</w>
확 산</w>
첨 단</w>
젠 테이션</w>
인 간</w>
음 악
예 측</w>
상 법</w>
벡 터</w>
미 사일</w>
도 계</w>
더 리</w>
노 위</w>
날 수록</w>
국 자</w>
구 리</w>
견 서</w>
▁흡 인</w>
▁해 경</w>
▁폴 더</w>
▁패 혈증</w>
▁파 도</w>
▁충 동</w>
▁지배 력</w>
▁줘 줘</w>
▁정 류</w>
▁전 자기</w>
▁장 례
▁일 곱</w>
▁이뤄 져야</w>
▁이 길</w>
▁위 쪽</w>
▁우 산</w>
▁오스트 리아</w>
▁오 르
▁열 망</w>
▁어 딘
▁슬 로
▁순 조</w>
▁수 수</w>
▁선 로</w>
▁반 지름</w>
▁박원 순</w>
▁박 상
▁못 해서</w>
▁라이 너</w>
▁듀 얼</w>
▁당 첨</w>
▁다 닐</w>
▁눈 높이</w>
▁내 과</w>
▁낚 시</w>
▁나 경원</w>
▁광 물</w>
▁SG LT</w>
▁O H</w>
▁L CD</w>
n g</w>
i al</w>
V A</w>
퍼 니</w>
타 늄</w>
클 로
제 거</w>
저 트</w>
유 기</w>
용 액</w>
아 들</w>
스트 리트</w>
부 즈
부 과</w>
미술 관</w>
릿 지</w>
리 바
렉 터</w>
레 벨</w>
디아 라비아</w>
대 사관</w>
눗 셈</w>
간 제</w>
▁필요 시</w>
▁핀 란드</w>
▁판 결
▁투 표
▁탈 피</w>
▁탄 수화물</w>
▁창 원시</w>
▁착 안</w>
▁착 륙</w>
▁진 도</w>
▁지켜 야</w>
▁지지 대</w>
▁제 천</w>
▁재 선</w>
▁일본 군</w>
▁이 진</w>
▁이 양</w>
▁원 통형</w>
▁요 금제</w>
▁양 해</w>
▁싼 싼</w>
▁스 승</w>
▁샷 샷</w>
▁산 림
▁사우 디아라비아</w>
▁사 격</w>
▁브라 우
▁바이 올
▁바 로잡</w>
▁문 양</w>
▁무 슬림</w>
▁명백 히</w>
▁디 스</w>
▁다 룬다</w>
▁누 워</w>
▁높 인다</w>
▁논 평</w>
▁나 와서</w>
▁그 린
▁구 원</w>
▁∼ ∼</w>
▁m l</w>
▁R RC</w>
▁N O</w>
▁L S</w>
▁G O
▁A D</w>
▁9 30</w>
▁10 20</w>
e w</w>
al l
현 대</w>
플 렉스</w>
테 랑</w>
카 이</w>
증 명서</w>
종 류</w>
저 우</w>
여 고</w>
세 이</w>
병 리학</w>
무 가</w>
드 릴까요</w>
니 아주</w>
급 수</w>
국제 공항</w>
▁힙 합</w>
▁허 리
▁한 자</w>
▁퓨 즈</w>
▁퇴 장</w>
▁통 찰</w>
▁컷 컷</w>
▁치 밀</w>
▁청 문회</w>
▁차 광</w>
▁진 통제</w>
▁진 압</w>
▁주 조</w>
▁정 례</w>
▁전도 도</w>
▁자 활</w>
▁자 명</w>
▁인 삼</w>
▁이 마트</w>
▁오 바
▁아 동
▁새 끼</w>
▁블랙 홀</w>
▁부 임</w>
▁보 트</w>
▁병 사</w>
▁백 금</w>
▁박 지
▁매 운</w>
▁떡 볶이</w>
▁덴 마크</w>
▁덧 셈</w>
▁던 졌</w>
▁내 피</w>
▁납 득</w>
▁기관 장</w>
▁기 혼</w>
▁기 제</w>
▁기 간제</w>
▁극 도</w>
▁공 소
▁경쟁 사</w>
▁견 디</w>
▁개 량</w>
▁간 직</w>
▁간 결</w>
▁가 속도</w>
▁X RD</w>
▁8 40</w>
▁4 13</w>
i b</w>
U I</w>
P M</w>
회 의실</w>
학 계</w>
창 기</w>
직 선</w>
지 오</w>
정 학</w>
전 방</w>
재 자</w>
음 료</w>
위 성</w>
우 위</w>
약 점</w>
시켜 서</w>
상 국</w>
마 커</w>
리 학자</w>
리 코</w>
동 아리</w>
관 염</w>
고 회</w>
계 산서</w>
겨 졌</w>
▁화 두</w>
▁행 할</w>
▁항 해</w>
▁할 까</w>
▁코르티코 스테로이드</w>
▁초 보</w>
▁청 춘</w>
▁지방 소비세</w>
▁제 습</w>
▁저 장실</w>
▁장 군</w>
▁임 시
▁인플 루엔자</w>
▁월 별</w>
▁올바 르</w>
▁오리 지
▁염 색
▁에 너
▁어 색</w>
▁심 문</w>
▁실 존</w>
▁시 켰</w>
▁수 혈</w>
▁소 오</w>
▁생 명
▁살 펴</w>
▁부 의장</w>
▁베 젤</w>
▁법인 세법</w>
▁밴 밴</w>
▁발 포</w>
▁미 네
▁론 론</w>
▁디 저트</w>
▁뒀 뒀</w>
▁돌 려</w>
▁다녀 왔</w>
▁나 눗셈</w>
▁나 간</w>
▁굴 굴</w>
▁관 제</w>
▁공 법</w>
▁고 치</w>
▁고 종</w>
▁계약 자</w>
▁건설 사</w>
▁25 3</w>
8 6</w>
화 합물</w>
항 식</w>
지 회</w>
지 방
정 수</w>
자 석</w>
이 동</w>
울 루</w>
소 식</w>
복 구</w>
반 고</w>
면 역</w>
릿 수</w>
레 일</w>
디 스
데 스</w>
노 이드</w>
나 눔</w>
나 기</w>
교 통
결 의</w>
▁휴 게
▁합 니까</w>
▁프 레스</w>
▁파 편</w>
▁파 문</w>
▁클 립</w>
▁최 우</w>
▁지지 자</w>
▁조 장</w>
▁잡 아
▁일 간</w>
▁이 모</w>
▁융 자금</w>
▁육 안</w>
▁외 기</w>
▁연 어</w>
▁언론 인</w>
▁어 때
▁압 출</w>
▁심 박수</w>
▁실 재</w>
▁실 외기</w>
▁쉘 쉘</w>
▁셔 터</w>
▁불 황</w>
▁복 권</w>
▁반 론</w>
▁바이 패스</w>
▁바 위</w>
▁맨 체스터</w>
▁대리 점</w>
▁다 녔</w>
▁늘 릴</w>
▁낙 상</w>
▁꼬 집</w>
▁김영 철</w>
▁기념 품</w>
▁그러 니까</w>
▁그 렸</w>
▁공정 성</w>
▁게시 물</w>
▁건 네</w>
▁W e
▁Th e</w>
▁T FT</w>
▁M V
▁C L
▁B TS</w>
형 상</w>
크 스</w>
춘 다</w>
중개 사</w>
준 다는</w>
정 권</w>
악 단</w>
아 몬드</w>
신 다면</w>
시 금</w>
스 케
사 국</w>
미 르</w>
망 자</w>
력 사</w>
디 스크</w>
단 속</w>
관리 관</w>
관 념</w>
고 시</w>
고 루</w>
▁하 차</w>
▁하 얀</w>
▁하 류</w>
▁퍼 퍼</w>
▁특 징
▁지 우</w>
▁적 대</w>
▁자 산
▁일 당</w>
▁인 보</w>
▁용 제</w>
▁용 적</w>
▁옥 외</w>
▁아 크</w>
▁쏠 린다</w>
▁실 전</w>
▁소 위원회</w>
▁사 본</w>
▁뺀 뺀</w>
▁베 테랑</w>
▁법률 안</w>
▁반 주</w>
▁박 종
▁메타 분석</w>
▁등 판</w>
▁될 까</w>
▁눌 러</w>
▁김 해
▁굳 굳</w>
▁교 내</w>
▁괴롭 힘</w>
▁과 기</w>
▁가구 원</w>
▁가 평</w>
▁P B
▁N a
▁N C</w>
▁6 11</w>
▁12 20</w>
it e</w>
ic al</w>
N E</w>
확 장</w>
현 금</w>
종 사자</w>
적 자</w>
인 다는</w>
원 수</w>
용 사</w>
엔 날레</w>
시 블</w>
부 상</w>
라 우
드 려요</w>
동 자</w>
급 적</w>
검 찰청</w>
▁하 이드</w>
▁플 러스</w>
▁패 킹</w>
▁파 란색</w>
▁특 권</w>
▁카 이</w>
▁치 중</w>
▁충 전기</w>
▁총 력</w>
▁초 록</w>
▁챗 챗</w>
▁전 가</w>
▁잡 힌</w>
▁잠 실</w>
▁자 각</w>
▁완 만</w>
▁영 남</w>
▁엣 지</w>
▁에 이스</w>
▁어 선</w>
▁알려 야</w>
▁시 흥</w>
▁시 각화</w>
▁숨 겨진</w>
▁소 매
▁서 둘러</w>
▁빠 질</w>
▁복 리</w>
▁버 티</w>
▁바 꾼</w>
▁민 중</w>
▁몸 통</w>
▁몰 수</w>
▁모 수</w>
▁먹 방</w>
▁마 일
▁독 재</w>
▁던 진</w>
▁당 면</w>
▁답 방</w>
▁놀 이터</w>
▁노 란색</w>
▁남 다른</w>
▁나 빠
▁깔 려</w>
▁기술 자</w>
▁골 라</w>
▁가 급적</w>
▁가 격
▁P P</w>
▁M L
▁4 0
▁17 3</w>
u t</w>
활동 비</w>
활 히</w>
확 정</w>
하 수체</w>
열 차</w>
보 좌관</w>
보 물</w>
명 도</w>
만 히</w>
리 버</w>
로 기</w>
도 소</w>
금 법</w>
고 지</w>
겨 야</w>
▁형 태
▁항 균</w>
▁피 복</w>
▁패 스
▁탐 방</w>
▁클러 치</w>
▁커 진</w>
▁최 후</w>
▁증류 수</w>
▁정 문</w>
▁점 프</w>
▁재 임</w>
▁용 서</w>
▁열 분해</w>
▁에어 백</w>
▁앤 앤</w>
▁쓰 인</w>
▁승 점</w>
▁스 키</w>
▁숙 명</w>
▁수 법</w>
▁수 감</w>
▁쇼 크</w>
▁소비 재</w>
▁선 체</w>
▁빨 라
▁비대 위</w>
▁붙 잡</w>
▁분석 기</w>
▁보 안
▁베 스트</w>
▁법인 격</w>
▁버 섯</w>
▁리 스</w>
▁록 록</w>
▁뒤 쪽</w>
▁동 거</w>
▁낸 드</w>
▁김 준
▁교 구</w>
▁계 신</w>
▁가 라
▁M B
▁I G
▁C L</w>
▁13 8</w>
ron bac
r o</w>
e f
1 20</w>
엔 진</w>
심 의회</w>
상 화</w>
상 대</w>
불 린</w>
보 리</w>
매 스</w>
난 다고</w>
그 라
격 계</w>
감 각</w>
▁휠 체어</w>
▁혼 재</w>
▁허 벅
▁포 인터</w>
▁친 근</w>
▁치 른</w>
▁착 색</w>
▁차 종</w>
▁차 가운</w>
▁징 벌</w>
▁중 형</w>
▁조 카</w>
▁제 네
▁정 년</w>
▁정 극</w>
▁재 취업</w>
▁작 물</w>
▁입 대</w>
▁인디 케이터</w>
▁인 구
▁음악 가</w>
▁원 활히</w>
▁원 금</w>
▁오리지 널</w>
▁어린 아이</w>
▁어때 요</w>
▁어긋 나</w>
▁야 권</w>
▁암 세포</w>
▁알 맞</w>
▁쏟아 져</w>
▁셰 프</w>
▁세계 인</w>
▁사 분
▁비 서관</w>
▁브 루
▁미 약</w>
▁리 츠</w>
▁딸 기</w>
▁동 상</w>
▁노 예</w>
▁넘 겼</w>
▁낯 설</w>
▁기 내</w>
▁균 질</w>
▁경 비
▁감 옥</w>
▁T SH</w>
▁MO U</w>
▁L T
▁E TV</w>
▁E R</w>
▁A ST</w>
▁A L
▁198 5</w>
or e
an g</w>
P P</w>
N C</w>
활 성
펀 트</w>
차 트</w>
질 소</w>
전 술</w>
운 행</w>
라 노</w>
단 절</w>
▁한 두</w>
▁픽 업</w>
▁포르 투
▁포 장
▁파 티
▁티 저</w>
▁컴 백</w>
▁최상 위</w>
▁찬 양</w>
▁증 정</w>
▁조 속히</w>
▁조 상</w>
▁장 거리</w>
▁잡 히</w>
▁일회 용</w>
▁일 터</w>
▁인 과
▁이산 가족</w>
▁은 혜</w>
▁요 컨대</w>
▁연 마</w>
▁엄 중</w>
▁암 기</w>
▁아래 쪽</w>
▁아 산</w>
▁씨 앗</w>
▁쉼 터</w>
▁세 르
▁설 렘</w>
▁서 점</w>
▁새 로이</w>
▁블랙 리스트</w>
▁부탁 드립니다</w>
▁박 용
▁바 꿔
▁미 스
▁매 질</w>
▁맞 출</w>
▁만 만</w>
▁두꺼 운</w>
▁눈 앞</w>
▁뇌 하수체</w>
▁농 약</w>
▁교 훈</w>
▁공 천</w>
▁골 고루</w>
▁고 취</w>
▁고 난</w>
▁계 류</w>
▁가 산
▁m RNA</w>
▁L O
▁DP P</w>
▁3 14</w>
▁14 8</w>
o un
ic e</w>
P R</w>
투 쟁</w>
태 평양</w>
자 력</w>
인 정</w>
실 화</w>
시 책</w>
시 리즈</w>
수 립</w>
수 구</w>
셀 러</w>
마 파크</w>
마 토</w>
라 크</w>
대 인</w>
단 가</w>
냅 스</w>
군 수</w>
구 축</w>
걸 리</w>
강 의</w>
▁후보 자</w>
▁횡 단면</w>
▁허벅 지</w>
▁허 약</w>
▁플렉 시블</w>
▁트랜 스
▁크 롬</w>
▁최 장</w>
▁중 산</w>
▁주 역</w>
▁저 작
▁장 인</w>
▁임 부</w>
▁이재 용</w>
▁이 낙
▁의료 법</w>
▁음 수</w>
▁우 아</w>
▁에 듀</w>
▁신 종</w>
▁신 작</w>
▁시 냅스</w>
▁스 템</w>
▁스 태프</w>
▁수 제</w>
▁선 착
▁살아 갈</w>
▁병 원
▁박 영
▁바 나
▁미 적
▁문 체</w>
▁맞 벌이</w>
▁리 소스</w>
▁로 켓</w>
▁따 랐</w>
▁도 망
▁다이 아몬드</w>
▁김 연
▁국 군</w>
▁광 산</w>
▁광 경</w>
▁고 졸</w>
▁경 색</w>
▁거 액</w>
▁S ch
▁P T</w>
▁O F
▁K IA</w>
▁HB e
▁HBe Ag</w>
▁E X
▁C LK</w>
▁AP I</w>
P GA</w>
해 력</w>
학 규</w>
파 운드</w>
터 디</w>
커 트</w>
취 약</w>
주 군</w>
조 사단</w>
접 대</w>
전 물</w>
저 널</w>
입 량</w>
인 서</w>
인 도</w>
의 약품</w>
소 연</w>
무 관</w>
무 개</w>
라 톤</w>
듀 서</w>
돼 지</w>
돼 서</w>
대 국</w>
대 결</w>
대 가</w>
고 히</w>
경제 학</w>
▁한국 학</w>
▁한 파</w>
▁플랜 지</w>
▁표 지판</w>
▁펼 친다</w>
▁페 달</w>
▁탈 구</w>
▁클 로
▁충청 남도</w>
▁청 결</w>
▁첨 예</w>
▁지 르</w>
▁준 다는</w>
▁종 합
▁정 세</w>
▁절 망</w>
▁인 허가</w>
▁이낙 연</w>
▁이 겨</w>
▁왕 실</w>
▁예 년</w>
▁역 행</w>
▁엄 청</w>
▁안 개</w>
▁심 부전</w>
▁싣 싣</w>
▁시 속</w>
▁스타 일
▁수 액</w>
▁소 양</w>
▁서 귀
▁상 설</w>
▁비 틀
▁부 친</w>
▁방 증</w>
▁발 상</w>
▁반대 편</w>
▁라 미</w>
▁돼지 고기</w>
▁단 일
▁누 나</w>
▁내 전</w>
▁그 루브</w>
▁구 로</w>
▁교육 장</w>
▁교 섭단체</w>
▁고 해상도</w>
▁강제 집행</w>
▁강 판</w>
▁s p
▁U N</w>
▁T H
▁P L
▁C ronbac
▁C K</w>
▁23 4</w>
▁2 16</w>
or e</w>
m mHg</w>
획 사</w>
형 제</w>
토 스</w>
테 르</w>
진 증</w>
여 대</w>
실 질</w>
시 스코</w>
상 시</w>
부 서장</w>
보 훈</w>
보 육</w>
반 사</w>
동 맹</w>
도 기</w>
답 니다</w>
농 장</w>
기 억</w>
관광 객</w>
▁황 금
▁화 질</w>
▁현대 인</w>
▁해 커</w>
▁해 답</w>
▁합 격자</w>
▁패스 워드</w>
▁텍 사
▁키 패드</w>
▁칸 트</w>
▁축 산물</w>
▁처 하</w>
▁처 럼</w>
▁채무 불이행</w>
▁참 관</w>
▁차 동</w>
▁지 반</w>
▁일 명</w>
▁의 무자</w>
▁의 과</w>
▁오바 마</w>
▁오 더</w>
▁엑 소</w>
▁어우러 진</w>
▁아미 노</w>
▁시 카
▁소 포</w>
▁밀 려
▁미 스</w>
▁레 알</w>
▁동 점</w>
▁동 공</w>
▁도 파
▁도 왔</w>
▁덮 개</w>
▁더 해져</w>
▁내용 물</w>
▁날카 로운</w>
▁끔 찍</w>
▁기 형</w>
▁국내 법</w>
▁관 문</w>
▁곽 곽</w>
▁골 드
▁경 신</w>
▁갱 년기</w>
▁갖 췄</w>
▁강 북</w>
▁감 찰</w>
▁감 응</w>
▁각 오</w>
▁P l
▁H F</w>
▁A p
▁19 45</w>
▁16 00</w>
i o</w>
an ce</w>
al l</w>
화 원</w>
학 위</w>
투 수</w>
침 습</w>
축 구
중 계</w>
정 액</w>
전 처</w>
워 킹</w>
올 로기</w>
석 기</w>
상 블</w>
사 리</w>
분 별</w>
로 그램</w>
란 시스코</w>
등 록
들 인</w>
꼼 히</w>
▁헤 지</w>
▁함 유량</w>
▁학 식</w>
▁페 미
▁틀 림
▁특 수
▁취 약점</w>
▁충 주</w>
▁채 울</w>
▁중 개
▁주어 졌</w>
▁주 무</w>
▁제작 자</w>
▁전 보</w>
▁저 변</w>
▁이 월</w>
▁은 닉</w>
▁유 휴</w>
▁우 물</w>
▁예 제</w>
▁영 문</w>
▁양 수인</w>
▁앞 쪽</w>
▁실 린</w>
▁시카 고</w>
▁부딪 히</w>
▁바 꿨</w>
▁마이크로 파</w>
▁도 매</w>
▁단 체
▁농 작물</w>
▁급 속도</w>
▁극 우</w>
▁경기 력</w>
▁감소 세</w>
▁가 꾸</w>
▁L N</w>
▁K E
▁B l
▁3 33</w>
▁19 5</w>
T N</w>
희 망</w>
호 기</w>
타 고
추 천</w>
입 원</w>
이 야기</w>
의 안</w>
야 금</w>
아 민</w>
시 자</w>
소 속</w>
생 성</w>
사업 장</w>
사 대</w>
비 드</w>
베 이
방 해</w>
란 물</w>
따 라</w>
들 여</w>
드 마크</w>
기 제</w>
경 화증</w>
감 면</w>
▁힘 쓰</w>
▁협 소</w>
▁햄 버거</w>
▁핸 들</w>
▁항공 편</w>
▁하 우스</w>
▁피 처</w>
▁통 찰력</w>
▁충 원</w>
▁지 급
▁주 거지</w>
▁전 환
▁저질 렀</w>
▁장 수</w>
▁이 순
▁의 병</w>
▁의 례</w>
▁유 치
▁월 스트리트</w>
▁원 수</w>
▁욕 심</w>
▁쓰 여</w>
▁실 업자</w>
▁슈 팅</w>
▁손 학규</w>
▁손 길</w>
▁세 외</w>
▁상 봉</w>
▁사 명</w>
▁비 염</w>
▁복 소</w>
▁변 상</w>
▁발생 량</w>
▁바라 볼</w>
▁무한 히</w>
▁몸 매</w>
▁매 몰</w>
▁맞 닿</w>
▁리 모
▁루 푸스</w>
▁떠 날</w>
▁드 렸</w>
▁듀 이</w>
▁도시 락</w>
▁대상 물</w>
▁당 원</w>
▁단 체장</w>
▁노 란</w>
▁넘어 선</w>
▁내려 진</w>
▁내려 오</w>
▁내 달</w>
▁꼼 꼼히</w>
▁기울 여</w>
▁기 울</w>
▁기 억
▁기 수</w>
▁궁 중</w>
▁공 매도</w>
▁강 건</w>
▁감 마</w>
▁Ⅳ Ⅳ</w>
▁S D
▁R S
▁M L</w>
▁F T</w>
▁A E</w>
▁3 23</w>
▁3 05</w>
▁14 7</w>
s t</w>
P K</w>
혈 병</w>
포 화</w>
평 생</w>
캐피 탈</w>
진 화</w>
존 심</w>
조 원</w>
접 촉</w>
어린 이집</w>
심 실</w>
스토 어</w>
비 밀</w>
비 린</w>
배 기</w>
바이 저</w>
디스 플레이</w>
네 트</w>
계 산</w>
가 수</w>
▁횡 횡</w>
▁항 암제</w>
▁합 창</w>
▁프로 듀서</w>
▁평 년</w>
▁파 기</w>
▁탈 수</w>
▁코 레</w>
▁커 질수록</w>
▁쳤 쳤</w>
▁주 춤</w>
▁조 양호</w>
▁적 혈구</w>
▁적 폐</w>
▁잉 여</w>
▁일 률</w>
▁이 별</w>
▁유 지
▁유 능</w>
▁원 안</w>
▁원 거리</w>
▁요 새</w>
▁외 벽</w>
▁올라 온</w>
▁싱 크</w>
▁스 미스</w>
▁수 신자</w>
▁소 나무</w>
▁세 팅</w>
▁섞 여</w>
▁석 사</w>
▁서 산</w>
▁상 공</w>
▁사 과
▁브라우 저</w>
▁바이오 매스</w>
▁메 가</w>
▁머 릿
▁마 실</w>
▁리 버
▁랜 드마크</w>
▁돌아 갔</w>
▁독 보</w>
▁도 표</w>
▁델 파이</w>
▁더 구나</w>
▁다 저스</w>
▁느 슨</w>
▁끊임 없</w>
▁기 승</w>
▁국 가
▁구 해</w>
▁공 매</w>
▁강 간</w>
▁각 인</w>
▁T GF</w>
▁K im</w>
▁A F</w>
▁4 80</w>
회 귀분석</w>
형 법</w>
클 레
카 락</w>
차 세</w>
지도 자</w>
정 통부</w>
잡 도</w>
유 합</w>
실 래요</w>
수 유</w>
서 실</w>
사령 관</w>
빨 리</w>
부 들</w>
면 부</w>
면 담</w>
런 트</w>
두 르</w>
나 트륨</w>
▁회 식</w>
▁호 산구</w>
▁현 물</w>
▁페르 마</w>
▁판 타
▁파 단</w>
▁통계 량</w>
▁탐 탐</w>
▁체 형</w>
▁챔 피</w>
▁쫓 쫓</w>
▁진동 수</w>
▁지휘 자</w>
▁정 자</w>
▁정 국</w>
▁저 서</w>
▁작 아지</w>
▁자아 냈</w>
▁자 존심</w>
▁이 적</w>
▁유 도체</w>
▁완 완</w>
▁온 열</w>
▁열 역학</w>
▁열 띤</w>
▁여 겼</w>
▁어 업</w>
▁양 념</w>
▁아 랍</w>
▁식 중독</w>
▁수 고</w>
▁소 수성</w>
▁생활 비</w>
▁산 업체</w>
▁사 자</w>
▁불 기소</w>
▁부 도</w>
▁보인 다는</w>
▁발 걸음</w>
▁받아들 여
▁목 격자</w>
▁머리 카락</w>
▁되 살
▁단 열
▁다 시금</w>
▁넘 긴</w>
▁나 흘</w>
▁기 회
▁그런 지</w>
▁그 야말로</w>
▁귀여 운</w>
▁고마 워</w>
▁게 놈</w>
▁거 둘</w>
▁a l
▁W C</w>
▁N K</w>
▁I D
▁H D
▁E CC</w>
▁B E
▁6 60</w>
▁15 6</w>
P O</w>
챔 버</w>
지배 구조</w>
자 단</w>
임 용</w>
유 입</w>
억 제제</w>
시 지가</w>
손 해</w>
상 가</w>
산 자</w>
반 도체</w>
맥 주</w>
맞 이</w>
리 브
단 제</w>
기 둥</w>
강 당</w>
가 동</w>
▁햇 빛</w>
▁편 평</w>
▁팔 리</w>
▁택 하</w>
▁탐 사</w>
▁킨 텍스</w>
▁키 울</w>
▁코 칭</w>
▁코 엑스</w>
▁치 러</w>
▁진 술
▁주 전</w>
▁조선 일보</w>
▁제 발</w>
▁절연 체</w>
▁전 례</w>
▁인 해서</w>
▁인 증서</w>
▁이 종</w>
▁의 석</w>
▁옥 옥</w>
▁연 중</w>
▁안 구</w>
▁스트 로
▁소 년
▁성 관</w>
▁비 수</w>
▁불 문</w>
▁분 류
▁부 시</w>
▁부 대
▁보증 인</w>
▁보 냅니다</w>
▁벌 크</w>
▁반 찬</w>
▁모 음</w>
▁마음 껏</w>
▁당 당</w>
▁다 항식</w>
▁노르 웨이</w>
▁노동 부</w>
▁글 라스</w>
▁균 형발전</w>
▁국제 기구</w>
▁교육 자</w>
▁경 계선</w>
▁거듭 나</w>
▁개 학</w>
▁S R</w>
▁P S</w>
▁H MD</w>
▁C F</w>
▁B C</w>
▁2 100</w>
u p
on g</w>
m L</w>
B G</w>
하 라</w>
프 란시스코</w>
트 리
튜 버</w>
테 스트</w>
탐 색</w>
축 성</w>
추 어</w>
철 역</w>
직 접</w>
인 재</w>
원 생</w>
언 서</w>
시 킵니다</w>
시 제</w>
스 턴트</w>
서 버</w>
사업 비</w>
분 화</w>
복 감</w>
배 선</w>
민 정</w>
면 접</w>
메 시지</w>
러 스트</w>
대 리</w>
농 산물</w>
네 이션</w>
끄러 운</w>
급 히</w>
교육 비</w>
경 보</w>
▁호 황</w>
▁해 온</w>
▁한 우</w>
▁피 타고
▁통 용</w>
▁통 영</w>
▁탄 산</w>
▁쿠 션</w>
▁취 임
▁출입 국</w>
▁직 각</w>
▁주 민세</w>
▁정 맥류</w>
▁적 응
▁자연 재해</w>
▁자 백</w>
▁입 소문</w>
▁이데 올로기</w>
▁이 끈</w>
▁응 모</w>
▁유 혹</w>
▁유 한
▁원 발성</w>
▁요 지</w>
▁예 기</w>
▁연 정</w>
▁에 틸렌</w>
▁앞 면</w>
▁안 동</w>
▁스 윙</w>
▁수 성</w>
▁송 환</w>
▁송 영
▁샌 프란시스코</w>
▁빠져 나가</w>
▁비 춰</w>
▁부여 받</w>
▁부 른</w>
▁부 검</w>
▁복 소수</w>
▁바 흐</w>
▁무 분별</w>
▁몰 라</w>
▁락 락</w>
▁떨어 뜨리</w>
▁들 려</w>
▁다 른
▁농 담</w>
▁내 다보</w>
▁낙 찰</w>
▁기관 지
▁기 포</w>
▁금 천구</w>
▁굽 힘</w>
▁고 착</w>
▁간 혹</w>
▁각 하</w>
▁가구 주</w>
▁t v
▁HB s
es s
er s</w>
P E</w>
G I</w>
휴 직</w>
행 태</w>
팽 창</w>
추 세</w>
중 개</w>
주 거</w>
이 유</w>
유 도</w>
우 선</w>
예 정</w>
역 형</w>
에 미
실 리
선 자</w>
산 단</w>
삭 스</w>
쁩 니다</w>
분 법</w>
베 스트</w>
발 급</w>
대 화</w>
담 사</w>
공 고</w>
고 제</w>
겨 레</w>
간 염</w>
▁할 지라도</w>
▁포 섭</w>
▁투과 성</w>
▁콘 트</w>
▁청 주시</w>
▁정 당
▁접 대</w>
▁입 주민</w>
▁인터 랙션</w>
▁이 화
▁의 외</w>
▁요 추</w>
▁옴 부즈
▁오 피스</w>
▁언 언</w>
▁어 느
▁암 묵</w>
▁시 한</w>
▁수 득</w>
▁선 의</w>
▁서 포터</w>
▁서 적</w>
▁상 소</w>
▁비 드</w>
▁비 결</w>
▁밝혀 냈</w>
▁무 겁</w>
▁모 험</w>
▁만 듭니다</w>
▁마이 클</w>
▁동 시대</w>
▁도 식</w>
▁남 구</w>
▁귀 가</w>
▁구 금</w>
▁교통 안전</w>
▁광 촉매</w>
▁과 민
▁고 속
▁격 렬</w>
▁개 조</w>
▁강 해</w>
▁강 점기</w>
▁가족 력</w>
▁W S
▁SU B</w>
▁CM V</w>
▁C l
▁25 2</w>
▁15 7</w>
학 당</w>
필 렌</w>
특 정</w>
중 지</w>
중 도</w>
준 다고</w>
주 입</w>
조 류</w>
제 곱</w>
정 관</w>
점 포</w>
으 리라</w>
유 물</w>
영 양</w>
아 니</w>
보증 금</w>
물 놀이</w>
마 음</w>
린 지</w>
락 사</w>
딩 스</w>
다 만</w>
노동 조합</w>
기 죄</w>
권 익</w>
▁회 관</w>
▁해 수</w>
▁한 겨레</w>
▁프랑 스
▁표 했</w>
▁통합 교육</w>
▁책 자</w>
▁참 작</w>
▁집 적</w>
▁직 간접</w>
▁주 저</w>
▁주 둔</w>
▁제 곱
▁정 우
▁점 령</w>
▁자동 차세</w>
▁의료 관광</w>
▁오 염
▁엇갈 리</w>
▁안타까 운</w>
▁아 바
▁스페 셜</w>
▁스 펙</w>
▁소 재지</w>
▁셔 틀
▁성 과
▁서 예</w>
▁샐 러드</w>
▁색 소</w>
▁사무 소</w>
▁비 무장</w>
▁보 궐</w>
▁벌 여</w>
▁반 갑</w>
▁바라 본</w>
▁바 리
▁민간 인</w>
▁무 기
▁멜 로
▁마 크
▁두드러 졌</w>
▁뇌 파</w>
▁노 년</w>
▁남 미</w>
▁끝 단</w>
▁끌어올 리</w>
▁꼽 혔</w>
▁급 한</w>
▁과 천</w>
▁고용 주</w>
▁경로 당</w>
▁경 호</w>
▁걸어 가</w>
▁Y G</w>
▁T A</w>
▁Si C</w>
▁S E</w>
▁N F</w>
▁ME LD</w>
▁K I
▁IP O</w>
▁G UI</w>
▁G I</w>
▁E V</w>
▁22 00</w>
S D</w>
M T</w>
퀘 어</w>
지 엄</w>
지 분</w>
중 합</w>
줄 게</w>
이 야말로</w>
았 었</w>
실 현</w>
수 영</w>
선 물</w>
빌 리티</w>
부 동산세</w>
문 사</w>
모 양</w>
모 습</w>
리 얼</w>
달 장</w>
단 백질</w>
광 선</w>
골 격계</w>
격 근</w>
거 든</w>
▁희 박</w>
▁흡 기</w>
▁할 까요</w>
▁포 도</w>
▁팬 클럽</w>
▁탄 압</w>
▁캐 비</w>
▁카 타르</w>
▁찾아 왔</w>
▁지 킬</w>
▁중 성자</w>
▁주 주
▁조 세
▁조 경</w>
▁재 즈</w>
▁장 난</w>
▁잡 혔</w>
▁자아 내</w>
▁이 쪽</w>
▁은 평구</w>
▁위 젯</w>
▁운 임</w>
▁외 생</w>
▁예술 인</w>
▁예 멘</w>
▁였 으며</w>
▁알아 볼</w>
▁안드 로이드</w>
▁악 순환</w>
▁실 려</w>
▁신 의
▁시 작
▁스테 인
▁숙 주</w>
▁성 금</w>
▁선 제
▁생명 체</w>
▁생 리학</w>
▁살 균</w>
▁사 각</w>
▁비 빔
▁별 세</w>
▁무 사히</w>
▁무 궁
▁모 욕</w>
▁명 창</w>
▁맡 겨</w>
▁리 포트</w>
▁리 얼</w>
▁랭 킹</w>
▁드러 낸</w>
▁드 레스</w>
▁두드러 진</w>
▁두 부</w>
▁동반 자</w>
▁당선 자</w>
▁당선 인</w>
▁놓 이</w>
▁그림 책</w>
▁과 대</w>
▁고 쳐</w>
▁계엄 령</w>
▁경 추</w>
▁개그 맨</w>
▁간 접
▁w w</w>
▁tv N</w>
▁l o
▁M R
▁I A
▁G H</w>
i p</w>
2 10</w>
프 팅</w>
트 로</w>
채 무자</w>
착 오</w>
차 피</w>
신 단</w>
스타 인</w>
스 펜
수 금</w>
세 스</w>
문 자</w>
모 닝</w>
라 니</w>
교 체</w>
교 원</w>
공 공</w>
계 정</w>
간 호</w>
▁흥 흥</w>
▁헌 장</w>
▁향 토</w>
▁해운 대</w>
▁한 지</w>
▁한 잔</w>
▁하 트</w>
▁피타고 라스</w>
▁풍 요</w>
▁태 우</w>
▁타 워</w>
▁콜 롬
▁체육 관</w>
▁집 약</w>
▁진 열</w>
▁중 등학교</w>
▁종합 부동산세</w>
▁조 속</w>
▁제 자리</w>
▁전 념</w>
▁적 재</w>
▁일 부
▁이 럴</w>
▁음 란물</w>
▁원 어민</w>
▁열 흘</w>
▁어 차피</w>
▁어 쨌
▁아 밀
▁승 자</w>
▁산 출물</w>
▁빌 리루빈</w>
▁불 허</w>
▁발열 체</w>
▁발 탁</w>
▁몰 두</w>
▁메 달</w>
▁매 립지</w>
▁막 혀</w>
▁래 퍼</w>
▁둥 근</w>
▁되 새
▁독 일
▁대 위</w>
▁넘 나
▁그래 야</w>
▁고 창</w>
▁경 청</w>
▁경 질</w>
▁경 골</w>
▁견 지</w>
▁` `</w>
▁V O
▁T C</w>
▁S F</w>
▁R T</w>
▁AD C</w>
s s
i um</w>
at a</w>
an t
R F</w>
O O</w>
홍 보</w>
혜 원</w>
해 죄</w>
페 어</w>
터 부</w>
인 시</w>
원 부</w>
세 지</w>
서 울
산 품</w>
보 관</w>
버 섯</w>
무 진</w>
맞 춤</w>
등 교육</w>
드 려</w>
당 히</w>
나 이트</w>
기 증</w>
구 청</w>
▁회 색</w>
▁화 염</w>
▁행정 소송</w>
▁폭 언</w>
▁펼 친</w>
▁팔 레
▁출 산율</w>
▁차 수</w>
▁차 라리</w>
▁집 적
▁조 종</w>
▁제 지</w>
▁제 빙</w>
▁자 생</w>
▁인 디</w>
▁이 주민</w>
▁이 너</w>
▁유 두</w>
▁용 돈</w>
▁영 변</w>
▁엮 엮</w>
▁여겨 졌</w>
▁엘 리트</w>
▁에너 지원</w>
▁양 도
▁앞세 워</w>
▁아마 추어</w>
▁아 민</w>
▁신 차</w>
▁시간 대</w>
▁시 가
▁속 출</w>
▁성 북구</w>
▁산 화
▁사라 질</w>
▁사 단</w>
▁분 위</w>
▁보 직</w>
▁밤 새</w>
▁박정 희</w>
▁밀 려</w>
▁머물 렀</w>
▁머 무</w>
▁마 인드</w>
▁리 얼
▁떠 떠</w>
▁동 일시</w>
▁동 성</w>
▁도 예</w>
▁대 접</w>
▁단 백
▁남 한
▁나 온
▁나 눠
▁급 진</w>
▁균 균</w>
▁관리 비</w>
▁공 작</w>
▁골 격근</w>
▁고 혈</w>
▁경 진</w>
▁가 야금</w>
▁가 마</w>
▁s h
▁T S
▁K C
▁E N</w>
▁D O
▁C a</w>
▁5 70</w>
▁0 8</w>
o h
통 지</w>
추 홀</w>
진 학</w>
제 조</w>
정 범</w>
장 사</w>
이 라도</w>
습 생</w>
스러 움</w>
비 교</w>
모 니
리 나</w>
돌 이</w>
기 적으로</w>
극 단</w>
▁획 기적으로</w>
▁해 리</w>
▁플라 톤</w>
▁파 이</w>
▁파 고
▁특별 회계</w>
▁친 밀</w>
▁총 점</w>
▁체크 인</w>
▁청 중</w>
▁줄 곧</w>
▁조 명
▁제안 서</w>
▁인 파</w>
▁인 트</w>
▁인 쇄
▁이용 한</w>
▁약 해</w>
▁써 서</w>
▁십 자가</w>
▁심 정</w>
▁실 사</w>
▁시작 점</w>
▁소 홀
▁소 수
▁세탁 기</w>
▁사 냥</w>
▁봉 쇄</w>
▁변 모</w>
▁배 워</w>
▁배 심원</w>
▁배 당
▁바 빠
▁민 원
▁물러 나</w>
▁명 할</w>
▁들어 설</w>
▁대 등</w>
▁담 아내</w>
▁그려 진</w>
▁규 소</w>
▁국 립
▁구 전</w>
▁교수 법</w>
▁광 명</w>
▁관 용</w>
▁결 장</w>
▁감 사관</w>
▁갈 래</w>
▁m et
▁Z n</w>
▁U N
▁S W
▁G R
▁G P</w>
▁F F
▁F D
▁4 31</w>
ar e</w>
T H</w>
O H</w>
G M</w>
하 수</w>
특 이</w>
특 보</w>
취 지</w>
지 휘</w>
자 회사</w>
인 데요</w>
용 매</w>
에미 리트</w>
식 업</w>
스러 웠</w>
세 수</w>
세 관</w>
부 인</w>
마 루</w>
리 장</w>
령 자</w>
도 군</w>
다 발</w>
관리 본부</w>
공 기업</w>
▁현 상액</w>
▁행 복감</w>
▁픽 처</w>
▁프 리즘</w>
▁컨 셉</w>
▁청구 서</w>
▁징 역형</w>
▁지 친</w>
▁중앙 부</w>
▁중 세</w>
▁조선 인</w>
▁제 치</w>
▁전문 점</w>
▁장 자연</w>
▁자유 도</w>
▁입 안</w>
▁이 지
▁위 상
▁용 인시</w>
▁알아 내</w>
▁알 킬기</w>
▁아랍 에미리트</w>
▁아 레나</w>
▁소 품</w>
▁소 수자</w>
▁성과 급</w>
▁상 방</w>
▁사 방</w>
▁비정 질</w>
▁본 점</w>
▁본 능</w>
▁복 도</w>
▁번 갈</w>
▁밸 런스</w>
▁배 출구</w>
▁발 행
▁물 성</w>
▁무더 기</w>
▁로 스쿨</w>
▁들이 받</w>
▁동물 원</w>
▁다 변</w>
▁남 녀
▁김부 선</w>
▁김 일성</w>
▁기업 지배구조</w>
▁관 례</w>
▁고 속도</w>
▁계 엄</w>
▁경 사지</w>
▁거래 처</w>
▁감 리</w>
▁가 닥</w>
▁T S</w>
▁T E</w>
▁NM OS</w>
▁L V
▁K ore
▁ER CP</w>
▁E V
▁20 8</w>
▁19 10</w>
▁18 5</w>
t ion</w>
r y</w>
in d
Y P</w>
T L</w>
S O</w>
R B</w>
6 000</w>
1 1
페 스티벌</w>
타 리</w>
큘 럼</w>
침 대</w>
출 혈</w>
출 납원</w>
추 출</w>
질 문</w>
즈 니</w>
중 국</w>
줄 이</w>
종 목</w>
인 프라</w>
원 지</w>
염 수</w>
어 서요</w>
솔 론</w>
색 광</w>
산 균</w>
리 큘럼</w>
라 지</w>
구 도</w>
▁형 량</w>
▁하 와
▁품 위</w>
▁특징 지</w>
▁튀 튀</w>
▁텍사 스</w>
▁탄 화수소</w>
▁타 이</w>
▁키 즈</w>
▁쿠 키</w>
▁케이 티</w>
▁침 전물</w>
▁추 궁</w>
▁창 의력</w>
▁참 고인</w>
▁줘 야</w>
▁정 반대</w>
▁장 미</w>
▁장 례</w>
▁작 사</w>
▁자 르</w>
▁이용 료</w>
▁이 라크</w>
▁원자 재</w>
▁원 해요</w>
▁오 락</w>
▁연장 선</w>
▁연 립</w>
▁야 근</w>
▁아리 랑</w>
▁신 도</w>
▁식 욕</w>
▁시가 총액</w>
▁승 강</w>
▁슬 라이스</w>
▁스테 레오</w>
▁스 페이스</w>
▁수 화</w>
▁수 백만</w>
▁선택 지</w>
▁선 반</w>
▁불러일으 키</w>
▁부 결</w>
▁봉 합</w>
▁본 명</w>
▁몰 렸</w>
▁모 여서</w>
▁들 이</w>
▁듀 티</w>
▁되 풀이</w>
▁대 내외</w>
▁대 관</w>
▁다문화 교육</w>
▁노 년기</w>
▁김 학</w>
▁그만 두</w>
▁규 탄</w>
▁교 황</w>
▁고 의
▁갯 벌</w>
▁갔 었</w>
▁가르 칠</w>
▁가 혹</w>
▁가 진다고</w>
▁U L</w>
▁STE AM</w>
▁M W
▁E US</w>
▁C D
▁6 02</w>
p s</w>
e w
e b
C l</w>
호 회</w>
판 정</w>
테 이트</w>
타 이</w>
창 구</w>
중 재</w>
조 부</w>
절 연</w>
장 애인</w>
자 간</w>
우 주</w>
연 극</w>
식 기</w>
수 산부</w>
병 관리본부</w>
발 명</w>
밀 감</w>
론 트</w>
도 심</w>
단 점</w>
개 입</w>
▁후 원금</w>
▁회 부</w>
▁호 조</w>
▁해 역</w>
▁한 껏</w>
▁포항 시</w>
▁평 상시</w>
▁트 레
▁타 율</w>
▁친 분</w>
▁취업 률</w>
▁중 등교육</w>
▁줄 지</w>
▁주 시</w>
▁제 국</w>
▁정 범</w>
▁점 착</w>
▁재 물</w>
▁이 젠</w>
▁음 파</w>
▁은 산</w>
▁유 창</w>
▁유 동
▁위 염</w>
▁웰 빙</w>
▁연 명</w>
▁애 매</w>
▁순 이익</w>
▁소홀 히</w>
▁선 천</w>
▁샌드 박스</w>
▁부 작위</w>
▁부 상자</w>
▁부 산물</w>
▁벤 벤</w>
▁배 워야</w>
▁바 보</w>
▁멋 있</w>
▁마 술</w>
▁때 리</w>
▁등록 금</w>
▁됩 니까</w>
▁동 형</w>
▁달 러
▁다 지</w>
▁니 코
▁김 윤
▁김 선
▁기념 행사</w>
▁교통 수단</w>
▁관 철</w>
▁곰 팡이</w>
▁경 성</w>
▁검 열</w>
▁갇 혀</w>
▁가 미</w>
▁가 려</w>
▁q q</w>
▁e n
▁V DD</w>
▁R CT</w>
▁C om
▁B S</w>
▁A H
▁5 21</w>
a x
E M</w>
트 홀</w>
처 치</w>
지 상</w>
조 서</w>
졌 으나</w>
정 동</w>
작 전</w>
인 장</w>
의 체</w>
운 지</w>
스 톱</w>
수 범</w>
소방 서</w>
사 부</w>
빌 딩</w>
브 러리</w>
부 패</w>
명 사</w>
망 대</w>
라 면서</w>
도 금</w>
대표 소송</w>
대 법원</w>
남 대</w>
▁％ ％</w>
▁후 임</w>
▁후 단</w>
▁하 한</w>
▁포르투 갈</w>
▁폐 해</w>
▁테 이
▁크 로</w>
▁커 리큘럼</w>
▁친 수성</w>
▁축 복</w>
▁져 야</w>
▁전 장</w>
▁전 도체</w>
▁재 범</w>
▁일부 러</w>
▁이 소
▁원 리금</w>
▁용 출</w>
▁외 경</w>
▁옮 겼</w>
▁온 다</w>
▁오 찬</w>
▁에 버
▁어 촌</w>
▁어 둠</w>
▁안 타</w>
▁스트 레
▁스테 이크</w>
▁숙 달</w>
▁수술 실</w>
▁송 파</w>
▁세 일</w>
▁분 장</w>
▁본 관</w>
▁복 용량</w>
▁보 였으나</w>
▁병 동</w>
▁방사 능</w>
▁반 증</w>
▁반 기</w>
▁민 족
▁민 심</w>
▁맥 박</w>
▁리 서치</w>
▁담 석</w>
▁단백 뇨</w>
▁농 기</w>
▁넉 넉</w>
▁낸 다</w>
▁낮 춰</w>
▁납 기</w>
▁나 비</w>
▁급 성장</w>
▁국 빈</w>
▁구 면</w>
▁광 섬유</w>
▁골 목
▁가 명</w>
▁R AS</w>
▁HBs Ag</w>
▁F EV</w>
▁E TF</w>
▁AD HD</w>
▁4 04</w>
▁197 9</w>
▁18 00</w>
▁13 9</w>
▁0 7</w>
ac k
D E</w>
A S
홀 딩스</w>
할 게</w>
하 량</w>
코 르티코
치료 사</w>
질 병</w>
주 의보</w>
정 호</w>
작 성</w>
신 다</w>
설 턴트</w>
선 생</w>
상 인</w>
브 이</w>
분 학</w>
볼 게요</w>
베 리</w>
법 학</w>
매 장</w>
마 이
럭 스</w>
라이 프</w>
대 차</w>
대 주주</w>
느 리</w>
내 장</w>
난 방</w>
골 프</w>
겨 운</w>
거 사</w>
▁힐 힐</w>
▁흔들 림</w>
▁후 문</w>
▁회 전자</w>
▁활 기</w>
▁화 력</w>
▁혈 액
▁해 치</w>
▁학 살</w>
▁하나 하나</w>
▁평 정</w>
▁펼쳐 질</w>
▁판 명</w>
▁투 자
▁크 라</w>
▁컨 벤션</w>
▁커 져</w>
▁침 몰</w>
▁친 밀감</w>
▁째 째</w>
▁질 병관리본부</w>
▁지 구
▁증거 인</w>
▁즉 석</w>
▁중심 축</w>
▁종 로</w>
▁조 지</w>
▁전두 환</w>
▁전 염</w>
▁저작 권법</w>
▁장 기
▁작 아
▁일으 킨다</w>
▁인 적</w>
▁이 시
▁의 뢰
▁유기 농</w>
▁원 한다면</w>
▁오른 손</w>
▁예 탁</w>
▁영 예</w>
▁연 천</w>
▁액 화</w>
▁아파 서</w>
▁신 성</w>
▁숙 지</w>
▁선 회</w>
▁상 황실</w>
▁상 륙</w>
▁사회 학</w>
▁비 닐
▁부 통령</w>
▁본 국</w>
▁복 강</w>
▁민 영</w>
▁미 추홀</w>
▁무 형문화재</w>
▁몰 라
▁모 릅니다</w>
▁멈 춰</w>
▁매 치</w>
▁막 걸리</w>
▁리버 풀</w>
▁리 빙</w>
▁떨어 뜨
▁댐 퍼</w>
▁당 국자</w>
▁단 시간</w>
▁다 원</w>
▁능 숙</w>
▁김 장</w>
▁길 러</w>
▁기다 려야</w>
▁관 성</w>
▁과 표</w>
▁경 증</w>
▁거 슬러</w>
▁개 요</w>
▁강 릉
▁P F</w>
▁O P
▁M e
▁G M</w>
▁C B</w>
▁AC T</w>
▁18 3</w>
I N</w>
C M</w>
프 라인</w>
품 안</w>
폐 지</w>
트 랩</w>
토 벤</w>
코르티코 이드</w>
청 년</w>
직 업</w>
준 호</w>
종 료</w>
조 영</w>
전시 회</w>
재 정법</w>
장 려</w>
자유 구역</w>
임 위</w>
이 징</w>
위 생
서 열</w>
삼 성</w>
부 스</w>
변 형</w>
문화 유산</w>
모 토</w>
리 라는</w>
디 포</w>
드 니
드니 솔론</w>
단 층</w>
글 라스</w>
그 라운드</w>
구 조물</w>
고 생</w>
건 대</w>
거 장</w>
강 전</w>
▁휴 휴</w>
▁황 의
▁호 감</w>
▁해양 수산부</w>
▁합 하</w>
▁하 동</w>
▁평 점</w>
▁퍼 텐셜</w>
▁틀 린</w>
▁퇴 임</w>
▁클 램프</w>
▁칼 륨</w>
▁청 문</w>
▁지하 철역</w>
▁주 사기</w>
▁젠 더</w>
▁제 왕</w>
▁전 열</w>
▁재 외</w>
▁월 간</w>
▁원자 로</w>
▁우 편
▁욕 욕</w>
▁요 가</w>
▁엘 지</w>
▁알파 벳</w>
▁아세 트
▁성 취
▁성 당</w>
▁설 계자</w>
▁선 분</w>
▁산림 청</w>
▁브 릿지</w>
▁분 무</w>
▁복 지부</w>
▁보호 법</w>
▁보 스</w>
▁변 해</w>
▁베 토벤</w>
▁베 이</w>
▁받아들 였</w>
▁민 요</w>
▁미 처</w>
▁물 려
▁모 기</w>
▁멘 멘</w>
▁랙 랙</w>
▁들어 선</w>
▁동성 애</w>
▁동 의서</w>
▁덕 목</w>
▁다이어 그램</w>
▁나 쁨</w>
▁나 빠</w>
▁나 란</w>
▁김 은
▁기 미</w>
▁구 가</w>
▁골 관</w>
▁계 산기</w>
▁p h
▁P t</w>
▁J IA</w>
▁G LP</w>
▁A T
▁26 1</w>
u p</w>
oc k</w>
o ur
igh t</w>
ar t
P H</w>
O R</w>
E F</w>
A N
2 20</w>
호 가</w>
혐 의</w>
합 창단</w>
필 락
필락 시스</w>
품 목</w>
투 입</w>
테 터</w>
터 카</w>
키 를</w>
젯 밤</w>
연 관</w>
어 치</w>
양 구</w>
식 사</w>
시킨 다고</w>
습 지</w>
성 구</w>
선 박</w>
상 관</w>
사 전</w>
법 전</w>
미 팅</w>
란 스</w>
등 히</w>
동 시</w>
니 어링</w>
균 형발전</w>
공 모</w>
▁흑 색</w>
▁황의 조</w>
▁할 인
▁파 란</w>
▁티 타늄</w>
▁케이 싱</w>
▁측 근</w>
▁초 중</w>
▁체 질</w>
▁체 지방</w>
▁차 단제</w>
▁집 필</w>
▁줄 였</w>
▁주소 지</w>
▁조 재
▁조 력</w>
▁정 했</w>
▁재 검토</w>
▁일회 성</w>
▁외 국
▁올라 와</w>
▁올라 갈</w>
▁역 임</w>
▁엄 격히</w>
▁어 찌</w>
▁어 젯밤</w>
▁어 떡</w>
▁안 티</w>
▁아바 타</w>
▁심 상</w>
▁실 크</w>
▁신 한
▁시 니어</w>
▁승 강
▁스 키
▁손 잡</w>
▁사 우스</w>
▁변 함</w>
▁밭 밭</w>
▁방 면</w>
▁밝 힐</w>
▁미네 랄</w>
▁미 끄러
▁무한 대</w>
▁무 용
▁몸 짓</w>
▁마크 롱</w>
▁마 라톤</w>
▁등 장
▁두 루</w>
▁동 맥
▁독립 운동가</w>
▁다가 왔</w>
▁니코 틴</w>
▁내려 졌</w>
▁날 리</w>
▁나 이
▁김병 준</w>
▁귀 농</w>
▁구 했</w>
▁광 학계</w>
▁경 화증</w>
▁경 품</w>
▁경 막</w>
▁견 학</w>
▁거 센</w>
▁① ①</w>
▁t ype</w>
▁o n</w>
▁V AR</w>
▁I BM</w>
▁G T</w>
▁DA TA</w>
▁C o</w>
▁25 5</w>
활성 제</w>
품 종</w>
펠 러</w>
트 럭</w>
탬 프</w>
지 자체</w>
지 배</w>
종 자</w>
조 각</w>
접 근</w>
전 철</w>
장 면</w>
장 률</w>
의 지</w>
예 금</w>
어 질</w>
설 명</w>
설 가</w>
사 망</w>
보호 관</w>
리 아
려 도</w>
나 이</w>
긍 심</w>
근 무자</w>
균 관</w>
고 령</w>
경 협</w>
▁한 옥</w>
▁핑 크</w>
▁펼쳐 진</w>
▁텃 밭</w>
▁친 서</w>
▁청 자</w>
▁천연 가스</w>
▁찾아 와</w>
▁찾아 온</w>
▁창 작자</w>
▁지배 주</w>
▁지 양</w>
▁절 대
▁저 면</w>
▁장 학생</w>
▁자유 주의</w>
▁임대 인</w>
▁일 조</w>
▁인과 관계</w>
▁은 행
▁위 기
▁월 등히</w>
▁운 수</w>
▁우선 시</w>
▁요 통</w>
▁염색 체</w>
▁연 탄</w>
▁연 예</w>
▁엔지 니어</w>
▁아나 필락시스</w>
▁스프 레이</w>
▁스 킨</w>
▁수 자원</w>
▁성 균관</w>
▁선거 법</w>
▁사 멸</w>
▁빗 물</w>
▁블라 인드</w>
▁보 살
▁변 했</w>
▁방 콕</w>
▁밀 리</w>
▁묘 묘</w>
▁목표 치</w>
▁라이 브러리</w>
▁동두 천</w>
▁돌려 주</w>
▁던 져</w>
▁담 장</w>
▁단일 팀</w>
▁단 면적</w>
▁늘어 난다</w>
▁눈 여
▁꾸 꾸</w>
▁광역 자치단체</w>
▁고 속도로</w>
▁경 선</w>
▁격 화</w>
▁건 국</w>
▁가 옥</w>
▁W h
▁K L
▁IC U</w>
▁I H
▁F e
▁E P
▁DC I</w>
▁6 70</w>
▁16 6</w>
e x
R Q</w>
D NA</w>
C I</w>
3 10</w>
허 브</w>
플 랫</w>
표 준
특 허</w>
코 프</w>
전도 도</w>
적 서</w>
일 수</w>
으 론</w>
원 대</w>
연 기</w>
마 킹</w>
립 금</w>
리 치</w>
려 다</w>
더 라면</w>
노 력</w>
난 히</w>
균 제</w>
▁회복 세</w>
▁활 짝</w>
▁함 축</w>
▁패 스트
▁특 기</w>
▁체납 액</w>
▁집적 회로</w>
▁진 통</w>
▁접 착력</w>
▁절 대로</w>
▁저 마다</w>
▁잊 어
▁의 견서</w>
▁육 지</w>
▁유기 체</w>
▁울 산시</w>
▁울 릉
▁영 동</w>
▁열 대
▁어쨌 든</w>
▁어 떠
▁압 착</w>
▁신한 은행</w>
▁신 년</w>
▁승 격</w>
▁스 폰
▁수 행
▁셔틀 버스</w>
▁센 스</w>
▁생 후</w>
▁브로 커</w>
▁보 물</w>
▁뮤지 션</w>
▁몰 린</w>
▁모 노</w>
▁멜 라
▁멋 지</w>
▁뜻 깊</w>
▁디 테일</w>
▁들어 올</w>
▁드러 낸다</w>
▁동 선</w>
▁동 서</w>
▁대 국민</w>
▁달러 화</w>
▁누리 꾼</w>
▁누 누</w>
▁노 숙
▁노 년층</w>
▁꾸 며
▁김 관
▁교차 로</w>
▁관 세청</w>
▁고 학년</w>
▁고 사</w>
▁간 질</w>
▁각 계</w>
▁가 압류</w>
▁가 락</w>
▁SP C</w>
▁S I</w>
▁H S
▁11 30</w>
▁0 4</w>
y n
as vir</w>
an g
F E</w>
환 경
혀 서</w>
함 께</w>
패 션</w>
타 자</w>
주 니어</w>
제 력</w>
정 일</w>
이 나마</w>
외 교</w>
어 음</w>
실리 콘</w>
스트 레스</w>
설 립</w>
생 각</w>
반 환</w>
미 수</w>
문 고</w>
목 록</w>
마 스크</w>
마 블</w>
료 품</w>
댓 값</w>
댄 스</w>
광 체</w>
거래 세</w>
강 령</w>
간 드</w>
▁해 피</w>
▁하와 이</w>
▁펜 스</w>
▁페 어링</w>
▁큽 니다</w>
▁크리 에이터</w>
▁초 창기</w>
▁차 용</w>
▁진 한</w>
▁지급 액</w>
▁증 명서</w>
▁중 상</w>
▁주주 명부</w>
▁조선 업</w>
▁전해 진다</w>
▁장 터</w>
▁자 긍심</w>
▁일 감</w>
▁윌 리
▁원 재료</w>
▁왼 손</w>
▁온 몸</w>
▁오 인</w>
▁예 비
▁역 세</w>
▁여 럿</w>
▁안 락사</w>
▁아이 러
▁아 키
▁스 며
▁선제 골</w>
▁산 다</w>
▁사 귀</w>
▁블랙 박스</w>
▁본 회</w>
▁법 체계</w>
▁백 혈병</w>
▁발전 량</w>
▁미 스터</w>
▁미 드
▁만 이</w>
▁마 산</w>
▁리 포</w>
▁리 베
▁동 경</w>
▁대 나무</w>
▁노 벨</w>
▁남양 주시</w>
▁꽂 꽂</w>
▁금융 업</w>
▁귀 중</w>
▁구 보</w>
▁골 문</w>
▁고려 인</w>
▁계 발</w>
▁강 의실</w>
▁갈 음</w>
▁가 문</w>
▁IF N</w>
▁F DA</w>
▁E x
▁D S</w>
▁B D</w>
▁A LD</w>
▁7 11</w>
▁198 2</w>
▁0 9</w>
s e</w>
at h
ac k</w>
K A</w>
7 000</w>
희 정</w>
티 지</w>
측 력</w>
직 포</w>
직 금</w>
작 동</w>
임 즈</w>
운동 장</w>
약 서</w>
실 하</w>
시 노</w>
시 계</w>
속 인</w>
소 유</w>
만 금</w>
마 르</w>
로 웠</w>
기 대</w>
고 정</w>
▁화물 차</w>
▁홍 영
▁행 안</w>
▁합 창단</w>
▁한 은</w>
▁프레 젠테이션</w>
▁폴리에 틸렌</w>
▁폭 락</w>
▁포 수</w>
▁특허 청</w>
▁콘 퍼런스</w>
▁컨 설턴트</w>
▁캘리포 니아주</w>
▁카 리
▁출 사</w>
▁짜 증</w>
▁줄 줄이</w>
▁절 정</w>
▁재 연</w>
▁인사 말</w>
▁유 소년</w>
▁원 할</w>
▁원 치</w>
▁오프 닝</w>
▁오버 랩</w>
▁연 희</w>
▁연 령
▁안 무</w>
▁시 프트</w>
▁승 산</w>
▁습 기</w>
▁석 출</w>
▁상 임위</w>
▁빼 돌
▁볼 턴</w>
▁보 컬</w>
▁변 질</w>
▁버 블</w>
▁발 사체</w>
▁발 맞
▁무 당</w>
▁막 연</w>
▁리 간드</w>
▁등장 인물</w>
▁등 산</w>
▁동 탄</w>
▁독 감</w>
▁대 졸</w>
▁다 듬</w>
▁느껴 진다</w>
▁내 정</w>
▁끼 칠</w>
▁기 세</w>
▁그 칠</w>
▁귀 찮</w>
▁구 동력</w>
▁교 인</w>
▁공급 량</w>
▁공 문</w>
▁곱 한</w>
▁골드 만</w>
▁고구 려</w>
▁고 심</w>
▁경 총</w>
▁결 선</w>
▁걸 린다</w>
▁간 기능</w>
▁가져 다주</w>
▁가로 지르</w>
▁d ay</w>
▁N D</w>
▁7 01</w>
▁5 03</w>
ion al</w>
8 000</w>
피 해자</w>
피 싱</w>
터 널</w>
크 림</w>
커 머스</w>
집 회</w>
주 회</w>
접 수</w>
전 당</w>
적 절</w>
저 축</w>
장 병</w>
자 식</w>
올 라이트</w>
영 진</w>
실 무</w>
시 공사</w>
수 렴</w>
상 호</w>
산 동</w>
브 리
브 라</w>
부 종</w>
방 면</w>
모 비스</w>
모 니</w>
마토 그래피</w>
로 봇</w>
랭 크</w>
드 림</w>
동 포</w>
대 수</w>
노 소</w>
남 미</w>
기념 관</w>
구 동</w>
관 은</w>
고 법</w>
▁훈 련
▁호 우</w>
▁형 질</w>
▁필라 멘트</w>
▁판결 문</w>
▁파 크</w>
▁크 다</w>
▁출 입구</w>
▁차 후</w>
▁직업 훈련</w>
▁중 등</w>
▁주 먹</w>
▁좌 파</w>
▁정 수
▁접 합부</w>
▁전라 북도</w>
▁전 입</w>
▁잔 디</w>
▁작 업
▁이승 만</w>
▁웨 딩</w>
▁원 만</w>
▁요구 사항</w>
▁외 교
▁옥 수수</w>
▁영 농</w>
▁염 원</w>
▁엑스 레이</w>
▁얽 혀</w>
▁애 국
▁앙 상블</w>
▁아닌 데</w>
▁쌓 인</w>
▁스 퍼
▁새 우</w>
▁살 린</w>
▁사 학</w>
▁분 모</w>
▁부 직포</w>
▁베 일</w>
▁밸 밸</w>
▁발 동</w>
▁반 비례</w>
▁무 섭</w>
▁멜로 디</w>
▁마 운드</w>
▁마 루</w>
▁레 시피</w>
▁떨어 진다는</w>
▁디 즈니</w>
▁듯 이</w>
▁드 릴까요</w>
▁도 플러</w>
▁남녀 노소</w>
▁끼 워</w>
▁껍 질</w>
▁깔 깔</w>
▁금 년</w>
▁국 왕</w>
▁관 측
▁과 점</w>
▁고 지서</w>
▁고 용량</w>
▁경 동맥</w>
▁갑작 스럽</w>
▁th e</w>
▁Ti O</w>
▁P B</w>
▁OF DM</w>
▁L P</w>
▁E A</w>
▁25 00</w>
er m
ec t</w>
화 통일</w>
화 음</w>
퍼 드</w>
파 린</w>
클레 오
클 러
진 술</w>
증 명</w>
증 과</w>
주 선</w>
자치 회</w>
으 셨</w>
육 면체</w>
워 했</w>
용 실</w>
왜 란</w>
오 픈</w>
어 머니</w>
야 만</w>
방 성</w>
민 회</w>
문 헌</w>
목 원</w>
루 프</w>
료 수</w>
레이 팅</w>
대 왕</w>
니 다만</w>
나 온</w>
국 악</w>
교 부금</w>
거 진</w>
강 좌</w>
▁히어 로즈</w>
▁희 희</w>
▁후 크</w>
▁후 진</w>
▁회 계
▁환 형</w>
▁화 자</w>
▁현대 모비스</w>
▁항 로</w>
▁하이 라이트</w>
▁프 론트</w>
▁평 택시</w>
▁판타 지</w>
▁트래 킹</w>
▁태어 났</w>
▁치 렀</w>
▁충 실하</w>
▁춤 사위</w>
▁총 무</w>
▁체 조</w>
▁처 해</w>
▁중앙 아시아</w>
▁좌 심실</w>
▁조종 사</w>
▁장 력</w>
▁임진 왜란</w>
▁잃어 버린</w>
▁일 간지</w>
▁인 산</w>
▁인 계</w>
▁이 미
▁음 료수</w>
▁유 병률</w>
▁용 품</w>
▁용 접
▁왔 으며</w>
▁오 브</w>
▁연 합
▁언 덕</w>
▁양 대</w>
▁알 렉
▁아리 스토
▁실 거</w>
▁시간 표</w>
▁승 마</w>
▁스테 이션</w>
▁스카 이</w>
▁수 목</w>
▁손 꼽
▁선 조</w>
▁섞 인</w>
▁사 익</w>
▁빌 보드</w>
▁불 씨</w>
▁법 무
▁발 작</w>
▁반 출</w>
▁바 깥
▁미스 터리</w>
▁무 방</w>
▁몰려 들</w>
▁모른 다는</w>
▁모 국어</w>
▁머릿 속</w>
▁마 카
▁마 법</w>
▁떠오 른</w>
▁뒤 집
▁동 맥류</w>
▁돌아 와</w>
▁덧붙 여</w>
▁대 전시</w>
▁단 거리</w>
▁낙 하</w>
▁꾀 하</w>
▁김 순
▁기울 였</w>
▁근 속</w>
▁구 술</w>
▁관 청</w>
▁관 사</w>
▁공 사비</w>
▁겸 직</w>
▁강 당</w>
▁가정 폭력</w>
▁S n
▁P W
▁P O</w>
▁K N
▁IP TV</w>
▁IC S</w>
▁H P</w>
▁F GF</w>
▁F DI</w>
▁ES R</w>
▁CR C</w>
▁20 23</w>
▁0 0
es t
E N</w>
항 체</w>
하 증권</w>
평 면</w>
택 트</w>
중 구</w>
이 치</w>
이 스트</w>
영 주</w>
연 패</w>
연 방</w>
시 위</w>
스 바
생 회</w>
산 법</w>
사 제</w>
발 견</w>
립 트</w>
리 터</w>
리 조트</w>
드 민
둔 화</w>
담 관</w>
단 법인</w>
너 리</w>
기 파</w>
균 일</w>
관 위</w>
경 관</w>
개 정안</w>
▁흡 사</w>
▁플랜 트</w>
▁표 현
▁표 집</w>
▁파 운
▁통 산</w>
▁콜롬 비아</w>
▁측 정기</w>
▁지 날수록</w>
▁중간 층</w>
▁조 현</w>
▁전시 관</w>
▁재 적</w>
▁자 선</w>
▁인 산화</w>
▁이뤄 져</w>
▁워 너</w>
▁용 이성</w>
▁옮겨 졌</w>
▁오 너</w>
▁열 전도</w>
▁연 비</w>
▁연 기금</w>
▁어 시</w>
▁압 축
▁싱 싱</w>
▁심 야</w>
▁시 스
▁시 공사</w>
▁스토 어</w>
▁스타일 러스</w>
▁스 쿨</w>
▁수 출액</w>
▁성 상</w>
▁성 령</w>
▁선착 순</w>
▁사령 관</w>
▁사 체</w>
▁사 물놀이</w>
▁비트 스트림</w>
▁비빔 밥</w>
▁불 화</w>
▁불 펜</w>
▁부 엌</w>
▁보여 진다</w>
▁베 르
▁법 치</w>
▁배 럴</w>
▁밝 힌다</w>
▁발 레</w>
▁미 수</w>
▁명 하</w>
▁메틸 화</w>
▁맞 췄</w>
▁레 이스</w>
▁드 레
▁드 럼</w>
▁돌 이
▁돌 연</w>
▁도 마</w>
▁대 퇴</w>
▁대 시
▁다 름
▁다 각형</w>
▁내세 운</w>
▁남 동생</w>
▁난 수</w>
▁김용 균</w>
▁기 장</w>
▁근 무자</w>
▁국 지</w>
▁공소 시효</w>
▁공 권력</w>
▁계약 금</w>
▁경 련</w>
▁각 성</w>
▁가 짐</w>
▁p l
▁WS J</w>
▁R GB</w>
▁P FS</w>
▁N CS</w>
▁B I
▁A m
▁7 70</w>
▁4 15</w>
▁27 1</w>
▁23 6</w>
▁2 17</w>
▁197 5</w>
im e</w>
er t</w>
1 30</w>
행 물</w>
항 력</w>
피 세포</w>
크 류</w>
커 싱</w>
체 감</w>
척 도</w>
지 시</w>
주 교</w>
정 력</w>
워 치</w>
와 이어</w>
열 기</w>
약 정</w>
석 희</w>
상 기</w>
보 자</w>
레 핀</w>
랜 트</w>
도 국</w>
납 세</w>
국 수</w>
구 균</w>
경 연</w>
결 부</w>
검 정</w>
개발 비</w>
각 선</w>
▁휘 말
▁헤 헤</w>
▁해 산물</w>
▁항 일</w>
▁풍 토</w>
▁퍼 즐</w>
▁파 키스탄</w>
▁투과 도</w>
▁타 고
▁킹 킹</w>
▁클 램</w>
▁쾌 락</w>
▁지역 민</w>
▁지 혈</w>
▁중 소형</w>
▁중 남미</w>
▁조 제</w>
▁일 몰</w>
▁이 제
▁의 전</w>
▁은 유</w>
▁유 세</w>
▁우 승자</w>
▁예 치</w>
▁양 평</w>
▁약 학</w>
▁알 도
▁안 보리</w>
▁심 경</w>
▁실 상</w>
▁시 판</w>
▁습 식</w>
▁순 진</w>
▁순 방</w>
▁수 만</w>
▁수 건</w>
▁손 자</w>
▁소 용
▁소 고기</w>
▁섬유 질</w>
▁새 만금</w>
▁상 여금</w>
▁상 업
▁삽 입부</w>
▁사 막</w>
▁부 전</w>
▁보험 업</w>
▁법 조
▁미 용실</w>
▁무서 운</w>
▁무리 수</w>
▁모 티브</w>
▁모 세</w>
▁망 명</w>
▁로 스
▁데 이</w>
▁대상 지</w>
▁단열 재</w>
▁닛 산</w>
▁농 업
▁남 짓</w>
▁꾸 미</w>
▁꺼 리</w>
▁기념 일</w>
▁기 말
▁기 동</w>
▁그려 졌</w>
▁구 미
▁관리 인</w>
▁관 서</w>
▁공 룡</w>
▁골목 길</w>
▁거 북
▁감 탄</w>
▁가 할</w>
▁가 역</w>
▁V AS</w>
▁U SA</w>
▁T O
▁Q u
▁D i
▁B RA
▁198 4</w>
an c
A I</w>
히 트</w>
호 우</w>
해 짐</w>
프 린
토 크</w>
텔 레스</w>
타 이어</w>
치 환</w>
좌 표</w>
종 원</w>
재 욱</w>
이 하</w>
용 어</w>
어 업</w>
어 선</w>
시 험
부 암</w>
바 꿈</w>
만 들</w>
로 프</w>
레 기</w>
드민 턴</w>
동 량</w>
댑 터</w>
대 생</w>
니 까요</w>
네 마</w>
내 식</w>
기 점</w>
급 심</w>
갑 상선</w>
간 격</w>
▁휴 가
▁화 랑</w>
▁호 재</w>
▁향 했</w>
▁핵 산</w>
▁한 중</w>
▁한 약</w>
▁푸 시</w>
▁특 례법</w>
▁크 랙</w>
▁진 천</w>
▁제 이
▁제 올라이트</w>
▁제 때</w>
▁절연 성</w>
▁전 투기</w>
▁전 치</w>
▁전 경</w>
▁장 갑</w>
▁잡 혀</w>
▁자연 스레</w>
▁이 모
▁요 트</w>
▁요 로</w>
▁오 토</w>
▁영 상물</w>
▁어 학</w>
▁암 호
▁알려 준다</w>
▁아동 학</w>
▁슈퍼 주니어</w>
▁슈퍼 마켓</w>
▁세 종
▁성 장기</w>
▁사 교육비</w>
▁비 스</w>
▁불 쾌</w>
▁불 상</w>
▁변 비</w>
▁벼 벼</w>
▁범 용</w>
▁발 족</w>
▁무 형식</w>
▁매트 리스</w>
▁맞 대결</w>
▁동 남</w>
▁대시 보드</w>
▁담 당관</w>
▁다녀 온</w>
▁다 섯째</w>
▁늙 늙</w>
▁노래 방</w>
▁냉 전</w>
▁내 밀</w>
▁김정 숙</w>
▁김 형
▁긴 밀히</w>
▁권 선</w>
▁구 절</w>
▁광고 주</w>
▁골 드</w>
▁고 른</w>
▁결정 립</w>
▁게 이지</w>
▁겁 니까</w>
▁개 업</w>
▁V E
▁N Y
▁M D</w>
▁B R
▁4 14</w>
▁4 03</w>
▁22 6</w>
▁20 7</w>
▁13 20</w>
or y</w>
M A
G T</w>
1 5
1 000</w>
호 흡기</w>
현 동</w>
플 릿</w>
퍼 링</w>
통 로</w>
태 죄</w>
카 스</w>
출 수</w>
찍 이</w>
지 현</w>
줘 요</w>
주 파수</w>
일 가</w>
요 리</w>
연 수원</w>
아 미
실 조</w>
실 업</w>
시 버</w>
순 이익</w>
수 요자</w>
수 산물</w>
수 막</w>
송 부</w>
성 명</w>
성 당</w>
베 스</w>
법 인
버 십</w>
메 틸</w>
량 화</w>
너 먼트</w>
나이 티</w>
기 차</w>
글 리세
근 길</w>
구 서</w>
과 금</w>
개 술</w>
가 서</w>
▁활동 가</w>
▁혼 돈</w>
▁퇴 직금</w>
▁통 설</w>
▁키 스</w>
▁카 톡</w>
▁취임 식</w>
▁조현 우</w>
▁절 박</w>
▁전 시장</w>
▁자이 언
▁입 상</w>
▁일 지</w>
▁인 서</w>
▁이승 우</w>
▁융 통</w>
▁위 자료</w>
▁원 용</w>
▁왕 세자</w>
▁완벽 히</w>
▁영양 실조</w>
▁연 기력</w>
▁엑스 포</w>
▁어울 려</w>
▁어 퍼</w>
▁어 댑터</w>
▁아리스토 텔레스</w>
▁신 자</w>
▁설 령</w>
▁선거 제</w>
▁석회 화</w>
▁상 무부</w>
▁빼 앗
▁빨 대</w>
▁비 소</w>
▁부산 항</w>
▁부 풀
▁반 등</w>
▁바 둑</w>
▁문 희
▁무 용수</w>
▁동 대문구</w>
▁담 아
▁달 렸</w>
▁난 제</w>
▁김 미
▁기 종</w>
▁그 라
▁국 물</w>
▁교 단</w>
▁공 구</w>
▁경 치</w>
▁결 집</w>
▁결 말</w>
▁건 식</w>
▁가로 막</w>
▁가라 앉</w>
▁a r
▁R F
▁P r
▁P BL</w>
▁N DA</w>
▁I L
▁FI FA</w>
▁6 12</w>
▁5 04</w>
▁3 25</w>
▁24 3</w>
▁18 4</w>
▁12 9</w>
▁0 6</w>
y t
ro s
f f</w>
I F</w>
C N</w>
B T</w>
회 생</w>
포 함</w>
타 스</w>
컴 퍼니</w>
치 성</w>
증 거</w>
준 표</w>
전 사</w>
자 열</w>
일 반</w>
양 원</w>
아 카
사이 클</w>
배 경</w>
반 전</w>
문 맥</w>
목 부</w>
면 제</w>
리 무스</w>
라 산</w>
노 라마</w>
기 념</w>
공 예</w>
계 절</w>
거 티브</w>
거 법</w>
감 치</w>
간 부</w>
▁후보 지</w>
▁황 달</w>
▁확 연히</w>
▁혼 용</w>
▁호 스</w>
▁행 적</w>
▁퍼 레이드</w>
▁특 활</w>
▁테 니스</w>
▁털어 놨</w>
▁탈 바꿈</w>
▁케 인</w>
▁케 미</w>
▁칠 레</w>
▁측 은</w>
▁직 진</w>
▁지 평</w>
▁지 극
▁지 그</w>
▁조 서</w>
▁제곱 근</w>
▁정 보
▁전 철</w>
▁저 성장</w>
▁자궁경 부암</w>
▁입 문</w>
▁익 익</w>
▁이 끌
▁유 언</w>
▁연 신</w>
▁앎 앎</w>
▁안 목</w>
▁안 겨</w>
▁실 버</w>
▁시 조</w>
▁슬 슬</w>
▁슬 레이브</w>
▁스티 어링</w>
▁스트레 칭</w>
▁수입 품</w>
▁소 모
▁섹 시</w>
▁세 워진</w>
▁설 레</w>
▁생 리
▁사고 방식</w>
▁사 기죄</w>
▁불 평</w>
▁북 방</w>
▁병 증</w>
▁법무 법인</w>
▁백 두
▁방 화</w>
▁반 감</w>
▁바 코드</w>
▁미 쳐</w>
▁멜 멜</w>
▁맥 파</w>
▁마 른</w>
▁류 머
▁루 트</w>
▁로 마
▁렌 터카</w>
▁들어 섰</w>
▁동물 보호</w>
▁동 호회</w>
▁동 사</w>
▁논 점</w>
▁노숙 인</w>
▁노 브</w>
▁넷 마블</w>
▁네 거티브</w>
▁긴 축</w>
▁기 일</w>
▁기 내식</w>
▁궤 궤</w>
▁군 부대</w>
▁군 민</w>
▁교 도소</w>
▁고 래</w>
▁개인 전</w>
▁가 세</w>
▁가 드</w>
▁T r
▁R C</w>
▁M H
▁LD LT</w>
▁H S</w>
▁CA P</w>
▁A F
▁4 05</w>
p pm</w>
o x</w>
n e</w>
e p</w>
a le</w>
a in</w>
a i</w>
P U</w>
1 50</w>
하 늘</w>
필 더</w>
폴 드</w>
커 리</w>
체 가</w>
청 기</w>
질 혈증</w>
전 망</w>
우 진</w>
연 회</w>
야 각</w>
식 간</w>
스피 어</w>
소 권</w>
비 치</w>
비 닛</w>
물 리학</w>
로 페이</w>
단 력</w>
니 엘</w>
꿈 치</w>
거 비</w>
▁후 반기</w>
▁호 랑이</w>
▁형태 학</w>
▁혐 기성</w>
▁해 독</w>
▁파 노라마</w>
▁토 너먼트</w>
▁타 선</w>
▁쿼 크</w>
▁칼 라</w>
▁카리 스마</w>
▁취 한다</w>
▁초 빙</w>
▁초 고</w>
▁철 폐</w>
▁지켜 볼</w>
▁점 선</w>
▁적 립금</w>
▁저 밀</w>
▁재 전송</w>
▁자이 로</w>
▁인 덕
▁이 체</w>
▁이 진
▁유 서</w>
▁유 공자</w>
▁외 무성</w>
▁외 력</w>
▁온 종일</w>
▁연 기자</w>
▁연 고</w>
▁쓴 다</w>
▁쓰 였</w>
▁싱 크
▁식 감</w>
▁수 돗
▁손 바닥</w>
▁손 금</w>
▁세 전</w>
▁성 패</w>
▁상 하이</w>
▁삼성 그룹</w>
▁삼 각
▁부 서
▁변 성</w>
▁번 호
▁버 너</w>
▁백 서</w>
▁방 조</w>
▁방 점</w>
▁발명 자</w>
▁발 라</w>
▁박 재
▁미 뤄
▁못 한다면</w>
▁모 뎀</w>
▁멋 멋</w>
▁막 바지</w>
▁막 강</w>
▁마 셨</w>
▁마 땅
▁렌 렌</w>
▁둘러싸 인</w>
▁답 한</w>
▁달 해</w>
▁노 무</w>
▁남 해안</w>
▁꼴 꼴</w>
▁까다 롭</w>
▁기말 고사</w>
▁금 식</w>
▁광 복</w>
▁강 수량</w>
▁강 국</w>
▁m mHg</w>
▁T M</w>
▁O OO</w>
▁D E
▁Cronbac h</w>
▁19 2</w>
ul t
e in</w>
D T</w>
한 선</w>
하이 닉스</w>
포 지엄</w>
클 론</w>
코 트</w>
추 적</w>
초 기</w>
천 지</w>
찌 감치</w>
전 한</w>
장 터</w>
인 척</w>
약 국</w>
아 래</w>
쓰 레기</w>
시 켰
승 계</w>
슬 라</w>
스 카이</w>
수 송</w>
세 금</w>
선 부</w>
사 슬</w>
법인 세</w>
박 자</w>
바 탕</w>
람 선</w>
도 수</w>
대표 제</w>
대 우</w>
대 구</w>
네 스</w>
겨 서</w>
거 율</w>
강 제</w>
감 시</w>
▁흡 입구</w>
▁휴 지</w>
▁홍 준표</w>
▁홍 대</w>
▁행 한</w>
▁한 발</w>
▁피 트</w>
▁폭 풍</w>
▁편 한</w>
▁페미 니즘</w>
▁토 마토</w>
▁테 마파크</w>
▁코 멘트</w>
▁질 감</w>
▁지 낼</w>
▁잤 잤</w>
▁자아 낸다</w>
▁자 매
▁입장 권</w>
▁입 술</w>
▁이 완
▁영 암</w>
▁얹 얹</w>
▁어딘 가</w>
▁안타까 움</w>
▁안내 문</w>
▁쓰레 기
▁시 흥
▁승 부
▁쉴 드</w>
▁수 교</w>
▁생 전</w>
▁새 겨진</w>
▁부 조리</w>
▁부 록</w>
▁병 기</w>
▁별 장</w>
▁베이 비</w>
▁베 인</w>
▁배 틀</w>
▁방 제</w>
▁밀어 붙
▁몰라 요</w>
▁모노 머</w>
▁메 스
▁메 리</w>
▁매 티스</w>
▁로 보</w>
▁따 른
▁딜 딜</w>
▁동 정</w>
▁동 인</w>
▁도 저히</w>
▁대 지</w>
▁당 첨
▁농 양</w>
▁노 사정</w>
▁너 머</w>
▁나 아지</w>
▁까다 로운</w>
▁그 쪽</w>
▁군 사
▁고 지방</w>
▁고 밀도</w>
▁걸 쳐서</w>
▁감 염
▁가파 르</w>
▁S m
▁RO M</w>
▁L PG</w>
▁HO MA</w>
▁G TX</w>
▁D H
▁C BS</w>
▁B TD</w>
▁AC K</w>
▁3 41</w>
▁24 5</w>
▁19 3</w>
▁17 4</w>
▁12 30</w>
s h
or t</w>
O T</w>
항 제</w>
하 성</w>
플 리</w>
폭 탄</w>
파 업</w>
토 닌</w>
크 리
지 컬</w>
지 진</w>
줄 게요</w>
젤 레스</w>
정 산</w>
전 통</w>
전 제품</w>
재 배</w>
원 자력</w>
오 롱</w>
언 문</w>
압 기</w>
실 명</w>
세 동</w>
법 제</w>
라 임</w>
라 미드</w>
돼 요</w>
도 르</w>
더 라고</w>
니 얼</w>
너 십</w>
낸 다는</w>
근 거</w>
그 림</w>
교 대</w>
가 운데</w>
▁흐 리</w>
▁휴 양
▁화 살</w>
▁홍영 표</w>
▁혼 선</w>
▁합 헌</w>
▁한국 노총</w>
▁하 급심</w>
▁피 로
▁퍼 센트</w>
▁퍼 블
▁토 종</w>
▁털어 놓</w>
▁태 안</w>
▁탈 취</w>
▁크리 스티
▁출 판
▁체크 아웃</w>
▁찼 찼</w>
▁참 모</w>
▁지극 히</w>
▁제작 비</w>
▁저지 르</w>
▁저 명</w>
▁장 담</w>
▁이 식
▁의뢰 인</w>
▁응 대</w>
▁왕 자</w>
▁올라 갔</w>
▁오른 발</w>
▁영 주</w>
▁연 소
▁어 필</w>
▁아이러 니</w>
▁아메 리
▁심 실</w>
▁식 료품</w>
▁시 야각</w>
▁술 집</w>
▁섹 터</w>
▁성 수기</w>
▁선보 여</w>
▁새 삼</w>
▁살아 온</w>
▁블라디 미르</w>
▁북 상</w>
▁변 혁</w>
▁벤치 마킹</w>
▁배 변</w>
▁바 스
▁목 적물</w>
▁명 상</w>
▁마일 리지</w>
▁도 난</w>
▁데 스크</w>
▁달 력</w>
▁다녀 오</w>
▁높 인</w>
▁내 막</w>
▁내 걸</w>
▁기 획사</w>
▁근 로
▁군 중</w>
▁구 심
▁교 량</w>
▁과 거사</w>
▁고 혈당증</w>
▁겹 쳐</w>
▁견 줘</w>
▁검 은색</w>
▁걸 어서</w>
▁간 절</w>
▁간 선</w>
▁가 루</w>
▁SE C</w>
▁S e
▁S V
▁P BS</w>
▁M an
▁L M</w>
▁L I
▁H V
▁B M</w>
▁6 03</w>
▁4 41</w>
▁3 2
▁26 2</w>
▁197 8</w>
▁197 3</w>
▁10 30</w>
en c
ar t</w>
P F</w>
N P</w>
1 2
현 안</w>
해 라</w>
하 부</w>
피 부
포 밍</w>
평 점</w>
페 론</w>
추 정</w>
창 업자</w>
차 림</w>
징 역</w>
져 요</w>
쟁 이</w>
재 활</w>
자 국</w>
의 의무</w>
으 셨
위 안</w>
원 사</w>
안 내</w>
아카 데미</w>
스토 리</w>
수 령</w>
성 숙도</w>
설 사</w>
선 도</w>
부 회장</w>
리 빙</w>
뜨 린</w>
대 변인</w>
단 과</w>
노 트</w>
나 왔</w>
나 간</w>
기 관장</w>
견 인</w>
갈 수록</w>
▁훈 훈</w>
▁홀 로그램</w>
▁해 안
▁표 절</w>
▁패 밀리</w>
▁파이 프라인</w>
▁테 슬라</w>
▁키 나
▁짝 수</w>
▁지 켰</w>
▁증 오</w>
▁즈 음</w>
▁중간 고사</w>
▁주 택
▁주 거비</w>
▁조 사단</w>
▁정 보원</w>
▁적 법성</w>
▁잭 잭</w>
▁장 단점</w>
▁자 릿수</w>
▁인 대</w>
▁유 엔
▁연구 실</w>
▁언 더</w>
▁어 떤
▁쓰러 져</w>
▁실 용
▁신 학</w>
▁시 킨</w>
▁스크 립트</w>
▁스 코어</w>
▁수 표</w>
▁쇄 신</w>
▁송 수</w>
▁소 아
▁세 울</w>
▁선거 구</w>
▁석 탑</w>
▁상 근</w>
▁산 사태</w>
▁사분 위수</w>
▁사 영</w>
▁사 상자</w>
▁비 구</w>
▁불 이행</w>
▁부 트</w>
▁바이올 린</w>
▁민 속
▁미드 필더</w>
▁물 권</w>
▁문 신</w>
▁못 한다고</w>
▁멤 버십</w>
▁망 설
▁량 량</w>
▁랭 크</w>
▁동 국</w>
▁더 운</w>
▁대화 방</w>
▁니 즈</w>
▁농 부</w>
▁내 벽</w>
▁낙 태죄</w>
▁김대 중</w>
▁글루 코
▁국 군
▁구급 차</w>
▁구 슬</w>
▁교 무</w>
▁고마 워요</w>
▁고 층</w>
▁강 했</w>
▁강 경
▁s e
▁mi RNA</w>
▁V IP</w>
▁ES D</w>
▁D D
▁B BC</w>
▁A BC</w>
▁9 50</w>
▁196 2</w>
▁19 48</w>
o L</w>
ic s</w>
X A</w>
R I
L I</w>
1 4
화 장실</w>
행 복</w>
해 성</w>
피부 염</w>
프 리
포 장</w>
티 즘</w>
커 녕</w>
총 괄</w>
착 륙</w>
차 법</w>
질 러</w>
중 앙
전 드</w>
입 장</w>
입 시</w>
우 레탄</w>
요 령</w>
예 품</w>
에 프</w>
에 이</w>
언 십</w>
수 액</w>
수 대</w>
산 리</w>
부 로</w>
발 트</w>
발 언</w>
명 소</w>
메 이트</w>
망 이</w>
리 산</w>
록 색</w>
꺼 이</w>
기 저
급 사</w>
관 한</w>
관 계인</w>
결 연</w>
가 역</w>
▁훌 쩍</w>
▁회 선</w>
▁황 색</w>
▁황 산</w>
▁환 류</w>
▁한 양</w>
▁피 막</w>
▁패 션
▁트리 플</w>
▁투 병</w>
▁퇴 치</w>
▁테 헤
▁터 뜨리</w>
▁탈 모</w>
▁코 오롱</w>
▁캘 캘</w>
▁취 합</w>
▁춤 추</w>
▁최 강</w>
▁첼 시</w>
▁집중 호우</w>
▁집 광</w>
▁정 액</w>
▁전 화기</w>
▁전 량</w>
▁장 학</w>
▁자 수</w>
▁입 경</w>
▁일 예</w>
▁일 깨
▁유리 수</w>
▁유 승
▁유 급</w>
▁위 탁자</w>
▁우 상</w>
▁우 발</w>
▁외 로움</w>
▁오 일러</w>
▁연 하</w>
▁연 속
▁양 사</w>
▁압 통</w>
▁안 정
▁싫 어
▁신 빙</w>
▁식 탁</w>
▁시 그</w>
▁스 톡
▁수돗 물</w>
▁소 송법</w>
▁선 하증권</w>
▁산업 은행</w>
▁사 촌</w>
▁비 누</w>
▁부 디</w>
▁봅 시다</w>
▁보 청기</w>
▁바깥 쪽</w>
▁민 영화</w>
▁메 디
▁맛 보</w>
▁만 지</w>
▁막 말</w>
▁마음 대로</w>
▁레 퍼런스</w>
▁뒤 편</w>
▁두 뇌</w>
▁대 출금</w>
▁다름 없</w>
▁뇌 종양</w>
▁기 원전</w>
▁글 래스</w>
▁구 한다</w>
▁과민 성</w>
▁과 실
▁공 석</w>
▁고 발
▁견 딜</w>
▁개 소식</w>
▁강 타</w>
▁강 우</w>
▁가 전제품</w>
▁c om
▁S O</w>
▁P G</w>
▁N a</w>
▁M ed
▁L i</w>
▁E D</w>
▁B O
▁5 22</w>
▁3 35</w>
▁25 4</w>
▁197 6</w>
▁19 19</w>
or k</w>
i e</w>
as t
N B</w>
7 00</w>
화 소</w>
혈 성</w>
험 학습</w>
했 으니</w>
프로 젝트</w>
포 도</w>
크라 테스</w>
차 관</w>
주 차</w>
제 이</w>
입 국</w>
이 체</w>
의 존</w>
에 어</w>
심 장</w>
순 간</w>
상 속인</w>
산 역</w>
버 튼</w>
리 원</w>
데 도</w>
대 식</w>
는 군요</w>
깁 니다</w>
길 래</w>
급 인</w>
글 리</w>
그 린</w>
공 명
각 각</w>
가 소성</w>
가 게</w>
▁히스토 그램</w>
▁하 버
▁피 폭</w>
▁폐 질환</w>
▁파트 너십</w>
▁퇴 진</w>
▁퇴 사</w>
▁컬 렉션</w>
▁추 방</w>
▁최 대치</w>
▁참 신</w>
▁질 화물</w>
▁지 탱</w>
▁지 경</w>
▁제 거율</w>
▁정 전기</w>
▁정 계</w>
▁점 용</w>
▁전립 선</w>
▁재 킷</w>
▁장 외</w>
▁잠 들</w>
▁잔 인</w>
▁작 업장</w>
▁자 성체</w>
▁자 력</w>
▁일 찍이</w>
▁인 기
▁이 불</w>
▁이 를
▁음악 학</w>
▁유 흥
▁위상 차</w>
▁여 덟</w>
▁에버 랜드</w>
▁안 희정</w>
▁안 주</w>
▁시 위대</w>
▁수 온</w>
▁소 파</w>
▁소 설가</w>
▁소 동</w>
▁생겨 서</w>
▁생각 나</w>
▁생 긴
▁빔 포밍</w>
▁비 약</w>
▁불 발</w>
▁분 광
▁벽 돌</w>
▁배 합</w>
▁방사선 학</w>
▁방 위
▁발 문</w>
▁박 경
▁미 진</w>
▁묶 여</w>
▁몰 카</w>
▁몰 라서</w>
▁모 여
▁모 빌리티</w>
▁명 기</w>
▁마이 코</w>
▁마땅 히</w>
▁램 램</w>
▁도파 관</w>
▁대 손</w>
▁대 각선</w>
▁꾸 려</w>
▁기 꺼이</w>
▁그 루</w>
▁귀 환</w>
▁국민 은행</w>
▁광 양</w>
▁결 론
▁강남 스타일</w>
▁감 가
▁… …</w>
▁S B</w>
▁PM OS</w>
▁N E
▁L ee</w>
▁F S
▁CM OS</w>
▁CE S</w>
▁3 90</w>
▁3 42</w>
▁197 7</w>
ac e</w>
T B</w>
M E</w>
I R</w>
D B</w>
홈 런</w>
파 티</w>
탐 구</w>
치 기</w>
책 로</w>
징 계</w>
주 변</w>
제 한
전 법</w>
장 염</w>
장 군</w>
연 성</w>
양 육</w>
안전 망</w>
신 뢰</w>
스러 울</w>
서 명</w>
사 량</w>
분 수</w>
별 히</w>
번 히</w>
모 씨</w>
령 기</w>
러 서</w>
랭 킹</w>
래 곤</w>
둘 레</w>
독 립</w>
닷 컴</w>
노 스</w>
남 기</w>
권 위</w>
경 지</w>
결 산</w>
가 입자</w>
▁히 팅</w>
▁현 상학</w>
▁헌 헌</w>
▁항 고</w>
▁피 오</w>
▁프로그래 머</w>
▁특 약</w>
▁큐 브</w>
▁취 해야</w>
▁청 소기</w>
▁철 분</w>
▁척 추
▁질 문지</w>
▁즐거 웠</w>
▁좁 히</w>
▁젤 젤</w>
▁제 일
▁제 스</w>
▁정당 방위</w>
▁접 시</w>
▁저 압</w>
▁재판 장</w>
▁장 성</w>
▁일 찌감치</w>
▁이해 관계인</w>
▁유 적지</w>
▁유 실</w>
▁유 람선</w>
▁유 나이티</w>
▁요 리사</w>
▁외 장</w>
▁예술 단</w>
▁열대 야</w>
▁열 가소성</w>
▁연극 인</w>
▁엄 정</w>
▁앞 뒤</w>
▁알도 스테론</w>
▁아 테
▁스 코
▁수 호</w>
▁손 혜원</w>
▁소유 주</w>
▁세포 독성</w>
▁색 전술</w>
▁빼 놓</w>
▁빈 곤
▁비 강</w>
▁불 릴</w>
▁분 임</w>
▁복 원
▁병 실</w>
▁배 급</w>
▁바 우
▁문희 상</w>
▁무 수</w>
▁모 발</w>
▁만 끽</w>
▁막 론</w>
▁룩 룩</w>
▁레이 블</w>
▁라 우터</w>
▁라 우
▁딱 히</w>
▁둔 부</w>
▁두 어</w>
▁동 래</w>
▁돌 발</w>
▁데이 비드</w>
▁데 일리</w>
▁대 원</w>
▁달 걀</w>
▁단 풍</w>
▁넘 쳐
▁내 경</w>
▁날 로</w>
▁나 눈
▁끌어 내</w>
▁김현 미</w>
▁길 항제</w>
▁기울 일</w>
▁기다 릴</w>
▁기 득</w>
▁관리 법</w>
▁과 신</w>
▁공 분</w>
▁고 형
▁경제 학자</w>
▁갖 출</w>
▁각 색</w>
▁u n
▁e x
▁U n
▁M o
▁I M</w>
▁CO D</w>
▁A T</w>
▁9 40</w>
▁197 2</w>
▁17 6</w>
▁17 00</w>
yst em</w>
r am
i er</w>
h a</w>
V E</w>
C s</w>
플라 틴</w>
특 산물</w>
트 인</w>
클 린</w>
코 팅</w>
처 리장</w>
창 작</w>
증 이</w>
존 중</w>
존 재</w>
정 량</w>
임 워크</w>
욕 구</w>
연 습</w>
양 대</w>
앨 범</w>
아 일랜드</w>
시 베이</w>
스 턴스</w>
스 퀘어</w>
스 쳐</w>
소 설</w>
선 전</w>
선 위</w>
비 닐</w>
부 도</w>
보 존</w>
베 이션</w>
리 주의</w>
리 시</w>
리 라고</w>
더 욱</w>
더 러</w>
당 은</w>
노 출</w>
노 베이션</w>
기 업
관 제</w>
공명 영상</w>
격 성</w>
▁휴 먼</w>
▁황 사</w>
▁할 수록</w>
▁한국 식</w>
▁플 루
▁플 럭스</w>
▁폐 쇄성</w>
▁페 놀</w>
▁팀 워크</w>
▁특수 교육</w>
▁튀 어
▁크로 마토그래피</w>
▁퀸 퀸</w>
▁커패 시
▁커 버리지</w>
▁치러 진</w>
▁취 직</w>
▁청 력</w>
▁챌 린지</w>
▁채 굴</w>
▁쪼 개</w>
▁진 행자</w>
▁주 총</w>
▁주 심</w>
▁전 교
▁자매 결연</w>
▁자 란</w>
▁일 생</w>
▁율 율</w>
▁운 반
▁왼 발</w>
▁연구 비</w>
▁여 백</w>
▁엉 뚱</w>
▁어려 우</w>
▁어 리
▁악 곡</w>
▁쌍 방향</w>
▁신 상</w>
▁신 변</w>
▁시스 플라틴</w>
▁슬로 건</w>
▁스파 이크</w>
▁쇠 퇴</w>
▁선 례</w>
▁생겨 났</w>
▁상 수도</w>
▁뿌 듯</w>
▁뽐 내</w>
▁블로 킹</w>
▁브라 운</w>
▁불 변</w>
▁보 스턴</w>
▁벤 치</w>
▁벤 츠</w>
▁배 척</w>
▁배 석</w>
▁방문 자</w>
▁발 표회</w>
▁발 신</w>
▁받 침</w>
▁반 투명</w>
▁박 병
▁미 숙</w>
▁문 해력</w>
▁무 상
▁못 합니다</w>
▁멸 종</w>
▁메 우</w>
▁롯데 마트</w>
▁돌려 받</w>
▁도 미
▁대 마
▁달 래</w>
▁뇌 혈관</w>
▁노동 계</w>
▁내려 놓</w>
▁남한 산성</w>
▁끌 려
▁김명 수</w>
▁권 위
▁공급 원</w>
▁공 안</w>
▁공 수</w>
▁고의 로</w>
▁고 지
▁고 요</w>
▁강릉 시</w>
▁강 경화</w>
▁간 문맥</w>
▁가로 수</w>
▁가 산세</w>
▁γ γ</w>
▁N i
▁IF RS</w>
▁I N</w>
▁H C</w>
▁CG V</w>
▁4 23</w>
▁4 16</w>
▁3 24</w>
▁25 6</w>
▁20 9</w>
▁196 3</w>
▁19 40</w>
um ab</w>
ap p
P T</w>
8 00</w>
해 져서</w>
티 콘</w>
트 럴</w>
테 면</w>
중 간</w>
정 류
저 리</w>
임 새</w>
유 층</w>
영 관</w>
애 자</w>
시 가</w>
스트 리</w>
스 텐</w>
쇼 핑몰</w>
소 평가</w>
소 녀</w>
소 그래피</w>
선 스</w>
부 리</w>
문 장</w>
력 체</w>
려 고요</w>
라우 마</w>
동 주의</w>
덤 핑</w>
니 지</w>
니 언</w>
급 부</w>
금 지법</w>
그래 픽</w>
고 래</w>
고 도</w>
▁흘러 가</w>
▁후 반부</w>
▁획 정</w>
▁호 기</w>
▁혀 혀</w>
▁해 로운</w>
▁하 프</w>
▁피 난</w>
▁프레 임워크</w>
▁파 우</w>
▁커패시 턴스</w>
▁카르 텔</w>
▁치 주</w>
▁집 무실</w>
▁진 척</w>
▁진 작</w>
▁줘 서</w>
▁중 국
▁주 일</w>
▁주 스</w>
▁종 식</w>
▁정 형
▁정 유</w>
▁전 한다</w>
▁이모 티콘</w>
▁이를 테면</w>
▁이 과</w>
▁음 압</w>
▁유 산균</w>
▁용 해도</w>
▁완 치</w>
▁역 점</w>
▁야 경</w>
▁아닌 가요</w>
▁실 익</w>
▁실 마리</w>
▁신의 칙</w>
▁신 세
▁시험 지</w>
▁승 려</w>
▁스테인 리스</w>
▁순 식간</w>
▁수 차</w>
▁성취 감</w>
▁선 주</w>
▁상 거래</w>
▁빈 번히</w>
▁불 포화</w>
▁부정 맥</w>
▁본 안</w>
▁별 명</w>
▁변 한다</w>
▁바닷 가</w>
▁무 색</w>
▁무 기물</w>
▁맞춰 서</w>
▁말 라
▁막 상</w>
▁리 턴</w>
▁류머 티즘</w>
▁렙 렙</w>
▁레 버리지</w>
▁당 정</w>
▁담 체</w>
▁다 스</w>
▁내세 워</w>
▁나 간다</w>
▁끼 친</w>
▁김 세
▁구 실</w>
▁광 복
▁과 소평가</w>
▁과 민</w>
▁겸 손</w>
▁간호 학</w>
▁각 별히</w>
▁가 만히</w>
▁u u</w>
▁W P</w>
▁D TC</w>
▁4 32</w>
▁24 4</w>
▁198 3</w>
▁19 00</w>
▁15 8</w>
ro m
re e</w>
N M</w>
C O
4 000</w>
히 드</w>
학 술</w>
최 고</w>
체 기</w>
청 소</w>
지 청</w>
지 의</w>
졸 자</w>
정 인</w>
적 외선</w>
저 씨</w>
재판 관</w>
자 본
자 발</w>
입 찰</w>
입 기</w>
인 하</w>
유 사</w>
유 동</w>
원 서</w>
울 수록</w>
우 승</w>
우 더</w>
용 직</w>
여 량</w>
어 냈</w>
약 사</w>
시 료</w>
소 음</w>
비 물</w>
불 명</w>
렉 서</w>
레 인지</w>
들 였</w>
단 락</w>
농 협</w>
내 부</w>
나 타
광 역
감 찰</w>
▁화 보</w>
▁헬 헬</w>
▁항 문</w>
▁합 한</w>
▁피부 염</w>
▁플 롯</w>
▁폭 발
▁폐 열</w>
▁파 쇄</w>
▁틀림 없</w>
▁통 행
▁토 목</w>
▁탄 화
▁코 티</w>
▁코 끼리</w>
▁침 략</w>
▁촘 촘</w>
▁천 국</w>
▁지 부장</w>
▁중 과</w>
▁종 신</w>
▁접 선</w>
▁저 금리</w>
▁재 순환</w>
▁잠 복</w>
▁자기 공명영상</w>
▁이 력
▁의 대</w>
▁유 재
▁원 상</w>
▁원 로</w>
▁옮 길</w>
▁에 피</w>
▁어 둡</w>
▁애 도</w>
▁심 전도</w>
▁신 축성</w>
▁스탠 드</w>
▁수 심</w>
▁수 산화</w>
▁설 교</w>
▁서 랍</w>
▁산 책로</w>
▁사무 국</w>
▁사 리</w>
▁빌 린</w>
▁불 로</w>
▁봄 철</w>
▁변 천</w>
▁백 종원</w>
▁배 드민턴</w>
▁반 장</w>
▁묵 시</w>
▁무 인기</w>
▁망 가
▁들려 주</w>
▁드러 날</w>
▁동 아</w>
▁돌 풍</w>
▁대학 원생</w>
▁대장 염</w>
▁다 친</w>
▁늘 렸</w>
▁농 성</w>
▁낭 성</w>
▁남 원</w>
▁나타 남</w>
▁끼 쳤</w>
▁김 포시</w>
▁기초 자치단체</w>
▁그래 요</w>
▁구 상권</w>
▁과 부하</w>
▁공 화국</w>
▁계 파</w>
▁검 경</w>
▁개 시제</w>
▁강 진</w>
▁가 디언</w>
▁V OD</w>
▁Kore a</w>
▁H z</w>
▁H RD</w>
▁CR RT</w>
▁C ar
▁B i
▁8 02</w>
▁14 10</w>
ol l
n er</w>
m l</w>
an el</w>
Q I</w>
회 식</w>
해 냈</w>
한 다며</w>
하 루</w>
표준 액</w>
특별 법</w>
케 이블</w>
출 원</w>
체 법</w>
지 영</w>
줄 기</w>
제한 구역</w>
입 학</w>
인 용</w>
은 혜</w>
용 도</w>
언 론</w>
아 무개</w>
승 무원</w>
수 축</w>
수 역</w>
생 기</w>
브 스</w>
면 세점</w>
릴 기</w>
루 스</w>
로 오스</w>
대 학생</w>
능 기</w>
기저 기</w>
기 무사</w>
구 석</w>
공 직자</w>
계획 안</w>
걸 로</w>
간 다고</w>
▁흐 를</w>
▁휴가 철</w>
▁화 학
▁해 병대</w>
▁합 쳐
▁플라 스마</w>
▁포 진</w>
▁페이 팔</w>
▁파티 션</w>
▁파 운드</w>
▁총 격</w>
▁직 영</w>
▁지 정학</w>
▁준 거법</w>
▁종 자</w>
▁조 형물</w>
▁제 압</w>
▁전환 점</w>
▁적응 증</w>
▁장 마</w>
▁인 간
▁이재 민</w>
▁이순 신</w>
▁이 석
▁을 지로</w>
▁으 로서</w>
▁유 화</w>
▁유 난히</w>
▁위 태</w>
▁요 일</w>
▁여 기저기</w>
▁에 도</w>
▁얼 른</w>
▁압 연</w>
▁아 데
▁신 탁
▁스페 인
▁쉐 쉐</w>
▁순 도</w>
▁숙 성</w>
▁수익 금</w>
▁세계 관</w>
▁세 입자</w>
▁성 대</w>
▁사 표</w>
▁사 명
▁비례 대표제</w>
▁비 관</w>
▁붙 인</w>
▁분 광</w>
▁보 습</w>
▁버 린</w>
▁뱀 뱀</w>
▁반 송파</w>
▁바빠 서</w>
▁바 뀐
▁뭔 지</w>
▁문 자열</w>
▁명 문화</w>
▁매 기</w>
▁맞 대</w>
▁라이 선스</w>
▁때 려</w>
▁등 교</w>
▁돔 돔</w>
▁도 우미</w>
▁대 담</w>
▁다가 온</w>
▁내려 야</w>
▁김 원
▁김 소
▁군 데</w>
▁국군 기무사</w>
▁국 유</w>
▁구 배</w>
▁구 독자</w>
▁광 명
▁공 시지가</w>
▁곤 곤</w>
▁고 소장</w>
▁계획 서</w>
▁경 복
▁건축 법</w>
▁개발 제한구역</w>
▁강 자</w>
▁갑작 스런</w>
▁감가 상
▁가 결</w>
▁O A</w>
▁I I
▁D J</w>
▁A r</w>
▁9 01</w>
▁16 7</w>
희 대</w>
하 드</w>
피 질</w>
틀 랜드</w>
트 릭</w>
클러 스터</w>
창 동</w>
조 회</w>
장 가</w>
임 기</w>
영 사</w>
어 내</w>
아 미드</w>
시 작</w>
스바 겐</w>
숙 이</w>
수 생</w>
비 금</w>
보 인다</w>
맹 국</w>
막 이</w>
마 련</w>
류 량</w>
누 스</w>
나 스</w>
길 이</w>
귀 식</w>
구 이</w>
겨 울</w>
갈 비</w>
간 호사</w>
각 심</w>
가 단</w>
▁효 효</w>
▁한 라산</w>
▁핑 거</w>
▁피로 감</w>
▁풀 려
▁폴리 우레탄</w>
▁팬 덤</w>
▁틈 새</w>
▁트 라우마</w>
▁톡 톡
▁탄 산
▁쿠 바</w>
▁총 론</w>
▁차 상</w>
▁차 림</w>
▁증 축</w>
▁정 주</w>
▁정 성
▁장 골</w>
▁작 성자</w>
▁자연 인</w>
▁입장 료</w>
▁일 화</w>
▁이 대
▁의 논</w>
▁위 임
▁온 천</w>
▁영양 사</w>
▁연 산자</w>
▁여 왕</w>
▁업 자</w>
▁애 완</w>
▁안 양시</w>
▁아르 곤</w>
▁아 로
▁썩 썩</w>
▁심 방
▁승 수</w>
▁스며 들</w>
▁스 터디</w>
▁살아 나</w>
▁살 인
▁사 지</w>
▁빈 도수</w>
▁비 가역</w>
▁분 지</w>
▁부 설</w>
▁복 잡도</w>
▁보 이
▁베 스트
▁번 식</w>
▁방 통</w>
▁발 렌
▁반 덤핑</w>
▁반 가운</w>
▁무 결</w>
▁명 심</w>
▁막 힌</w>
▁루 이스</w>
▁레 전드</w>
▁들 으며</w>
▁둘러싸 여</w>
▁도 농</w>
▁대 차</w>
▁다 뤄
▁눈 부
▁노 골</w>
▁낭 만</w>
▁날 인</w>
▁나 뭇
▁김관 영</w>
▁김 보
▁김 밥</w>
▁김 도
▁그려 지</w>
▁균 주</w>
▁공공 재</w>
▁골 수
▁곡 물</w>
▁고 율</w>
▁고 비</w>
▁건축 가</w>
▁개 교</w>
▁감 산</w>
▁간 병</w>
▁가격 대</w>
▁k m</w>
▁j j</w>
▁T P</w>
▁P F
▁N o</w>
▁In d
▁E C</w>
▁D AS</w>
▁CR M</w>
▁5 80</w>
▁23 00</w>
▁2 18</w>
▁197 4</w>
▁16 8</w>
o s</w>
at or</w>
회 가</w>
학 률</w>
프 라이
퍼 토리</w>
터 치</w>
키 스</w>
쿠 버</w>
초 점</w>
유 효</w>
원 소</w>
연 진</w>
연 락</w>
에 이
앤 젤레스</w>
스 포
순 서</w>
수 결</w>
상 스</w>
상 사</w>
법 화</w>
벌 레</w>
민 자</w>
민 법</w>
무 라</w>
매 입</w>
만 세</w>
막 종</w>
리 프</w>
루 타</w>
로 선</w>
돋 움</w>
네 상스</w>
▁흉 터</w>
▁후 원자</w>
▁형 사법</w>
▁할 애</w>
▁필 두</w>
▁풍 물</w>
▁편광 판</w>
▁패 딩</w>
▁특 구</w>
▁텐 트</w>
▁키 웠</w>
▁커 튼</w>
▁커 브</w>
▁침 실</w>
▁충 무
▁춘 향
▁초 연</w>
▁초 상화</w>
▁종 국</w>
▁제 법</w>
▁정 거장</w>
▁전해 져</w>
▁전 월</w>
▁입법 례</w>
▁입 력
▁일 인</w>
▁일 용직</w>
▁이력 서</w>
▁이동 식</w>
▁유 명
▁원 론</w>
▁울 려</w>
▁요 한다</w>
▁왕 성</w>
▁열 사</w>
▁역 사학</w>
▁에어 로
▁심 청
▁실 점</w>
▁식 후</w>
▁시험 관</w>
▁스 파</w>
▁수 취</w>
▁수 억</w>
▁소송 대리인</w>
▁소방 차</w>
▁소 박</w>
▁소 극장</w>
▁성 숙도</w>
▁사라 져</w>
▁불 임</w>
▁분석 법</w>
▁부 지사</w>
▁보 낸다</w>
▁변 함
▁변 조기</w>
▁베이 커리</w>
▁벌어 질</w>
▁번 거</w>
▁발 돋움</w>
▁박 진
▁바스 켓</w>
▁민족 주의</w>
▁미 혼
▁며 느리</w>
▁메스 꺼
▁리 치</w>
▁돌 렸</w>
▁대 응
▁달려 가</w>
▁단 결정</w>
▁누 진</w>
▁넘어 설</w>
▁깨 지</w>
▁김 주
▁금 번</w>
▁구 동
▁교통 량</w>
▁광 대</w>
▁공 포
▁공 산</w>
▁고 루</w>
▁계 양구</w>
▁경 각심</w>
▁견 적서</w>
▁l l</w>
▁f l
▁V P</w>
▁S n</w>
▁P h
▁N P
▁HA RQ</w>
▁G L</w>
▁A u</w>
▁6 000</w>
u n</w>
re f</w>
ran s
od el</w>
ar y</w>
S CH</w>
L F</w>
3 000</w>
호 르몬</w>
합 시다</w>
표 지</w>
특 수</w>
트 라
통 증</w>
크 젯</w>
츠 하이
창 호</w>
진 진</w>
정 확</w>
전 위</w>
일 지라도</w>
우 편</w>
식 인</w>
소 견</w>
세 외</w>
성 공</w>
서 로</w>
본 체</w>
보 완</w>
변 색</w>
버 릴</w>
배 열</w>
미 트</w>
맥 스</w>
마 이드</w>
리바 바</w>
리 에</w>
로 라</w>
령 부</w>
라이 브</w>
도 우미</w>
뇨 제</w>
노 삼성</w>
남 동</w>
나 타</w>
국 민
교 인</w>
관 식</w>
공 선</w>
곡 동</w>
고 등</w>
경 화성</w>
감 정</w>
감 사관</w>
▁휩싸 였</w>
▁활 주로</w>
▁환 원
▁화 산</w>
▁화 답</w>
▁헬 멧</w>
▁하이 퍼</w>
▁피 어
▁표 면적</w>
▁표 기법</w>
▁편 찬</w>
▁트로 피</w>
▁톡톡 히</w>
▁크 라
▁카 탈
▁치 환기</w>
▁추 종</w>
▁초 석</w>
▁초 계기</w>
▁체 액</w>
▁지방 증</w>
▁주 상</w>
▁전자 기파</w>
▁전 일</w>
▁저 혈압</w>
▁저 혈</w>
▁자 처</w>
▁잉 크젯</w>
▁일본 식</w>
▁이 준
▁이 윤
▁육 종</w>
▁유 연
▁윈 드</w>
▁완 결</w>
▁오 산</w>
▁오 리</w>
▁열 등</w>
▁열 경화성</w>
▁여 대생</w>
▁에 르</w>
▁에 드
▁얕 얕</w>
▁양 반</w>
▁약 액</w>
▁알 뜰</w>
▁아 프
▁아 스</w>
▁쓰 인다</w>
▁심방 세동</w>
▁실 종자</w>
▁시 립</w>
▁스퍼 터링</w>
▁송 장</w>
▁속 옷</w>
▁세 라</w>
▁성 동</w>
▁설 날</w>
▁선 풍기</w>
▁서 두르</w>
▁사 계절</w>
▁빈 소</w>
▁비대 증</w>
▁불 활성</w>
▁부대 시설</w>
▁부 팅</w>
▁부 천시</w>
▁부 지
▁보여 요</w>
▁보 태</w>
▁보 임</w>
▁보 내
▁변 호</w>
▁변 종</w>
▁베스트 셀러</w>
▁백 만</w>
▁백 라이트</w>
▁박 찬
▁박 유
▁미 연</w>
▁물 놀이</w>
▁무너 졌</w>
▁무 지</w>
▁모 던</w>
▁맡 길</w>
▁마 포</w>
▁마 운트</w>
▁리 플</w>
▁르 노삼성</w>
▁로스 앤젤레스</w>
▁둥 지</w>
▁당 권</w>
▁담 지</w>
▁달 할</w>
▁나 치</w>
▁끝 났</w>
▁기초 선</w>
▁그 레이</w>
▁구 문</w>
▁구 독</w>
▁관 절
▁관 대</w>
▁경영 학</w>
▁경복 궁</w>
▁강 압</w>
▁감 속</w>
▁갈 라
▁간 행물</w>
▁간 절히</w>
▁간 내</w>
▁가져 온다</w>
▁가 연</w>
▁가 솔
▁µ µ</w>
▁° °</w>
▁m ol</w>
▁O TT</w>
▁H LA</w>
▁H E</w>
▁G a
▁A FC</w>
▁A A
▁@ @</w>
ol og
m ent</w>
em ent</w>
ea d</w>
b er
M L</w>
F ET</w>
20 18</w>
20 17</w>
화 가</w>
홍 색</w>
혜 진</w>
향 기</w>
합 의체</w>
학 기제</w>
투 과
통 사</w>
택 스</w>
커 피</w>
초 과</w>
찌 개</w>
조 업</w>
조 립</w>
절 로</w>
재 청</w>
자 극</w>
인 다고</w>
응 고제</w>
유 세</w>
오 리</w>
연구 자</w>
에 르</w>
언 더</w>
알 데
식 점</w>
식 성</w>
숭 이</w>
수 설</w>
선 희</w>
선 량</w>
서 양</w>
생 충</w>
생 물학</w>
사회 단체</w>
사 범</w>
사 료</w>
불 량</w>
베 이어</w>
배 정</w>
면 증</w>
메 뉴</w>
마 일</w>
리 스크</w>
러 지</w>
디 스</w>
도 액</w>
더 미</w>
달 성</w>
깨 비</w>
군 사</w>
구 획</w>
구 멍</w>
교 재</w>
공 항공사</w>
결 력</w>
▁흩 어져</w>
▁휴 업</w>
▁후 쿠
▁화 음</w>
▁호 모</w>
▁현 수막</w>
▁항 응고제</w>
▁함 부로</w>
▁학 적</w>
▁포 부</w>
▁페 로</w>
▁파 행</w>
▁특 목
▁특 급</w>
▁테헤 란</w>
▁카운 티</w>
▁카르 복
▁침 출수</w>
▁추 심</w>
▁초 당</w>
▁천 명</w>
▁척 수</w>
▁종 점</w>
▁정 동
▁전 폭</w>
▁전 달
▁적 잖</w>
▁잔 치</w>
▁이 룩</w>
▁음 영</w>
▁유 령</w>
▁원 룸</w>
▁울 림</w>
▁운전 기사</w>
▁요 양원</w>
▁외 과
▁완 수</w>
▁옴부즈 만</w>
▁열 량</w>
▁연구 회</w>
▁얽 힌</w>
▁어우러 지</w>
▁알 츠하이
▁알 리바바</w>
▁안 무가</w>
▁안 마</w>
▁신호 등</w>
▁신 부전</w>
▁신 병</w>
▁식 민</w>
▁시행 착오</w>
▁시 제품</w>
▁슬 픈</w>
▁숯 숯</w>
▁순 찰</w>
▁수십 억</w>
▁수 정안</w>
▁수 계</w>
▁쇼 트</w>
▁성 문</w>
▁삼 국</w>
▁사 육</w>
▁브 래
▁불 고기</w>
▁부분 군</w>
▁부 갑상선</w>
▁보 름</w>
▁보 관
▁번 거
▁받아들 인</w>
▁만 취</w>
▁리 페</w>
▁리 커트</w>
▁리 본</w>
▁레 퍼토리</w>
▁레 그</w>
▁라이 벌</w>
▁두 껍</w>
▁독 소</w>
▁대 검찰청</w>
▁당 사국</w>
▁담 화</w>
▁담 판</w>
▁단 언</w>
▁늦 추</w>
▁느껴 질</w>
▁놓 였</w>
▁나 선
▁김 인
▁급 히</w>
▁급 전</w>
▁구미 시</w>
▁광 이</w>
▁경비 원</w>
▁건 넸</w>
▁개 도국</w>
▁mi R</w>
▁Zn S</w>
▁W T</w>
▁M T</w>
▁M D
▁IN H</w>
▁I PA</w>
▁H H
▁F D</w>
▁E Q</w>
▁E GFR</w>
▁8 60</w>
▁5 31</w>
▁5 15</w>
▁5 13</w>
▁5 05</w>
▁22 7</w>
▁18 7</w>
t r
p le</w>
ou t</w>
o le</w>
i es</w>
페 놀</w>
판 력</w>
파 괴</w>
통 지서</w>
코 치</w>
칠 지</w>
출 량</w>
촉 장</w>
차 선</w>
지 질혈증</w>
젝 터</w>
장 일치</w>
자유 주의</w>
자 산
왔 으며</w>
오 미</w>
엑 스
어 티</w>
안 군</w>
아 세
수 법</w>
서울 청사</w>
색 소</w>
불 리</w>
보 스</w>
병 인</w>
바 퀴</w>
바 운드</w>
마 취</w>
마 진</w>
룻 밤</w>
료 실</w>
레 그</w>
량 계</w>
단 식</w>
는 지요</w>
나 미</w>
기 도</w>
권 역</w>
공 대</w>
결 석</w>
거 의</w>
개 척</w>
▁휴 직</w>
▁황 당</w>
▁화 주</w>
▁항 복</w>
▁할인 율</w>
▁할 랄</w>
▁하 룻밤</w>
▁필 라</w>
▁플레이 오프</w>
▁포 탈</w>
▁평 활</w>
▁파 스타</w>
▁파 라</w>
▁트 랩</w>
▁쿼 리</w>
▁콕 스</w>
▁코 발트</w>
▁캐 비닛</w>
▁카 이
▁출 연진</w>
▁초 록색</w>
▁직 계</w>
▁지 출액</w>
▁중 재자</w>
▁주택 가</w>
▁정부 서울청사</w>
▁정 수기</w>
▁절 친</w>
▁전교 조</w>
▁전 할</w>
▁작 용기</w>
▁자 라
▁입 소</w>
▁인 텔</w>
▁이 뇨제</w>
▁이 공</w>
▁유 머</w>
▁원 판</w>
▁옮 긴</w>
▁올 려
▁오 세
▁여 수
▁양 파</w>
▁알 라
▁아쉬 웠</w>
▁아 저씨</w>
▁신 재
▁시흥 시</w>
▁스페인 어</w>
▁수 천만</w>
▁수 개월</w>
▁소방 청</w>
▁섭 외</w>
▁샘 샘</w>
▁사라 진다</w>
▁비 표</w>
▁비 산</w>
▁비 뇨
▁브 리지</w>
▁브 뤼
▁붙 였</w>
▁불 면증</w>
▁북한 산</w>
▁부 끄러
▁복 막염</w>
▁베이 비
▁배 신</w>
▁박 주
▁바꿔 야</w>
▁밀 레</w>
▁목 욕</w>
▁모 레</w>
▁명 사</w>
▁메 카</w>
▁맥 도
▁만 전</w>
▁마 두</w>
▁림 림</w>
▁라우 팅</w>
▁두려 워</w>
▁동반 성</w>
▁동 맹국</w>
▁돋보 인다</w>
▁도 비</w>
▁델 타</w>
▁단 조</w>
▁단 연</w>
▁농 경지</w>
▁내 열</w>
▁기억 력</w>
▁기 쁩니다</w>
▁근 황</w>
▁그 럴
▁규 약</w>
▁굴 뚝</w>
▁교 제</w>
▁교 부금</w>
▁과 학
▁과 립</w>
▁고 강</w>
▁검 수</w>
▁강 직</w>
▁갑작 스러운</w>
▁감 작</w>
▁가솔 린</w>
▁㎡ ㎡</w>
▁→ →</w>
▁λ λ</w>
▁t o</w>
▁m T
▁a p
▁U RL</w>
▁S F
▁R D</w>
▁P anel</w>
▁N LR</w>
▁N F
▁EG R</w>
▁D I</w>
▁A TP</w>
▁A B</w>
▁8 11</w>
▁29 1</w>
▁15 9</w>
un g</w>
ec h
1 6
픽 셀</w>
틸 리티</w>
컴 퓨
칼 륨</w>
치 소</w>
창 군</w>
중 심
전 용</w>
전 반</w>
적 분</w>
잭 션</w>
이 념</w>
예 약</w>
신 고자</w>
식 지</w>
스 피스</w>
선 고</w>
분 열</w>
북 자</w>
부 산</w>
복 판</w>
보 고회</w>
법 관</w>
배 송</w>
목 적지</w>
로 이드
드 름</w>
둔 다</w>
데 시</w>
당 시</w>
다 기</w>
니 깐</w>
노 필</w>
난 화</w>
금 회</w>
거 점</w>
갈 지</w>
▁희 망자</w>
▁휴 양</w>
▁헬 륨</w>
▁헤 르
▁해 내</w>
▁피아 니스트</w>
▁프로 파
▁편 곡</w>
▁페 인트</w>
▁패스트 푸드</w>
▁틸 팅</w>
▁특목 고</w>
▁태 극</w>
▁키 움</w>
▁컨 베이어</w>
▁캡 처</w>
▁치 마</w>
▁추 행</w>
▁첩 보</w>
▁천 주교</w>
▁챙 긴</w>
▁집 진</w>
▁지 리산</w>
▁즐 비</w>
▁중심 점</w>
▁졸 업
▁존 치</w>
▁조 성
▁조 각
▁정 재
▁정 순
▁전 용
▁저 학년</w>
▁장례 식장</w>
▁자 금
▁인 제</w>
▁이어 받</w>
▁이 소</w>
▁위기 감</w>
▁웬 만</w>
▁우편 물</w>
▁오버 레이</w>
▁오 지
▁열 연</w>
▁연 필</w>
▁어 서</w>
▁어 림</w>
▁약 사</w>
▁쐐 기</w>
▁실 렸</w>
▁슬라이 더</w>
▁스피 드</w>
▁스폰 서</w>
▁쉬 프</w>
▁숙 련
▁수 리
▁쇼 트
▁소수 점</w>
▁소 지
▁세포 질</w>
▁선 발
▁상 지</w>
▁산 단</w>
▁사업 소</w>
▁사업 가</w>
▁사무 직</w>
▁사 거리</w>
▁뽐 냈</w>
▁뼈 대</w>
▁비 주</w>
▁번 들</w>
▁밝혀 져</w>
▁발행 인</w>
▁미 사</w>
▁묶 음</w>
▁모아 진다</w>
▁말 미
▁마이 스터</w>
▁마이 닝</w>
▁마 신</w>
▁리베 이트</w>
▁로 펌</w>
▁레 드
▁러 시아
▁뜨거 웠</w>
▁득 표</w>
▁동 북</w>
▁도 요
▁내비 쳤</w>
▁남아 공</w>
▁날 려</w>
▁기 생충</w>
▁금 기</w>
▁그 친</w>
▁국 책</w>
▁광역 버스</w>
▁공 자</w>
▁공 격자</w>
▁결 격</w>
▁가 진다는</w>
▁V S
▁V C</w>
▁P R
▁M U
▁L R</w>
▁IS O</w>
▁G ro
▁F VC</w>
▁A TM</w>
▁8 01</w>
▁7 02</w>
▁6 21</w>
▁198 1</w>
▁14 20</w>
in t</w>
i k
c al</w>
I T
B K</w>
플 랜</w>
프로 필렌</w>
푸 르</w>
평 선</w>
편 익</w>
통계 량</w>
태 세</w>
컨 벤션</w>
치 킨</w>
치 유</w>
축구 연맹</w>
주 인공</w>
정 립</w>
정 규</w>
저 가</w>
장 구</w>
을 게요</w>
외 곽</w>
열 부</w>
연 부</w>
양 인</w>
약 금</w>
아 나</w>
심 리학</w>
실 행</w>
수 련</w>
상 황실</w>
사 병</w>
비 서</w>
부 정</w>
베 드</w>
발 표회</w>
미 화원</w>
무 가설</w>
메 모리</w>
릴 지</w>
리 더십</w>
리 닝</w>
르 담</w>
랜 서</w>
던 지</w>
대 강</w>
당 제</w>
농 성</w>
논 리</w>
내 셔널</w>
날 지</w>
국 주의</w>
겹 살</w>
거 스</w>
▁흡수 제</w>
▁훈 육</w>
▁홀 수</w>
▁행정 법</w>
▁했 으며</w>
▁합 법화</w>
▁프라이 머</w>
▁평 결</w>
▁편 파</w>
▁퍼 졌</w>
▁틀 리</w>
▁퇴 비</w>
▁탄 성
▁큰 일</w>
▁카 페인</w>
▁청 도군</w>
▁철 새</w>
▁참 으로</w>
▁지 금
▁중 저가</w>
▁조 식</w>
▁재 조사</w>
▁재 일</w>
▁임종 헌</w>
▁인 입</w>
▁이 대로</w>
▁이 광
▁윈 윈</w>
▁원 주민</w>
▁원 서</w>
▁욕 실</w>
▁외 피</w>
▁올 린다</w>
▁여객 기</w>
▁억 류</w>
▁어 쩌</w>
▁양 육
▁양 손</w>
▁애 널
▁아 사히</w>
▁신 중히</w>
▁시 안</w>
▁습 지</w>
▁손 톱</w>
▁소 크라테스</w>
▁소 소</w>
▁소 란</w>
▁선 입
▁서 론</w>
▁빌 드</w>
▁분류 기</w>
▁부탁 드려요</w>
▁복 직</w>
▁병원 균</w>
▁발 라드</w>
▁반응 물</w>
▁밀 양</w>
▁미 터</w>
▁미 칩니다</w>
▁무너 진</w>
▁못 함</w>
▁메스꺼 움</w>
▁말미 암</w>
▁두 통</w>
▁되돌아 보</w>
▁도 피</w>
▁도 급</w>
▁닥 터</w>
▁노 멀</w>
▁넘 겨졌</w>
▁납 니다</w>
▁남 대문</w>
▁남 겨
▁김 남
▁긴 급
▁기뻐 하</w>
▁기계 식</w>
▁기 습</w>
▁기 망</w>
▁기 대치</w>
▁그 대</w>
▁귀 책</w>
▁귀 신</w>
▁귀 무가설</w>
▁구 석</w>
▁구 립</w>
▁공산 당</w>
▁경 험
▁결 의안</w>
▁거 제</w>
▁개 진</w>
▁간 이식</w>
▁가 했</w>
▁a d
▁Si O</w>
▁SB P</w>
▁P a
▁P J
▁N C
▁KO S
▁ES RD</w>
▁EC MO</w>
▁E U
▁C r
▁3 16</w>
▁3 1
▁3 08</w>
u st
t ro
ra d
k y</w>
an t</w>
ac h
I U</w>
환 원</w>
현 수</w>
행 선</w>
항 만</w>
편 감</w>
콜 라</w>
캐 슬</w>
치료 제</w>
청 정</w>
차 이나</w>
지 리</w>
지 개</w>
주 국</w>
정 판</w>
적 성</w>
일 즈</w>
인 돌</w>
인 격</w>
응 고</w>
예 배</w>
양 상</w>
야 겠
신 다고</w>
스 퍼</w>
선 교</w>
산 대</w>
사 본</w>
병 변</w>
발 굴</w>
목 사</w>
메 이
드 롬</w>
동 수</w>
동 군</w>
대 별</w>
논 의</w>
날 드</w>
난 민</w>
기 준
극 판</w>
구 호</w>
고 심</w>
고 교</w>
경찰 관</w>
개 최</w>
▁홍 보물</w>
▁호 중구</w>
▁행 한다</w>
▁해석 론</w>
▁해 저</w>
▁합 시다</w>
▁한 화
▁한 결</w>
▁프리 랜서</w>
▁평 가전</w>
▁특 이점</w>
▁특 감</w>
▁트랜 잭션</w>
▁투 구</w>
▁투 광</w>
▁터 전</w>
▁총 합</w>
▁처 했</w>
▁창 안</w>
▁지금 껏</w>
▁주 범</w>
▁제 명</w>
▁정형 외과</w>
▁전 주시</w>
▁전 임자</w>
▁전 라도</w>
▁저 절로</w>
▁자이언 츠</w>
▁인 내
▁인 권위</w>
▁이 분법</w>
▁유 수</w>
▁원 뿔</w>
▁오 키
▁예 금
▁영 재교육</w>
▁열 에너지</w>
▁양 주시</w>
▁액 티
▁아메 리카</w>
▁심 포지엄</w>
▁스 레드</w>
▁세 속</w>
▁성 인기</w>
▁섭 씨</w>
▁서 방</w>
▁사 칭</w>
▁사 당</w>
▁부 흥</w>
▁봉 착</w>
▁봉 사자</w>
▁보호 관찰</w>
▁변 압기</w>
▁법 정형</w>
▁번 개</w>
▁백두 산</w>
▁배 추</w>
▁방사 체</w>
▁방 범</w>
▁방 광</w>
▁반대 쪽</w>
▁명예 훼손</w>
▁명 세</w>
▁만 장일치</w>
▁마 블</w>
▁르 르</w>
▁라 스
▁뒤따 르</w>
▁동 창
▁동 독</w>
▁대장 균</w>
▁넘어 지</w>
▁내세 웠</w>
▁내 몰
▁난 관</w>
▁낙 인</w>
▁나눈 다</w>
▁기 용</w>
▁극 작가</w>
▁귀 족</w>
▁권 리금</w>
▁국 수</w>
▁구 워</w>
▁고 분</w>
▁경 향성</w>
▁검 지</w>
▁걸 립니다</w>
▁가시 광선</w>
▁V TE</w>
▁LT BI</w>
▁L PS</w>
▁In ter
▁Ig E</w>
▁H R
▁F l
▁E l
▁D e
▁C U</w>
▁B o
▁A V</w>
▁4 25</w>
▁26 4</w>
▁23 7</w>
▁22 8</w>
y d
ra m</w>
ic h</w>
i an</w>
N K</w>
회 귀</w>
포 진</w>
타 협</w>
쿼 터</w>
체 하</w>
청 산</w>
참 가
지 훈</w>
주 식회사</w>
저 작물</w>
임 대차</w>
일 까요</w>
은 가</w>
원 군</w>
었 었</w>
야 마</w>
실 은</w>
시 브</w>
승 환</w>
스피 린</w>
스토 크</w>
솔 루션</w>
성 동</w>
설 계사</w>
선 발</w>
상 회복</w>
삼 각형</w>
브 라
봉 지</w>
보험 법</w>
발 현</w>
래 프트</w>
떨 어진</w>
들 어
단 주의</w>
년 사</w>
네 이터</w>
권 고</w>
국 면</w>
과 점</w>
거 용</w>
강 재</w>
가 드</w>
▁화 사</w>
▁화 분</w>
▁헌 혈</w>
▁하 남</w>
▁프 프</w>
▁풍 미</w>
▁풋 풋</w>
▁표 류</w>
▁폴리 프로필렌</w>
▁폭 포</w>
▁패션 쇼</w>
▁태 운</w>
▁타고 난</w>
▁쿨 쿨</w>
▁콜 라</w>
▁추 가
▁최 재
▁최 순</w>
▁청 계
▁천 문학</w>
▁집행 부</w>
▁지켜 봐야</w>
▁조 롱</w>
▁정 동</w>
▁접촉 면</w>
▁재 수사</w>
▁잠 수
▁잇따 랐</w>
▁임 신부</w>
▁인구 학</w>
▁이동 한</w>
▁이 유
▁은 밀</w>
▁유 관
▁울 타리</w>
▁요 령</w>
▁외 투</w>
▁연예 계</w>
▁연 민</w>
▁연 맹</w>
▁여 아</w>
▁어려워 질</w>
▁야 심</w>
▁안전 망</w>
▁아세 톤</w>
▁씨 름</w>
▁쓰 일</w>
▁신 년사</w>
▁스포 츠
▁스 님</w>
▁수 의</w>
▁세로 축</w>
▁세 간</w>
▁성 행</w>
▁선 상</w>
▁서귀 포시</w>
▁생 산물</w>
▁색 감</w>
▁상 층</w>
▁삼 겹살</w>
▁산 발</w>
▁부 평</w>
▁부 류</w>
▁봐 서</w>
▁법 치
▁배 고
▁반 지</w>
▁바 란
▁미적 분학</w>
▁묵 묵
▁매 료</w>
▁만 두</w>
▁리 만</w>
▁르 네상스</w>
▁로 스</w>
▁따 돌
▁동 일
▁도 제</w>
▁델 라
▁대 검</w>
▁다가 올</w>
▁다 면</w>
▁다 뤄</w>
▁누 수</w>
▁녹 조</w>
▁내 기</w>
▁난 치성</w>
▁꾸 리</w>
▁김수 현</w>
▁김성 수</w>
▁기 화</w>
▁기 판력</w>
▁기 무</w>
▁기 를</w>
▁글루코 코르티코이드</w>
▁구 애</w>
▁관계 식</w>
▁공 전</w>
▁경 희대</w>
▁경 상도</w>
▁감 금</w>
▁간 병인</w>
▁가까 울수록</w>
▁가 평군</w>
▁㎥ ㎥</w>
▁f or</w>
▁SS c</w>
▁M SC</w>
▁L ev
▁I V
▁D T</w>
▁C or
▁7 60</w>
▁7 000</w>
▁5 32</w>
▁5 0
▁27 5</w>
os t</w>
il l</w>
a vi
20 19</w>
1 3
획 득</w>
합 동</w>
학 적</w>
학 문</w>
퓰 리즘</w>
폭 풍</w>
파 워</w>
특 화</w>
트 론</w>
토 프</w>
출 관</w>
체 조</w>
청 문</w>
책 감</w>
창 고</w>
질 기</w>
중 기</w>
제 철</w>
전 해질</w>
익 스피어</w>
위 주</w>
였 으므로</w>
애 착</w>
심 도</w>
실 패</w>
스 카</w>
소 인</w>
소 개서</w>
보 단</w>
별 력</w>
번 역</w>
민 군</w>
물 선</w>
루 수</w>
로 코</w>
로 잉</w>
도 입</w>
덴 서</w>
당 과</w>
다 리기</w>
기 종</w>
그 마</w>
경 궁</w>
▁히 로
▁휴 게</w>
▁휩 쓸</w>
▁헷 갈
▁헤드 셋</w>
▁행 동주의</w>
▁해 이</w>
▁한 다며</w>
▁하루 빨리</w>
▁프레 드니솔론</w>
▁폭 스바겐</w>
▁포 퓰리즘</w>
▁폐 원</w>
▁편 법</w>
▁펀 치</w>
▁팩 스</w>
▁파 우더</w>
▁특 집</w>
▁특 산물</w>
▁템 포</w>
▁텐 텐</w>
▁턱 없이</w>
▁터 졌</w>
▁치료 비</w>
▁치 닫</w>
▁취 학</w>
▁충 만</w>
▁출입 문</w>
▁챔피 언십</w>
▁지 옥</w>
▁정 장</w>
▁전 년도</w>
▁전 구</w>
▁저 전압</w>
▁잔 뜩</w>
▁자연 어</w>
▁인덕 턴스</w>
▁이승 현</w>
▁이 분</w>
▁이 니
▁육 류</w>
▁유 신</w>
▁원 상회복</w>
▁울 음</w>
▁올라 간다</w>
▁오 작동</w>
▁오 갔</w>
▁역 외</w>
▁엔 딩</w>
▁언 어
▁어 벤
▁양 자
▁약 리학</w>
▁안 성
▁실리 콘
▁시험 장</w>
▁시 수</w>
▁수 컷</w>
▁솜 씨</w>
▁소 나기</w>
▁셰 익스피어</w>
▁션 션</w>
▁셔 츠</w>
▁서 초</w>
▁서 원</w>
▁브뤼 셀</w>
▁불 출
▁불 응</w>
▁분 리기</w>
▁변 의</w>
▁범 퍼</w>
▁반 짝
▁박 은
▁바 이트</w>
▁미 지</w>
▁미 주</w>
▁물 놀</w>
▁문화 재청</w>
▁무 제한</w>
▁목 걸이</w>
▁모 재</w>
▁맞춰 져</w>
▁맞 붙</w>
▁말 리</w>
▁르 노</w>
▁레 인</w>
▁듭 니다</w>
▁들 어야</w>
▁도 용</w>
▁도 수</w>
▁도 상</w>
▁더 더욱</w>
▁대마 초</w>
▁대 륙
▁단 수</w>
▁다 크</w>
▁다 산</w>
▁늘어 남</w>
▁노동 법</w>
▁노 숙</w>
▁냉 장</w>
▁내려 앉</w>
▁난 해</w>
▁꺼 지</w>
▁김태 우</w>
▁기 압</w>
▁그려 져</w>
▁괄 호</w>
▁공 소장</w>
▁고 질</w>
▁계 상</w>
▁계 산부</w>
▁가산 점</w>
▁T H</w>
▁R B</w>
▁N RS</w>
▁KE B</w>
▁IS P</w>
▁H e
▁F E
▁D D</w>
▁CM D</w>
▁7 12</w>
▁4 51</w>
▁3 52</w>
▁3 3
▁196 8</w>
▁19 46</w>
op h
las s</w>
f orm
e h
ar d
E E
합 니다만</w>
합 금</w>
학 상</w>
파 이프</w>
클레오 티드</w>
춘 기</w>
추 장</w>
진 호</w>
직 무</w>
족 수</w>
조 대</w>
정 보
접 속</w>
전 제</w>
자 이</w>
일 기</w>
인 팅</w>
인 조</w>
이 니</w>
이 내</w>
용 제</w>
영 동</w>
악 화</w>
악 산</w>
신 대</w>
시켰 으며</w>
시 스트</w>
시 드</w>
손 금</w>
선 사</w>
산 출</w>
비 시</w>
블 루</w>
보 안
방 어</w>
박 감</w>
몸 체</w>
명 자</w>
매 듭</w>
려 상</w>
돼 왔</w>
도 자</w>
도 로
다 는데</w>
능 기부</w>
내 륙</w>
글 스</w>
검 장</w>
감 리</w>
▁흑 백</w>
▁휴게 소</w>
▁훗 날</w>
▁후 천</w>
▁후 발</w>
▁환경 미화원</w>
▁화 각</w>
▁홍 삼</w>
▁허 구</w>
▁폐 결핵</w>
▁평 화통일</w>
▁페널티 킥
▁토 픽</w>
▁토 기</w>
▁타 크</w>
▁춥 춥</w>
▁쳐 쳐</w>
▁채 운</w>
▁직 거래</w>
▁지 식인</w>
▁증 원</w>
▁즐 겼</w>
▁조리 실</w>
▁절 전</w>
▁절 실히</w>
▁재 능기부</w>
▁입법 안</w>
▁입 히</w>
▁일 삼</w>
▁이동 은</w>
▁이 영자</w>
▁음 량</w>
▁유 희</w>
▁유 영
▁웨이 브</w>
▁웜 웜</w>
▁연 습생</w>
▁연 못</w>
▁연 면적</w>
▁연 가</w>
▁역 내</w>
▁여 실히</w>
▁에 티
▁양 전자</w>
▁액티 비티</w>
▁애 인</w>
▁암 살</w>
▁악 마</w>
▁아 스피린</w>
▁쏠 림</w>
▁식 염수</w>
▁시 청
▁승 선</w>
▁스트 라이
▁스타 트</w>
▁스 폿</w>
▁스 킬</w>
▁쉼 쉼</w>
▁숙 고</w>
▁수 협</w>
▁수 선</w>
▁수 기</w>
▁소송 비용</w>
▁소송 물</w>
▁성 막</w>
▁설 립자</w>
▁서 포트</w>
▁상 담
▁빌 릴</w>
▁비틀 림</w>
▁비상 근무</w>
▁불 빛</w>
▁복 조</w>
▁벤 트</w>
▁방 류</w>
▁발열 량</w>
▁박 보
▁바리 스타</w>
▁바닷 물</w>
▁미 량</w>
▁모 아서</w>
▁멸 실</w>
▁만 난다</w>
▁리 프트</w>
▁등 식</w>
▁등 등</w>
▁듀 레이션</w>
▁뒤 흔
▁두 드리</w>
▁덥 덥</w>
▁더 러
▁달 라서</w>
▁꾸 며</w>
▁깊 숙이</w>
▁김 치
▁김 제</w>
▁그린 벨트</w>
▁고 시원</w>
▁경 주시</w>
▁결정 짓</w>
▁거 머
▁개막 전</w>
▁강원 랜드</w>
▁강 소</w>
▁강 성
▁가 을
▁v s</w>
▁p pm</w>
▁in d
▁T h</w>
▁F S</w>
▁E BS</w>
▁A g
o C</w>
G C</w>
히 터</w>
현 미경</w>
해 행위</w>
핑 장</w>
플라 이</w>
판 원</w>
파 인</w>
천 성</w>
징 후</w>
진 군</w>
지 속</w>
지 라</w>
주 면</w>
정 주의</w>
점 제</w>
절 개</w>
일 제</w>
음 식점</w>
으 라고</w>
워 즈</w>
오 피스</w>
연 승</w>
암 동</w>
아 산</w>
신 수</w>
신 경
스테 이트</w>
숭 아</w>
수 동</w>
서 점</w>
상 충</w>
부 착</w>
보 스토크</w>
배 수</w>
방 송
무 일</w>
립 생활</w>
리 더</w>
라이언 스</w>
동 일</w>
당 량</w>
농 악</w>
노 포</w>
냉 각</w>
낸 셜</w>
납 금</w>
날 이</w>
기 야</w>
국 사</w>
공 서</w>
골 절</w>
고 장</w>
경제 자유구역</w>
건 조</w>
개 부</w>
간 다면</w>
▁힘 줄</w>
▁홍 남기</w>
▁호 스피스</w>
▁허 술</w>
▁학 령기</w>
▁하루 하루</w>
▁픽 픽</w>
▁프로 젝터</w>
▁포 천시</w>
▁페 어</w>
▁파 인</w>
▁트 림</w>
▁탐 침</w>
▁탄 도</w>
▁퀄 컴</w>
▁코 리안</w>
▁코 르
▁커 피
▁커 리어</w>
▁충청 북도</w>
▁충 고</w>
▁체 코</w>
▁채 웠</w>
▁집 사</w>
▁줄 다리기</w>
▁줄 거리</w>
▁좁 혀</w>
▁접어 든</w>
▁저 탄소</w>
▁자 행</w>
▁자 취</w>
▁자 손</w>
▁일 컬</w>
▁이태 원</w>
▁이 따
▁응 집
▁유 행
▁유 념</w>
▁원 문</w>
▁우 주선</w>
▁외 자</w>
▁완벽 주의</w>
▁영 유</w>
▁영 미</w>
▁에 세이</w>
▁어려워 졌</w>
▁양 말</w>
▁알 린</w>
▁아 릴기</w>
▁실리콘 밸리</w>
▁실 직</w>
▁신 태
▁식 재</w>
▁시 시
▁스케 일링</w>
▁숭 고</w>
▁수 순</w>
▁수 광</w>
▁소용 돌이</w>
▁세계 주의</w>
▁선 단</w>
▁서 훈</w>
▁서 강
▁상 변화</w>
▁산 전</w>
▁부산 대</w>
▁부 연</w>
▁복 습</w>
▁변 속기</w>
▁버 킷</w>
▁백 남
▁배당 금</w>
▁배 아</w>
▁배 설</w>
▁발 제</w>
▁박 남
▁물 꼬</w>
▁무궁 화</w>
▁무 의미</w>
▁무 거
▁명 함</w>
▁메르 켈</w>
▁마 킹</w>
▁득 표
▁드 나
▁두드러 진다</w>
▁더 한다</w>
▁내 연</w>
▁난 항</w>
▁나 날이</w>
▁끌어 들이</w>
▁급 기야</w>
▁근 막</w>
▁그 램</w>
▁그 늘</w>
▁궤 양성</w>
▁구 자
▁구 석
▁광 량</w>
▁고 추</w>
▁고 인돌</w>
▁게 르
▁강원 도지사</w>
▁가파 른</w>
▁가 부장</w>
▁r es
▁lo g</w>
▁Q OL</w>
▁Par k</w>
▁PD CCH</w>
▁M c
▁L E
▁H T
▁G L
▁FD G</w>
▁E S</w>
▁4 42</w>
▁4 4
▁3 51</w>
▁3 06</w>
▁196 5</w>
▁19 6</w>
▁17 7</w>
▁14 9</w>
▁10 01</w>
C B</w>
회 계사</w>
헬 기</w>
행 업체</w>
플 렉서</w>
포 드</w>
티 노</w>
토 론
충 제</w>
진 우</w>
증 시</w>
준 칙</w>
주 문</w>
정 차</w>
전 기금</w>
장 조</w>
장 암</w>
자 임</w>
자 동</w>
인 산</w>
오 차</w>
예술 단</w>
실 기</w>
신 청자</w>
습 장</w>
스 프
순 응</w>
수 소기</w>
수 사대</w>
세 무</w>
사회 학</w>
사 용
별 로</w>
베 르트</w>
미 안</w>
무 용
몰 이</w>
마 는</w>
런 저</w>
라 스트</w>
도 서</w>
도 관</w>
덕 트</w>
낸 다고</w>
기 상
그 리</w>
교육 학</w>
격 탄</w>
▁흑 흑</w>
▁황 희</w>
▁확 률
▁협 진</w>
▁행 해진</w>
▁해 녀</w>
▁합성 수지</w>
▁한 가
▁피 라미드</w>
▁플 런저</w>
▁팔레 스타인</w>
▁트 레이드</w>
▁터 뜨렸</w>
▁탈 의실</w>
▁탄화 수소기</w>
▁크 레인</w>
▁콘 솔</w>
▁최 영
▁질 타</w>
▁진 위</w>
▁직 격탄</w>
▁지 중
▁증거 능력</w>
▁중 진</w>
▁줄 게요</w>
▁주 휴</w>
▁주 지사</w>
▁죄 책감</w>
▁조 정안</w>
▁제 주시</w>
▁제 약사</w>
▁정 조</w>
▁전 한</w>
▁전 지
▁적 격성</w>
▁재무 회계</w>
▁장 하성</w>
▁장 로</w>
▁잔 여
▁입 법론</w>
▁임 면</w>
▁일 함수</w>
▁일 품</w>
▁이상 일</w>
▁을 지</w>
▁윤 석
▁유 라
▁원 한다</w>
▁원 피스</w>
▁운전 석</w>
▁우 안</w>
▁옹 옹</w>
▁오 른다</w>
▁연 달</w>
▁에 스테르</w>
▁양 재
▁야 구장</w>
▁액 적</w>
▁안 철수</w>
▁아 쿠
▁아 랫
▁심 청</w>
▁실 란</w>
▁신 예</w>
▁스크 리닝</w>
▁스 탬프</w>
▁쉬 워</w>
▁셀룰 로오스</w>
▁세 브</w>
▁설 명서</w>
▁상 존</w>
▁사 진
▁뿌 리
▁뽑 혔</w>
▁불 렸</w>
▁분 홍색</w>
▁분 출</w>
▁부정 행위</w>
▁봉 제</w>
▁보 잉</w>
▁보 답</w>
▁법치 주의</w>
▁범 하</w>
▁벌 인다</w>
▁방 산</w>
▁박 해
▁미혼 모</w>
▁묵묵 히</w>
▁무너 져</w>
▁무 수
▁몸 싸움</w>
▁몰 라도</w>
▁모자 라</w>
▁망 간</w>
▁라 이</w>
▁뒤 바
▁두려 워하</w>
▁도 깨비</w>
▁도 관</w>
▁대 타협</w>
▁단 호</w>
▁늘 려야</w>
▁내 실화</w>
▁내 리
▁김 홍
▁기 해</w>
▁금 강</w>
▁과 속</w>
▁과 반</w>
▁공 분산</w>
▁고지 혈증</w>
▁고구 마</w>
▁고 작</w>
▁개 각</w>
▁가로 질러</w>
▁n g</w>
▁P d</w>
▁P V</w>
▁NY T</w>
▁M n</w>
▁M ar
▁Li k
▁L G
▁I A</w>
▁G C</w>
▁E SS</w>
▁E D
▁5 14</w>
▁3 43</w>
▁196 9</w>
▁18 8</w>
ro p
os t
o d</w>
N A
2 30</w>
화 법</w>
협 조</w>
행 도</w>
해 져야</w>
통 화
통 해</w>
토 시</w>
토 류</w>
타 점</w>
쿠 르</w>
코 일</w>
친 다는</w>
출 동</w>
천 동</w>
진 로</w>
즈 키</w>
죄 자</w>
좌 석</w>
정 렬</w>
장 년층</w>
장 고</w>
자 전거</w>
와 요</w>
연 산</w>
실 린</w>
시 내</w>
승 차</w>
승 부</w>
스 페이스</w>
수 신</w>
선 호</w>
상 품권</w>
불 편</w>
봐 요</w>
변 제</w>
변 성</w>
법 률
뮤 직</w>
문 법</w>
매 출</w>
리 언</w>
레 버</w>
락 할</w>
디 네이터</w>
들 러</w>
나 리</w>
기 조</w>
기 독교</w>
글 로벌</w>
군 인</w>
국 과</w>
교 도</w>
관리 사</w>
관 할</w>
고 지서</w>
계약 법</w>
▁흘러 나오</w>
▁흘 렀</w>
▁흔 치</w>
▁휩싸 인</w>
▁회 전력</w>
▁회 계사</w>
▁활성 도</w>
▁형 광체</w>
▁행정 관</w>
▁하이 드로</w>
▁하 전</w>
▁피 터</w>
▁피 임</w>
▁피 상속인</w>
▁플로 리
▁포 크</w>
▁폐 사</w>
▁평 론가</w>
▁특 위</w>
▁통일 성</w>
▁토 익</w>
▁택 했</w>
▁코 믹</w>
▁축 구
▁최 단</w>
▁천 막</w>
▁직 군</w>
▁지 폐</w>
▁지 단</w>
▁증 서</w>
▁증 류</w>
▁중 원</w>
▁종 지</w>
▁존 엄
▁조 산
▁조 부모</w>
▁제안 자</w>
▁정 오</w>
▁점 하</w>
▁절 충</w>
▁전립 선암</w>
▁전 용기</w>
▁전 성기</w>
▁전 광
▁인터 페론</w>
▁인 내</w>
▁이뤄지 면</w>
▁은 메달</w>
▁울릉 도</w>
▁와 야</w>
▁올라 간</w>
▁오 만</w>
▁여 성
▁엘리 엇</w>
▁언 행</w>
▁어떠 세요</w>
▁알렉 산
▁안 부</w>
▁아로 마</w>
▁쓰러 진</w>
▁심 재
▁심 부</w>
▁신 촌</w>
▁시 켜
▁시 발점</w>
▁스 킨
▁스 리
▁슈 뢰
▁수행 평가</w>
▁쇄 골</w>
▁소 용</w>
▁성 벽</w>
▁선 뜻</w>
▁석 영</w>
▁샴 푸</w>
▁생 명력</w>
▁새 겨져</w>
▁살 균제</w>
▁사령 탑</w>
▁비 비</w>
▁불가 항력</w>
▁불 능</w>
▁부 시장</w>
▁부 르
▁보여 서</w>
▁법 상</w>
▁벌 일</w>
▁버 퍼링</w>
▁박 준
▁바이 너리</w>
▁무 혐</w>
▁모의 재판</w>
▁마그 넷</w>
▁마 니아</w>
▁덴 덴</w>
▁대 진</w>
▁답 안</w>
▁닭 고기</w>
▁난 동</w>
▁기울 어진</w>
▁기 자단</w>
▁구 세</w>
▁광 축</w>
▁관 악</w>
▁관 로</w>
▁관 공서</w>
▁고 점</w>
▁고 농도</w>
▁겸 비</w>
▁개 회식</w>
▁개 표</w>
▁개 미</w>
▁개 개</w>
▁갑 작</w>
▁가 곡</w>
▁Sn O</w>
▁L V</w>
▁G A</w>
▁EB US</w>
▁D es
▁Co x</w>
▁CS F</w>
▁CA N</w>
▁B A
▁A M</w>
▁8 000</w>
v er
ug h</w>
oc h
ig h</w>
b u
M M</w>
E AN</w>
C F</w>
9 00</w>
호 수</w>
해 낼</w>
해 고</w>
플리 터</w>
플라 자</w>
타 이
코 올
케 인</w>
지배 력</w>
전문 점</w>
적 정</w>
자 신</w>
예 산
양 자</w>
야 당</w>
안 점</w>
식 도</w>
시 공</w>
스 프</w>
수 세</w>
소 매
소 개</w>
세 종</w>
세 상</w>
살 인</w>
비 엔날레</w>
브 릭</w>
보험 금</w>
보 미</w>
변 상</w>
베 르
방 해죄</w>
방 침</w>
무 소</w>
머 니즘</w>
매 개</w>
릴 라</w>
랑 스</w>
라 데시</w>
뜩 이나</w>
도 식</w>
데 타</w>
달 음</w>
단 다</w>
닐 링</w>
닐 라</w>
기록 부</w>
기 체</w>
금 융
규 약</w>
교 역</w>
과 이</w>
고 발</w>
계 통</w>
거 름</w>
감 기</w>
▁흐 른다</w>
▁후 처리</w>
▁한 나
▁필 사</w>
▁필 로
▁플 레
▁펩 티드</w>
▁페이 징</w>
▁페이 로드</w>
▁패 권</w>
▁트레 일러</w>
▁탈 루</w>
▁콘 덴서</w>
▁카 피</w>
▁최 태
▁청 정기</w>
▁챙 겼</w>
▁지 필</w>
▁줄 인</w>
▁줄 여야</w>
▁졸업 식</w>
▁조 영
▁정 품</w>
▁절 삭</w>
▁전 작</w>
▁저 혈당증</w>
▁쟁 의</w>
▁재 앙</w>
▁일 축</w>
▁이 겼</w>
▁유지 관리</w>
▁유 대인</w>
▁원 청</w>
▁요 동</w>
▁요 골</w>
▁와 도</w>
▁예 열</w>
▁영등 포</w>
▁연소 실</w>
▁연 한</w>
▁연 주회</w>
▁여 고생</w>
▁엑 스</w>
▁에 오</w>
▁억 지로</w>
▁양 이온</w>
▁양 분</w>
▁아테 네</w>
▁싸 이
▁실 정법</w>
▁실 로</w>
▁식 구</w>
▁슬 프</w>
▁스 무</w>
▁순 종</w>
▁수 영
▁송 하인</w>
▁손꼽 히</w>
▁소 집단</w>
▁소 지자</w>
▁소 각
▁성 악</w>
▁설 치
▁생겨 난</w>
▁샌 더스</w>
▁상 보</w>
▁빗 빗</w>
▁부 쩍</w>
▁본 토</w>
▁벌 칙</w>
▁벌 레</w>
▁배 구</w>
▁반 죽</w>
▁박 자</w>
▁민원 실</w>
▁문 해</w>
▁무 사</w>
▁망 치</w>
▁리 처
▁리 딩</w>
▁동 지</w>
▁동 승자</w>
▁대응 책</w>
▁당 근</w>
▁단 열</w>
▁단 골</w>
▁다 각도</w>
▁높 여야</w>
▁내 린다</w>
▁나타 난다는</w>
▁김재 환</w>
▁김부 겸</w>
▁기 자재</w>
▁기 쁜</w>
▁군 부</w>
▁구심 점</w>
▁교수 진</w>
▁교 종</w>
▁관 전</w>
▁공 인
▁고 차원</w>
▁고 기압</w>
▁게 을
▁검 사장</w>
▁건 조기</w>
▁거 친다</w>
▁거 쳐서</w>
▁거 북</w>
▁강 박</w>
▁가 한</w>
▁가 점</w>
▁가 뜩이나</w>
▁㎖ ㎖</w>
▁} }</w>
▁p ol
▁RO I</w>
▁PA D</w>
▁O N</w>
▁NS A
▁MP a</w>
▁K P
▁DS R</w>
▁2 19</w>
▁197 1</w>
or i</w>
om e</w>
n ing</w>
m s</w>
m a</w>
g er</w>
X T</w>
T E
O VA</w>
I O</w>
흡 연</w>
혈 액</w>
허 증</w>
해 당</w>
함 량</w>
포 식</w>
투 자가</w>
통화 기금</w>
테 이프</w>
탄 생</w>
커 뮤니
출 장</w>
출 소</w>
지 위</w>
지 와</w>
중 력</w>
전 남</w>
적 분할</w>
입 물</w>
입 도</w>
인 즈</w>
이 민</w>
은 행장</w>
외 상</w>
아티 아</w>
실 에</w>
신 학</w>
스테 이</w>
선 주</w>
상 작</w>
산 화
산 정</w>
사 가</w>
분 위기</w>
부 평구</w>
부 제</w>
방 역</w>
박 이</w>
민 영</w>
미 션</w>
리 퍼</w>
료 소</w>
렴 도</w>
라 틴</w>
된 다며</w>
독 부</w>
데 기</w>
대 부</w>
담 장</w>
김 없이</w>
기 상</w>
규 준</w>
구 름</w>
경 부</w>
개 골</w>
간 섭</w>
가 소</w>
▁희 토류</w>
▁회 자</w>
▁혈액 학</w>
▁학 장</w>
▁퓨 전</w>
▁판 재</w>
▁파 이버</w>
▁특 보</w>
▁텅 스텐</w>
▁탈 북자</w>
▁침 식</w>
▁치료 사</w>
▁추 월</w>
▁참 패</w>
▁참 여
▁착 취</w>
▁진 찰</w>
▁진 에어</w>
▁지지 부진</w>
▁중 장</w>
▁주 효</w>
▁주 형</w>
▁종 아리</w>
▁존 슨</w>
▁정순 균</w>
▁정 육면체</w>
▁정 유
▁전 망대</w>
▁적 당히</w>
▁저 쪽</w>
▁잣 대</w>
▁자치 회</w>
▁자 폐
▁임 재욱</w>
▁이 마</w>
▁이 리
▁이 경
▁윤 리학</w>
▁유 통
▁유 은혜</w>
▁우 량</w>
▁용접 부</w>
▁오키 나와</w>
▁오리 엔
▁영 성</w>
▁영 산</w>
▁열 교</w>
▁연령 층</w>
▁연결 망</w>
▁역 기능</w>
▁여객 선</w>
▁여 분</w>
▁업 주</w>
▁어리 석</w>
▁어려워 하</w>
▁야 산</w>
▁암 컷</w>
▁심 심</w>
▁신탁 법</w>
▁신경 전</w>
▁시 집</w>
▁시 식</w>
▁수 치
▁수 수
▁수 박</w>
▁수 긍</w>
▁소 신</w>
▁성 원</w>
▁서울 역</w>
▁샤 오미</w>
▁상 각</w>
▁산 타</w>
▁사회 생활</w>
▁사 해행위</w>
▁사 제</w>
▁빨 래</w>
▁부 동</w>
▁보호 구역</w>
▁버 려</w>
▁버 디</w>
▁배 율</w>
▁배 양
▁발 주자</w>
▁반 가
▁박지 성</w>
▁바나 나</w>
▁미 모</w>
▁뮌 헨</w>
▁물 의</w>
▁무상 급식</w>
▁몰 락</w>
▁모 세관</w>
▁맞물 리</w>
▁망 라</w>
▁말 소</w>
▁만 주</w>
▁만 든
▁마 녀</w>
▁라이 프
▁들어 와서</w>
▁드 로잉</w>
▁뒷 뒷</w>
▁두 터
▁대 형
▁능 률</w>
▁노 점</w>
▁내 사</w>
▁김혜 경</w>
▁김 한
▁기 차
▁기 름
▁급 부상</w>
▁국제 통화기금</w>
▁국 도</w>
▁국 감</w>
▁광 저우</w>
▁광 의</w>
▁과 대
▁공산 주의</w>
▁공 채</w>
▁고마 움</w>
▁결 속</w>
▁갖춰 져</w>
▁각 질</w>
▁an t
▁W BC</w>
▁V I</w>
▁UA V</w>
▁U E
▁S SC</w>
▁P b</w>
▁P H</w>
▁MV P</w>
▁L AM</w>
▁KN H
▁HF D</w>
▁H T</w>
▁F ed</w>
▁C u
▁B PA</w>
▁6 31</w>
▁6 04</w>
▁4 24</w>
▁36 1</w>
▁3 17</w>
▁3 07</w>
▁24 00</w>
▁15 10</w>
ol d</w>
lo w</w>
en e</w>
V D</w>
M Hz</w>
I SA</w>
1 8
1 7
화 질</w>
행 진</w>
합 치</w>
필 품</w>
프로 세서</w>
프 레</w>
편 식</w>
텍 터</w>
크 라</w>
착 지</w>
짓 점</w>
중 요</w>
종 결</w>
져 스</w>
제 조업</w>
제 액</w>
정 예산</w>
자치 부</w>
입 식</w>
육 종</w>
요 구서</w>
외 부</w>
열 성</w>
연 소</w>
업 주</w>
어 진다</w>
양 군</w>
야 드</w>
아 보</w>
수 율</w>
속 감</w>
서 기</w>
상 업</w>
상 실</w>
상 성</w>
산 군</w>
사 도</w>
비 대</w>
변 국</w>
베 르크</w>
반 영</w>
바 구니</w>
민 호</w>
모 직</w>
모 지</w>
메 리카</w>
말 라</w>
로 로</w>
레이 어</w>
랑 카</w>
들 일</w>
단 서</w>
다 툼</w>
글 라데시</w>
균 성</w>
광 도</w>
관리 위원회</w>
경 정예산</w>
거 즈</w>
각 서</w>
각 부</w>
▁흘 려</w>
▁흔 했</w>
▁흉 통</w>
▁휴양 지</w>
▁활성 제</w>
▁확 인서</w>
▁확 연</w>
▁호 박</w>
▁호 가</w>
▁혜 경궁</w>
▁햇 살</w>
▁햇 볕</w>
▁합 격
▁푼 푼</w>
▁표 피</w>
▁평 준</w>
▁펼쳐 져</w>
▁파 싱</w>
▁투 시</w>
▁토 니</w>
▁텔 레</w>
▁테크 노</w>
▁탄 화</w>
▁탁 자</w>
▁탁 구</w>
▁타 석</w>
▁타 개</w>
▁콘 택트</w>
▁켈 리</w>
▁침 탄</w>
▁출 근길</w>
▁추가 경정예산</w>
▁추 신수</w>
▁첫 해</w>
▁첨 가량</w>
▁천 사</w>
▁지 회</w>
▁지 뢰</w>
▁지 그
▁중 합
▁조 직원</w>
▁제일 모직</w>
▁제 대</w>
▁정 월</w>
▁점 자</w>
▁전 교</w>
▁잔 금</w>
▁작 위</w>
▁입법 부</w>
▁이 인
▁은 하</w>
▁유라 시아</w>
▁움직 인다</w>
▁우 스
▁용 종</w>
▁외 향</w>
▁여 긴</w>
▁에 테르</w>
▁억 억</w>
▁어벤 져스</w>
▁어 워드</w>
▁어 닐링</w>
▁양 당</w>
▁아시아 인</w>
▁아 형</w>
▁심 초</w>
▁실 연</w>
▁실 과</w>
▁신 진</w>
▁신 전</w>
▁식 도
▁승 화</w>
▁승 무</w>
▁스트 레인</w>
▁순 천시</w>
▁수 인</w>
▁쇼트 트랙</w>
▁쇄 도</w>
▁속 여</w>
▁소 인</w>
▁성 공
▁설 계
▁선입 견</w>
▁선 천성</w>
▁서 핑</w>
▁서 른</w>
▁생 필품</w>
▁상 행위</w>
▁살 릴</w>
▁산업 재</w>
▁뿌 려</w>
▁빈 약</w>
▁비 식</w>
▁비 료</w>
▁뷔 페</w>
▁분산 제</w>
▁분 담금</w>
▁북 적
▁부적 응</w>
▁보 살</w>
▁번 복</w>
▁배 수
▁방 울</w>
▁방 글라데시</w>
▁바 텀</w>
▁뮤 뮤</w>
▁무 역
▁무 균</w>
▁모의 실험</w>
▁모 종</w>
▁명 부</w>
▁망 언</w>
▁마 리아</w>
▁리모 컨</w>
▁로 즈</w>
▁띤 띤</w>
▁등 극</w>
▁되돌 려</w>
▁대 출자</w>
▁대 졸자</w>
▁대 물
▁단 단히</w>
▁니 트</w>
▁능 가</w>
▁날 아가</w>
▁나 와야</w>
▁끝 점</w>
▁끊 기</w>
▁꼭 짓점</w>
▁꼭 대기</w>
▁김해 시</w>
▁긋 긋</w>
▁금 주</w>
▁귀 금속</w>
▁국제 축구연맹</w>
▁교 모</w>
▁괄 목</w>
▁공 언</w>
▁곧 장</w>
▁고 독
▁경 쾌</w>
▁경 인</w>
▁결합 제</w>
▁개 국</w>
▁감염 자</w>
▁감 내</w>
▁갈아 타</w>
▁가 칭</w>
▁§ §</w>
▁{ {</w>
▁c yc
▁W or
▁R es
▁R P</w>
▁R M
▁PE G</w>
▁P U</w>
▁I TO</w>
▁H U
▁GR DP</w>
▁DV T</w>
▁D SA</w>
▁CG M</w>
▁C YP</w>
▁B ra
▁B LK</w>
▁4 08</w>
▁28 1</w>
▁196 7</w>
▁19 53</w>
▁18 6</w>
▁17 8</w>
re c
r e</w>
ow er</w>
oo k</w>
at ional</w>
V I</w>
S K</w>
S G</w>
K O</w>
AN ES</w>
A b</w>
1 01</w>
흡 수성</w>
후 화</w>
호 성</w>
행 정
한 계</w>
프 린</w>
포 폴</w>
투 리</w>
택 지</w>
클 리</w>
칼 라</w>
책 점</w>
착 증</w>
차 로</w>
차 단</w>
집 권</w>
준 다면</w>
주 량</w>
제 회</w>
제 소</w>
적 표</w>
재 무</w>
잔 치</w>
자 사</w>
이 트
은 편</w>
연 주</w>
엑스 포</w>
양 학</w>
안 심</w>
쓴 이</w>
수 개</w>
소 충</w>
세 탁</w>
선 제</w>
서 원</w>
사 찰</w>
사 이버</w>
블 러</w>
분 경</w>
보 였</w>
베 리아</w>
법 익</w>
범 죄자</w>
배 터리</w>
반 신</w>
미 만</w>
망 감</w>
림 동</w>
렸 으며</w>
등록 증</w>
넘 기</w>
낭 염</w>
궤 도</w>
국 외</w>
공 구</w>
게 티</w>
▁후 행</w>
▁호 칭</w>
▁호 일</w>
▁행정 청</w>
▁행정 자치부</w>
▁한국 전력</w>
▁학 창</w>
▁피 해야</w>
▁프로 포폴</w>
▁포 드</w>
▁평 온</w>
▁팔 렸</w>
▁파이 낸셜</w>
▁튜 튜</w>
▁통 근</w>
▁퀵 퀵</w>
▁취 소권</w>
▁초 임</w>
▁체육 계</w>
▁집 어
▁줄 게</w>
▁주 니어</w>
▁조 이</w>
▁제 상</w>
▁절대 값</w>
▁전 범</w>
▁재 활
▁재 가동</w>
▁장 구</w>
▁자 음</w>
▁자 가
▁입력 단</w>
▁잃어 버렸</w>
▁인 수
▁이원 화</w>
▁이 철
▁이 원</w>
▁이 산</w>
▁이 문
▁이 덕
▁응급 처치</w>
▁유 진</w>
▁원 숭이</w>
▁원 기둥</w>
▁우선 순위</w>
▁올 스타</w>
▁예 절</w>
▁영 장
▁역 부족</w>
▁여수 시</w>
▁여 의
▁에 이</w>
▁알 짜</w>
▁쓰레기 통</w>
▁신태 용</w>
▁신 드롬</w>
▁시 킨다</w>
▁스코 틀랜드</w>
▁스리 랑카</w>
▁스 파이</w>
▁숙박 업</w>
▁수료 생</w>
▁수 작업</w>
▁손 질</w>
▁선 관위</w>
▁선 결</w>
▁서 술
▁삼 진</w>
▁사 적</w>
▁빌 미</w>
▁비뇨 기</w>
▁비 엔날레</w>
▁비 스
▁브 로드</w>
▁부추 기</w>
▁부 조</w>
▁볶 볶</w>
▁복 숭아</w>
▁보 라
▁베 리</w>
▁벗어 났</w>
▁바우 처</w>
▁밑 거름</w>
▁민 화</w>
▁민 자</w>
▁무 가</w>
▁못 해요</w>
▁목 적
▁모 태</w>
▁모 차
▁모 공</w>
▁매 회</w>
▁맞 은편</w>
▁말 미</w>
▁만 회</w>
▁마 냥</w>
▁리 프</w>
▁레 코드</w>
▁라디 에이터</w>
▁뜯 뜯</w>
▁딜 러</w>
▁들 썩
▁드 린다</w>
▁두 피</w>
▁동 월</w>
▁동 명</w>
▁돋보 였</w>
▁대 충</w>
▁대 란</w>
▁대 동
▁당첨 자</w>
▁느 려</w>
▁녹 여</w>
▁납 땜</w>
▁김정 일</w>
▁기관지 경</w>
▁기 틀</w>
▁기 저
▁글 쓴이</w>
▁근 방</w>
▁극 본</w>
▁극 동</w>
▁그 랜
▁국 사</w>
▁교육 실습</w>
▁괴 물</w>
▁공 개
▁계약 직</w>
▁경영 계</w>
▁결 부</w>
▁겁 겁</w>
▁검 역</w>
▁건 국
▁건 강
▁객 담</w>
▁감 수성</w>
▁in ter
▁W il
▁V S</w>
▁S K
▁PA N</w>
▁O L</w>
▁M g
▁I n</w>
▁H E
▁EM L</w>
▁E M</w>
▁D Q</w>
▁C ase</w>
▁7 21</w>
▁5 16</w>
y l</w>
k er</w>
d er</w>
at ed</w>
ac l
RE F</w>
A G</w>
1 40</w>
픽 스</w>
프레 쉬</w>
폐 합</w>
폐 부</w>
파 악</w>
텍 처</w>
차 년</w>
중 립</w>
주 장</w>
제 곱
정 설</w>
절 약</w>
절 단</w>
전 율</w>
재 량</w>
잔 액</w>
임 계</w>
원 법</w>
운 수</w>
우 회</w>
온 즈</w>
어 주</w>
양 이</w>
아 스</w>
송 이</w>
송 기</w>
상 문</w>
산 면</w>
사업 단</w>
비 대칭</w>
브 로
봅 시다</w>
복 귀</w>
보증 기금</w>
보 사</w>
묘 지</w>
만 은</w>
마이 신</w>
러 야</w>
드 라</w>
드 기</w>
니 트</w>
는 구나</w>
김 새</w>
급 제</w>
그 릇</w>
관 절염</w>
고 찰</w>
계 단</w>
거 주자</w>
객 체</w>
▁휴게 실</w>
▁훔 친</w>
▁홍 반</w>
▁협 상력</w>
▁현 판</w>
▁헨 리</w>
▁헤 이
▁한 양대</w>
▁학 제</w>
▁피 해
▁피 츠
▁풍 자</w>
▁포 일</w>
▁파 헤
▁파 울</w>
▁특허 법</w>
▁탑 승
▁크리스 천</w>
▁크로 아티아</w>
▁컬 컬</w>
▁커 팅</w>
▁측 량</w>
▁출판 물</w>
▁최 대
▁촬 상
▁찬 사</w>
▁지 워</w>
▁주 점</w>
▁주 의보</w>
▁주 변인</w>
▁존엄 성</w>
▁정 현
▁절 충
▁전력 량</w>
▁전 차</w>
▁저 촉</w>
▁재 회</w>
▁재 조합</w>
▁재 기</w>
▁장 염</w>
▁자 조</w>
▁임 팩트</w>
▁일 용</w>
▁인 준</w>
▁이 하
▁의 할</w>
▁의 왕</w>
▁음 력</w>
▁음 독</w>
▁유관 순</w>
▁웨 웨</w>
▁원 두</w>
▁우 레탄</w>
▁외교 관</w>
▁외 연</w>
▁와 파린</w>
▁오브 제</w>
▁오 이</w>
▁예 결</w>
▁엽 산</w>
▁앤 드</w>
▁애 틋</w>
▁애 쓰</w>
▁알아 차
▁악 구</w>
▁아키 텍처</w>
▁심 했</w>
▁심 벌</w>
▁식 용</w>
▁식 생</w>
▁시청 각</w>
▁시 합</w>
▁스 즈키</w>
▁수 해</w>
▁수 신
▁송수 신기</w>
▁소 켓</w>
▁소 추</w>
▁센 트럴</w>
▁세계 유산</w>
▁선 동</w>
▁색 조</w>
▁살아 왔</w>
▁살 포</w>
▁사 직</w>
▁사 다리</w>
▁빚 어지</w>
▁비 콘</w>
▁분 뇨</w>
▁북 경</w>
▁베 풀</w>
▁버 려진</w>
▁뱅 킹</w>
▁바뀐 다</w>
▁미 니
▁무 례</w>
▁모여 들</w>
▁모 래
▁맥도 날드</w>
▁말라 리아</w>
▁리 시버</w>
▁로맨 틱</w>
▁레 진</w>
▁동 해안</w>
▁동 역학</w>
▁도 둑</w>
▁데려 다</w>
▁당 진</w>
▁다이 내
▁다 수결</w>
▁내려 갔</w>
▁낮 췄</w>
▁난 무</w>
▁꿇 꿇</w>
▁깨 달음</w>
▁김진 태</w>
▁김 유
▁기록 관</w>
▁글루 코스</w>
▁글 리
▁극 찬</w>
▁구석 구석</w>
▁광 중합</w>
▁과 오</w>
▁공 해</w>
▁계 조</w>
▁계 몽</w>
▁결론 지</w>
▁건 선</w>
▁건 넨</w>
▁개 축</w>
▁갇 힌</w>
▁가져 갈</w>
▁가 속
▁W i</w>
▁SN P</w>
▁R E</w>
▁NO AC</w>
▁N U
▁N TM</w>
▁M MP</w>
▁M B</w>
▁KA IST</w>
▁G o
▁F re
▁F PG</w>
▁D L
▁C a
▁B a
▁AS EAN</w>
▁5 06</w>
▁3 45</w>
▁22 9</w>
▁196 4</w>
y m
v er</w>
n ey</w>
k ing</w>
in a</w>
i le</w>
b er</w>
ar m
al ue</w>
L B</w>
F L</w>
회 의장</w>
형 평</w>
허 설</w>
항 서</w>
하 중</w>
플 롭</w>
표 소</w>
포 동</w>
파 이어</w>
파 고</w>
티 미터</w>
트 롤</w>
테 로</w>
클 리
클 로</w>
츠 키</w>
체 류</w>
진 입</w>
지 드</w>
조 형물</w>
제 하</w>
저 당</w>
장 판</w>
일 관</w>
의 뢰</w>
원 료</w>
우 며</w>
올 랐</w>
연 한</w>
양 수</w>
압 부</w>
알 라
시 보</w>
습 도</w>
스타 트</w>
스코 프</w>
숙 객</w>
소 추</w>
상 대
사 와</w>
사 업체</w>
비 게</w>
분 투</w>
부 호</w>
반 송파</w>
물 원</w>
무 효</w>
립 플롭</w>
든 가</w>
동 쪽</w>
데 다</w>
던 트</w>
대표 부</w>
대 요</w>
다 나</w>
닐 기</w>
는 데도</w>
느 냐고</w>
낭 종</w>
김 치</w>
근 종</w>
국 지</w>
관광 지</w>
공 격</w>
고 양이</w>
계 비</w>
계 망</w>
▁휴 전</w>
▁휴 무</w>
▁후 드</w>
▁회 향</w>
▁홈 플러스</w>
▁학 비</w>
▁하 의</w>
▁핑 계</w>
▁피 서
▁피 리</w>
▁피 겨</w>
▁플라 이</w>
▁폭 스</w>
▁포지 티브</w>
▁포 켓</w>
▁페 일</w>
▁팜 팜</w>
▁판 단력</w>
▁트로 트</w>
▁트레이 너</w>
▁트 랜</w>
▁투 신</w>
▁투 숙객</w>
▁투 명도</w>
▁통 념</w>
▁클 린</w>
▁컬 링</w>
▁치 우</w>
▁측 방</w>
▁출 항</w>
▁총 파업</w>
▁초 과
▁체 불</w>
▁천연 물</w>
▁책임 질</w>
▁중합 효소</w>
▁주 중</w>
▁주 안점</w>
▁주 법</w>
▁종 가</w>
▁존 립</w>
▁조선 족</w>
▁조 정부</w>
▁정 선</w>
▁정 경
▁점 토</w>
▁절 세</w>
▁전 출</w>
▁전 대</w>
▁저 술</w>
▁저 널
▁잠 식</w>
▁잠 겨</w>
▁잔 잔</w>
▁입 힌</w>
▁임종 석</w>
▁인내 심</w>
▁인 원수</w>
▁이 치</w>
▁이 은
▁응 시자</w>
▁위 약금</w>
▁외과 의사</w>
▁왕 비</w>
▁왕 국</w>
▁올 레핀</w>
▁열 의</w>
▁여 느</w>
▁약 수</w>
▁앞당 겨</w>
▁쏜 쏜</w>
▁신세 계
▁승강 기</w>
▁수십 만</w>
▁수 임</w>
▁수 없이</w>
▁솟 솟</w>
▁속 할</w>
▁소 속감</w>
▁성 급</w>
▁설 화</w>
▁설 계사</w>
▁선 암</w>
▁상 한선</w>
▁상 병</w>
▁사 채권자</w>
▁뾰 족</w>
▁빈곤 층</w>
▁보통 주</w>
▁보통 법</w>
▁보이 콧</w>
▁보 탬</w>
▁병 용</w>
▁법률 가</w>
▁방위 비</w>
▁밝혀 내</w>
▁발 진기</w>
▁박 항서</w>
▁박 모</w>
▁밀 가루</w>
▁문 예</w>
▁몽 몽</w>
▁모 로코</w>
▁매 해</w>
▁마카 오</w>
▁리 비아</w>
▁땅 콩</w>
▁뒤 처
▁동 학</w>
▁돌 봐</w>
▁도 함수</w>
▁대 물</w>
▁다이 얼</w>
▁넘 버</w>
▁넓 힐</w>
▁내려 와</w>
▁내려 서</w>
▁나타 납니다</w>
▁나 올
▁깃 발</w>
▁김상 조</w>
▁기하 급수</w>
▁굴 착</w>
▁구매 력</w>
▁구 급</w>
▁교차 점</w>
▁교 향
▁경 화제</w>
▁건너 편</w>
▁개 회</w>
▁갈아 입</w>
▁갈 망</w>
▁가로 축</w>
▁가 르</w>
▁r pm</w>
▁U CC</w>
▁SC MP</w>
▁R OS</w>
▁PT H</w>
▁PC I</w>
▁P X
▁OL S</w>
▁O UT</w>
▁LS M</w>
▁LA DA</w>
▁IP F</w>
▁I T
▁HA IC</w>
▁C B
▁AP EC</w>
▁27 2</w>
as s
an k</w>
C LC</w>
1 03</w>
활 물질</w>
혜 선</w>
헬 스</w>
향 서</w>
행 량</w>
해 운</w>
해 소</w>
플라 스틱</w>
플라 스마</w>
플 래
페 스트</w>
파 울루</w>
특별 회계</w>
토론 회</w>
토 르</w>
터 빈</w>
타 령</w>
취 급</w>
추 계</w>
초 음파</w>
진 흥
정 제</w>
장 증</w>
자 책점</w>
자 성</w>
임 금법</w>
인 계</w>
이지 리아</w>
유 업</w>
욕 주</w>
완 료</w>
올 라</w>
영 사관</w>
였음 에도</w>
여 져</w>
여 곡
여곡 절</w>
업 진</w>
어 붙</w>
안 일</w>
심 증</w>
실 과</w>
시 성</w>
스 센터</w>
수 품</w>
석 수</w>
서 야</w>
상 정</w>
산 망</w>
사 역</w>
사 물</w>
범 주</w>
범 식</w>
메 드</w>
만 감</w>
류 학</w>
론 병</w>
레 노이드</w>
렁 크</w>
라 당</w>
디 지털</w>
녹 화</w>
내 렸</w>
근 육</w>
그래 프</w>
규 격</w>
구 인</w>
구 분</w>
관 서</w>
고 편</w>
▁히 스
▁흡 광도</w>
▁흔 드</w>
▁홍 콩
▁행 인</w>
▁한 식당</w>
▁플라 크</w>
▁프리 프</w>
▁프로파 일링</w>
▁파고 들</w>
▁트 렁크</w>
▁택 한</w>
▁킬 킬</w>
▁키 운</w>
▁클 린
▁크 론병</w>
▁케 케</w>
▁카 바
▁출 발
▁추 리</w>
▁최저 치</w>
▁최고 점</w>
▁총 경</w>
▁청 하</w>
▁찍 힌</w>
▁질 주</w>
▁질 산</w>
▁진동 판</w>
▁지 주사</w>
▁준 결
▁주어 질</w>
▁종 영</w>
▁제 설</w>
▁정 돈</w>
▁점 성</w>
▁전 소</w>
▁전 과</w>
▁장 려금</w>
▁잔 혹</w>
▁자 화</w>
▁자 태</w>
▁입 단</w>
▁임시 회</w>
▁일 조
▁일 식</w>
▁인 양</w>
▁이끌 어냈</w>
▁이강 인</w>
▁이 창
▁이 변</w>
▁음 색</w>
▁우 여곡절</w>
▁우 뚝</w>
▁우 도</w>
▁용 의</w>
▁오 름
▁오 락
▁예 고편</w>
▁영 국인</w>
▁열 전도도</w>
▁연 천군</w>
▁연 례</w>
▁에이 전시</w>
▁에 이즈</w>
▁약 침</w>
▁앰 프</w>
▁앤 드
▁앞 섰</w>
▁알 코올
▁안전 장치</w>
▁아 미</w>
▁아 디</w>
▁심 플</w>
▁심 리
▁실 체법</w>
▁시험 편</w>
▁시뮬 레이터</w>
▁슬 리브</w>
▁수료 증</w>
▁수 직선</w>
▁속 상
▁소 질</w>
▁설 시</w>
▁서 한</w>
▁서 리</w>
▁샤 이니</w>
▁색 인</w>
▁상 징
▁살 림</w>
▁산 악</w>
▁사용 법</w>
▁사 구체</w>
▁블라디 보스토크</w>
▁분 극</w>
▁부 제</w>
▁복원 력</w>
▁병 인</w>
▁변 한</w>
▁변 색</w>
▁변 기</w>
▁베 어스</w>
▁번호 판</w>
▁밸 류</w>
▁바 꾼
▁문 인</w>
▁묵 직</w>
▁무더 운</w>
▁몸 값</w>
▁모차 르트</w>
▁멀티 플렉서</w>
▁매 너</w>
▁마 그</w>
▁루 터</w>
▁로 열
▁레 슨</w>
▁레 몬</w>
▁두꺼 워</w>
▁동 방</w>
▁동 문</w>
▁돌아 섰</w>
▁도 말</w>
▁데려 가</w>
▁담 뱃
▁다 툴</w>
▁다 각화</w>
▁누리 집</w>
▁누 비</w>
▁녹 취</w>
▁노 후화</w>
▁노 고</w>
▁내 부자</w>
▁내 보내</w>
▁내 국인</w>
▁나 이트</w>
▁나 이지리아</w>
▁끝 냈</w>
▁김학 범</w>
▁근 적외선</w>
▁그 토록</w>
▁그 물</w>
▁귀 납</w>
▁궁 궐</w>
▁구 르</w>
▁교육 법</w>
▁관측 자</w>
▁과실 범</w>
▁과대 평가</w>
▁공 여</w>
▁공 민</w>
▁고 추장</w>
▁고 상</w>
▁계 산서</w>
▁계 명</w>
▁경 지</w>
▁결 점</w>
▁결 산서</w>
▁강 인</w>
▁강 물</w>
▁강 단</w>
▁감 행</w>
▁가 지
▁u p</w>
▁p yl
▁m mol</w>
▁i m
▁b l
▁b ar</w>
▁UE FA</w>
▁T M
▁SB RT</w>
▁R OC</w>
▁P ear
▁P SA</w>
▁NO x</w>
▁N D
▁M A</w>
▁Ig M</w>
▁I BD</w>
▁EX O</w>
▁CA S</w>
▁BRA F
▁B N</w>
▁AU C</w>
▁AN OVA</w>
▁A W
▁A O
▁9 11</w>
▁6 22</w>
▁4 06</w>
ul l</w>
il ity</w>
al ity</w>
S FET</w>
I CC</w>
C H
9 000</w>
5 30</w>
혼 자</w>
피 크</w>
폭 부</w>
포 털</w>
파 장</w>
키 트</w>
클 래스</w>
큐 어</w>
출 신</w>
진 자</w>
정 착</w>
정 우</w>
정 상
정 고시</w>
점 가</w>
적 격</w>
재판 부</w>
일 드</w>
응 급</w>
위 임</w>
원 증</w>
오 니</w>
영 업자</w>
아 트홀</w>
십 자사</w>
신 주</w>
신 라</w>
시 픽</w>
수 면</w>
수 교</w>
소 진</w>
선 미</w>
상 회</w>
브리 핑</w>
불 능</w>
분 담</w>
베이 거스</w>
반 장</w>
머 신</w>
매 물</w>
매 니
로 미터</w>
렷 이</w>
려 졌</w>
러 진</w>
둥 성</w>
놀 이터</w>
기 업인</w>
글리세 리드</w>
국 해</w>
광역 시장</w>
갱 이</w>
▁흠 결</w>
▁흐 른</w>
▁휘 두
▁훔 쳐</w>
▁후 폭풍</w>
▁후 대</w>
▁후 견인</w>
▁홍콩 인</w>
▁형 국</w>
▁혈 종</w>
▁현 관</w>
▁헤 어지</w>
▁향 할</w>
▁함 성</w>
▁할 로
▁한나 라당</w>
▁한 한다</w>
▁한 숨</w>
▁프로토 타입</w>
▁펴 낸</w>
▁페 리</w>
▁판 막</w>
▁파 킨
▁통 칭</w>
▁텐 센트</w>
▁터 트
▁터 무
▁탄성 력</w>
▁타이 거즈</w>
▁타 면</w>
▁킬 러</w>
▁클 로</w>
▁클 레
▁카 라
▁치 부</w>
▁추 모
▁초 선</w>
▁초 급</w>
▁체 면</w>
▁철 원</w>
▁진 해</w>
▁지중 해</w>
▁지그 재
▁지구 촌</w>
▁중 독자</w>
▁준 법</w>
▁좌 상</w>
▁좌 굴</w>
▁조선 소</w>
▁조 밀</w>
▁제 니</w>
▁정 합성</w>
▁전달 식</w>
▁전 동기</w>
▁재 조명</w>
▁장 영
▁자 민</w>
▁잊 혀
▁일 손</w>
▁인 영</w>
▁인 데</w>
▁이동 도</w>
▁이 러
▁이 국</w>
▁음 란</w>
▁웅 장</w>
▁웃 돌</w>
▁와 치</w>
▁올 리
▁연 유</w>
▁연 꽃</w>
▁여 드름</w>
▁에 릭
▁얼 어붙</w>
▁어떤 지</w>
▁어느 새</w>
▁어 미</w>
▁어 기</w>
▁앞 부분</w>
▁안 겼</w>
▁씹 씹</w>
▁쓰러 졌</w>
▁쌓 았</w>
▁신 세</w>
▁식 전</w>
▁승 패</w>
▁스톡 옵션</w>
▁스 노
▁숙 의</w>
▁수 석
▁수 발</w>
▁솔 레노이드</w>
▁소 니</w>
▁세 세</w>
▁세 리</w>
▁섬 기</w>
▁선 인장</w>
▁생 육</w>
▁생 식기</w>
▁상 영관</w>
▁사회 관</w>
▁사명 감</w>
▁비교 법</w>
▁북 유럽</w>
▁보 조제</w>
▁법 문</w>
▁버 릴</w>
▁백남 준</w>
▁배 역</w>
▁방 중</w>
▁발맞 춰</w>
▁발 하</w>
▁박 인
▁바 빴</w>
▁바 구니</w>
▁미 인</w>
▁미 분양</w>
▁묻 혀</w>
▁무 허가</w>
▁멈 출</w>
▁머 스크</w>
▁망 상</w>
▁만 능</w>
▁마 르</w>
▁마 늘</w>
▁리 허설</w>
▁라이 언</w>
▁라스 베이거스</w>
▁뛸 뛸</w>
▁드레 싱</w>
▁독 주</w>
▁대륙 법</w>
▁대 수학</w>
▁대 류</w>
▁다 자</w>
▁뉴 욕주</w>
▁눈부 신</w>
▁노 랫
▁냉 난방</w>
▁내려 지</w>
▁내려 갈</w>
▁끓 끓</w>
▁김 구</w>
▁기회 비용</w>
▁기념 비</w>
▁그 린다</w>
▁그 레이
▁구 장</w>
▁교 우</w>
▁공 교</w>
▁걸 러</w>
▁건설 업자</w>
▁거 침
▁거 창</w>
▁갖춰 야</w>
▁감 독
▁가르 쳤</w>
▁가 창
▁가 감</w>
▁m M</w>
▁d is
▁T LR</w>
▁PP I</w>
▁IL O</w>
▁E d
▁D is
▁BRAF V</w>
▁B K
▁A d
▁A LP</w>
▁7 80</w>
▁5 24</w>
▁5 23</w>
▁3 34</w>
▁19 4</w>
▁19 49</w>
w t</w>
oo d</w>
b ps</w>
as t</w>
핵 심</w>
해 능</w>
학 제</w>
학 연</w>
하 락</w>
푯 값</w>
폴 리
토 니
태 우</w>
치 이</w>
촉 식</w>
천 수</w>
지 만은</w>
주 머니</w>
일 본</w>
의 선</w>
운 송
우 치</w>
올 림</w>
오 류</w>
어린 이</w>
아미 노
실 금</w>
신 구</w>
슬 란드</w>
스 톡</w>
스 위치</w>
숨 에</w>
수 현</w>
수 욕장</w>
성 형
서 쪽</w>
샤 인</w>
산 림</w>
뷰 티</w>
봅 니다</w>
보 라</w>
버 깅</w>
방 기</w>
반 원</w>
메 니
메 가</w>
린 다면</w>
리 자</w>
등 식</w>
드 로
드 게임</w>
두 보</w>
도 면</w>
담 자</w>
기념 일</w>
기 공</w>
교 제</w>
곡 점</w>
▁허 물</w>
▁학 령</w>
▁하 층</w>
▁필로 폰</w>
▁피츠 버그</w>
▁프랑스 어</w>
▁풍 풍</w>
▁팔 찌</w>
▁팔 꿈치</w>
▁특 단</w>
▁트 레이스</w>
▁통 폐합</w>
▁텐 서</w>
▁터 진</w>
▁케 이지</w>
▁캘 리</w>
▁칭 하</w>
▁치 를</w>
▁측 면도</w>
▁추 돌</w>
▁초 속</w>
▁천 둥</w>
▁창 조성</w>
▁찬 스</w>
▁지그재 그</w>
▁지 치</w>
▁지 부</w>
▁중 고
▁좌 안</w>
▁조세 범</w>
▁조 수석</w>
▁조 산</w>
▁제주 항공</w>
▁제 삼
▁접촉 각</w>
▁접 전</w>
▁절 편</w>
▁전 등</w>
▁적 응력</w>
▁재 결</w>
▁장 교</w>
▁잇 몸</w>
▁입 항</w>
▁인터 렉션</w>
▁인 멸</w>
▁이뤄지 기</w>
▁이 유로</w>
▁유 아기</w>
▁유 대감</w>
▁윗 선</w>
▁워 치</w>
▁외 식업</w>
▁온 난</w>
▁연극 제</w>
▁엄 지</w>
▁어려 서</w>
▁어느 덧</w>
▁어 땠</w>
▁앰 앰</w>
▁앞 바다</w>
▁아이 슬란드</w>
▁아 티</w>
▁심 석희</w>
▁싫어 하</w>
▁실 선</w>
▁식 음료</w>
▁식 견</w>
▁시 클</w>
▁시 체</w>
▁스 팟</w>
▁수입 액</w>
▁소비 세</w>
▁세 워져</w>
▁성 적표</w>
▁선 글라스</w>
▁서 브
▁서 대문</w>
▁상 환
▁사법 연수원</w>
▁사 춘기</w>
▁빗 방울</w>
▁빌 라</w>
▁빈 자리</w>
▁비 화</w>
▁비 춰
▁비 석</w>
▁브 랜
▁브 라이
▁부 두</w>
▁변 명</w>
▁베 개</w>
▁버 금
▁배 차</w>
▁배 급사</w>
▁방사 상</w>
▁방 조
▁발 췌</w>
▁반 격</w>
▁박용 진</w>
▁박남 춘</w>
▁바 래요</w>
▁미 덕</w>
▁므 누
▁뮬 러</w>
▁물 동량</w>
▁무 고</w>
▁몬 몬</w>
▁면 역학</w>
▁면 서도</w>
▁머 머</w>
▁매 설</w>
▁맡 겼</w>
▁맞 이해</w>
▁마 운</w>
▁떠 안</w>
▁디 버깅</w>
▁들어 선다</w>
▁되새 기</w>
▁되돌 릴</w>
▁동 방
▁도 리</w>
▁대 용</w>
▁단 숨에</w>
▁다 단</w>
▁니 들</w>
▁능 선</w>
▁뇌 사</w>
▁녹 색
▁노 릇</w>
▁넘어 갈</w>
▁너 트</w>
▁내 화성</w>
▁낭 포</w>
▁김현 수</w>
▁급 상승</w>
▁근 육
▁근 무지</w>
▁구 하라</w>
▁교통 비</w>
▁교 권</w>
▁광 양시</w>
▁관람 료</w>
▁경 의선</w>
▁거 행</w>
▁강 탈</w>
▁감가상 각</w>
▁감 지기</w>
▁가속 도계</w>
▁가 출</w>
▁가 창</w>
▁d i
▁S MS</w>
▁S H</w>
▁RA I</w>
▁R V</w>
▁R R</w>
▁PV DF</w>
▁PD L</w>
▁MT B</w>
▁MI CE</w>
▁M DR</w>
▁L I</w>
▁L D</w>
▁K S
▁G PU</w>
▁F M</w>
▁F L</w>
▁E P</w>
▁C TD</w>
▁A s
▁6 80</w>
▁37 1</w>
▁3 4
▁13 40</w>
u le</w>
os is</w>
lo b
it ion</w>
ig n
i x
a g</w>
3 20</w>
확 충</w>
허 용</w>
합 격</w>
폴 리</w>
포 기</w>
폐 수</w>
펠 라</w>
파 스</w>
테 이블</w>
탄 성</w>
키 아</w>
콜 레스테롤</w>
컴퓨 터</w>
치 도</w>
체 포</w>
천 사</w>
진 세</w>
지도 안</w>
조 표</w>
져 도</w>
재 편</w>
작 정</w>
자 비</w>
인 민</w>
이 력</w>
은 희</w>
유 해</w>
유 관</w>
원 역</w>
워 지</w>
예술 제</w>
여 행
압 선</w>
알데 히드</w>
악 대</w>
아 서요</w>
신 장</w>
식 이</w>
시 인</w>
시 술</w>
습 법</w>
스 파</w>
수 진</w>
수 조</w>
손 가락</w>
소 영</w>
사 시</w>
사 광</w>
빈 곤</w>
비 즈니스</w>
비 자</w>
부 업</w>
보험 가액</w>
번 스</w>
버 려</w>
박 사</w>
밀 착</w>
미 법</w>
무 서</w>
모 레</w>
매 기</w>
매 각</w>
망 주</w>
만 료</w>
마 늄</w>
리 니</w>
로 잡
렁 이</w>
래 치</w>
동 진</w>
도 리</w>
대 위</w>
단 말</w>
넥 트</w>
내 성</w>
군 다나</w>
군 기지</w>
교 차</w>
골 목</w>
검 색</w>
▁힉 스</w>
▁흥 미
▁흠 흠</w>
▁효 성</w>
▁협 력체</w>
▁현 업</w>
▁헬 리
▁향 교</w>
▁합 성물</w>
▁플 립플롭</w>
▁프 런트</w>
▁프 란
▁포 물선</w>
▁폐 교</w>
▁펌 핑</w>
▁퍼 진</w>
▁퍼 스트</w>
▁틀 렸</w>
▁텍 스처</w>
▁태 생</w>
▁콩 쿠르</w>
▁콜 로이드</w>
▁캔 버스</w>
▁초 고
▁채무 조정</w>
▁찾아 냈</w>
▁창 업주</w>
▁집 안일</w>
▁직 조</w>
▁지 질
▁증권 가</w>
▁주 사위</w>
▁제삼 자</w>
▁정 박</w>
▁정 면도</w>
▁정 기
▁점 주</w>
▁절 벽</w>
▁전 셋
▁적 금</w>
▁재 수술</w>
▁작 별</w>
▁자 립생활</w>
▁잇따 른</w>
▁임차 료</w>
▁임 펠러</w>
▁이정 미</w>
▁유 니</w>
▁원 망</w>
▁우 루
▁외 재</w>
▁왠 지</w>
▁왕 래</w>
▁옮겨 져</w>
▁연 대
▁어울 릴</w>
▁양도 담보</w>
▁약 재</w>
▁야 구
▁앞세 운</w>
▁알아 본다</w>
▁안 장</w>
▁아세 틸</w>
▁실리 사이드</w>
▁신 사업</w>
▁신 명</w>
▁슬 퍼
▁스 플리터</w>
▁수 프</w>
▁수 다</w>
▁소식 지</w>
▁세 븐</w>
▁선발 투수</w>
▁서 독</w>
▁생태 학</w>
▁생각 건대</w>
▁삽 화</w>
▁삼 촌</w>
▁산 포</w>
▁사 죄</w>
▁뺄 셈</w>
▁불가 역</w>
▁불 이익</w>
▁뵙 뵙</w>
▁봉 안</w>
▁보 수
▁보 고회</w>
▁변 곡점</w>
▁범 람</w>
▁백 분</w>
▁방송 법</w>
▁바 비
▁미 공개</w>
▁므누 신</w>
▁무 난</w>
▁몹 시</w>
▁모 텔</w>
▁매 콤</w>
▁마스 킹</w>
▁라이 센스</w>
▁따라 오</w>
▁딜 레이</w>
▁들 렸</w>
▁드 라이</w>
▁동창 리</w>
▁동 축</w>
▁동 메달</w>
▁독일 어</w>
▁도 립</w>
▁더 군다나</w>
▁대 명사</w>
▁단 선</w>
▁단 둥</w>
▁다가 갈</w>
▁넘나 드</w>
▁나눠 서</w>
▁기념 관</w>
▁기 장군</w>
▁기 약</w>
▁기 능
▁글 로
▁그 라</w>
▁규 규</w>
▁국 보</w>
▁관 능기</w>
▁과학 고</w>
▁공인 회계사</w>
▁공 과</w>
▁고 덕</w>
▁경 시</w>
▁경 사각</w>
▁겹 쳐
▁결 원</w>
▁게르 마늄</w>
▁거래 세</w>
▁감 세</w>
▁감 격</w>
▁간 동맥</w>
▁가 교제</w>
▁pyl ori</w>
▁o p
▁SS L</w>
▁S R
▁NS CLC</w>
▁Lik ert</w>
▁L e
▁KNH ANES</w>
▁IC BM</w>
▁G W
▁G FR</w>
▁EL ISA</w>
▁D G
▁AM PK</w>
▁6 14</w>
▁28 2</w>
▁11 50</w>
▁11 01</w>
o vir</w>
it h</w>
il d</w>
en s</w>
at ive</w>
5 10</w>
해 군</w>
항 공기</w>
프리 미
포 저</w>
포 성</w>
포 던스</w>
특 권</w>
트 레</w>
터 블</w>
태 아</w>
태 경</w>
타 주</w>
클 라
쾌 감</w>
카르 트</w>
침 입</w>
치 대</w>
책 위</w>
참 사</w>
진 수</w>
진 력</w>
지 안</w>
중 근</w>
조 연설</w>
인 플
유 학</w>
유 보</w>
유 국</w>
업 료</w>
알라 룸
알라룸 푸르</w>
심 판원</w>
스테 인</w>
수 분</w>
성 장률</w>
선 임</w>
서 전</w>
서 스</w>
상 통</w>
산 액</w>
뱅 킹</w>
방 사</w>
밀 러</w>
무용 단</w>
맥 락</w>
리 가</w>
르 트
록 시</w>
령 죄</w>
레 딧</w>
라 늄</w>
동 지</w>
동 식</w>
달 리</w>
다 비</w>
극 제</w>
공 조</w>
공 연장</w>
공 무</w>
곡 히</w>
거 주</w>
▁희 극</w>
▁횡 령죄</w>
▁헤 테로</w>
▁해수 부</w>
▁해석 학</w>
▁합격 률</w>
▁하 체</w>
▁필 지</w>
▁피부 과</w>
▁폴리 아미드</w>
▁폐 포</w>
▁파라 핀</w>
▁파 마</w>
▁특 정인</w>
▁튜 닝</w>
▁투자 액</w>
▁퇴 직자</w>
▁통 전</w>
▁토 사</w>
▁텐 데요</w>
▁테러 리스트</w>
▁테 크</w>
▁탄 성체</w>
▁타 국</w>
▁퀄 리티</w>
▁쿠 르
▁쿠 데타</w>
▁코 디네이터</w>
▁캘 린더</w>
▁침 상</w>
▁친 형</w>
▁치 른다</w>
▁출 소</w>
▁출 범식</w>
▁축 전기</w>
▁추 진력</w>
▁추 인</w>
▁최종 훈</w>
▁청 크</w>
▁천 만</w>
▁쯤 쯤</w>
▁지나 간</w>
▁중 공사</w>
▁주 의의무</w>
▁종 부</w>
▁조 달
▁제 트</w>
▁점 거</w>
▁전시 실</w>
▁전 반기</w>
▁자산 관리</w>
▁입 상자</w>
▁임진 강</w>
▁일 회</w>
▁일 별</w>
▁인 신
▁인 선</w>
▁이뤄지 도록</w>
▁이루어 진다는</w>
▁이동 과</w>
▁이 희
▁이 현
▁이 글스</w>
▁의 석수</w>
▁의 미
▁음 모</w>
▁유승 민</w>
▁유니 버
▁유 증</w>
▁유 망주</w>
▁유 로
▁윗 부분</w>
▁윌리 엄</w>
▁웃 도</w>
▁우 크라</w>
▁요 한</w>
▁완 제품</w>
▁오 퍼
▁오 거
▁염 화
▁열 선</w>
▁연 사</w>
▁역 습</w>
▁여 긴다</w>
▁엑 셀</w>
▁어 포던스</w>
[...]
