#version: 0.2
▁t h
▁th e</w>
t i
▁. .</w>
e r
▁, ,</w>
i n
e n
e d</w>
▁o f</w>
o n
o n</w>
o r
n d</w>
a r
a n
▁a nd</w>
in g</w>
▁t o</w>
e r</w>
r o
e s
e c
a ti
e s</w>
i t
a t
a l</w>
i c
▁i n
▁i n</w>
o u
e a
i s
▁i s</w>
en t</w>
u r
o m
▁" "</w>
a l
o r</w>
▁T h
e l
ati on</w>
i l
▁- -</w>
t s</w>
▁th a
a c
e m
▁c on
o l
t r
▁Th e</w>
ti on</w>
e n</w>
v e</w>
s i
▁tha t</w>
a s</w>
▁p ro
e t
▁m a
▁w h
i r
u c
▁b e</w>
i g
u l
a s
l y</w>
▁f or</w>
c e</w>
▁r e
p l
u s
▁s t
r e
▁e x
a n</w>
i d
▁' '</w>
n g</w>
o s
▁a r
▁w it
▁a s</w>
▁c om
▁o n</w>
i m
er e</w>
u d
i s</w>
b l
▁w as</w>
f f
a g
a m
t ed</w>
▁wit h</w>
it y</w>
▁s h
▁i t</w>
t er
▁ma y</w>
▁b y</w>
o w
▁a c
e v
at e</w>
t h
▁ar e</w>
▁c h
o c
on s</w>
m ent</w>
▁h a
v er
▁r es
▁p r
d uc
o o
t h</w>
▁s u
ea s
c h
▁a l
t er</w>
▁a n</w>
o t</w>
p p
▁in c
▁I n</w>
f or
er s</w>
▁u n
d ing</w>
▁t r
▁d is
en ts</w>
i c</w>
at ed</w>
ti ng</w>
u t</w>
p er
ti c
i v
i n</w>
o d
u n
ur e</w>
ro m</w>
s t
▁u s
es s</w>
▁p er
▁b e
▁a n
u m
▁com p
▁f rom</w>
▁th e
ic e</w>
ro u
a y</w>
▁i m
▁a t</w>
▁o r</w>
▁n ot</w>
i al</w>
▁th is</w>
i z
e t</w>
u t
il l</w>
ig h
e ar
▁p ar
▁d i
▁) )</w>
▁( (</w>
bl e</w>
e p
e d
a p
i es</w>
on g</w>
ag e</w>
a y
▁p l
ou n
▁ha ve</w>
▁a d
on al</w>
▁K or
▁w ill</w>
an ce</w>
i ti
▁c an</w>
s t</w>
an g
i t</w>
▁e n
p ec
▁o n
i f
q u
es s
ic h</w>
▁h as</w>
p or
▁wh ich</w>
en ce</w>
▁r ec
o w</w>
▁n e
ar y</w>
l d</w>
r i
en t
for m
o p
u e</w>
o g
▁ac c
▁w ere</w>
▁w or
▁con t
e l</w>
▁f ir
d s</w>
▁r el
▁st ud
an t</w>
em ent</w>
▁I t</w>
▁a b
th er</w>
▁f or
ec t</w>
▁c l
d er</w>
a in
al l</w>
i d</w>
▁e m
o u</w>
l ud
l e</w>
or e</w>
pl e</w>
▁in t
▁d ev
▁s ec
e g
▁e l
g h</w>
▁t a
a d
o t
k e</w>
▁fir st</w>
▁t im
a r</w>
es t</w>
ou s</w>
ea r</w>
i on</w>
▁C h
▁inc lud
ou r
al ly</w>
▁y ou</w>
uc h</w>
si on</w>
▁wh o</w>
0 0</w>
▁in ter
i r</w>
▁in v
▁m an
s s
el y</w>
ti v
on g
ou ld</w>
et h
e a</w>
e m</w>
▁b ut</w>
▁e v
▁p re
ol l
ati ons</w>
▁a g
a b
k ing</w>
▁o r
om e</w>
f ter</w>
▁re g
▁in d
▁s a
ff ic
▁s tr
ou t</w>
c h</w>
in e</w>
o ver
a ble</w>
ig n
r es
a us
▁tim e</w>
b er</w>
r eas
▁s y
▁pr es
ti ve</w>
s o</w>
igh t</w>
▁th ere</w>
e e</w>
▁su b
as e</w>
ic al</w>
▁h ea
er m
an c
e en</w>
en c
▁Kor ea</w>
d er
▁al so</w>
ati ng</w>
▁com m
▁p o
ar g
an s
▁s uch</w>
i p
or ding</w>
▁be en</w>
e f
s e</w>
in g
▁b ec
rou gh</w>
▁pro v
▁f ac
▁2 0
e o
▁tha n</w>
am e</w>
er v
ec tion</w>
or s</w>
▁a pp
▁pro c
et w
ati onal</w>
ea n</w>
▁m ore</w>
i b
ar i
▁con s
▁s p
on d</w>
r a
▁o ther</w>
▁in s
▁th rough</w>
t y</w>
▁on e</w>
over n
▁tr ans
ec t
or y</w>
▁a t
ti ons</w>
▁A c
il l
▁I n
▁Th is</w>
o v
▁s c
ati ve</w>
u m</w>
i m</w>
iti es</w>
▁wh en</w>
▁m at
y e
ac e</w>
▁g en
▁inc reas
aus e</w>
a in</w>
en ti
en d
in ce</w>
etw een</w>
i e
id e</w>
▁ex p
▁s ign
▁b etween</w>
▁% %</w>
▁sy st
ac h</w>
i ed</w>
os e</w>
▁q u
▁p ol
form ation</w>
ic ation</w>
▁v ari
d e</w>
▁a fter</w>
o d</w>
os t</w>
▁d et
en tion</w>
▁f in
ff er
▁y ear</w>
▁comp an
▁sa id</w>
e e
k s</w>
▁d es
▁re f
a t</w>
ur r
u s</w>
tr y</w>
an d
▁c ar
▁the ir</w>
▁res ul
▁d ec
▁Kor ean</w>
il e</w>
▁s ch
il ity</w>
▁par tic
▁l i
▁m em
▁sec ond</w>
▁e ff
ro v
▁im p
▁o per
▁a p
t ure</w>
si s</w>
▁cont ro
▁in formation</w>
▁the y</w>
▁W h
▁s o</w>
a nd</w>
t u
al y
▁a m
▁s ur
al l
▁ab out</w>
es e</w>
▁i f</w>
▁sh ow
oo d</w>
▁su pp
▁l oc
▁pro duc
as t</w>
▁c ase</w>
▁for m
ec ted</w>
i tion</w>
▁f l
▁? ?</w>
▁gen er
ar d</w>
ig h</w>
▁syst em</w>
re e</w>
▁di ffer
▁e duc
▁o b
or t</w>
▁m od
en s
▁con f
n ing</w>
eo ple</w>
ow er</w>
▁A s</w>
in is
▁r ea
▁d ir
▁c or
ti c</w>
an s</w>
▁s pec
is t
u bl
▁h e</w>
▁per s
▁sh all</w>
▁g rou
▁s el
▁dev ice</w>
us t</w>
▁us ed</w>
▁p h
al s</w>
▁an aly
▁ch ang
at es</w>
▁d r
▁m ar
▁acc ording</w>
at a</w>
▁c oun
▁t w
▁g overn
▁on ly</w>
▁al l</w>
iz ed</w>
▁h igh</w>
▁l a
▁per form
▁p eople</w>
▁S e
▁e ach</w>
▁stud y</w>
t ur
y p
▁ad d
i l</w>
▁con c
oo l</w>
▁w e</w>
▁v al
▁d o</w>
▁bec ause</w>
u ng</w>
el l</w>
▁d ata</w>
▁20 1
ti n
▁n um
an g</w>
j ect</w>
▁t ea
▁m on
▁o p
▁/ /</w>
▁h is</w>
is h
▁wit h
as ed</w>
e y</w>
▁inv es
▁dev el
▁s erv
▁ap pl
ol og
▁m eth
al ity</w>
on om
on e</w>
l l
ar e</w>
i p</w>
enc y</w>
▁o ut</w>
▁tw o</w>
ul ar</w>
a bl
ou r</w>
▁int o</w>
ou s
i a</w>
▁g r
o b
▁p ubl
▁m ed
▁a ss
▁rec e
▁em b
▁un it</w>
▁p os
▁at t
▁p ati
▁d ep
▁l ev
▁re v
id ed</w>
▁ex per
▁K im</w>
▁f i
u n</w>
▁dis c
p on
e x
▁educ ation</w>
▁m e
it e</w>
▁c r
om m
▁b l
▁h el
▁i ts</w>
re at
▁ha d</w>
a v
ay s</w>
ye ong
ou nd</w>
▁n o</w>
▁sh ould</w>
▁d ue</w>
▁num ber</w>
erm in
▁pres ent</w>
ec tr
▁k n
e h
el l
▁re qu
u tion</w>
▁ac tiv
on s
ver s
▁s m
t ment</w>
ro p
t or</w>
▁ex am
ec ts</w>
at h
▁u p</w>
▁re por
▁devel op
ec h
▁emb od
▁us ing</w>
▁b ased</w>
▁s oc
▁p ur
▁com pl
a ir
▁embod im
ay er</w>
▁man ag
▁rel ated</w>
▁c re
▁o ut
it t
▁l ea
▁f oll
▁in f
▁c urr
▁F I
▁G yeong
▁vari ous</w>
▁ta x</w>
▁I f</w>
▁f un
eth er</w>
g an
em s</w>
ter n
o ve</w>
▁e c
iz e</w>
iz ation</w>
ur ing</w>
▁P ar
ear s</w>
▁Ac c
for e</w>
▁mar k
▁wh ere</w>
u al</w>
ter s</w>
if ic
arg e</w>
a il
▁v er
id ent</w>
▁U n
▁govern ment</w>
▁m eas
▁ex c
▁c o
▁includ ing</w>
▁s ame</w>
▁pre v
▁b o
▁sch ool</w>
os ed</w>
ent ly</w>
▁hea d</w>
▁f e
▁b us
▁re p
▁includ e</w>
▁proc ess</w>
▁S t
▁publ ic</w>
▁n ec
▁pro bl
▁s ol
re a</w>
ac t</w>
▁cl as
▁d e
▁us e</w>
ffic i
▁e st
▁r ate</w>
▁FI G</w>
▁ne w</w>
it ed</w>
▁a rea</w>
▁Th ere</w>
an t
▁loc al</w>
▁A r
▁un der</w>
ear ch</w>
▁meth od</w>
▁s e
▁con duc
tr uc
oo k</w>
▁lev el</w>
▁c oll
▁contro l</w>
ti m
▁po in
▁grou p</w>
▁W e</w>
ev er</w>
o on</w>
us tr
▁stud ents</w>
i ence</w>
at er</w>
▁ch ar
▁t yp
▁po si
▁el ectr
▁h igh
in ess</w>
▁1 0</w>
en d</w>
▁con si
▁pati ents</w>
▁nec ess
ac k</w>
por t
u ation</w>
▁partic ip
▁l ear
c ri
▁ec onom
v er</w>
iv ing</w>
▁compan ies</w>
is e</w>
et y</w>
▁comm un
ill ion</w>
▁foll ow
▁dis pl
▁l ayer</w>
▁supp ort</w>
▁or der</w>
ig n</w>
o o</w>
▁li ke</w>
h ip</w>
k ed</w>
▁w on</w>
▁d ef
g i</w>
u r</w>
▁pos si
▁y ears</w>
pl o
▁the m</w>
ech n
▁Wh en</w>
an n
▁ma de</w>
it s</w>
▁embodim ent</w>
oun t</w>
i ve</w>
▁inv ention</w>
▁d o
er r
▁r em
p ut</w>
▁or gan
▁g ro
tic al</w>
p r
er e
at ure</w>
if e</w>
▁c en
er g
1 0</w>
g h
ing s</w>
ic es</w>
ou l</w>
▁Gyeong gi</w>
▁necess ary</w>
▁val ue</w>
ud g
u l</w>
▁char ac
▁pro g
ow n</w>
▁j o
▁v is
▁m y</w>
▁con tr
y ing</w>
ar ed</w>
▁f r
▁b u
▁Se oul</w>
eas e</w>
ur es</w>
▁wor k</w>
▁N or
▁ex pec
▁res pon
▁m in
▁a s
▁d el
t ors</w>
▁ch il
il y</w>
▁c ap
r ea
▁P rov
▁analy sis</w>
a e</w>
▁man y</w>
in c
ti tu
tic s</w>
▁rel ati
en g
▁f il
▁compan y</w>
▁1 00</w>
▁resul ts</w>
▁oper ation</w>
▁un der
▁mark et</w>
ain ed</w>
▁mat er
ti g
▁re duc
▁i d
▁sign ific
▁p ower</w>
ie w</w>
▁ev en</w>
ti f
▁be ing</w>
ti es</w>
▁est abl
▁s im
▁o ver</w>
▁A l
ain ing</w>
▁im port
▁g u
2 0</w>
▁Ch in
▁c as
ou gh</w>
en ted</w>
▁im age</w>
e on</w>
▁m ost</w>
ffic ul
▁manag ement</w>
▁s ome</w>
a m</w>
▁al l
▁w ould</w>
▁t echn
▁di fficul
or d
▁resul t</w>
b ers</w>
▁Acc ording</w>
▁eff ect</w>
is ion</w>
ul ation</w>
is h</w>
i ous</w>
▁bus iness</w>
▁tea ch
▁C omm
▁b a
an ts</w>
▁consi der
▁us er</w>
c tion</w>
▁Nor th</w>
si c</w>
on ic</w>
▁pol ic
ir c
▁d ay</w>
▁p or
▁con n
▁th ree</w>
i ons</w>
▁p at
ea l
▁o c
▁differ ent</w>
iv ed</w>
▁st ar
ea s</w>
▁1 9
▁t reat
▁increas e</w>
▁w ell</w>
is t</w>
ut e</w>
is m</w>
anc ial</w>
p h
▁c ul
▁per i
▁d uring</w>
oc k</w>
ol d</w>
▁l ast</w>
▁par t</w>
o p</w>
f ace</w>
▁wh ile</w>
▁a ff
it al</w>
▁l im
in k</w>
▁Ac t</w>
▁oc c
ow ever</w>
▁con tin
tr ation</w>
▁v ol
olog y</w>
▁m ov
▁th ese</w>
▁l ife</w>
si ve</w>
r ap
▁inves tig
▁la w</w>
▁im pl
▁chang e</w>
▁requ ir
l u
tic le</w>
▁ev al
al e</w>
▁d em
▁form ed</w>
▁wh ether</w>
▁c irc
▁ex pl
▁N ational</w>
cri b
▁r ight</w>
▁e ar
▁pro f
ol e</w>
i or</w>
▁str uc
ra m</w>
▁res earch</w>
▁b el
▁ad m
▁h ous
▁treat ment</w>
ent al</w>
▁pro m
▁proc ess
▁i ss
u es</w>
er al</w>
▁sign al</w>
▁M inis
ti l
▁H owever</w>
▁pro t
▁soc ial</w>
▁displ ay</w>
og n
▁f ound</w>
itt ee</w>
ac h
▁y our</w>
ff ice</w>
il ities</w>
▁with out</w>
▁m e</w>
▁f am
is sion</w>
▁i ll
o ther</w>
▁peri od</w>
▁an n
▁r eas
▁t ot
▁em plo
▁ad v
d r
ab ility</w>
rou nd</w>
▁s it
▁develop ment</w>
▁con d
▁r is
▁serv ice</w>
▁m et
▁probl em</w>
▁charac ter
en ing</w>
▁p as
iv id
▁0 0</w>
▁hel d</w>
▁ma ke</w>
tur al</w>
ro duc
▁add ition</w>
g e</w>
▁import ant</w>
ish ed</w>
at us</w>
v ing</w>
▁dir ect
ati c</w>
▁h um
od y</w>
ti onal</w>
▁l eg
o si
▁o w
▁c ould</w>
▁be fore</w>
▁possi ble</w>
▁t em
▁e qu
▁tot al</w>
▁o ver
▁g o
i vers
▁L ee</w>
▁perform ance</w>
t ain</w>
n ess</w>
▁h er</w>
▁s ince</w>
el s</w>
ir on
▁F or</w>
▁c er
v iron
▁e nd</w>
oun c
▁exam ple</w>
▁an y</w>
▁hea l
▁g l
ag es</w>
▁dis p
l es</w>
ou th</w>
for m</w>
ad e</w>
▁curr ent</w>
us try</w>
ati s
▁c our
▁cas es</w>
ang e</w>
▁o ffic
▁dis tr
▁1 0
▁s l
f ac
▁t er
▁el ect
▁: :</w>
ti t
▁st ate</w>
▁typ e</w>
p s</w>
▁imp rov
▁fin ancial</w>
s el
▁l ow</w>
▁J ap
▁am ount</w>
▁st or
▁gro w
▁l ong</w>
j ects</w>
t om
o m</w>
▁ta ke</w>
▁ma in
▁inc ome</w>
▁S h
▁pers on</w>
▁G overn
▁ne ed</w>
▁Prov ince</w>
oc i
en s</w>
at or</w>
▁o ur</w>
▁mem bers</w>
▁s ens
▁elect ro
▁gener al</w>
▁trans m
enti al</w>
m ents</w>
▁expec ted</w>
ar d
in al</w>
a d</w>
▁ver y</w>
▁S u
▁G u</w>
ec tive</w>
i um</w>
▁high er</w>
▁sur face</w>
▁Ar ticle</w>
▁a u
▁h y
▁U U</w>
▁increas ed</w>
ep ar
▁stud ies</w>
▁prov ided</w>
▁s en
▁e t
▁g ood</w>
ath er</w>
▁l ight</w>
▁di ag
▁h ow</w>
▁lear ning</w>
▁character is
▁ab ove</w>
n er</w>
▁b i
▁O n</w>
▁l arge</w>
▁difficul t</w>
k ers</w>
▁with in</w>
▁analy z
▁wh at</w>
e ti
▁res id
in ed</w>
em ents</w>
▁pre p
▁econom ic</w>
e b
p tion</w>
▁E n
ul e</w>
e w
▁rea l
▁conf ir
▁fi el
▁g u</w>
▁s et</w>
e ts</w>
▁i t
▁c al
▁0 00</w>
▁ter m</w>
ic t</w>
▁follow ing</w>
▁s ev
▁rec ogn
ur ed</w>
▁rep res
▁w ay</w>
▁det ermin
▁me ans</w>
▁electr onic</w>
▁n o
▁m ul
▁en viron
ay ing</w>
▁f re
▁relati ons
t e</w>
▁e s
▁T r
▁1 3
ep t</w>
▁ind ustry</w>
▁sm all</w>
▁am ong</w>
igh ts</w>
n ed</w>
▁2 0</w>
▁sh e</w>
▁spec if
dr en</w>
iv er</w>
▁int roduc
▁sub s
▁b ody</w>
ir d</w>
▁cont ent</w>
▁ne g
▁l ower</w>
▁per c
▁activ ities</w>
all ed</w>
▁st e
e x</w>
iti onal</w>
▁poin t</w>
in ation</w>
▁b r
er c
▁w om
b ility</w>
▁n on</w>
y s
▁pre d
en ding</w>
▁partic ular</w>
▁polic y</w>
▁et c</w>
▁m ee
▁qu es
s es</w>
▁pl ace</w>
▁bu il
▁conduc ted</w>
▁adm inis
err ed</w>
▁st and
▁A m
▁dir ection</w>
▁th ink</w>
▁o pp
u it</w>
▁struc ture</w>
res sion</w>
▁under st
▁mater ial</w>
crib ed</w>
▁Chin a</w>
▁pro per
▁b ro
▁r et
ut ure</w>
▁prov ide</w>
▁inter n
ivers ity</w>
gh t</w>
j u</w>
or m
▁m ust</w>
▁P res
ess ed</w>
▁di d</w>
ea t</w>
▁r a
▁mem ber</w>
er ence</w>
at ely</w>
▁ind ivid
ou ng</w>
osi tion</w>
▁show n</w>
▁sh ar
▁ma j
▁au th
▁j udg
ie w
▁w ater</w>
in es</w>
▁do es</w>
v ely</w>
▁c aus
▁in put</w>
▁P ro
▁s er
▁disc us
▁perform ed</w>
▁1 1
m an</w>
▁e ver
▁t ermin
▁appl ied</w>
▁th ose</w>
▁o f
▁in st
end ed</w>
▁mod el</w>
u g
▁chil dren</w>
m m
or t
is ed</w>
▁ma in</w>
om p
▁wor ld</w>
▁H e</w>
tr ies</w>
g n
▁pur p
si de</w>
eh ic
▁d om
▁reg ion</w>
i ev
▁cor r
▁sub ject</w>
ic s</w>
an ding</w>
▁f uture</w>
▁A ss
▁inter est</w>
▁fun ction</w>
▁Par k</w>
▁l o
enc es</w>
▁3 0</w>
▁bo th</w>
▁v ehic
▁contro ll
▁spec ial</w>
eas t</w>
truc tion</w>
▁ne ed
▁commun ication</w>
▁relations hip</w>
▁cons um
▁pr ice</w>
▁A t</w>
▁p op
▁heal th</w>
▁th ird</w>
▁s ide</w>
▁characteris tics</w>
▁id enti
▁pro ject</w>
x t</w>
▁ne xt</w>
▁ris k</w>
▁g o</w>
▁for m</w>
▁cr im
ac k
▁exper ience</w>
▁cal c
or k</w>
▁w ee
▁a w
▁por tion</w>
▁” ”</w>
▁C on
ol it
▁pl an</w>
▁l ine</w>
▁sur v
at eg
anc es</w>
op e</w>
ic k
ti ce</w>
▁produc ts</w>
▁a ut
d ers</w>
▁show ed</w>
▁repor ted</w>
▁ref l
▁tea m</w>
▁rece ived</w>
▁confir m
od e</w>
▁tem per
▁d ays</w>
▁ins titu
▁Pres ident</w>
em ent
▁g et</w>
an k</w>
▁a round</w>
▁dec reas
ter n</w>
▁w ant</w>
▁m illion</w>
▁20 0
▁t est</w>
▁signific ant</w>
▁a ud
▁c ol
f ul</w>
▁s epar
▁E x
▁clas s</w>
olit an</w>
▁sel f</w>
rop olitan</w>
u ally</w>
tu al</w>
▁cor por
▁coun tries</w>
▁d iv
▁re al</w>
ter ed</w>
▁s us
e ign</w>
▁emplo y
ic ul
▁pro p
▁c oo
▁sit uation</w>
▁s al
▁s k
ou se</w>
▁pr ac
▁fac t</w>
▁comp ared</w>
i x
▁w r
▁sa f
▁J e
▁be h
▁an other</w>
▁mee ting</w>
▁Minis try</w>
▁fiel d</w>
▁coun try</w>
tiv ely</w>
▁f ur
▁kn ow</w>
▁differ ence</w>
en ds</w>
▁be g
▁Th at</w>
▁includ ed</w>
▁C en
▁ch ec
▁w e
▁A fter</w>
in t</w>
▁’ ’</w>
▁w in
▁n ow</w>
▁n ational</w>
▁c ann
por t</w>
▁la w
a k
▁wor ds</w>
l i
ati c
▁compl et
▁sc re
ur ance</w>
▁purp ose</w>
▁prov id
▁1 2
▁A n
▁l east</w>
i ver
s ed</w>
ec ting</w>
▁m uch</w>
▁grow th</w>
u ed</w>
▁trans f
ab or</w>
▁res pec
▁wom en</w>
▁cor res
e ed</w>
s s</w>
▁med ical</w>
▁pr iv
▁1 5
▁appl ication</w>
▁f oc
▁hum an</w>
m s</w>
▁In d
▁techn ology</w>
es ted</w>
▁o ffice</w>
on ed</w>
▁reg ul
▁e as
▁d am
▁inter v
▁s een</w>
▁cann ot</w>
rap h
▁temper ature</w>
▁cen ter</w>
▁h ist
▁pol ice</w>
▁conc er
▁“ “</w>
▁h os
th ough</w>
y m
▁1 4
▁distr ib
eh ol
ar ds</w>
▁r oo
▁specif ic</w>
▁M et
o l</w>
▁S ince</w>
▁s ize</w>
▁ar r
▁r ights</w>
▁c us
is ts</w>
it ted</w>
ain st</w>
▁im m
▁C ity</w>
▁P l
▁ill ustr
▁conf ig
at ory</w>
▁pro s
▁reas on</w>
▁fac tors</w>
▁ta x
▁mon th</w>
▁bec ome</w>
i an</w>
▁ev ent</w>
em ber</w>
en ed</w>
▁des ign
▁v iew</w>
▁posi tion</w>
▁s ing
▁t arg
▁s ee</w>
ay ed</w>
▁ag e</w>
▁termin al</w>
▁ad j
▁pl ur
▁eval uation</w>
ol s</w>
▁offic ial</w>
▁con v
▁ann ounc
▁jo b</w>
▁ex ec
▁a v
g g
tr ac
▁fur ther</w>
▁ind ic
▁ag ainst</w>
▁s uc
▁t our
▁Comm ittee</w>
v es</w>
▁j ust</w>
l ine</w>
▁qu ality</w>
▁consider ed</w>
ur al</w>
e o</w>
y c
es ts</w>
▁pr inc
a ve</w>
ous ly</w>
o sis</w>
▁soc i
is ting</w>
ur ity</w>
f ied</w>
▁ph ot
iti ons</w>
▁produc t</w>
ain s</w>
it er
a f
▁ar eas</w>
r u
▁M ar
▁S outh</w>
▁s w
▁ac h
d y</w>
▁me an
▁resid ents</w>
▁posi tive</w>
▁plur ality</w>
ere fore</w>
▁a ver
▁ob s
▁des cribed</w>
▁l ess</w>
▁fac ilities</w>
ch ed</w>
▁rece ive</w>
▁su mm
h ib
▁s om
▁c anc
our ce</w>
▁environ ment</w>
▁fam ily</w>
▁a ir</w>
▁ha nd</w>
i ol
▁par ty</w>
▁th en</w>
▁comp eti
erg y</w>
▁repor t</w>
▁mem ory</w>
th s</w>
ar m
▁ste p</w>
▁inves tment</w>
en sion</w>
▁electro de</w>
ch ing</w>
ar tment</w>
▁H y
▁ha ving</w>
sel f</w>
ut es</w>
▁maj or</w>
pp er</w>
▁sp ace</w>
▁Y ou</w>
▁out put</w>
▁app ar
▁c ity</w>
▁tim es</w>
▁show s</w>
▁prog ram</w>
▁ex ch
u b
▁f ri
d in
▁Par ty</w>
▁l ot</w>
▁ag re
ap e</w>
si ons</w>
a ir</w>
▁hea t</w>
▁investig ation</w>
▁sel ected</w>
o tion</w>
▁cus tom
er ation</w>
▁com b
▁sim il
▁b ur
s ing</w>
▁O r
▁2 00</w>
▁f ul
▁str eng
▁for eign</w>
air man</w>
▁r ati
▁aver age</w>
r ess</w>
▁fil m</w>
▁ex t
ac y</w>
▁grou ps</w>
▁th er
▁priv ate</w>
▁d ra
d ed</w>
▁coo per
▁vehic le</w>
ar t
ul ated</w>
og ether</w>
▁st age</w>
k es</w>
ea d</w>
or ity</w>
em b
til l</w>
ex t</w>
▁f ood</w>
▁fre qu
▁E v
▁ass oci
▁wor king</w>
▁ma king</w>
it h
▁t al
▁s em
▁suc c
▁chang es</w>
▁e r
▁confirm ed</w>
id d
▁pr ess
ot e</w>
▁d oc
olog ical</w>
▁respon se</w>
tr ate</w>
▁1 2</w>
il it
▁h ol
▁ch arge</w>
▁ind ustr
▁Th erefore</w>
▁teach ers</w>
ffici ent</w>
▁individ ual</w>
▁probl ems</w>
▁leg al</w>
es tic</w>
air s</w>
t ained</w>
▁b en
▁h ear
▁ret ur
▁c alled</w>
u sic</w>
▁h e
▁F ir
eg r
▁sens or</w>
▁ins urance</w>
ti l</w>
▁f our</w>
▁t ogether</w>
▁form er</w>
▁circ uit</w>
ea m</w>
▁Cen ter</w>
▁d on</w>
▁wor kers</w>
▁appar atus</w>
s hip</w>
iti z
▁a ble</w>
▁s till</w>
▁r ole</w>
▁ac qu
▁prev ious</w>
▁h ome</w>
▁corres pon
▁v iol
▁meas ures</w>
erm s</w>
▁ref erred</w>
▁establ ished</w>
en se</w>
v ed</w>
▁O n
ant ly</w>
▁inf lu
▁Met ropolitan</w>
em atic
iv es</w>
▁hel p</w>
er y</w>
e tic</w>
▁ba sic</w>
▁t ur
i als</w>
▁att ention</w>
▁Govern ment</w>
▁car e</w>
pl es</w>
▁conn ected</w>
▁c am
t ly</w>
▁p ay
ic ally</w>
id ence</w>
▁includ es</w>
▁dom estic</w>
g l
o ols</w>
ing ly</w>
▁l ef
ro ve</w>
▁t erms</w>
abl es</w>
▁gr ad
▁op in
▁cul ture</w>
▁t as
▁ow n</w>
▁ne w
▁Jap an</w>
▁c ost</w>
t age</w>
▁T o</w>
▁R es
▁ph ys
▁Un iversity</w>
iz ing</w>
em e</w>
og raph
▁su p
tern al</w>
in d</w>
▁con ver
o th
▁ob ject</w>
w on</w>
an ds</w>
▁simil ar</w>
▁a m</w>
c es</w>
▁su gg
iv en</w>
n am</w>
▁ear ly</w>
ch eon</w>
▁b illion</w>
▁requir ed</w>
en ess</w>
▁y oung</w>
▁lef t</w>
▁repres ent
il i
▁l abor</w>
▁sy m
▁o ld</w>
▁D is
ri ed</w>
e ong</w>
▁d eg
▁kn own</w>
▁es tim
▁c ou
▁o ffici
▁B us
ee p</w>
i ting</w>
ar t</w>
if ication</w>
▁princ i
3 0</w>
▁l oo
r am
a ke</w>
▁all ow
om es</w>
▁cond itions</w>
on t</w>
▁serv ices</w>
▁ag ain</w>
▁hos p
▁b ack</w>
▁r ul
▁fin d</w>
▁determin ed</w>
▁In s
▁ac tive</w>
un g
ut y</w>
▁pat tern</w>
▁de b
ep end
▁A n</w>
por ts</w>
f are</w>
▁ever y</w>
▁T able</w>
▁em erg
▁s atis
▁m usic</w>
a si
▁Al though</w>
▁m ob
▁In tern
ti r
▁1 10</w>
ic ations</w>
▁s am
▁cons truction</w>
et ter</w>
▁5 0</w>
▁c ell</w>
un d
emb ly</w>
▁u r
▁dis ease</w>
▁D o</w>
▁s aying</w>
▁beh av
▁l arg
▁w ir
ou ght</w>
el fare</w>
a p</w>
▁diag n
▁ex ternal</w>
▁en ergy</w>
e er</w>
▁pur s
▁eval u
ow l
▁b udg
▁tr aining</w>
▁ab s
▁S ec
▁saf ety</w>
▁p ast</w>
▁1 20</w>
▁1 1</w>
▁r o
▁en ter
▁med ia</w>
▁dr iving</w>
▁f ree</w>
u fac
▁vol tage</w>
▁roo m</w>
ti on
▁reg is
▁announc ed</w>
▁press ure</w>
oc r
▁supp ly</w>
▁pre f
▁ben ef
▁produc tion</w>
▁sup pl
▁requ est</w>
t i</w>
▁conc en
i ble</w>
▁imp rove</w>
▁t ou
▁sh ow</w>
▁m or
▁G ang
r essed</w>
▁1 8
idd le</w>
▁Ev en</w>
▁s et
owl ed
o or</w>
▁b at
od s</w>
ov er</w>
▁soci ety</w>
▁com e</w>
▁M an
▁man ufac
▁pred ic
▁n orm
▁F in
▁cl a
▁en c
▁pros ec
▁analyz ed</w>
▁proc ed
▁fi ve</w>
pp ing</w>
tr al</w>
▁v id
▁w as
▁E duc
▁organ iz
e an
ish ment</w>
an ese</w>
▁hous ing</w>
▁subs trate</w>
x im
▁d own</w>
▁pl ay</w>
al f</w>
▁pl an
▁pol i
▁n etw
▁un til</w>
▁su per
▁develop ed</w>
▁F or
ul ating</w>
▁st atus</w>
od ay</w>
▁S am
▁M oon</w>
w h
▁se ems</w>
▁1 5</w>
▁b ase</w>
e w</w>
▁g reat
r im
w ard</w>
▁obs erv
▁ha pp
our s</w>
▁U S</w>
▁tr ad
▁v o
in a
▁pati ent</w>
▁econom y</w>
al ization</w>
▁c ause</w>
ur ation</w>
▁or ig
▁Fir st</w>
▁r ad
▁comm on</w>
▁G w
r y</w>
▁s ite</w>
▁cont ents</w>
▁p er</w>
▁ex isting</w>
▁mon ths</w>
▁mod ule</w>
▁h im</w>
▁rati o</w>
▁sal es</w>
▁fr ont</w>
▁int egr
▁u pper</w>
▁supp or
▁A d
▁att ach
i qu
rap h</w>
ob al</w>
▁contr act</w>
▁hist ory</w>
▁disp osed</w>
ina fter</w>
ere inafter</w>
▁iss ue</w>
▁of f</w>
▁respon si
u ted</w>
n s</w>
▁r ather</w>
▁1 6
d ay</w>
ar ding</w>
en sive</w>
▁increas ing</w>
▁D a
▁s ource</w>
▁c os
▁ach iev
▁Educ ation</w>
▁C our
▁v iew
▁cul tural</w>
ell s</w>
▁eff ects</w>
▁h ours</w>
▁clas si
▁dec ision</w>
inc ial</w>
a il</w>
▁c ri
▁proper ty</w>
▁manufac tur
▁Jap anese</w>
et ary</w>
▁pay ment</w>
▁direct ly</w>
erm ine</w>
ord ingly</w>
▁targ et</w>
ect or</w>
▁T a
ed i
d en</w>
pp ed</w>
▁sing le</w>
in king</w>
▁ind epend
▁Chin ese</w>
▁stand ard</w>
▁b est</w>
n ers</w>
ement ary</w>
▁dis t
▁c itiz
d i
▁c ro
▁contin u
▁lim ited</w>
▁f ail
▁rec omm
▁go ing</w>
um p</w>
k er</w>
▁in j
k en</w>
▁m is
d ro
▁p ay</w>
▁n at
uc l
▁educ ational</w>
ens es</w>
▁Cour t</w>
al ized</w>
▁min im
▁C omp
▁fac tor</w>
▁add ed</w>
s an</w>
▁signific antly</w>
▁chang ed</w>
er ing</w>
▁impl em
ud e</w>
▁des ign</w>
ad em
▁ch arg
▁chec k</w>
▁v ir
▁s ay</w>
▁process or</w>
ie f</w>
ang u
▁al ong</w>
▁Th ese</w>
rop ri
▁Th ey</w>
it ting</w>
▁det ermine</w>
▁l os
▁m us
y ung</w>
ab ly</w>
▁mon ey</w>
▁correspon ding</w>
ess es</w>
▁ref erence</w>
▁p a
▁corpor ate</w>
▁sh ape</w>
▁r ange</w>
tiv ity</w>
▁exper i
▁fun c
en e</w>
▁en g
▁tr a
▁pr ec
▁dem and</w>
ter y</w>
▁h alf</w>
▁commun ity</w>
▁sch ools</w>
▁cour t</w>
o h
tr ative</w>
es si
▁scre en</w>
▁g as</w>
▁pres ented</w>
▁c iv
▁w ar
▁employ ment</w>
▁en tr
▁cre d
er n</w>
eas ed</w>
es tiv
▁controll er</w>
din ance</w>
owled ge</w>
▁offici als</w>
▁add itional</w>
▁mater ials</w>
▁app ro
▁p ap
▁cont act</w>
ac tion</w>
▁transf er</w>
on y</w>
▁n ame</w>
oun d
▁caus ed</w>
▁process ing</w>
▁mat h
▁conc ept</w>
▁Un ited</w>
ag raph</w>
it h</w>
▁wh y</w>
t en</w>
pr et
l ess</w>
ic ial</w>
▁mob ile</w>
rea dy</w>
▁acc oun
▁math ematic
▁m iddle</w>
er ed</w>
at ors</w>
▁sub jects</w>
k ely</w>
ay ers</w>
▁t oo</w>
▁comm ittee</w>
▁prev ent</w>
▁sub m
▁pl ac
▁contr ib
▁g ive</w>
▁cl in
▁budg et</w>
u k</w>
▁bl ock</w>
▁ar t</w>
▁Wh at</w>
▁fi x
▁rel ev
▁sh ort</w>
▁teach er</w>
▁val ues</w>
tin g
▁g ame</w>
▁occ urr
▁neg ative</w>
▁app ly</w>
▁poin ts</w>
▁per form</w>
▁gr eat</w>
▁foc us
▁rev eal
▁f u
t a
▁1 7
▁str ateg
▁J ae</w>
▁meth ods</w>
▁l ook</w>
tit ute</w>
▁al ready</w>
▁w id
▁w at
▁dep artment</w>
▁in iti
▁distrib ution</w>
▁star t</w>
▁ch ann
▁gl obal</w>
▁loc ated</w>
▁D ec
▁t op</w>
▁phys ical</w>
▁increas es</w>
▁illustr ating</w>
▁det ail
our ces</w>
▁activ ity</w>
▁direct or</w>
▁O ffice</w>
▁sec urity</w>
▁the ory</w>
▁cour se</w>
o f
▁J ung</w>
▁vari ables</w>
▁inter pret
▁vid eo</w>
▁Acc ordingly</w>
▁l angu
o in
▁mat ters</w>
▁h ere</w>
▁u p
▁pro jects</w>
or ing</w>
a u
▁p ic
ess or</w>
▁str ong</w>
▁res ol
▁tou ch</w>
▁m ess
▁ch o
▁s i
▁ab ility</w>
n ov
▁u s</w>
▁adj us
▁agre ement</w>
▁t oday</w>
▁relati vely</w>
▁identi f
▁typ es</w>
▁bro ad
tur es</w>
ilit ary</w>
▁fl ow</w>
on duc
ir ed</w>
▁Am ong</w>
▁netw ork</w>
▁exch ange</w>
ur y</w>
5 0</w>
▁lea d</w>
▁g iven</w>
▁l iving</w>
▁vis it</w>
en ting</w>
▁v ic
▁conn ection</w>
▁4 0</w>
▁o th
▁possi bility</w>
▁h and
▁wee k</w>
▁mul ti
e qu
e ong
▁& &</w>
▁kn owledge</w>
is ing</w>
▁princi ple</w>
▁k ey</w>
▁t ook</w>
▁sev eral</w>
▁institu tions</w>
y l
is es</w>
▁op en</w>
on d
▁pur ch
▁dam age</w>
▁Govern or</w>
pec tive</w>
or d</w>
▁diag ram</w>
▁ac tual</w>
▁A g
u ter</w>
ig ure</w>
▁reduc ed</w>
▁ins pec
▁del iver
▁comp on
▁f em
▁dec ided</w>
▁A si
▁cap ital</w>
▁relev ant</w>
▁op ening</w>
▁P ol
0 s</w>
▁H ere</w>
ie ve</w>
▁c ells</w>
ort un
▁comp ar
e al</w>
▁perc ent</w>
▁t re
▁Minis ter</w>
▁oper ating</w>
▁sy n
▁st ore</w>
▁sur g
▁pa id</w>
▁Ass embly</w>
▁buil ding</w>
▁app ear
▁embodim ents</w>
▁organ ization</w>
▁recogn ized</w>
▁r e</w>
▁pers on
▁E l
▁ta king</w>
▁h ard</w>
▁dep ending</w>
y n
el ess</w>
▁li kely</w>
▁we ight</w>
▁out side</w>
u p
▁e ffici
s w
▁ob tained</w>
if ied</w>
▁sc ale</w>
icul um</w>
▁st at
▁inv ol
▁Gw ang
u p</w>
▁need ed</w>
▁tr av
▁attach ed</w>
is ions</w>
i onal</w>
▁show ing</w>
▁o ff
▁En gl
▁introduc ed</w>
▁3 00</w>
▁regul ations</w>
▁shar ehol
ic onduc
▁stud ent</w>
▁C ons
▁app ropri
▁an g
▁surv ey</w>
▁exper im
t ain
▁intern ational</w>
em p
▁behav ior</w>
▁rece iving</w>
s on</w>
▁ex tr
am es</w>
▁canc er</w>
▁adminis trative</w>
▁pro por
ti s
▁div ided</w>
s ung</w>
▁int ell
▁st atis
▁exp enses</w>
▁represent ative</w>
▁r ot
▁follow s</w>
▁Or dinance</w>
at h</w>
▁h ereinafter</w>
estiv al</w>
ep tion</w>
▁bl ood</w>
▁b etter</w>
▁Bus an</w>
▁it ems</w>
ip s</w>
os ure</w>
▁underst and</w>
▁S erv
▁expl ained</w>
▁cer tain</w>
▁cooper ation</w>
ish ing</w>
o k
▁w ea
▁langu age</w>
▁1 3</w>
▁ar g
▁adminis tration</w>
▁stor age</w>
▁sem iconduc
▁c ame</w>
▁l in
p ar
▁un c
▁gener ated</w>
der ly</w>
▁gu id
i ation</w>
w ay</w>
▁curr iculum</w>
▁chil d</w>
th ing</w>
g en</w>
▁sub si
▁improv ement</w>
▁2 1
oo ds</w>
▁res ist
▁ful l</w>
▁fac e</w>
▁meas ured</w>
▁eff ective</w>
enc ed</w>
▁fir e</w>
▁tr ade</w>
w ays</w>
▁broad c
▁ac adem
▁on ce</w>
▁cre ate</w>
▁p an
▁w elfare</w>
▁sen se</w>
▁particip ate</w>
▁ba sis</w>
i o</w>
▁purs u
▁par ents</w>
or ed</w>
l ing</w>
for c
▁rev iew</w>
▁opp ortun
▁frequ ency</w>
▁gener ation</w>
▁rec ent</w>
ye ong</w>
▁pers onal</w>
▁W or
▁St ates</w>
▁b ra
i e</w>
▁Sam sung</w>
▁m ic
ul t
▁h ouse</w>
▁Pl ease</w>
▁m ilitary</w>
▁implem ented</w>
a z
▁vari able</w>
▁S ch
▁bl oc
▁b ea
en si
▁c ur
▁N ew</w>
▁sch ed
▁13 0</w>
▁st ock</w>
▁lev els</w>
ye es</w>
▁l og
o i</w>
▁em ph
▁A p
m ental</w>
▁ex erc
▁need s</w>
▁th ought</w>
o x
ap y</w>
▁mod e</w>
▁associ ated</w>
▁b rea
▁jo int</w>
um e</w>
y st
es sion</w>
▁met al</w>
▁R eg
fac tion</w>
A A</w>
▁influ ence</w>
▁deg ree</w>
ill s</w>
▁On e</w>
▁mean ing</w>
▁rel eased</w>
▁of ten</w>
▁sym p
▁med ium</w>
▁fin al</w>
e y
▁polic ies</w>
▁streng th
j o
▁meas ur
▁cap ac
▁bi g</w>
▁activ ely</w>
▁C ounc
ib r
p ir
ram s</w>
t b
▁respec tively</w>
▁improv ed</w>
▁reduc e</w>
▁o vers
▁el derly</w>
▁b as
▁oth ers</w>
▁d en
▁d ate</w>
▁in duc
ear ch
▁b ack
▁disc l
▁imp act</w>
▁reveal ed</w>
e ed
▁poli tical</w>
▁fe el</w>
▁u til
▁sus p
▁competi tion</w>
▁emplo yees</w>
▁citiz ens</w>
▁t ow
▁prep ar
e et</w>
▁Engl ish</w>
l and</w>
ul ar
▁prov ince</w>
▁exp ressed</w>
▁re pl
our th</w>
eg e</w>
▁pop ulation</w>
▁organiz ations</w>
in ary</w>
▁av o
▁rec ently</w>
▁comp ens
▁pres ident</w>
▁p ut</w>
▁pr ices</w>
eo k</w>
▁t ex
tic ally</w>
▁over all</w>
▁d ig
un e</w>
▁pl ans</w>
▁K R
e tr
▁bec ame</w>
▁particip ation</w>
▁W ith</w>
▁1 4</w>
▁o x
▁loc ation</w>
ro w</w>
enc ies</w>
▁exc lud
▁b oo
▁semiconduc tor</w>
▁nat ural</w>
4 0</w>
t en
ig ence</w>
▁l ed</w>
i ally</w>
▁comp et
▁industr ial</w>
▁dra w
▁G erm
▁ques tions</w>
▁mov ement</w>
▁trad itional</w>
u ment</w>
▁d ong</w>
▁in nov
▁prac tice</w>
all s</w>
▁per m
▁p ot
▁c and
▁sp eed</w>
▁it self</w>
▁b an
▁dis ch
or ts</w>
▁tr ial</w>
▁establ ish</w>
▁cos ts</w>
▁ques tion</w>
ec tions</w>
▁retur n</w>
▁iss ues</w>
▁en jo
ep t
ar s</w>
▁provid es</w>
▁f ar</w>
▁reduc tion</w>
▁N o</w>
▁def ined</w>
▁adv ant
▁b or
y ang</w>
▁eas y</w>
▁KR W</w>
▁fl ow
▁particip ants</w>
▁ma gn
ib er
▁pro b
▁ind ex</w>
▁acc ount</w>
▁i r
▁bel ow</w>
▁s ound</w>
▁h ope</w>
▁Counc il</w>
▁real ity</w>
anc ed</w>
▁D em
▁ma s
▁sh are</w>
▁l iver</w>
▁compl ex</w>
▁rem ov
▁an sw
as ter</w>
▁201 5</w>
▁app rov
an e</w>
▁satis faction</w>
▁dev ices</w>
▁A AA</w>
▁201 8</w>
▁aff airs</w>
▁l and</w>
et er</w>
▁intern al</w>
ul t</w>
▁clin ical</w>
▁en tir
▁ex hib
▁sp rea
▁c ar</w>
ab ilities</w>
e ting</w>
d ings</w>
▁pursu ant</w>
▁comp osition</w>
▁dir ect</w>
▁n ature</w>
▁cr iter
▁me et</w>
iqu e</w>
▁el ement</w>
▁r ap
t o
▁ag ency</w>
▁inf l
▁chann el</w>
▁prosec ution</w>
▁g re
▁star ted</w>
▁mess age</w>
▁l ater</w>
▁1 6</w>
ocr atic</w>
▁th ings</w>
▁cre ated</w>
i ent</w>
▁contin ue</w>
▁overs eas</w>
▁cond ition</w>
tr ic
op h
▁min utes</w>
▁In cheon</w>
▁ac t</w>
▁sel ection</w>
▁en d
▁in side</w>
▁govern ments</w>
▁F r
▁C or
it or</w>
▁prot ection</w>
is ted</w>
asi z
▁201 6</w>
▁E u
os ph
▁ill eg
▁cri tic
r icul
or ies</w>
on es</w>
▁pap er</w>
▁el ementary</w>
▁pr im
▁exp ression</w>
▁i s
▁bo ard</w>
▁as pec
ir e</w>
▁sam ple</w>
▁li ve</w>
▁par agraph</w>
a i</w>
a k</w>
▁crim inal</w>
it able</w>
ech an
▁ac tion</w>
um ents</w>
id es</w>
▁high est</w>
wh ile</w>
▁transm ission</w>
▁serv er</w>
un t
▁prom o
▁for ce</w>
▁devel op</w>
▁concen tration</w>
▁config uration</w>
▁beg an</w>
▁S pec
enti oned</w>
eng th</w>
▁r en
is l
▁bat tery</w>
▁19 9
▁underst anding</w>
▁cl os
▁appropri ate</w>
▁emph asiz
▁cen tral</w>
▁2 5</w>
▁Tr ump</w>
▁hosp ital</w>
▁cl ear</w>
▁sol ution</w>
▁ch airman</w>
▁e y
▁M ean
▁Ass oci
▁de ath</w>
a pp
▁wor ks</w>
itt le</w>
▁w age</w>
▁u l
▁complet ed</w>
▁dr am
▁res earch
▁reg ular</w>
▁e d
▁cam er
▁bec omes</w>
e ous</w>
el ing</w>
▁pan el</w>
▁Ch oi</w>
an y</w>
ail y</w>
▁ta ken</w>
▁cand id
▁Mean while</w>
ubl ic</w>
▁dist ance</w>
▁d er
▁Ch airman</w>
▁m ean</w>
▁prep ared</w>
o ti
▁conf l
▁aut om
▁main ly</w>
ul ate</w>
▁201 7</w>
▁aut onom
o s</w>
▁em o
r as
i er</w>
▁sec tor</w>
▁p ix
c ome</w>
▁r ates</w>
▁1 8</w>
▁ever y
it ors</w>
▁judg ment</w>
▁P r
▁v ac
▁s eas
▁m echan
▁al ways</w>
▁st ation</w>
▁6 0</w>
▁p en
▁no tif
ro w
▁norm al</w>
▁calc ulated</w>
▁orig inal</w>
▁col or</w>
ro r</w>
▁app oin
▁m ove</w>
▁car b
▁effici ency</w>
▁prof essi
pr eme</w>
▁w ent</w>
et es</w>
▁m ix
▁la un
▁c over</w>
▁aw ay</w>
ur s</w>
err ing</w>
▁b ook</w>
▁Th rough</w>
m a</w>
▁l ong
▁s ee
▁ma n</w>
▁H w
▁M y</w>
▁prog rams</w>
▁foll ow</w>
▁m oun
▁bur den</w>
▁s oon</w>
▁si x</w>
ch es</w>
▁decreas ed</w>
▁R ec
▁tour ism</w>
▁at trac
▁an y
▁p ea
▁s ex
▁Ins titute</w>
▁sc ore</w>
▁at tit
▁l ittle</w>
tr ict</w>
▁Associ ation</w>
▁observ ed</w>
s h
es ting</w>
▁fl u
▁lim it
▁los s</w>
▁n ur
▁g ate</w>
▁ev idence</w>
n el</w>
▁cer tif
▁consum ption</w>
▁un iversity</w>
▁go al</w>
▁opin ions</w>
▁measur ement</w>
▁B y</w>
in ing</w>
itt en</w>
ip ment</w>
▁arr ang
▁2 4</w>
u g</w>
▁sw it
▁reg ard
▁as ked</w>
▁C ul
▁ma xim
▁differ ences</w>
▁sec tion</w>
▁Serv ice</w>
n er
ef ul</w>
▁ra ised</w>
▁R ep
ic ate</w>
▁acc ur
tiv eness</w>
▁stand ards</w>
▁eas ily</w>
▁spec i
▁di ab
▁pl ate</w>
▁ins ulating</w>
ear ly</w>
▁d on
is c
▁corr el
ag ed</w>
▁fem ale</w>
▁crim e</w>
▁civ il</w>
▁cr is
▁entir e</w>
▁acc ident</w>
▁meas ure</w>
▁cons titu
▁car ried</w>
▁proced ure</w>
▁ph en
▁f ourth</w>
▁prom ote</w>
▁est ate</w>
▁ev ents</w>
ar ant
▁li qu
▁sub st
▁c at
an ti
▁s ent
▁res ources</w>
▁e ss
es t
▁p un
er ic
▁m ut
▁L a
▁vis ited</w>
▁tr end</w>
▁leg isl
as tic</w>
▁2 2
▁Th en</w>
▁pers pective</w>
▁curr ently</w>
re h
▁f ine</w>
▁cl ose</w>
▁conv en
ri ting</w>
▁car eer</w>
▁par ts</w>
u tive</w>
▁m o
▁s il
▁l ate</w>
▁M ay</w>
▁Su preme</w>
▁s ti
r d</w>
▁inst alled</w>
▁a ir
▁p ain</w>
▁decreas e</w>
▁exper ts</w>
▁cris is</w>
▁C E
▁pers ons</w>
▁c ateg
▁resist ance</w>
▁clas ses</w>
▁5 00</w>
▁ob j
▁F rom</w>
▁eff orts</w>
tu ally</w>
▁o bl
erc ial</w>
▁reg arding</w>
u sion</w>
ord ance</w>
and ed</w>
▁l at
▁w a
▁provid ing</w>
▁great er</w>
▁m entioned</w>
om ing</w>
▁fl oor</w>
▁d aily</w>
rou p</w>
g round</w>
▁pat h</w>
▁minim um</w>
ig g
▁p s
▁poin ted</w>
▁prov incial</w>
▁organ ic</w>
▁fun ds</w>
▁3 0
is on</w>
ul a</w>
▁sim ple</w>
▁int ention</w>
▁fix ed</w>
tiv es</w>
▁Eu rop
▁Am eric
ill ed</w>
us e</w>
t ro
am m
▁fac ility</w>
▁v ill
▁manufactur ing</w>
▁ma kes</w>
▁el ements</w>
▁establ ishment</w>
es is</w>
b y</w>
ens ity</w>
▁particip ated</w>
▁G en
em ony</w>
▁lim it</w>
▁Mar ch</w>
▁coll ege</w>
as s</w>
▁beg in
ver se</w>
▁vol unt
▁p ost</w>
ound ation</w>
ff er</w>
▁reg ional</w>
▁discus sion</w>
▁propor tion</w>
▁coll ected</w>
▁bus in
▁sharehol ders</w>
▁pop ular</w>
▁k in
▁H ong</w>
▁prep are</w>
▁B r
us tice</w>
▁academ ic</w>
▁b on
▁r un</w>
▁on line</w>
ob s</w>
▁exc ell
▁c ore</w>
▁Al l</w>
▁un f
eal th</w>
▁J ong</w>
▁fe w</w>
▁D ong</w>
▁l iter
▁l if
▁acc ordance</w>
▁imm edi
▁att emp
▁oper ated</w>
tom s</w>
t on</w>
▁H an
▁c all</w>
▁B l
▁us ers</w>
▁sp ea
▁func tions</w>
all ing</w>
▁l ack</w>
▁exerc ise</w>
C C</w>
▁pr em
pec ially</w>
▁wr itten</w>
▁m en</w>
▁Sch ool</w>
▁cla im
▁Y oung</w>
eas es</w>
ement ation</w>
▁reg ions</w>
▁st ory</w>
▁opin ion</w>
▁S ome</w>
▁h old</w>
▁inspec tion</w>
▁par ti
▁loo king</w>
forc ement</w>
▁el ection</w>
▁F igure</w>
▁cred it</w>
▁gu arant
l ed</w>
▁pas s
▁E m
▁qu ar
▁oper ate</w>
▁B ec
▁pr e</w>
▁multi ple</w>
▁Intern et</w>
l d
▁rea ction</w>
▁separ ate</w>
▁eff ec
▁S o</w>
per son</w>
▁stor ed</w>
▁par ties</w>
an ted</w>
as ting</w>
▁Dis trict</w>
id ity</w>
▁obl ig
▁l ow
▁camer a</w>
▁bel iev
i ously</w>
▁teach ing</w>
or ation</w>
▁neg oti
▁car d</w>
▁rul ing</w>
▁h om
▁exp an
as h
▁consider ing</w>
▁larg est</w>
▁s earch</w>
▁custom ers</w>
▁pref er
▁M ay
▁O f</w>
▁15 0</w>
truc ture</w>
▁pl ease</w>
r etary</w>
ar ies</w>
▁l ove</w>
p ond</w>
▁recogn ition</w>
▁coll ection</w>
▁av ail
▁hy dro
▁en h
▁fr ame</w>
▁occ ur</w>
▁sen si
▁al one</w>
▁exam ination</w>
▁h ole</w>
ag ing</w>
▁trav el</w>
▁mat ter</w>
▁gr ap
▁a f
is s
w an</w>
▁s end</w>
▁vol ume</w>
▁Wor ld</w>
iv al</w>
▁cer emony</w>
▁Intern ational</w>
▁2 3
on ally</w>
y ch
op ic</w>
▁g ap</w>
▁res tric
▁emerg ency</w>
▁2 1</w>
t able</w>
▁comp reh
▁1 9</w>
▁produc ed</w>
▁prop osed</w>
om en
▁d ou
▁j obs</w>
▁th ick
▁criter ia</w>
▁Bec ause</w>
▁p ul
▁displ ayed</w>
▁wir eless</w>
▁I s
it r
▁responsi bility</w>
▁dig ital</w>
▁prom otion</w>
▁ch em
b an</w>
▁Wh ile</w>
li ke</w>
iz es</w>
ed ly</w>
▁occurr ed</w>
▁O c
▁t om
▁at tr
▁ph ase</w>
▁m inis
▁auth or
▁foc us</w>
▁1 7</w>
ul ly</w>
▁lea ding</w>
der ing</w>
ul y</w>
t es</w>
▁y et</w>
▁tre ated</w>
▁b ir
▁independ ent</w>
▁adv ance</w>
▁w riting</w>
y le</w>
▁2 2</w>
id ents</w>
▁an ti</w>
t ory</w>
ic tion</w>
▁rev iew
▁diagn osis</w>
e u
▁respec t</w>
▁mor ning</w>
▁g oods</w>
▁expan sion</w>
▁enter pr
▁phen omen
▁g ot</w>
▁al tern
▁l ist</w>
▁s of
▁k ind</w>
▁su b</w>
▁Comm ission</w>
▁po or</w>
▁law s</w>
▁estim ated</w>
eth ing</w>
▁p i
▁equ ipment</w>
▁consider ation</w>
▁G roup</w>
on t
▁syst ems</w>
▁circ um
▁prof it</w>
▁ther apy</w>
▁th ough</w>
port ation</w>
▁th inking</w>
▁ser ies</w>
▁w ays</w>
e es</w>
▁cou pl
▁en ough</w>
ati ves</w>
▁compens ation</w>
▁Res earch</w>
▁B o
eh old</w>
▁Dem ocratic</w>
▁charac ter</w>
▁tr ust</w>
w are</w>
▁excell ent</w>
ro m
▁ref ers</w>
▁conduc t</w>
▁classi fied</w>
et ting</w>
ot t
▁S p
ta ur
▁ref r
▁hous ehol
▁H ow</w>
ic i
ati vely</w>
▁illeg al</w>
▁d ance</w>
▁pl at
▁benef its</w>
ac tions</w>
▁conduc tive</w>
▁c over
ar ily</w>
oc h
▁tr illion</w>
▁gr ade</w>
▁symp toms</w>
▁evalu ated</w>
▁dec l
▁tow ard</w>
os ite</w>
▁som ething</w>
▁d ow
▁S c
iti ve</w>
▁gu ide</w>
▁occ urs</w>
▁b al
id n</w>
▁reg ulation</w>
▁ar tif
▁contin ued</w>
▁surg ery</w>
▁C l
y u</w>
▁E c
▁sol ve</w>
▁lea der</w>
plo y
▁an ti
▁Je ju</w>
▁Ad m
air person</w>
▁w av
▁som e
▁h ep
os es</w>
▁o ri
▁d im
▁exp and</w>
em ed</w>
▁r un
▁l ength</w>
▁wh ole</w>
▁avail able</w>
▁a x
ent ation</w>
▁w al
▁ro ad</w>
▁r ou
▁tex tb
▁succ ess
▁con st
▁E ach</w>
us h
ea d
▁impl ementation</w>
▁plan ning</w>
▁n ucl
▁acc ess</w>
▁consum ers</w>
i ke</w>
▁busin esses</w>
ot el</w>
▁pot ential</w>
▁dis eases</w>
▁ma ss</w>
▁Gwang ju</w>
▁fl ex
▁househol ds</w>
ye on</w>
▁sex ual</w>
▁d u
▁an im
▁g ra
▁qu al
▁4 00</w>
▁14 0</w>
h er
▁sm o
▁rec over
▁Wh ere</w>
▁s ent</w>
▁o il</w>
▁l ines</w>
p ite</w>
▁environ mental</w>
▁prov isions</w>
ib eration</w>
▁1 st</w>
ot or</w>
▁n ear</w>
▁m ol
ul es</w>
▁m om
▁Ch o</w>
i el
at ures</w>
▁sp ac
▁rea c
▁seas on</w>
▁auth ority</w>
▁t um
▁res taur
▁ass ets</w>
▁M ed
oc ks</w>
▁sus pec
▁sprea d</w>
▁mov ing</w>
s c
as s
▁reas ons</w>
▁dow n
▁detail ed</w>
▁; ;</w>
▁l et</w>
▁a im
at s</w>
si ble</w>
▁ps ych
▁b us</w>
il ies</w>
▁b ank</w>
▁new s</w>
▁summ it</w>
▁sugg ested</w>
▁aud it</w>
▁vo ice</w>
▁strateg y</w>
▁wor k
▁opportun ity</w>
▁det ection</w>
us ed</w>
▁v e</w>
▁May or</w>
ol ic</w>
▁2 10</w>
▁d idn</w>
▁star ting</w>
▁n ight</w>
▁inter face</w>
▁hous ehold</w>
os al</w>
▁p ain
▁mathematic s</w>
▁co ol
▁J une</w>
ras tructure</w>
▁sh o
ri l</w>
in s
▁purch ase</w>
qu ar
▁streng th</w>
▁ins truc
▁set t
ff ic</w>
▁sti p
if t</w>
▁aff ect</w>
▁sc ope</w>
▁div ision</w>
▁integr ated</w>
▁tas k</w>
f t</w>
▁Ap ril</w>
▁industr ies</w>
▁gener ate</w>
▁introduc tion</w>
▁em itting</w>
▁appl ying</w>
y o</w>
▁e p
▁d one</w>
▁c yc
e um</w>
u als</w>
▁config ured</w>
▁sk ills</w>
▁r ise</w>
▁distr ict</w>
ond ary</w>
▁< <</w>
▁wee ks</w>
▁ta kes</w>
▁set ting</w>
▁Adm inis
▁d ust</w>
▁tr ue</w>
▁vir tual</w>
ec h</w>
▁cro ss</w>
li er</w>
▁rep e
▁dr ug</w>
▁import ance</w>
▁b ar
ag ement</w>
▁consi der</w>
▁Pol ice</w>
▁B ased</w>
▁hel p
▁follow ed</w>
▁rea d</w>
▁h ar
▁electr ic</w>
▁t ext</w>
▁cla im</w>
lu sion</w>
▁St ud
▁CE O</w>
▁s oo</w>
▁ob tain</w>
▁identi fied</w>
ic ity</w>
▁pl ayers</w>
▁high ly</w>
▁ex trac
▁d uty</w>
▁A b
l der</w>
e in</w>
▁h o</w>
▁R ef
th y</w>
▁fam ilies</w>
▁R us
ter ing</w>
▁rec ord</w>
or ds</w>
ic k</w>
m ing</w>
▁professi onal</w>
▁institu tion</w>
▁K ang</w>
ricul tural</w>
▁w ar</w>
▁classi f
▁analyz e</w>
ograph y</w>
▁c ities</w>
or gan
▁h yp
▁201 4</w>
end ent</w>
▁was te</w>
▁m ight</w>
▁diab etes</w>
en ue</w>
en tic
▁transm it</w>
▁att ended</w>
▁sec ure</w>
▁design ated</w>
ev el
▁b it</w>
▁s ized</w>
th ern</w>
i et
▁p ack
▁initi al</w>
ess ing</w>
cri ption</w>
▁mat ch</w>
▁J uly</w>
u ting</w>
abl ed</w>
▁str ess</w>
▁exch ang
▁correl ation</w>
▁thick ness</w>
▁ph one</w>
▁p ow
▁f arm
▁r an
i g</w>
▁manag er</w>
▁hosp it
▁attit ude</w>
l s</w>
▁tem por
▁ta ble</w>
ati on
▁H ealth</w>
▁real ly</w>
▁fil ter</w>
oc al</w>
▁opp osition</w>
▁f av
▁deb t</w>
is tic</w>
▁intell igence</w>
▁sk in</w>
▁l ives</w>
▁P re
e k</w>
▁trans portation</w>
▁comp r
u nd</w>
▁op ened</w>
▁prac tical</w>
vers y</w>
▁rev ised</w>
▁capac ity</w>
if y</w>
▁El ectr
ee ding</w>
▁un iver
▁k eep</w>
▁Rus si
tim e</w>
og en
▁e th
▁P er
▁mov ie</w>
▁contr ac
▁P h
▁Fin ancial</w>
▁D ong
▁s or
el t</w>
▁pix el</w>
▁doc uments</w>
▁l ect
▁+ +</w>
om s</w>
p ly</w>
tic les</w>
▁rea ding</w>
▁ass um
▁Ind ustr
es c
▁immedi ately</w>
▁deliver y</w>
▁P ublic</w>
▁7 0</w>
▁fri ends</w>
▁3 1
▁repl ac
▁pas sed</w>
am eter</w>
▁r ob
▁er ror</w>
▁sc ience</w>
in ate</w>
▁sec ondary</w>
ann ed</w>
▁s ports</w>
▁hy per
▁ac tually</w>
v en
▁chang ing</w>
▁carb on</w>
evel op
▁h er
▁Ec onom
▁occ up
▁cons ist
▁S ept
▁n ever</w>
▁m other</w>
▁Sept ember</w>
▁rel ations</w>
▁appro ach</w>
▁C urr
▁rel i
anc y</w>
▁2 6
▁wor d</w>
▁b ott
▁8 0</w>
▁comp uter</w>
om pl
▁th erm
▁tr y</w>
▁advant age</w>
▁Asi an</w>
▁ch am
▁en s
▁J an
▁over l
▁fe es</w>
▁2 3</w>
▁c op
m osph
▁cons ult
▁compon ent</w>
▁ag o</w>
▁M ost</w>
▁es pecially</w>
▁auth entic
▁interv iew</w>
▁hea v
▁artif icial</w>
▁ul tr
m e</w>
ol ution</w>
▁pr ior</w>
▁B ut</w>
▁A nd</w>
▁m ach
▁un its</w>
▁def in
▁h or
▁fail ure</w>
▁custom er</w>
▁at mosph
▁dr iver</w>
▁B a
▁exec ution</w>
▁f ans</w>
b o
▁sev ere</w>
k et</w>
▁innov ation</w>
▁im ages</w>
▁fri end
▁se qu
▁approv al</w>
▁3 1</w>
u tr
▁tra ffic</w>
▁proper ties</w>
▁person nel</w>
id ential</w>
▁it em</w>
▁th em
ting s</w>
▁grou nd</w>
u ary</w>
▁f estival</w>
▁2 nd</w>
os c
b r
▁prev ention</w>
▁difficul ties</w>
▁2 5
in ated</w>
▁coun c
b uk</w>
▁trans ist
▁ad ver
▁judg ed</w>
▁2 7
ific ally</w>
▁pic ture</w>
▁improv ing</w>
os ing</w>
▁sen ior</w>
▁min d</w>
▁su itable</w>
▁m et</w>
▁lear n</w>
▁contro versy</w>
▁dep th</w>
ri er</w>
▁grow ing</w>
▁gen der</w>
as c
▁hea d
▁Tr ans
et ermin
▁t ub
▁maxim um</w>
▁ch ief</w>
▁back ground</w>
▁I s</w>
▁regis tration</w>
▁hear t</w>
▁op tim
ur ities</w>
▁Jan uary</w>
▁D uring</w>
▁Cor por
▁fiel ds</w>
ur ch</w>
m ost</w>
▁b ri
t aining</w>
▁pl ayed</w>
▁trans action</w>
▁lo an</w>
▁mul ti</w>
▁win d
▁tax es</w>
▁appear ed</w>
▁B ank</w>
▁tr ied</w>
▁inter ests</w>
▁sens ing</w>
▁rad i
▁accoun ting</w>
am ic</w>
▁enjo y</w>
▁det ail</w>
▁comb ination</w>
▁y outh</w>
▁lea ve</w>
▁f ing
as t
▁m al
u b</w>
▁in ner</w>
▁pat tern
▁m in</w>
▁Dec ember</w>
▁super v
▁det ected</w>
id s</w>
▁v ia</w>
▁complet e</w>
der ed</w>
ro ss</w>
▁dem ons
▁sur ro
▁recomm ended</w>
▁invol ved</w>
▁expec t
▁cre ation</w>
▁f all</w>
▁discus sed</w>
▁confl ict</w>
▁A ff
ow ing</w>
▁gener ally</w>
▁perform ing</w>
▁D epar
▁direct ors</w>
▁H ouse</w>
▁sp r
▁add ress</w>
▁A ug
▁pol ym
▁t ell</w>
▁mean ing
▁op tical</w>
▁mic ro
▁long er</w>
▁main tain</w>
▁s qu
▁m en
e um
▁Sh in</w>
▁I C
in s</w>
▁reas on
▁pr in
sel ves</w>
af f</w>
▁l ost</w>
▁ang le</w>
▁_ _</w>
ting u
n ey</w>
end it
▁ur ban</w>
▁4 th</w>
▁vehic les</w>
▁focus ed</w>
▁ur g
▁iss ued</w>
▁Depar tment</w>
▁c ode</w>
▁F ur
etermin ed</w>
▁sc ene</w>
▁impl ement</w>
▁author ities</w>
▁Germ any</w>
▁f ile</w>
▁c ut</w>
▁$ $</w>
o int</w>
▁us ually</w>
▁sel ect</w>
▁fu nd</w>
▁compreh ensive</w>
▁resol ution</w>
▁interpret ed</w>
▁d ivid
▁> ></w>
rop h
▁s ong</w>
▁d eal
▁app ear</w>
erv ation</w>
iti s</w>
▁expl an
▁transm itted</w>
▁br an
▁pred etermined</w>
▁exp endit
▁en ter</w>
▁cl early</w>
▁interpret ation</w>
▁ad h
▁2 4
a w
▁exhib ition</w>
▁man age</w>
▁as k</w>
▁vari ety</w>
▁su ffer
▁un ique</w>
▁lo ans</w>
▁dis app
▁compon ents</w>
▁Tr ade</w>
quar ters</w>
▁re form</w>
▁g e
▁comp osed</w>
e ung</w>
g ue</w>
▁complet ely</w>
▁w ave</w>
▁subsi d
▁D ir
em atic</w>
▁achiev ement</w>
▁S tr
er ve</w>
e ering</w>
▁associ ation</w>
id ly</w>
▁phenomen on</w>
▁do or</w>
▁bu y</w>
▁reduc ing</w>
▁ins er
isc al</w>
r et
▁caus es</w>
▁Sh e</w>
▁refl ected</w>
▁f a
▁Prov incial</w>
▁plac es</w>
▁acqu is
▁st op</w>
h ood</w>
ong s</w>
▁qu ick
▁appl ic
▁Man agement</w>
▁begin ning</w>
▁discl osure</w>
b ack</w>
▁nucl ear</w>
on al
▁proper ly</w>
▁ch r
▁publ ished</w>
▁exp anded</w>
▁inter ested</w>
▁co e
om a</w>
in t
▁l e
▁experi ences</w>
iber ty</w>
▁V iet
▁C an</w>
ud d
▁l ist
▁Y oon</w>
▁L ocal</w>
▁201 9</w>
▁law s
▁h ot</w>
▁consum er</w>
▁arrang ed</w>
▁h our</w>
▁guid el
▁buil t</w>
▁Ref erring</w>
▁pres cribed</w>
▁str ong
▁stor es</w>
▁cen tered</w>
▁St ation</w>
▁Je ong</w>
▁requir ements</w>
▁f oo
▁ag encies</w>
▁p ip
▁detail s</w>
▁Aff airs</w>
▁for ward</w>
▁atmosph ere</w>
to ber</w>
evelop ment</w>
▁disch arge</w>
▁Oc tober</w>
▁ser ious</w>
▁tal k</w>
▁rul es</w>
▁design ed</w>
ar k</w>
▁shar ing</w>
▁N ext</w>
▁Man y</w>
ic ts</w>
▁p ath
▁ac id</w>
▁ess ential</w>
▁vill age</w>
▁ar tis
ti s</w>
▁st ocks</w>
▁pr i
▁limit ations</w>
th ly</w>
res sive</w>
▁num bers</w>
▁n ar
▁mus c
▁comm ercial</w>
▁Aug ust</w>
art ph
ig er
▁mod ern</w>
▁m ort
▁aspec t</w>
0 1</w>
▁stat ement</w>
▁n or
▁he ating</w>
▁d ro
▁B e
ig r
▁s anc
▁g etting</w>
▁b igg
▁sh ort
▁ear lier</w>
▁wom an</w>
▁met ropolitan</w>
▁g as
▁ar ticle</w>
▁ad op
h ead</w>
▁repor ts</w>
▁rap idly</w>
▁perc eption</w>
▁S m
si ties</w>
▁b ill</w>
▁aff ected</w>
▁quick ly</w>
▁L iberty</w>
▁3 rd</w>
igh t
g ation</w>
▁controll ing</w>
▁bel ieve</w>
anc ing</w>
▁sym b
ic ated</w>
▁2 20</w>
▁h arm
ac king</w>
e ans</w>
▁offic er</w>
▁D es
▁= =</w>
olog ies</w>
▁pattern s</w>
▁m ale</w>
ut ting</w>
k n
▁T echn
▁H an</w>
▁requir es</w>
▁f iscal</w>
▁comm and</w>
▁phot o</w>
▁conc ep
▁inst ead</w>
e ep
▁pr ess</w>
oo ks</w>
on ics</w>
▁R o
▁proced ures</w>
▁clas s
l ement</w>
▁hol ding</w>
▁exclud ed</w>
▁continu ous</w>
▁chil d
▁re in
▁prog ress</w>
▁f elt</w>
▁t el
▁g ave</w>
▁tur ned</w>
▁sev en</w>
▁St ate</w>
▁s n
▁G u
▁201 3</w>
it ation</w>
▁w in</w>
▁develop ing</w>
▁organ ized</w>
▁form ation</w>
▁acc um
▁t it
▁d ri
▁allow ed</w>
▁experi enced</w>
ug s</w>
▁particip ating</w>
▁adv anced</w>
▁N ov
c are</w>
▁s ession</w>
▁liqu id</w>
▁conven ience</w>
▁candid ate</w>
▁avo id
oc ation</w>
e k
▁ex em
▁un ion</w>
▁sched ule</w>
▁answ er</w>
ess ment</w>
▁refl ect</w>
tr ated</w>
▁bra nd</w>
▁surv ival</w>
▁sm art</w>
▁exc ept</w>
▁th ing</w>
▁prim ary</w>
▁individ uals</w>
▁equ al</w>
▁cen ters</w>
▁all ow</w>
▁Da eg
▁emphasiz ed</w>
▁com es</w>
▁Ch r
▁st yle</w>
res h
▁attr ib
▁univer sities</w>
▁9 0</w>
▁res t
▁S ung</w>
▁acquis ition</w>
▁w all</w>
▁sol d</w>
▁main tained</w>
▁coun sel
▁them selves</w>
▁cont ext</w>
▁Gyeong s
▁F estival</w>
▁Ag ency</w>
ld n</w>
eb r
▁grad ually</w>
▁fri end</w>
▁inves tors</w>
▁Hy un</w>
▁st aff</w>
▁rel ation</w>
▁j ud
▁La w</w>
or al</w>
▁rec ord
▁lear ners</w>
▁identif y</w>
▁ax is</w>
▁19 8
▁b eam</w>
▁inc ident</w>
▁emo tional</w>
▁aud ience</w>
▁n an
▁in ter</w>
▁f ee</w>
or b
▁refr iger
▁characteris tic</w>
▁ban ks</w>
▁Se ung</w>
▁ann ual</w>
ploy ment</w>
▁er a</w>
▁doc ument</w>
▁ad ap
▁exam ine</w>
▁charg ing</w>
▁acc ep
▁Su pp
is si
▁tr ying</w>
▁t ool</w>
▁predic ted</w>
▁Rec ently</w>
▁Hy und
m y</w>
▁ach ieve</w>
▁J i</w>
▁plat form</w>
▁controll ed</w>
▁perform ances</w>
▁18 0</w>
▁dis abilities</w>
▁cons truc
▁Hyund ai</w>
▁Gang won</w>
▁res in</w>
ip al</w>
▁m otion</w>
▁confir m</w>
▁allow s</w>
▁subm it</w>
▁enterpr ises</w>
▁ac ross</w>
▁Curr ently</w>
▁mon it
▁infl amm
▁cho ice</w>
▁al g
▁a l</w>
igh tly</w>
▁H CC</w>
re es</w>
▁corpor ation</w>
▁ther eo
▁h it</w>
▁thereo f</w>
▁e at</w>
▁id ea</w>
▁comb ined</w>
ular ly</w>
▁wh ose</w>
▁continu ously</w>
▁achiev ed</w>
▁o lder</w>
et ers</w>
▁mark ets</w>
▁imp os
▁In f
ill ing</w>
▁form ing</w>
▁entr us
▁co ord
ro ad</w>
▁dis abled</w>
all eng
▁Spec ial</w>
▁man ner</w>
▁concer ns</w>
▁analyz ing</w>
▁2 7</w>
▁al most</w>
d ra
▁sm artph
▁Ch ung
▁n ode</w>
▁authentic ation</w>
▁sign als</w>
▁S ing
tur ed</w>
▁g un</w>
u ts</w>
▁fr ac
▁h on
▁D ue</w>
▁Americ an</w>
▁par king</w>
▁Industr ial</w>
tic ul
j in</w>
a x
▁rea ched</w>
▁pas s</w>
n a</w>
▁H igh</w>
▁in tr
▁dis m
▁subm itted</w>
▁r ule</w>
▁m y
▁dram a</w>
ist ence</w>
▁ques tion
▁o uter</w>
▁in her
▁ag ent</w>
or row</w>
▁hy un</w>
▁exp anding</w>
▁circum st
▁en tered</w>
▁Adminis tration</w>
▁st able</w>
▁or din
▁2 6</w>
id ay</w>
▁suppor ting</w>
▁exp osed</w>
▁w anted</w>
▁Corpor ation</w>
es sive</w>
enti onal</w>
▁th in</w>
▁f ather</w>
▁conf erence</w>
▁ba d</w>
▁Nov ember</w>
▁mod els</w>
igh ting</w>
▁recogn ize</w>
ac ks</w>
▁enc our
▁D ep
▁e t</w>
▁cre ating</w>
un ding</w>
▁separ ately</w>
▁charg es</w>
▁In v
▁meaning ful</w>
▁r and
▁app ears</w>
▁suppor ted</w>
▁record ed</w>
▁happ y</w>
▁draw ing</w>
▁compl ain
▁Prov ided</w>
▁2 8</w>
crib e</w>
▁S ong</w>
al ize</w>
▁j in</w>
art ments</w>
▁counc il</w>
▁believ ed</w>
▁succ ess</w>
▁impos sible</w>
▁hydro gen</w>
▁trans actions</w>
▁J in</w>
▁trans par
▁b ut
ew ork</w>
▁ow ner</w>
▁g ath
▁chr onic</w>
▁the ater</w>
▁meas uring</w>
▁transist or</w>
▁cam p
▁prot ect</w>
▁D ae</w>
▁2 8
▁c old</w>
y r
re t</w>
▁focus ing</w>
ic ine</w>
▁L et</w>
▁d oll
▁prof its</w>
▁p ension</w>
em ia</w>
▁responsi ble</w>
▁p oll
▁de al</w>
▁rel ease</w>
▁du ties</w>
al ty</w>
igh b
▁as si
▁ra ising</w>
▁al though</w>
▁friend ly</w>
▁r ound</w>
▁T w
c oh
▁strength en</w>
▁larg er</w>
op s</w>
▁w eb
l et</w>
et er
es ter
▁viol ence</w>
ap ter</w>
▁sit es</w>
▁L and</w>
▁sched ul
▁law m
▁Cons titu
▁s ale</w>
▁fam ous</w>
▁D evelopment</w>
▁fe ature</w>
▁v ice</w>
▁acc idents</w>
rim e</w>
▁partic les</w>
or i</w>
etr ic</w>
▁Gang nam</w>
▁Daeg u</w>
▁cool ing</w>
▁acc omp
▁w ide</w>
▁exec utive</w>
▁do ing</w>
ten ance</w>
▁s o
▁L abor</w>
▁wind ow</w>
▁grad u
▁fu el</w>
▁g ames</w>
6 0</w>
▁regis tered</w>
▁prof essor</w>
am p
it ment</w>
▁introduc e</w>
▁dr ugs</w>
▁appoin ted</w>
▁Y e
ow s</w>
▁Al so</w>
i pl
N A</w>
▁mix ed</w>
▁dis s
▁J ustice</w>
▁rec ru
▁altern ative</w>
gh ter</w>
▁tour ists</w>
▁speci alized</w>
▁c ogn
▁ins u
▁experim ent</w>
▁rev ision</w>
▁m otor</w>
▁di ff
ut or</w>
▁Gen eral</w>
▁10 1</w>
h y
▁sanc tions</w>
▁h ard
▁fail ed</w>
▁h otel</w>
▁boo ks</w>
th erm
▁sm all
▁interv ention</w>
▁cont aining</w>
▁bott om</w>
▁Y ang</w>
▁For m</w>
is ory</w>
ru p
▁t end
▁T V</w>
is d
▁inf ection</w>
▁h em
▁ens ure</w>
▁hear d</w>
▁g ir
▁all eg
▁ra ise</w>
▁ag ed</w>
ul ates</w>
ucl ear
▁neg l
▁Su b
▁prob ability</w>
▁del ay</w>
ti oned</w>
▁pun ishment</w>
▁dis aster</w>
▁c au
ou gh
▁M or
▁F eb
▁D ef
▁3 5</w>
▁the or
▁r ed</w>
▁deg rees</w>
▁cl osed</w>
▁J ang</w>
▁Con si
v ity</w>
▁dou ble</w>
▁tas ks</w>
▁em p
▁Feb ru
▁Febru ary</w>
s p
▁res t</w>
▁us es</w>
▁recover y</w>
▁h ee</w>
▁P eople</w>
▁tum or</w>
▁requ ested</w>
▁investig ated</w>
▁ex port</w>
▁wh ite</w>
▁great ly</w>
▁Th e
yst em</w>
ith er</w>
ed om</w>
▁st ability</w>
▁distrib uted</w>
▁magn etic</w>
▁ch alleng
tim s</w>
▁r ear</w>
▁def ense</w>
▁flex ible</w>
▁expl ain</w>
▁equ ation</w>
▁ful ly</w>
▁const ant</w>
▁reg ard</w>
▁prepar ation</w>
▁C O
▁pl ays</w>
▁pl as
▁new ly</w>
um in
▁ne ighb
▁t iss
▁pro tr
▁n on
▁res ource</w>
▁Th us</w>
▁a head</w>
▁bal ance</w>
▁autonom ous</w>
▁R ev
▁success ful</w>
▁laws uit</w>
▁den uclear
an si
▁ins ul
▁aff ili
▁16 0</w>
▁main tenance</w>
▁for c
▁wid th</w>
▁sa w</w>
▁discus sions</w>
▁adh es
▁S M
▁r ice</w>
▁201 2</w>
▁t old</w>
▁Cul ture</w>
ip h
▁sol ving</w>
or es</w>
▁tr ip</w>
▁der ived</w>
▁corr ect</w>
▁Dir ector</w>
▁negoti ations</w>
▁discus s</w>
▁wor th</w>
▁scre ening</w>
▁beh ind</w>
▁ass essment</w>
▁Y es</w>
▁investig ate</w>
i enti
▁car s</w>
▁fe atures</w>
os p
1 1</w>
▁re tir
▁ag ricultural</w>
▁n ot
es tern</w>
▁heav y</w>
▁accomp an
ym p
▁t ests</w>
▁summ er</w>
▁rem aining</w>
▁monit oring</w>
▁disch arg
▁research er</w>
▁rece ives</w>
▁m ental</w>
▁ac tions</w>
▁pres ence</w>
▁coun ter
▁coe fficient</w>
▁S ang</w>
▁wee k
▁concer ning</w>
▁c el
us h</w>
ic h
▁sh ap
▁ey es</w>
▁bl ack</w>
▁N A
▁3 2</w>
el ectr
▁tom orrow</w>
tiv ation</w>
▁inf r
▁appear ance</w>
▁mathematic al</w>
▁l as
▁W elfare</w>
▁f ib
▁em pir
▁conver sion</w>
▁techn ologies</w>
▁suppl ied</w>
p o</w>
eti tion</w>
▁differ enti
▁benef it</w>
▁af tern
▁textb ooks</w>
▁rem ar
▁pos t
▁identi ty</w>
▁he ight</w>
▁disc rim
▁cl ean
il d</w>
▁rec ords</w>
▁ap artment</w>
▁al coh
▁C o
enc ing</w>
▁broadc ast</w>
es n</w>
▁mov ed</w>
▁cap able</w>
▁aftern oon</w>
▁Ex am
▁s ou
ab or
▁gre en</w>
▁Kor eans</w>
▁F ac
▁vic tims</w>
▁oper ations</w>
▁Y oo</w>
▁requir e</w>
▁regard less</w>
▁disc over
▁avoid ance</w>
w ide</w>
der g
▁fin ding</w>
▁smo king</w>
▁saf e</w>
▁transf erred</w>
▁expendit ure</w>
▁del iberation</w>
▁cham ber</w>
u tif
▁gl uc
▁ad ding</w>
▁ex ist</w>
▁Electr onics</w>
asc ular</w>
▁restaur ant</w>
g re
d ong</w>
▁prec ed
u tions</w>
▁sor ry</w>
g er</w>
▁conc lud
r h
▁hist or
▁broadc asting</w>
▁S af
▁m er
▁fun d
▁anti b
▁Ta x</w>
▁Se o</w>
▁n ation</w>
▁st o
▁sub j
▁gro w</w>
▁be y
▁bey ond</w>
ner ship</w>
d o</w>
▁fil ed</w>
▁Pro f
eed ed</w>
derg art
▁entr ance</w>
▁adjus ted</w>
▁Sec urity</w>
s et</w>
▁insu fficient</w>
▁log ic</w>
▁guidel ines</w>
▁go es</w>
▁wr ite</w>
▁inst all
▁fe ed
▁e ight</w>
▁cyc le</w>
▁pre gn
▁M r</w>
▁agre ed</w>
therm ore</w>
▁sm oo
▁sil ic
er t</w>
▁sch ol
k ch
▁n ation
▁exam ples</w>
un ds</w>
ati tis</w>
▁tax ation</w>
▁sh ip</w>
▁hear ing</w>
▁heal thy</w>
▁cons c
y ro
▁t en
▁in ev
▁difficul ty</w>
▁de emed</w>
▁Consi dering</w>
▁do esn</w>
▁se x</w>
▁adjus tment</w>
▁bec oming</w>
▁Y eong
▁sit u
▁nur sing</w>
▁f air</w>
▁sc en
▁plac ed</w>
▁in hib
▁A ir
o ts</w>
▁un i
▁s i</w>
▁mom ent</w>
▁cogn itive</w>
▁N am
▁Europ ean</w>
f ully</w>
b itr
▁remov ed</w>
▁phot ograph
▁judg e</w>
e tion</w>
▁reg ression</w>
▁inter m
▁cre ative</w>
or ption</w>
▁sho pping</w>
▁dam ages</w>
▁pi ec
▁m id</w>
▁dep ression</w>
▁cont ains</w>
▁K yung</w>
▁m erg
▁dec line</w>
▁bon ds</w>
▁ver tical</w>
▁evalu ate</w>
▁techn ical</w>
▁s ign</w>
▁M on
ut ors</w>
el im
e z
▁L ea
▁I m
ac r
▁F ed
▁fund am
▁coupl ed</w>
ul ts</w>
ear ing</w>
ti m</w>
▁tur n</w>
▁f ell</w>
▁M in</w>
▁C iv
▁sp ir
▁compar ison</w>
ep h
▁summ ar
▁ac ts</w>
▁prev iously</w>
▁l ayers</w>
▁circumst ances</w>
▁G od</w>
iti onally</w>
▁rem ains</w>
▁reason able</w>
tim es</w>
it ter</w>
▁maj ority</w>
▁Se ong
i ance</w>
▁exam ined</w>
▁Un like</w>
▁5 th</w>
▁201 0</w>
▁com for
▁cl oth
▁buil d</w>
▁P rime</w>
a ult</w>
7 0</w>
▁th ere
▁b and</w>
▁Asi a</w>
▁wid ely</w>
▁sof t
▁crim es</w>
ac ked</w>
▁j ur
▁fin dings</w>
▁l and
▁grap h
▁effec tiveness</w>
▁C oun
i pped</w>
▁prepar ing</w>
▁e ffic
ri age</w>
▁tr ansi
▁govern or</w>
▁Con f
y l</w>
eo l</w>
▁war r
▁sec retary</w>
▁exc essive</w>
▁produc e</w>
▁r i</w>
▁form s</w>
▁flu id</w>
▁s ides</w>
▁bir th</w>
e ign
▁underst ood</w>
▁counsel ing</w>
ver si
electr ic</w>
▁regard ed</w>
▁classif ication</w>
t le</w>
g ed</w>
▁sol id</w>
▁denuclear ization</w>
▁R e
▁2 9
▁det ect</w>
▁com ing</w>
▁calc ulation</w>
id ing</w>
y er</w>
on ary</w>
ar ity</w>
▁experim ental</w>
▁effic acy</w>
▁determin ing</w>
um n</w>
▁w ife</w>
▁vic tim</w>
▁fre edom</w>
l y
▁p ad</w>
▁ac tor</w>
▁w el
▁bo x</w>
▁bea utif
▁Reg arding</w>
er ce</w>
▁am pl
rou gh
▁resul ting</w>
▁c y
▁des ir
▁critic ism</w>
G S</w>
▁web s
▁acqu ired</w>
▁bran ch</w>
▁Dec ree</w>
elim inary</w>
as h</w>
▁O ur</w>
▁research ers</w>
▁ass ist
▁Germ an</w>
2 1</w>
▁inter p
id ge</w>
▁Russi a</w>
h n</w>
▁f oundation</w>
▁Pro m
▁susp ic
▁g iving</w>
▁dis tingu
▁cas h</w>
▁Supp ort</w>
▁flow ch
▁arg ued</w>
▁Fur thermore</w>
▁schedul ed</w>
▁Hw ang</w>
h ips</w>
ath y</w>
▁wr ong</w>
ar eness</w>
▁mor al</w>
▁d yn
▁In t
▁par t
▁f os
▁sl eep</w>
▁quar ter</w>
▁pea ce</w>
▁promo ting</w>
▁lear ned</w>
▁2 9</w>
▁w oo</w>
▁prac tic
▁pl ayer</w>
▁ch airperson</w>
▁b one</w>
▁Q u
e try</w>
▁sh ared</w>
▁go als</w>
▁ultr as
ro om</w>
oun ds</w>
▁rea ch</w>
▁J os
▁Ch eong
em ic</w>
▁squ are</w>
▁hum ans</w>
▁br ing</w>
▁V ice</w>
▁vis iting</w>
▁su fficient</w>
ins ula</w>
c omes</w>
▁tea ms</w>
▁signific ance</w>
▁plan e</w>
▁c ent
▁swit ch</w>
▁Saf ety</w>
eed s</w>
▁di ed</w>
w a</w>
et ed</w>
am ed</w>
▁psych ological</w>
▁Is land</w>
er ous</w>
an ks</w>
▁t err
▁iss u
j eon</w>
▁U l
ticul tural</w>
tic ip
tain ment</w>
ev er
▁ma p</w>
▁liter ature</w>
▁c o</w>
▁Comm un
▁t ick
▁flowch art</w>
▁exp ress</w>
▁e fficient</w>
▁v oc
▁p ush
▁diagn osed</w>
▁h ands</w>
▁ar bitr
▁contrib ute</w>
▁tal ks</w>
▁rev enue</w>
▁feed back</w>
▁T ae</w>
▁small er</w>
▁l ic
▁deliver ed</w>
▁qu anti
▁aw areness</w>
▁Y ong
▁I r
▁3 10</w>
▁201 1</w>
ew h
▁prev al
▁de duc
▁cel ebr
▁F ig</w>
er i
▁statis tically</w>
▁pres idential</w>
▁eng ine</w>
es ter</w>
▁ass et</w>
▁sl ightly</w>
▁imm un
▁G o
▁F oundation</w>
oc ial</w>
▁prop osal</w>
▁Ch ung</w>
▁process es</w>
▁p anc
▁fav or
▁we ather</w>
▁stud ied</w>
▁perc e
▁Sc ience</w>
▁rel ative</w>
▁re d
▁f igure</w>
▁exp osure</w>
▁Techn ology</w>
▁S a
g ing</w>
▁pl ant</w>
▁in form
▁comm issi
▁contin ues</w>
▁17 0</w>
kch ain</w>
ent ary</w>
▁par all
▁ey e</w>
a ds</w>
▁wat ch</w>
▁pr eliminary</w>
▁p ort</w>
▁ab use</w>
ult an
▁st ay</w>
▁sim ply</w>
▁ob jects</w>
▁M ore</w>
our n
▁sent ence</w>
▁rec urr
▁o m
▁an x
el ed</w>
▁cho ose</w>
▁aspec ts</w>
▁Inv es
u d</w>
omm od
▁surro unding</w>
▁per f
▁guid ance</w>
▁or dered</w>
▁di ameter</w>
▁Y ong</w>
der ship</w>
▁ser um</w>
▁int ends</w>
▁f ol
▁H um
▁s tim
▁f alling</w>
▁H all</w>
▁princi ples</w>
▁ex istence</w>
▁f ar
od es</w>
▁trans l
▁f al
▁D i
▁hous es</w>
▁f an</w>
▁tempor ary</w>
▁ori ented</w>
▁m g</w>
▁illustr ated</w>
i ans</w>
▁avo id</w>
or ith
▁out p
▁bu ffer</w>
▁rap id</w>
▁pip e</w>
▁h all</w>
▁d au
▁ab road</w>
ar ly</w>
▁mach ine</w>
▁buil dings</w>
▁S uch</w>
▁po p</w>
▁m m</w>
▁corres pond</w>
▁soft ware</w>
▁prov ision</w>
▁comp ound</w>
▁jur isd
▁cons ists</w>
▁rel ig
▁Viet nam</w>
▁Def ense</w>
▁wea k</w>
▁tr us
▁suspec ted</w>
▁opportun ities</w>
▁mem br
▁bigg est</w>
▁20 th</w>
▁7 th</w>
iti gation</w>
▁lin ked</w>
▁behav i
▁beautif ul</w>
▁200 9</w>
▁ordin ary</w>
▁des pite</w>
▁shar es</w>
▁recomm end
▁jud icial</w>
▁am end
▁acc ommod
▁acc el
▁An other</w>
r ec
▁with dra
▁d ensity</w>
st anding</w>
▁situ ations</w>
▁def end
▁pl aying</w>
▁F und</w>
iel d</w>
at eral</w>
▁O h</w>
▁t o
▁competi tiveness</w>
▁B ar
ensi onal</w>
▁inj ection</w>
▁Cul tural</w>
ad ed</w>
▁sim ultan
▁ext ent</w>
▁sub par
▁hor iz
▁cl ub</w>
▁Sec ond</w>
▁6 00</w>
▁2 30</w>
ul ations</w>
▁z one</w>
▁rot ation</w>
▁laun ched</w>
▁func tional</w>
m ed</w>
▁plas ma</w>
▁car di
▁Civ il</w>
en ch</w>
▁sam ples</w>
▁independ ence</w>
▁de ep
▁3 D</w>
▁vis itors</w>
▁legisl ation</w>
o k</w>
▁ind ir
▁th rough
d es</w>
▁reli ability</w>
▁met ab
▁guarant ee</w>
▁us eful</w>
▁s ea</w>
▁lea ders</w>
▁separ ated</w>
▁r ental</w>
▁consist ent</w>
▁10 th</w>
▁l isted</w>
▁syn th
▁th eme</w>
▁review ed</w>
▁res pond</w>
▁disp osition</w>
▁E qu
j ong</w>
▁no ise</w>
▁identif ication</w>
il es</w>
▁tend ency</w>
▁f ast</w>
▁expect ations</w>
ag n
▁th us</w>
▁expec t</w>
▁employ ed</w>
▁lea dership</w>
▁electr ical</w>
▁clos ely</w>
▁ass embly</w>
▁N am</w>
▁out comes</w>
▁head quarters</w>
▁h im
▁B M
u k
▁sett lement</w>
▁promo ted</w>
▁comp osite</w>
▁Ex c
per ative</w>
ar ing</w>
▁4 5</w>
r on
d own</w>
b er
▁v ul
▁frequ ently</w>
▁del ayed</w>
▁alg orith
▁Prom otion</w>
▁P en
▁Econom ic</w>
ili ary</w>
▁pl anned</w>
▁ir r
▁f if
▁Ch ang</w>
▁hyp oth
▁him self</w>
▁h ost</w>
▁ser ve</w>
▁el ig
▁ar ts</w>
▁any thing</w>
▁Europ e</w>
▁sub c
▁ex ports</w>
▁decreas es</w>
▁– –</w>
▁wor ked</w>
▁retur ned</w>
▁6 th</w>
▁inter action</w>
y s</w>
s y</w>
it es</w>
▁pass eng
▁conc lusion</w>
▁aud io</w>
er o</w>
▁pri ority</w>
▁d eep</w>
1 2</w>
▁corpor ations</w>
▁att end</w>
▁Bus iness</w>
▁med icine</w>
▁am b
▁jurisd iction</w>
▁In ter
▁G e
▁p age</w>
▁cau ght</w>
▁institu tional</w>
▁concer t</w>
ep s</w>
▁caus ing</w>
▁establ ishing</w>
▁cont ain
▁autonom y</w>
▁su ic
▁3 3</w>
on ing</w>
i j
▁indic ators</w>
▁indic ating</w>
▁L ot
▁En viron
ular ity</w>
▁polym er</w>
ur s
▁4 0
b and</w>
▁some one</w>
i k
en ly</w>
ak er</w>
▁n et</w>
▁car ry</w>
om en</w>
▁c ath
s ec
▁ear n
▁l ibr
▁gluc ose</w>
▁d ang
▁E ast</w>
▁h u
tur ing</w>
▁s ays</w>
▁kin dergart
▁consult ation</w>
▁ch urch</w>
▁S un</w>
▁Ch ang
▁trans pl
▁des tin
▁bi om
▁al b
ar ation</w>
▁ch ance</w>
▁ac ting</w>
cri p
▁mon thly</w>
▁insul in</w>
▁adver tis
▁unf air</w>
▁no thing</w>
▁l ens</w>
▁appl ications</w>
▁A I</w>
▁s ongs</w>
▁person ality</w>
▁rev it
▁partic ularly</w>
▁mol ec
▁ag ing</w>
rou ght</w>
oo king</w>
▁oblig ation</w>
▁l iv
▁b all</w>
▁inc idence</w>
▁J in
▁FI GS</w>
▁coll ect</w>
▁In formation</w>
at ur
▁statis tics</w>
▁separ ation</w>
▁manag ed</w>
▁lo ad</w>
▁chem ical</w>
▁cent ury</w>
enti ally</w>
▁v ibr
▁mul ticultural</w>
▁per iph
▁tour ist</w>
▁webs ite</w>
▁mort ality</w>
▁inf rastructure</w>
▁f oun
e ously</w>
▁re organ
ac tive</w>
▁sign ed</w>
▁Ind ustry</w>
▁musc le</w>
▁P C
im e</w>
f er
c in
▁over come</w>
▁Jos eon</w>
▁S 1
▁therm al</w>
▁organiz ational</w>
▁gl ass</w>
▁cl ock</w>
▁M a
i ety</w>
▁som ewh
▁Un der</w>
un ction</w>
▁through out</w>
▁ox ide</w>
▁compet ency</w>
▁p it
▁en ti
B S</w>
▁vul ner
▁ed ge</w>
▁compl ications</w>
▁ch ip</w>
▁K ong</w>
▁effec tively</w>
▁Trans port</w>
2 2</w>
▁an ten
▁A ustr
ff ee</w>
▁enter ing</w>
in eering</w>
▁interm edi
▁corr ection</w>
id ation</w>
▁sp e
▁st ates</w>
▁conduc ting</w>
▁f ra
▁Fin ance</w>
▁C ompl
▁repor ting</w>
▁cons ent</w>
▁Da e
▁s on</w>
▁pro hib
▁M us
▁dim ensional</w>
▁ar ticles</w>
▁18 th</w>
um p
lu sive</w>
▁win ter</w>
▁sc ienti
ib ility</w>
▁trans port</w>
ro l
oth er
ivers ary</w>
▁techn ique</w>
▁viol ation</w>
▁mar riage</w>
▁Cen tral</w>
r en
n orm
y ong
▁se em</w>
▁re j
▁Je oll
▁o ffer
▁cat aly
▁accoun ts</w>
w ards</w>
ic y</w>
ac ent</w>
▁Or gan
ti le</w>
▁strateg ies</w>
▁qu an
▁empir ical</w>
▁categ ory</w>
v ant
am ent</w>
el ine</w>
▁k ey
▁defin ition</w>
▁C o</w>
▁g ift</w>
▁b ul
▁3 4</w>
▁cr yst
▁A t
al og
S S</w>
▁ev er</w>
▁contr ast</w>
▁abs ol
▁sel ling</w>
▁relations hips</w>
▁es c
▁ext ended</w>
▁exp r
▁ac ute</w>
▁vo ting</w>
▁oper ator</w>
▁accep ted</w>
▁Lot te</w>
▁struc tural</w>
ent ually</w>
ell ing</w>
▁critic ized</w>
ous ness</w>
i o
dro me</w>
▁view ed</w>
▁intell ect
▁adm ission</w>
is ure</w>
▁ver ification</w>
▁bloc kchain</w>
▁Ch e
▁ab ol
▁En forcement</w>
▁tw ice</w>
▁sec ured</w>
▁em ission</w>
▁curr ency</w>
▁S ocial</w>
▁produc tivity</w>
▁e ither</w>
▁under g
▁st ab
▁charac ters</w>
▁artis ts</w>
▁Fin ally</w>
▁C up</w>
▁l ink</w>
▁candid ates</w>
▁A hn</w>
▁tas te</w>
▁concer n</w>
ol esc
▁s ure</w>
▁Prof essor</w>
ec utive</w>
▁unc er
▁subsi di
▁lea ds</w>
▁Sec retary</w>
as ty</w>
▁win d</w>
▁membr ane</w>
▁ad ults</w>
▁ab norm
ont al</w>
▁fin ance</w>
▁disc ipl
ri x</w>
n air
▁rec ip
▁r are</w>
▁ox y
▁ins tr
▁repres ents</w>
▁install ation</w>
▁inc en
▁v it
▁n ear
▁det eri
0 a</w>
▁th resh
▁lect ure</w>
▁rec eption</w>
▁mark eting</w>
▁l itigation</w>
▁fi ber</w>
▁3 6</w>
al ism</w>
▁sel ecting</w>
▁sc ores</w>
▁prot ein</w>
▁assum ed</w>
▁anx iety</w>
▁6 5</w>
▁sh eet</w>
▁occurr ence</w>
▁acqu ire</w>
▁dr inking</w>
▁val idity</w>
▁subst anti
▁las er</w>
▁h us
om inal</w>
▁commun icate</w>
ester day</w>
▁tiss ue</w>
▁minis ter</w>
▁fin ally</w>
▁employ ee</w>
▁cou ldn</w>
▁contrac ts</w>
▁statis tical</w>
▁forc ed</w>
▁f un</w>
▁bra in</w>
▁appro xim
ograph ic</w>
▁qu ite</w>
▁ow ners</w>
▁S i</w>
ar b
a sion</w>
▁specif ied</w>
▁run ning</w>
▁grad es</w>
▁alcoh ol</w>
▁ac tors</w>
▁For eign</w>
▁Ch eong</w>
g le</w>
▁fe eling</w>
▁aff ects</w>
E s</w>
▁adj acent</w>
u th</w>
▁cons erv
▁conf idence</w>
atic ally</w>
▁med i
▁man ip
▁Wh y</w>
▁fing er
▁H osp
e ers</w>
▁inj ury</w>
▁st ated</w>
▁g ain</w>
▁every one</w>
▁eff ort</w>
or ial</w>
es ity</w>
▁dri ve</w>
▁conv entional</w>
▁commissi oned</w>
D M</w>
▁su n</w>
▁resid ential</w>
▁n utr
▁con vers
▁V ari
ad vant
▁dau ghter</w>
▁brea k</w>
▁ann iversary</w>
▁Rep res
er ies</w>
▁predic tion</w>
▁histor ical</w>
▁character ized</w>
s ts</w>
ir ing</w>
L D</w>
▁e ating</w>
▁dep osi
il os
e i</w>
▁retir ement</w>
▁question nair
▁dis advant
▁dep endent</w>
▁up d
▁emo tions</w>
▁cl im
▁b ond</w>
▁b in
y e</w>
E D</w>
▁under w
▁refl ection</w>
▁preval ence</w>
▁parall el</w>
▁no tice</w>
▁sh ou
▁hu ge</w>
▁vis ual</w>
▁id eas</w>
▁bri ef
▁transpar ent</w>
▁acc ept</w>
▁l ung</w>
▁b ar</w>
▁H B
a kers</w>
▁st ages</w>
▁p aying</w>
▁low est</w>
▁f air
y ed</w>
▁electro des</w>
▁19 th</w>
▁parti al</w>
ilos oph
▁4 10</w>
▁en ac
▁ag end
onal d</w>
eo ver</w>
▁perc ent
▁N ew
▁tra ding</w>
▁S N
▁Repres ent
▁5 0
▁19 7
f l
▁fl ight</w>
▁exclud ing</w>
▁cre ati
▁H is</w>
il ed</w>
▁Y ang
▁t opic</w>
▁l etter</w>
on er</w>
at r
▁appro ach
▁appoin tment</w>
sp ap
g ence</w>
▁res ident</w>
▁oxy gen</w>
▁legisl ative</w>
▁aim ed</w>
▁F orm
▁str a
▁ris ing</w>
▁out d
▁ad s
▁Al tern
▁3 20</w>
ra ft</w>
▁int ensity</w>
▁G re
▁tr ain</w>
▁re b
▁determin ation</w>
eal s</w>
▁pred ict</w>
z ation</w>
▁mechan ism</w>
▁L ooking</w>
▁Bl ue</w>
▁syn drome</w>
▁le isure</w>
▁Y ork</w>
▁Un ion</w>
▁5 2</w>
S A</w>
▁wor ker</w>
▁spe ech</w>
▁desir able</w>
▁co ffee</w>
▁Sing ap
▁Pro sec
▁tit le</w>
▁sec urities</w>
▁impl ications</w>
▁ext end</w>
o id</w>
▁hum an
▁D ay</w>
▁sharehol der</w>
▁Ins urance</w>
▁C rim
er ea
▁t e
▁explan ation</w>
▁el ev
▁C an
k age</w>
▁P a
▁obj ective</w>
▁f illed</w>
▁A f
ent ure</w>
O S
▁spr ing</w>
▁sensi tivity</w>
▁ex h
▁co il</w>
▁certif icate</w>
▁tax p
▁sugg ests</w>
▁st anding</w>
▁W a</w>
▁T our
▁tub e</w>
▁struc tures</w>
▁mat rix</w>
▁im ag
▁entrus ted</w>
▁co ating</w>
▁2 50</w>
▁200 8</w>
oc y
▁fif th</w>
▁coll ap
▁Hosp ital</w>
▁pos ted</w>
▁hea ds</w>
▁un ification</w>
▁m el
▁ad olesc
▁11 th</w>
▁interv iew
▁K ing</w>
▁Inf rastructure</w>
un c
▁rob ot</w>
▁pop ularity</w>
▁lim its</w>
▁adhes ive</w>
es th
▁y esterday</w>
▁4 2</w>
▁th or
▁r ol
▁pol y
▁nat ur
▁laun ch</w>
▁approv ed</w>
▁Pre v
▁Ch apter</w>
iqu es</w>
ili ar</w>
A T</w>
▁l es
▁h wan</w>
▁emerg ed</w>
▁assi g
ea ch
▁val ve</w>
▁investig ating</w>
▁for est</w>
▁min ute</w>
▁fundam ental</w>
▁concep ts</w>
▁compl etion</w>
ac ter
▁v ary</w>
▁enh ance</w>
▁camp a
▁S ports</w>
o f</w>
▁ow nership</w>
▁ext ension</w>
▁st eps</w>
▁gener ating</w>
▁adj ust</w>
s h</w>
▁amend ment</w>
▁Ch ief</w>
or ks</w>
int endent</w>
▁F ood</w>
▁21 st</w>
▁hospit als</w>
▁Su per
as es</w>
▁techn iques</w>
▁defend ant</w>
h ab
▁s pl
▁periph eral</w>
e tics</w>
▁some times</w>
▁grap h</w>
▁P yeong
▁Ar t</w>
▁thresh old</w>
▁judg es</w>
▁finger pr
▁moun ted</w>
▁Austr al
▁claim s</w>
▁inc on
▁en try</w>
▁dis tin
▁cri tical</w>
ur ations</w>
is ms</w>
▁wea k
▁strength ening</w>
▁S w
▁11 2</w>
ea v
▁out come</w>
▁m ist
▁induc ed</w>
▁accur ate</w>
▁Ta i
arm ac
▁j us
▁d ys
ot es</w>
▁ph ilosoph
▁con g
▁Y ear</w>
▁A ir</w>
e tical</w>
▁ar res
▁anten na</w>
eep ing</w>
▁th ough
▁prop er</w>
▁int ended</w>
▁ha b
▁Su won</w>
u il
eb ook</w>
▁discharg ed</w>
▁des crib
▁Chung ch
▁C S
▁12 th</w>
ou d</w>
▁str eet</w>
▁ob esity</w>
▁Je on
▁E ver
el f</w>
▁por t
▁par am
▁D el
o ing</w>
ect ly</w>
▁pres entation</w>
▁partic le</w>
▁ne u
▁li ability</w>
▁but ton</w>
▁W omen</w>
▁su ng</w>
▁notif y</w>
▁for eign
▁b rought</w>
uc k</w>
if ying</w>
▁sel l</w>
▁regul atory</w>
▁int ake</w>
▁f at</w>
▁W on</w>
other apy</w>
i ousness</w>
▁tim ing</w>
▁dec isions</w>
▁arr est</w>
▁S im
ear ed</w>
▁ref er</w>
▁par k</w>
▁rep roduc
▁process ed</w>
▁opp osite</w>
▁ab d
▁im aging</w>
▁for g
▁air port</w>
um s</w>
▁warr ant</w>
▁wal king</w>
▁surg ical</w>
▁en forcement</w>
▁chec ked</w>
▁S on</w>
▁Des pite</w>
▁str essed</w>
▁Ch il
▁C T</w>
▁8 th</w>
▁r ain</w>
▁panc re
▁m os
ver s</w>
re g
▁wa iting</w>
▁stab il
▁serv ed</w>
▁purp oses</w>
▁jo in
▁gath ered</w>
▁fil ms</w>
▁announc ement</w>
▁O l
▁res on
▁F l
▁notif ication</w>
▁imp osed</w>
▁sol v
▁gr as
▁bea uty</w>
▁C oll
▁remov al</w>
▁conn ecting</w>
▁silic on</w>
▁deposi t</w>
▁Spec ifically</w>
od ies</w>
▁wat ching</w>
▁suic ide</w>
▁repe ated</w>
▁m yeon</w>
▁B ra
udd h
ro s
re w</w>
▁view s</w>
▁infr ing
▁exem pl
▁Singap ore</w>
▁Altern atively</w>
▁pref erred</w>
▁smartph one</w>
▁innov ative</w>
▁IC T</w>
▁Ch airperson</w>
▁refl ecting</w>
▁config urations</w>
os tic</w>
▁ren al</w>
▁calc ulate</w>
▁b ound
u its</w>
B C</w>
▁hol iday</w>
▁is ol
▁exper t</w>
▁dec ide</w>
▁cover ed</w>
▁subsid ies</w>
▁perce ived</w>
▁enter tainment</w>
ri d</w>
▁sugg est</w>
▁pas sing</w>
▁concer ned</w>
ell ow</w>
▁men u</w>
▁lin ear</w>
▁determin es</w>
▁claim ed</w>
▁anim al</w>
▁15 th</w>
▁percent age</w>
▁hus band</w>
▁fal se</w>
▁elig ible</w>
▁constitu tional</w>
▁cloth es</w>
▁arr ay</w>
▁Vari ous</w>
▁D onald</w>
▁sl ow
▁mus ical</w>
▁g ol
▁I I</w>
▁ma y
oo d
▁posi tions</w>
▁pl astic</w>
▁near by</w>
▁j ustice</w>
h ing</w>
▁Med ical</w>
▁F air</w>
iv al
▁w ages</w>
▁t ools</w>
▁M at
t ments</w>
r yp
per ation</w>
▁app eal</w>
▁Sh in
▁B uddh
i ences</w>
▁m arg
▁prev enting</w>
▁inter l
▁exh aus
▁bor n</w>
▁N ow</w>
▁mas k</w>
▁comp are</w>
▁agend a</w>
ant um</w>
▁win ning</w>
▁n ine</w>
▁cro w
▁cro ss
▁cooper ative</w>
▁swit ching</w>
▁sur pr
▁dam aged</w>
er ate</w>
▁t or
▁discrim ination</w>
▁contain er</w>
ud es</w>
if ier</w>
▁sign s</w>
k y</w>
form s</w>
▁mechan ical</w>
▁limit ation</w>
▁estim ation</w>
▁dep os
▁un like</w>
▁rem ain</w>
▁L im</w>
▁cont ain</w>
▁mat h</w>
▁5 5</w>
▁vol ati
▁intermedi ate</w>
▁horiz ontal</w>
▁tax i</w>
▁real ized</w>
▁fac ts</w>
▁don ation</w>
▁pro l
▁Pen insula</w>
tr ess</w>
▁y oun
▁sur fac
▁strong ly</w>
▁pap ers</w>
▁i gn
▁On ly</w>
▁Mor eover</w>
▁compar ing</w>
▁Fr ance</w>
p oint</w>
▁manufactur ed</w>
▁intellect ual</w>
▁electr icity</w>
▁dir ections</w>
el i
▁simultan eously</w>
▁main taining</w>
t edly</w>
▁spec ifically</w>
P S</w>
▁concen trated</w>
▁vulner able</w>
▁di verse</w>
▁car r
▁B ur
▁somewh at</w>
▁sensi tive</w>
▁G l
▁pl ain
▁perm ission</w>
▁3 7</w>
ea u</w>
al izing</w>
▁y eon</w>
▁rou te</w>
▁regis ter</w>
▁n ov
▁el im
▁el ected</w>
▁Hum an</w>
▁S i
▁res erv
▁proc eed</w>
▁ha ir</w>
▁g ives</w>
▁electro ly
▁aw ard</w>
▁O ther</w>
▁restric tions</w>
▁fin ished</w>
▁d uration</w>
▁cons ecutive</w>
▁H ee</w>
▁200 7</w>
l o
T C</w>
▁incon ven
▁i ce</w>
▁extrac ted</w>
▁every thing</w>
ul ting</w>
ir rh
ak es</w>
▁par ent</w>
▁el ections</w>
▁cond iti
▁cl ean</w>
▁Comp any</w>
▁estim ate</w>
it age</w>
▁rece ip
▁chann els</w>
ad ium</w>
▁s ources</w>
▁pr ize</w>
▁l am
▁ar ch
▁R iver</w>
y ers</w>
raph s</w>
▁ver sion</w>
▁inter f
om y</w>
▁tr uth</w>
▁del eg
▁though ts</w>
▁suffer ing</w>
▁ex am</w>
▁b ab
▁D o
ocr acy</w>
▁t op
▁stud ying</w>
▁loo ks</w>
▁inc or
▁fingerpr int</w>
▁draw n</w>
▁arres ted</w>
▁activ ated</w>
um b
▁aim s</w>
▁abs ence</w>
is ti
el ong</w>
un ic
▁sp ati
▁W estern</w>
▁W ar</w>
▁I T</w>
it ance</w>
▁str ug
▁posi tioned</w>
▁mee tings</w>
▁loo ked</w>
ant ation</w>
▁sto pped</w>
▁d ose</w>
▁cur ve</w>
▁co ach</w>
▁4 1</w>
ab r
▁subj ective</w>
▁dro p</w>
▁conver ted</w>
ag raphs</w>
▁mas ter</w>
▁manag ers</w>
▁doll ars</w>
▁Crim inal</w>
▁natur ally</w>
▁integr ation</w>
▁inflamm atory</w>
▁hos ted</w>
▁frac ture</w>
▁ex ists</w>
▁3 3
▁v ess
▁t ree</w>
▁s eok</w>
▁pic tures</w>
▁m id
▁jus tif
ti se</w>
▁w ants</w>
▁mut ual</w>
es tin
▁transi tion</w>
▁gener ator</w>
▁acc ept
ro ll
▁t our</w>
▁sens ors</w>
▁larg ely</w>
▁del iber
s tr
ricul ture</w>
qu e</w>
▁rem ove</w>
ff s</w>
▁w ish</w>
▁prosec utor</w>
es ia</w>
ematic ally</w>
ec tively</w>
▁ver ify</w>
▁rec ons
▁g old</w>
▁c irrh
▁aw are</w>
yp e</w>
▁contrib ution</w>
▁conclud ed</w>
▁bel ong
t o</w>
▁withdra w
▁satis fied</w>
▁real ize</w>
▁l ov
▁i c
c er</w>
▁for ces</w>
▁In st
▁new spap
▁g es
▁for ec
▁Comp ared</w>
▁C re
▁11 1</w>
ro sis</w>
ent ally</w>
▁recomm end</w>
▁ma il</w>
▁fac tory</w>
▁expl aining</w>
▁pack age</w>
▁dr eam</w>
▁cour ses</w>
ap s</w>
▁up on</w>
▁pea k</w>
▁4 8</w>
ef ully</w>
▁pol ar
▁fl o
▁app rec
▁absol ute</w>
▁Tour ism</w>
▁shap ed</w>
▁confirm ation</w>
▁~ ~</w>
▁transm itting</w>
▁ther ap
at edly</w>
▁stor ies</w>
▁respon ses</w>
▁u n</w>
▁outd oor</w>
▁un s
▁un able</w>
▁attemp ted</w>
▁M al
op y</w>
il s</w>
▁s eg
▁l un
▁f alls</w>
▁sec tional</w>
▁ra w</w>
▁par li
▁discl osed</w>
▁20 00</w>
u tives</w>
▁urg ent</w>
▁r ing</w>
▁ev entually</w>
▁Dae jeon</w>
▁Comm ercial</w>
ey s</w>
equ ently</w>
▁su m</w>
▁Compl ex</w>
▁sol ar</w>
▁pres cribe</w>
▁cont ained</w>
▁calc ulating</w>
▁Mar ket</w>
ard ed</w>
▁su n
▁res c
▁ren ew
▁rel ates</w>
▁princ ipal</w>
▁m ir
▁des ired</w>
▁H u
err y</w>
▁tr ends</w>
▁t ank</w>
▁qu antum</w>
▁perform s</w>
al ist</w>
▁nation wide</w>
▁inser ted</w>
▁Pro ject</w>
an ning</w>
▁phot os</w>
▁algorith m</w>
▁trus t
▁pl ants</w>
▁gro unds</w>
▁cap abilities</w>
▁S ong
▁Can ad
▁in qu
▁disp ute</w>
▁K won</w>
▁7 00</w>
in ner</w>
C D</w>
▁work pl
▁or ders</w>
▁comm on
w ise</w>
ilit ation</w>
▁f ig
▁E un</w>
▁Ar e</w>
▁lea ving</w>
▁accur ately</w>
▁S en
▁H ereinafter</w>
▁tr i
▁bl ue</w>
▁P yong
▁M ov
▁th reat
▁susp ension</w>
▁ris ks</w>
▁ad ult</w>
▁respon d
▁r ail
▁offic es</w>
▁W ave</w>
it ude</w>
▁syst ematic</w>
▁stip ulates</w>
▁ste el</w>
▁ap art</w>
r ors</w>
▁suppor ts</w>
▁j ourn
▁indic ator</w>
▁farm ers</w>
▁r ural</w>
▁SM Es</w>
▁Fed eration</w>
▁14 th</w>
por ted</w>
oh n</w>
R S</w>
▁spea ker</w>
▁jo in</w>
▁as king</w>
▁Ex per
▁17 th</w>
D P</w>
▁vac ation</w>
▁tr ack</w>
▁coupl ing</w>
▁7 5</w>
▁3 8</w>
▁ind oor</w>
▁enti ty</w>
▁coll ecting</w>
▁auth or</w>
▁sequ ence</w>
▁jo ined</w>
▁h op
▁Bo th</w>
k ay</w>
▁un em
▁sh oo
▁interv al</w>
▁en ds</w>
▁deb ate</w>
eas ures</w>
▁compl ex
▁adop ted</w>
eb all</w>
aly sis</w>
▁us age</w>
▁recommend ation</w>
▁en ded</w>
▁disc ount</w>
c oming</w>
▁quan tit
▁hand le</w>
▁fac ing</w>
▁suffer ed</w>
▁recru itment</w>
▁s eat</w>
▁9 5</w>
▁view ers</w>
▁repres ent</w>
▁fix ing</w>
▁exec utives</w>
▁wa it</w>
▁prem ium</w>
▁multi pl
▁w on
▁competi tive</w>
▁ap p</w>
▁accompan ied</w>
▁10 00</w>
O S</w>
▁resol ve</w>
▁dra w</w>
▁any one</w>
▁anim als</w>
▁V ill
i pping</w>
ens us</w>
▁dom ain</w>
▁b reat
▁M od
tif f</w>
ti n</w>
ro te</w>
▁E ar
ub e</w>
▁see k</w>
▁man d
▁h ear</w>
▁2 40</w>
▁N ot</w>
▁27 th</w>
▁dep uty</w>
▁col umn</w>
▁parti ally</w>
▁exper tise</w>
▁P al
▁wir e</w>
▁repres ented</w>
▁rad iation</w>
▁oper ators</w>
▁k illed</w>
▁brea k
▁bar rier</w>
▁L ife</w>
▁equ ity</w>
▁cl us
▁bor row
▁a th
j i</w>
▁recurr ence</w>
▁di pl
▁coun ty</w>
▁Pro t
▁J o
o g</w>
▁questionnair e</w>
▁prot ective</w>
▁prefer able</w>
▁inter esting</w>
▁gro ove</w>
▁d at
▁accur acy</w>
▁acc used</w>
▁w rote</w>
▁lear ner</w>
▁f ishing</w>
▁ex act</w>
▁equ ival
▁contro ls</w>
▁Tw o</w>
▁10 2</w>
T A</w>
▁necess ity</w>
▁T ur
▁5 1</w>
S T</w>
▁kin ds</w>
▁gr and
▁K i</w>
▁libr ary</w>
▁cos m
▁S ur
x iliary</w>
▁theor etical</w>
ic it</w>
▁wav el
▁mar k</w>
▁indic ates</w>
ob ile</w>
el ings</w>
▁optim al</w>
▁k id
▁ex plo
▁ex ac
▁Em ployment</w>
▁stip ulated</w>
▁k ept</w>
▁b ought</w>
▁ag g
▁12 1</w>
en tions</w>
▁emerg ing</w>
▁all oc
▁L G</w>
r o</w>
ac es</w>
▁z ero</w>
uil ding</w>
bo ard</w>
▁sec uring</w>
▁p il
▁mis sing</w>
▁effici ently</w>
▁clean ing</w>
▁charg ed</w>
er n
enti a</w>
▁w earing</w>
▁sec tors</w>
▁vibr ation</w>
▁au xiliary</w>
▁‘ ‘</w>
▁sev er
▁dr iven</w>
▁canc ell
urr ed</w>
ti st</w>
▁fe elings</w>
▁categ ories</w>
▁bloc king</w>
▁A ut
os ity</w>
▁spec im
▁si k</w>
▁imm igr
w ang</w>
▁or al</w>
▁cr yp
▁cataly st</w>
▁Ch un
af t</w>
▁exp ensive</w>
▁exempl ary</w>
▁Ol ymp
▁spir it</w>
▁represent atives</w>
oo m</w>
▁textb ook</w>
▁replac ement</w>
▁differ ently</w>
▁Pyong yang</w>
gre di
▁terr or
▁pix els</w>
▁ow ned</w>
▁correspon ds</w>
▁St ar
▁Par ticip
▁9 th</w>
eal ing</w>
▁refl ects</w>
▁happ iness</w>
▁C C
▁Air port</w>
▁25 th</w>
▁s is
▁h oon</w>
▁P ea
ici ary</w>
▁Fr ench</w>
ret e</w>
ic ious</w>
ari an</w>
▁spati al</w>
▁ad d</w>
▁wir ing</w>
▁pen alty</w>
▁f abr
▁dyn amic</w>
o ding</w>
▁voc ational</w>
▁summar ized</w>
▁param eters</w>
▁n amed</w>
▁foreign ers</w>
▁Ul san</w>
i ate</w>
a g</w>
C O</w>
▁stra ight</w>
▁Gyeongs ang</w>
▁exec uted</w>
▁di et</w>
▁Sm all</w>
▁solv ent</w>
▁illustr ates</w>
▁19 6
▁trans form
▁hep atic</w>
▁cont ac
▁arg ument</w>
cin oma</w>
▁ran ked</w>
▁fl uc
oc k
in ally</w>
8 0</w>
▁poli tics</w>
▁in gredi
▁bro ther</w>
▁Hy e</w>
▁prin ted</w>
▁me al</w>
▁contr ary</w>
▁youn ger</w>
▁tr ials</w>
▁refriger ant</w>
▁cath ode</w>
t ation</w>
▁sing er</w>
▁prefer ably</w>
▁Chr isti
▁Un til</w>
▁s ear
▁observ ation</w>
▁exchang es</w>
em ical</w>
ell ular</w>
▁p ush</w>
tit utes</w>
▁mos tly</w>
▁int ensi
▁i on</w>
▁20 20</w>
om for
e el</w>
▁pass age</w>
▁offic ers</w>
▁fluc tu
▁Per s
▁Dep uty</w>
▁D iv
ish es</w>
il ing</w>
▁lawm akers</w>
▁pul se</w>
▁Lea gue</w>
▁28 th</w>
▁r ating</w>
▁p m</w>
▁l ived</w>
▁indic ated</w>
▁form ula</w>
▁extr em
▁ag ents</w>
▁Rep ublic</w>
▁4 3</w>
▁nor thern</w>
▁divid ing</w>
▁campa ign</w>
▁sem ester</w>
it ory</w>
▁repor tedly</w>
▁introduc ing</w>
▁fr am
▁E U</w>
▁13 th</w>
res sions</w>
al ities</w>
▁v ote</w>
▁met ers</w>
▁lic ense</w>
▁d ead
▁Th ank</w>
is sions</w>
an ch
▁st and</w>
▁h ip</w>
▁creati vity</w>
▁c af
▁H C
ific ations</w>
▁sus tain
▁restaur ants</w>
▁replac ed</w>
▁mod ified</w>
▁destin ation</w>
▁S ev
▁Be fore</w>
▁8 00</w>
▁e asi
▁accum ulated</w>
▁super intendent</w>
▁approxim ately</w>
▁SN S</w>
▁Ind on
on ia</w>
▁se emed</w>
▁pat ent</w>
▁complain ts</w>
▁I l
t ension</w>
t ains</w>
a pping</w>
▁ran king</w>
▁r ose</w>
▁common ly</w>
▁att ack</w>
▁abd ominal</w>
▁or g
▁merg er</w>
▁dipl om
▁Pro c
▁C oo
oun ts</w>
iti me</w>
▁sc an</w>
▁respond ents</w>
▁Vill age</w>
un k</w>
om b
▁typ ical</w>
▁mov ies</w>
▁cooper ate</w>
▁3 2
as ts</w>
▁sh aft</w>
▁hol es</w>
▁fl at</w>
▁dism is
▁abs orb
▁S ou
▁30 th</w>
▁rand om</w>
▁comm erc
▁S oci
▁R ights</w>
▁Environ ment</w>
▁resol ved</w>
▁chec king</w>
▁ch ol
▁car rier</w>
▁assig ned</w>
▁activ ation</w>
l ight</w>
▁re tr
▁electr on</w>
▁conver gence</w>
▁an c
a o</w>
▁uncer tain
▁remar ks</w>
▁M yung</w>
eo k
an k
▁util ization</w>
▁tre es</w>
▁h ur
▁G r
og l
▁wal k</w>
▁rep air</w>
▁ph armac
▁perm an
▁m ur
▁influ enced</w>
▁Ab out</w>
▁23 rd</w>
▁se ats</w>
▁poll ution</w>
▁mar ried</w>
▁des ire</w>
▁c m</w>
▁c alls</w>
▁trust ee</w>
▁receip t</w>
▁r oll
▁mo tivation</w>
iti sh</w>
f ic</w>
▁satis f
▁R ather</w>
▁26 th</w>
▁wea p
▁t ol
▁sol di
▁res ervation</w>
▁pl ay
▁pain ting</w>
▁l ith
▁dram as</w>
▁Tai wan</w>
▁M in
▁M em
▁D yn
ash ion</w>
▁bas eline</w>
ect ors</w>
e ding</w>
▁p ed
▁cryp t
i ents</w>
▁prog n
▁att ending</w>
▁an ode</w>
▁adjus ting</w>
▁rand om
▁pl eas
▁class room</w>
▁R el
▁Mov ement</w>
T V</w>
▁des cription</w>
▁Br itish</w>
▁4 4</w>
▁volunt eer</w>
▁gir l</w>
▁er rors</w>
▁coo king</w>
▁autom atically</w>
T S</w>
▁wav es</w>
▁s acr
▁relig ious</w>
▁r ow</w>
▁f at
▁W oo</w>
▁O p
▁4 20</w>
▁16 th</w>
en g</w>
▁sp ot</w>
▁rec ording</w>
▁dra in</w>
▁conserv ative</w>
▁consc iousness</w>
op sy</w>
as ing</w>
▁un ivers
▁exc eed</w>
▁At t
▁r ich</w>
▁h i
a h
▁c alling</w>
▁Represent ative</w>
▁C ap
▁fre ely</w>
▁attrac ting</w>
it ative</w>
▁surfac es</w>
▁m ac
▁disp at
▁dem ands</w>
▁Gyeongs ang
▁Con t
es day</w>
▁frequ ent</w>
▁fig ures</w>
▁Pol icy</w>
▁val id</w>
▁un d
▁pro j
▁metab olic</w>
▁war m</w>
▁foo t</w>
ro gen</w>
a ding</w>
▁ro ads</w>
▁d um
o ke</w>
▁oblig ations</w>
▁cl ar
▁bro ke</w>
▁ac kn
▁T oday</w>
em bl
▁wor ried</w>
▁g if
▁bus y</w>
c o
▁dep artments</w>
▁cons ensus</w>
▁b acter
▁S oo</w>
▁Constitu tional</w>
et e</w>
▁Constitu tion</w>
▁wr it
▁sp ent</w>
▁indir ect</w>
▁J eon</w>
▁H er
tr ic</w>
▁un less</w>
▁quanti ty</w>
▁op tion</w>
▁cirrh osis</w>
ul f
l er</w>
al ties</w>
▁we b</w>
▁sent enced</w>
▁des tro
▁dem entia</w>
▁col ors</w>
▁ch ain</w>
eo s</w>
▁success fully</w>
▁propor tional</w>
▁plain tiff</w>
▁affili ated</w>
u pp
▁n ames</w>
▁mov es</w>
▁f ish</w>
▁Th ird</w>
▁F am
▁3 9</w>
tb all</w>
as ters</w>
▁t rou
▁hel ps</w>
▁H all
ex ic
▁v ector</w>
▁star tu
▁sol ved</w>
▁dr ink</w>
▁capac itor</w>
ess ors</w>
▁w ear</w>
▁targ ets</w>
▁m outh</w>
▁j u
▁convers ation</w>
v isory</w>
▁ta e</w>
▁se ts</w>
▁re hab
▁par ameter</w>
▁Serv ices</w>
i b</w>
▁volunt ary</w>
▁un m
▁med ian</w>
▁inc urred</w>
▁gener ates</w>
▁ban k
▁Coun ty</w>
▁ph osph
▁l ab
▁ec o</w>
▁3 30</w>
id o</w>
a b</w>
▁no ted</w>
▁dat ab
▁L ast</w>
▁10 0
z z
r ic
▁v enture</w>
▁indic ate</w>
▁farm ing</w>
▁M exic
▁D NA</w>
▁ref und</w>
▁pow er
▁in si
▁arr ived</w>
op ol
▁soc cer</w>
▁on es</w>
▁di ffer</w>
▁B yung</w>
v en</w>
▁publ ic
▁l ess
▁attemp t</w>
▁Div ision</w>
alog ue</w>
▁repe atedly</w>
▁minim ize</w>
▁flu or
▁f oods</w>
▁electr ically</w>
▁S K</w>
▁E s
▁pregn ancy</w>
▁del iver</w>
▁carr ying</w>
▁Con tro
an a</w>
▁independ ently</w>
▁help ful</w>
▁ap artments</w>
▁R ules</w>
▁sof t</w>
▁list en</w>
▁l ip
▁electroly te</w>
▁comp uting</w>
▁B i
im b
▁t en</w>
▁ro oms</w>
▁rec yc
▁B B
b ilities</w>
▁sim pl
▁n ote</w>
▁hep atitis</w>
▁ec os
▁adolesc ents</w>
▁M oun
▁confl icts</w>
th east</w>
p ing</w>
idd en</w>
▁spac es</w>
▁sp end</w>
▁rehab ilitation</w>
▁r ang
▁ma g
▁fra ud</w>
▁contrib uted</w>
▁attemp ts</w>
▁C A
tin e</w>
ter ior</w>
hy th
▁susp ended</w>
▁Americ a</w>
▁suspec t</w>
▁smoo th</w>
▁resid ence</w>
▁pres ents</w>
▁cul tiv
▁civ ic</w>
▁200 6</w>
▁vid eos</w>
▁repres enting</w>
▁pr ison</w>
▁happ ened</w>
▁easi er</w>
▁a id</w>
▁cont est</w>
▁ch e
t al
o tic</w>
en der</w>
▁rece iver</w>
▁pr et
▁off er</w>
▁my self</w>
▁m il
▁wor s
▁d il
▁challeng e</w>
▁cap it
▁T each
▁r ent</w>
▁id e
▁corr u
▁corru ption</w>
▁Se jong</w>
a em
▁transm its</w>
▁manag ing</w>
▁govern ance</w>
▁fram ework</w>
▁d ay
▁complain t</w>
▁lawm aker</w>
▁dis per
udd enly</w>
▁p etition</w>
▁enterpr ise</w>
▁allow ing</w>
si bility</w>
p ower</w>
i x</w>
▁rem ote</w>
▁p air</w>
▁m L</w>
▁k g</w>
▁inev itable</w>
▁exc lusive</w>
▁earn est</w>
▁Fac ebook</w>
▁Ac adem
▁mat ching</w>
▁hypoth esis</w>
▁col on
▁P ati
est ock</w>
▁subst ances</w>
▁s enti
▁rem ember</w>
▁inqu ir
▁g ets</w>
ang ible</w>
▁moun tain</w>
▁implem enting</w>
▁en roll
y un</w>
is tics</w>
ag ers</w>
▁vac u
▁los ses</w>
▁d ead</w>
▁certif ication</w>
▁Y ou
p er</w>
ir ae</w>
1 3</w>
▁y ong</w>
▁pro of</w>
▁fir m</w>
▁belong ing</w>
▁alb um</w>
▁C ar
ri end</w>
▁sh ock</w>
n eum
ag eous</w>
C s</w>
▁strength ened</w>
▁sh ot</w>
▁imp r
▁en l
▁ba g</w>
▁S ystem</w>
oth ers</w>
▁h owever</w>
▁ful f
▁enc ryp
▁el se</w>
▁dir ected</w>
▁H a</w>
tr ations</w>
es tr
▁there by</w>
▁f it</w>
▁equival ent</w>
▁co h
▁car efully</w>
▁beg in</w>
▁P an
▁C ode</w>
us es</w>
▁interview s</w>
▁attit udes</w>
it ability</w>
▁mon etary</w>
▁construc ted</w>
▁cons ulting</w>
▁Ch urch</w>
s a</w>
osc opic</w>
it ably</w>
▁spea k</w>
▁pay ments</w>
▁issu ance</w>
▁disc re
▁d uc
▁all ocation</w>
▁Soci ety</w>
▁Ar ts</w>
▁superv ision</w>
▁att end
▁24 th</w>
res h</w>
olog ic</w>
n am
es tion</w>
▁war ning</w>
▁ge om
▁f o
▁equ ipped</w>
▁sh ift</w>
▁ref ug
▁prog ression</w>
▁prof ile</w>
▁coun ter</w>
▁continu ing</w>
▁adm itted</w>
▁K ak
yro id</w>
g age</w>
▁targ eting</w>
▁st ead
▁res pir
▁lith ium</w>
rea t</w>
▁sl ow</w>
▁j ung</w>
▁consider able</w>
▁S un
▁Organ ization</w>
▁H ous
▁Equ ation</w>
▁exem ption</w>
▁appl ies</w>
▁200 5</w>
tion ary</w>
s eong</w>
od ed</w>
▁respon ded</w>
▁quantit ative</w>
▁por tions</w>
▁o st
▁C N
t c
▁underw ent</w>
▁in equ
▁discover ed</w>
▁cancell ation</w>
▁uni form</w>
▁run s</w>
▁requir ement</w>
▁incor por
▁bab y</w>
▁ass essed</w>
▁U K</w>
▁C D
▁Austral ia</w>
on ds</w>
▁ges ture</w>
▁5 4</w>
▁4 6</w>
u x
▁vacu um</w>
▁extr act</w>
▁cl ient</w>
▁car eful</w>
equ ent</w>
▁prot oc
▁piec es</w>
▁comb us
▁attr act</w>
▁A pp
in ity</w>
▁vac c
▁sp ending</w>
▁sc ored</w>
▁rel ief</w>
▁dis ability</w>
▁c ra
▁ass ault</w>
▁Ro h</w>
▁Con v
oc urr
g s</w>
▁ver ified</w>
▁sub way</w>
▁perf ect</w>
ok es
l ines</w>
▁tick et</w>
▁hy e</w>
▁ex emp
▁Dyn asty</w>
▁scienti fic</w>
▁photograph ing</w>
▁Stud ents</w>
in d
▁se iz
▁may or</w>
▁ev ap
▁I D</w>
ti sing</w>
▁push ed</w>
▁per p
▁S P
▁tal king</w>
▁subs cri
▁st ations</w>
▁s ix
▁ob st
▁k il
▁fir ms</w>
▁comm itted</w>
▁categ or
▁Che on
ti al</w>
ren e
omm un
ep rene
ay ment</w>
▁gen r
▁Pea ce</w>
ick en</w>
▁produc ing</w>
▁in ver
▁f ea
▁diagn ostic</w>
▁22 nd</w>
om in
ever th
a c</w>
▁coll ective</w>
▁S E
▁M ong
▁A S
▁6 0
everth eless</w>
air ed</w>
ag s</w>
▁stead ily</w>
▁mer ch
▁low ered</w>
▁comm ents</w>
▁ath l
▁Russi an</w>
j e</w>
ici ans</w>
▁negl igence</w>
▁clos ing</w>
▁bank rup
▁st ar</w>
▁m igr
▁inves tments</w>
▁Moun tain</w>
▁M ul
an o</w>
▁util ize</w>
▁liter acy</w>
▁ar tist</w>
if ic</w>
ect ure</w>
▁em ail</w>
▁d ed
▁Y outh</w>
igh ted</w>
en ever</w>
▁subst ance</w>
▁sal ary</w>
▁l ighting</w>
▁cryst al</w>
▁G im
▁En ter
f ication</w>
am p</w>
▁wavel ength</w>
▁practic es</w>
▁hep at
▁extr a</w>
▁star ts</w>
▁lif elong</w>
▁doc tor</w>
▁demons trated</w>
▁Cons truction</w>
ati zation</w>
▁exp ressions</w>
▁dev iation</w>
▁H otel</w>
▁4 7</w>
▁f ear</w>
▁C R
z e</w>
b u</w>
▁su ffici
▁por table</w>
▁in p
▁help ed</w>
▁dem ocratic</w>
▁cou ple</w>
▁Ind ia</w>
f riend</w>
▁sol utions</w>
▁sen ding</w>
▁guarant eed</w>
▁bloc ks</w>
A C
▁pow der</w>
▁invol ving</w>
▁fam iliar</w>
str eam</w>
▁ultras ound</w>
▁r ay</w>
▁la u
▁ch est</w>
▁b reas
▁5 3</w>
▁inves ted</w>
▁eng ineering</w>
▁G ames</w>
▁12 2</w>
unic ipal</w>
▁reg ime</w>
u si
o electric</w>
ep tions</w>
ec ommun
▁week end</w>
▁rev olution</w>
▁n m</w>
▁conduc tivity</w>
yl in
▁ta bl
▁spac ed</w>
▁f ashion</w>
▁bl eeding</w>
▁D on</w>
l ity</w>
▁v enue</w>
▁rec on
▁displ ays</w>
▁Sec urities</w>
▁J ust</w>
h o</w>
▁repor ters</w>
▁lat est</w>
▁inv est</w>
▁bound ary</w>
▁Mus eum</w>
▁C itiz
2 5</w>
▁see ing</w>
▁rad io</w>
▁p neum
▁join tly</w>
▁datab ase</w>
▁criter ion</w>
▁begin s</w>
▁bas eball</w>
▁b ed</w>
▁W est</w>
um m
et o</w>
▁tal ent</w>
▁rol es</w>
▁orig in</w>
▁l ose</w>
▁ins ulation</w>
▁conven ient</w>
▁H a
▁prin ting</w>
ee ts</w>
an eous</w>
am b
▁tr igg
▁substanti ally</w>
▁see king</w>
▁inflamm ation</w>
▁fac ilit
▁child care</w>
▁assist ance</w>
am in</w>
▁st ro
▁lect ures</w>
▁inequ ality</w>
▁d inner</w>
▁arrang ement</w>
▁N evertheless</w>
eg et
anc ement</w>
▁μ m</w>
▁s uddenly</w>
▁p utting</w>
▁eng aged</w>
▁dom in
▁custom ized</w>
▁adap tation</w>
▁repl ace</w>
▁qual itative</w>
▁int ensive</w>
▁coun ties</w>
▁ar ise</w>
▁M iddle</w>
▁4 9</w>
ib eral</w>
▁un kn
▁subsidi ary</w>
▁ecos ystem</w>
▁bi o</w>
▁Chil dren</w>
os en</w>
ic ates</w>
▁s inc
uc h
en tr
▁view ing</w>
▁rem ained</w>
▁cap tured</w>
▁c ylin
▁Wh ite</w>
▁N a</w>
g es</w>
▁t esting</w>
▁pos s
▁Kor eas</w>
▁29 th</w>
i ers</w>
es sions</w>
▁ul tim
▁tr eat</w>
▁rein forc
ti ous</w>
pl ing</w>
▁symb ol</w>
▁pro ve</w>
▁el astic</w>
▁decl aration</w>
▁const antly</w>
▁bi as</w>
▁Rev olution</w>
▁HB V</w>
ow on</w>
ov ascular</w>
ord ers</w>
n e</w>
▁kid ney</w>
▁cons tr
▁Th ose</w>
▁Se ong</w>
▁G oo
▁Canad a</w>
▁Ag ricultural</w>
1 5</w>
▁seiz ure</w>
▁pres et</w>
▁disc on
▁dem ocracy</w>
▁a im</w>
▁S ea</w>
▁Prosec utors</w>
tc y</w>
il ateral</w>
▁transpl antation</w>
▁bir th
▁ag ree</w>
▁accoun ted</w>
▁L ine</w>
▁pil ot</w>
▁in n
▁gr ant</w>
▁form al</w>
▁c utting</w>
▁T 2
▁In c
ym ph
al es</w>
▁piec e</w>
▁det ecting</w>
▁En ergy</w>
▁l abor
▁dec omp
ef s</w>
al ing</w>
▁vis ible</w>
▁u ps</w>
▁ins truction</w>
▁induc e</w>
▁dum my</w>
▁crypt ocurr
p i
j eong</w>
▁stand ard
▁en able</w>
▁di alogue</w>
▁dang erous</w>
▁D M
h ol
et te</w>
eli hood</w>
▁exchang er</w>
▁disp osal</w>
ch er</w>
a sis</w>
▁moun ting</w>
▁imm une</w>
▁f ill</w>
▁expr essing</w>
▁dr y</w>
o y</w>
am entary</w>
▁subs titu
▁requ ests</w>
▁purch ased</w>
▁answ ered</w>
organ ic</w>
ap h
▁st er
▁sprea ding</w>
▁ear th
▁counter m
▁C H
ye o</w>
▁was tes</w>
▁un l
▁oper ates</w>
▁mix ture</w>
▁f aster</w>
▁T ra
▁Fir e</w>
▁F il
▁Ad d
▁vis ion</w>
▁m others</w>
▁deal ing</w>
▁Inves tment</w>
os an</w>
▁rej ected</w>
▁hand ed</w>
▁expec ts</w>
▁constitu tion</w>
▁S ang
▁M otor</w>
ch ron
ar ch
▁sp ons
▁prim e</w>
▁overl ap</w>
▁incen tives</w>
▁design ation</w>
▁br on
▁adv ice</w>
m onary</w>
ent um</w>
▁super ior</w>
▁s id
▁ob taining</w>
▁di versi
▁clos er</w>
▁D ata</w>
3 1</w>
▁w ill
▁liv estock</w>
▁in organic</w>
▁conn ect</w>
▁autom atic</w>
▁Goo gle</w>
▁G DP</w>
m en</w>
▁su it</w>
▁man power</w>
▁list ening</w>
▁law yer</w>
▁cl oud</w>
▁L ike</w>
▁perman ent</w>
▁inher itance</w>
▁f ish
▁distr icts</w>
▁describ ing</w>
▁answ ers</w>
▁K y
▁H ead
▁C ould</w>
ri ers</w>
al k</w>
▁senti ment</w>
▁encour age</w>
▁dr ea
▁cond ens
▁form at</w>
▁commerc i
▁bi opsy</w>
▁adver tising</w>
▁U S
▁v eget
▁stat ements</w>
▁f er
▁e x</w>
▁O E
▁6 4</w>
l ying</w>
ch i</w>
b o</w>
▁vic tory</w>
▁imm er
▁canc el</w>
▁biom etric</w>
ad es</w>
▁volati lity</w>
▁t end</w>
▁o d
▁nec k</w>
▁exc ess</w>
▁ep is
▁bro ken</w>
▁5 10</w>
is ture</w>
▁infring ement</w>
▁h omes</w>
▁fos ter</w>
▁dep ends</w>
▁clim ate</w>
▁ch osen</w>
▁bor der</w>
▁U r
▁G ra
ox ide</w>
▁remov ing</w>
▁pres erv
▁gol f</w>
▁expl ains</w>
▁en th
▁conc rete</w>
▁Y u</w>
▁St atis
▁G eum
▁A ll
▁inev itably</w>
▁g ains</w>
▁deb tor</w>
▁b all
▁13 1</w>
▁th ous
▁t es
▁ref erring</w>
▁mand atory</w>
▁evalu ating</w>
▁accept ance</w>
▁[ [</w>
v e
estin al</w>
▁re verse</w>
▁pref erence</w>
▁lo ts</w>
▁focus es</w>
▁cap ture</w>
▁] ]</w>
h ae</w>
ea ble</w>
b e</w>
▁smartph ones</w>
▁shar ply</w>
▁sh ipping</w>
▁res ign
▁Econom y</w>
▁treat ments</w>
▁ret ros
▁res ection</w>
▁pas ses</w>
▁organ ize</w>
▁fib rosis</w>
▁b ending</w>
▁Exam ples</w>
▁BB B</w>
ur i</w>
ere in</w>
e un
▁soldi ers</w>
▁reac tions</w>
▁r ain
▁passeng er</w>
▁mon itor</w>
▁abnorm al</w>
▁ab and
▁B ro
▁sa ve</w>
▁n ice</w>
▁inc l
▁Con c
▁suspic ion</w>
▁netw orks</w>
▁F oll
n gs</w>
▁sh op</w>
▁sh ips</w>
▁hand ling</w>
▁expl ore</w>
▁advant ages</w>
▁7 2</w>
or ated</w>
ec tivity</w>
e ung
▁s at
▁gen e</w>
▁coord inate</w>
▁applic ants</w>
▁subs equent</w>
▁resc ue</w>
▁mo isture</w>
▁S atur
▁Bra z
▁subpar agraph</w>
▁six th</w>
▁shar p</w>
▁p ump</w>
▁entr eprene
▁U sing</w>
▁M E
▁I I
▁A C
vers ity</w>
b all</w>
▁philosoph y</w>
▁parli amentary</w>
▁pancre atic</w>
▁ma ss
▁inj ured</w>
▁hol der</w>
▁exc eeded</w>
▁be ings</w>
▁al umin
▁Pati ents</w>
▁Ir an</w>
▁3 4
▁tur ning</w>
▁equ ality</w>
▁dist or
▁dead line</w>
▁coun t</w>
▁8 5</w>
em a</w>
ard en</w>
I S</w>
▁protr usion</w>
▁C P
iti m
▁te en
▁reg en
▁ic on</w>
▁bon ding</w>
▁attrac ted</w>
▁vir us</w>
▁r hyth
▁newspap er</w>
▁grow n</w>
▁car cinoma</w>
▁Th ree</w>
▁P A
▁A D
in ks</w>
▁r an</w>
▁mom entum</w>
▁extr eme</w>
▁differ ential</w>
▁cam p</w>
▁Sub s
▁N o
▁Go yang</w>
ro c
R A
▁tow ards</w>
▁taxp ayer</w>
▁sec ret</w>
▁co pper</w>
▁J ang
er wise</w>
b al</w>
▁schol ars</w>
▁circ ular</w>
▁Fam ily</w>
oo k
▁out standing</w>
▁notif ied</w>
▁end eav
▁do g</w>
▁behavi ors</w>
▁specim en</w>
▁retur ns</w>
▁repor ter</w>
▁p eer</w>
▁nar row</w>
▁custom s</w>
▁compar ative</w>
▁comm itment</w>
▁The ater</w>
▁St e
▁unc l
▁prot ected</w>
▁p ure</w>
▁happ en</w>
▁gradu ates</w>
▁ads orption</w>
▁Form er</w>
P D</w>
▁pregn ant</w>
▁acc essi
▁Tur k
▁ori entation</w>
▁mov ements</w>
▁inter ior</w>
▁distin c
▁brief ing</w>
▁O b
▁N av
▁5 G</w>
or ate</w>
▁tum ors</w>
▁trans formation</w>
▁t un
▁t ox
▁ingredi ents</w>
▁contro versi
it ual</w>
h es</w>
eo m</w>
en th</w>
▁unkn own</w>
▁tea ch</w>
▁restric ted</w>
▁respir atory</w>
▁pr o</w>
▁discipl inary</w>
▁Head quarters</w>
R I</w>
▁sh if
▁nur ses</w>
▁key w
▁b ound</w>
▁S eok</w>
▁NA F
or n</w>
▁st one</w>
▁posi tively</w>
▁d ark</w>
▁Mal ay
▁3 5
▁unem ployment</w>
▁strateg ic</w>
▁prof essors</w>
▁favor able</w>
▁experim ents</w>
▁et ching</w>
▁arch it
▁Ge un</w>
▁vis its</w>
▁suffici ently</w>
▁subpar agraphs</w>
▁n it
▁P D
▁E st
u th
e or
▁star s</w>
▁manip ulation</w>
▁d op
y al</w>
▁sub ord
▁serv es</w>
▁s tic
▁n av
▁leg itim
▁comm em
▁b ills</w>
▁K T</w>
▁strong er</w>
▁inv al
▁O ffic
▁G ol
▁6 2</w>
ud den</w>
eu tic</w>
ed y</w>
ac le</w>
▁t ro
▁out let</w>
▁molec ular</w>
▁add itionally</w>
til ity</w>
t un
▁techn ological</w>
▁ir on</w>
▁h idden</w>
▁alleg ations</w>
▁a irc
or der</w>
▁mal ign
▁lat ter</w>
▁he ated</w>
▁e ase</w>
▁def ine</w>
▁Malay si
ul s
▁protoc ol</w>
▁investig ations</w>
▁On ce</w>
▁I P
ul us</w>
osc opy</w>
ect omy</w>
▁univers al</w>
▁fr anch
▁flow s</w>
▁cardi ovascular</w>
▁accel er
▁P ower</w>
ta sis</w>
in ations</w>
▁sis ter</w>
▁sec onds</w>
▁power ful</w>
▁peri od
▁inst all</w>
▁f ever</w>
▁deal t</w>
▁P ort</w>
▁Mong ol
t om</w>
▁viol ations</w>
▁out l
▁exp ir
is ional</w>
▁uncertain ty</w>
▁pro xim
▁intern et</w>
▁emp ty</w>
▁adminis tered</w>
▁Prot ection</w>
▁3 50</w>
a x</w>
▁sign ing</w>
▁r h
▁n early</w>
▁l ease</w>
▁e un</w>
▁di electric</w>
▁compet encies</w>
▁You T
▁I tal
y ong</w>
ic yc
▁workpl ace</w>
▁str ike</w>
▁p al
▁believ es</w>
▁S T
▁In nov
ut ation</w>
i ors</w>
for ce</w>
0 2</w>
▁tel ecommun
▁hyper tension</w>
▁decreas ing</w>
▁ch ea
▁T eam</w>
wh ere</w>
ul ative</w>
c on
▁fing er</w>
is or</w>
eu tical</w>
▁th anks</w>
▁syn chron
▁kindergart ens</w>
▁h eter
▁c ool</w>
▁BM I</w>
iz er</w>
is on
ing ness</w>
▁t own</w>
▁subsi dy</w>
▁gr anted</w>
▁canc eled</w>
▁L eg
▁5 6</w>
▁v aries</w>
▁fa ith</w>
▁di versity</w>
▁def ect</w>
▁bl ind</w>
▁ad equ
▁ackn owled
us ing</w>
r at
▁s ea
▁op tions</w>
▁o kay</w>
▁mir ror</w>
▁inf ants</w>
▁St and
▁OE CD</w>
▁B as
v ement</w>
oun ce</w>
▁s udden</w>
▁r ational</w>
▁mess ages</w>
▁fin ancing</w>
▁bankrup tcy</w>
▁J oon</w>
▁th yroid</w>
▁r ig
▁favor ite</w>
▁ear ned</w>
▁decl ared</w>
▁car ds</w>
▁6 1</w>
ol ism</w>
▁un ex
▁sh ip
▁refl ective</w>
▁cen tr
▁Af ric
o es</w>
▁reorgan ization</w>
▁mean time</w>
▁gen etic</w>
▁dep ar
▁aff ecting</w>
▁abs orption</w>
▁Y our</w>
b ed</w>
al ists</w>
▁trav eling</w>
▁top ics</w>
▁str ing</w>
▁sim ulation</w>
▁prem i
▁inter s
▁infl ation</w>
▁hospit alization</w>
▁f resh</w>
▁enac ted</w>
▁antib ody</w>
▁airc raft</w>
▁F ram
ri ve</w>
ar m</w>
▁s ulf
▁roo t</w>
▁preced ent</w>
▁fa ith
▁def ects</w>
▁commun ities</w>
ur o</w>
▁wor se</w>
▁purch asing</w>
▁endeav or</w>
▁el as
▁dec entr
ati n</w>
F A</w>
▁remar k
▁pres enting</w>
▁pas sive</w>
▁enth usi
▁P E
▁15 1</w>
tr act</w>
ar c
▁review s</w>
▁refriger ator</w>
▁land sc
▁l ymph
▁disapp eared</w>
▁Str ateg
if f</w>
g ar</w>
▁gras p</w>
▁enjo yed</w>
▁emphasiz es</w>
▁ad verse</w>
ir th</w>
aem un</w>
▁uncl ear</w>
▁rul ed</w>
▁interf erence</w>
▁g ained</w>
▁S om
▁tr eas
▁sh r
▁m eat</w>
▁exam ining</w>
▁eth ics</w>
▁earth qu
▁compl iance</w>
▁af ter
m irae</w>
erea fter</w>
e f</w>
ack et</w>
F C</w>
▁wh er
▁val u
▁un n
▁suppl ies</w>
▁port al</w>
▁kindergart en</w>
▁g am
▁esc ape</w>
▁dou b
▁disp utes</w>
▁achiev ements</w>
as ses</w>
▁spea king</w>
▁par ad
▁no tic
▁lun ch</w>
▁g ather</w>
▁dra ft</w>
▁det ector</w>
▁cryptocurr ency</w>
▁combus tion</w>
▁Sim il
▁Int ell
▁E C
▁Bo ard</w>
re d
▁withdraw al</w>
▁comfor table</w>
▁circ le</w>
▁Fr iday</w>
▁Exam ple</w>
vers ely</w>
I D</w>
2 3</w>
▁sa v
▁offici ally</w>
▁comp ly</w>
▁J un</w>
il ian</w>
gn ment</w>
1 a</w>
▁util izing</w>
▁t ension</w>
▁str ict</w>
▁log istics</w>
▁ded icated</w>
▁cred itor</w>
▁S e</w>
▁Conv ention</w>
over ty</w>
▁m ill
▁cons isting</w>
▁accommod ation</w>
▁T2 DM</w>
▁NAF LD</w>
s eo</w>
ed ding</w>
ac c
▁prec eding</w>
▁passeng ers</w>
▁extrem ely</w>
▁comm ission</w>
▁v el
▁sou thern</w>
▁is land</w>
▁ev ening</w>
▁c ab
▁F ourth</w>
1 4</w>
▁ir reg
▁f ed
▁exhaus t</w>
▁ch icken</w>
▁S elf</w>
▁Ro ad</w>
▁w ook</w>
▁spec ies</w>
▁pros pective</w>
▁irr ad
▁gradu ate</w>
▁Th ereafter</w>
▁Es pecially</w>
▁Ba ek
▁orig inally</w>
▁l ay
▁alleg ed</w>
▁S oon</w>
▁G al
▁D A
or ter</w>
ig ar
b s</w>
▁util ized</w>
▁st ea
▁rev eal</w>
▁part ner</w>
▁l ux
▁bus es</w>
▁T em
▁G ir
▁5 9</w>
ta ek</w>
e ated</w>
D S</w>
▁p en</w>
▁meth od
▁c ited</w>
▁J oo</w>
▁Dis c
▁C ong
in k
▁nit rogen</w>
▁ins titute</w>
▁duc t</w>
▁c able</w>
▁Indon esia</w>
ic ular</w>
▁serv ing</w>
▁inconven ience</w>
▁comb ining</w>
▁bloc ked</w>
▁Fram ework</w>
▁D ru
u ition</w>
▁will ingness</w>
▁m i</w>
▁hard ware</w>
▁artis tic</w>
▁al ign
▁H ist
x es</w>
▁wel ding</w>
▁wat ched</w>
▁su ffer</w>
▁sol id
▁les ions</w>
▁behavi oral</w>
▁S und
▁P roduc
▁P ri
▁Ar ticles</w>
in ates</w>
▁sustain able</w>
▁l et
▁gu ard
▁every day</w>
▁di e</w>
▁conditi oner</w>
▁Dep ending</w>
▁A ud
u ous</w>
n eung</w>
▁tri ang
▁tempor arily</w>
▁rec over</w>
▁offer ed</w>
▁nar r
▁met a</w>
▁fin ish</w>
▁den ied</w>
▁En g
▁Cons um
▁A P
inc es</w>
▁revit alize</w>
▁caus al</w>
▁ar th
▁alumin um</w>
▁Ph ili
▁Phili pp
▁Ba ek</w>
wh a</w>
▁g ear</w>
▁deep ly</w>
▁advertis ement</w>
▁5 7</w>
re ement</w>
in ite</w>
0 3</w>
▁wat er
▁shoo ting</w>
▁resul ted</w>
▁pl ed
▁kn ew</w>
▁enc oun
▁Contro l</w>
os s</w>
en n
▁t ired</w>
▁suppl em
▁sid ew
▁fair ness</w>
▁cre ates</w>
▁bur d
▁P op</w>
▁Mexic o</w>
▁M usic</w>
▁Chungch eong</w>
ig ent</w>
estiv als</w>
eor ological</w>
at t
▁outp uts</w>
▁m eals</w>
▁fea sibility</w>
▁exac tly</w>
▁class ical</w>
▁c av
0 b</w>
▁ther eto</w>
▁regul ated</w>
▁prog ram
▁nov el</w>
▁magn itude</w>
▁f ight</w>
▁diab etic</w>
▁Super visory</w>
▁Coll ege</w>
ist ent</w>
▁v en
▁retur ning</w>
▁pr a
▁m old</w>
▁exec ute</w>
▁conf usion</w>
▁beg un</w>
▁U s
▁Ind epend
l ip
▁om itted</w>
▁n erv
▁invol vement</w>
▁3 6
ing d
▁wor ld
▁or dinance</w>
▁interl ayer</w>
▁the ories</w>
▁p overty</w>
▁inser tion</w>
▁clus ter</w>
▁4 30</w>
▁temper atures</w>
▁help ing</w>
▁cred itors</w>
▁c igar
▁bal anced</w>
▁b odies</w>
▁! !</w>
ens hip</w>
I N
▁tr acking</w>
▁reson ance</w>
▁imp ose</w>
▁distingu ish</w>
▁deduc tion</w>
▁bin ding</w>
▁attach ment</w>
▁T ok
▁Satur day</w>
▁C ol
h wa</w>
all ey</w>
▁tick ets</w>
▁resid ual</w>
▁fr ag
▁b ear</w>
▁Gyeong nam</w>
▁19 4
i efs</w>
▁therap eutic</w>
▁t ac
▁mar ine</w>
▁cont em
▁S umm
▁S O
▁A ward</w>
tr ib
ec ess
▁rec ep
▁prem ise</w>
▁R O
▁Cheon an</w>
tic ity</w>
od er</w>
h an</w>
▁tur b
▁proc eeds</w>
▁mus eum</w>
▁compet ent</w>
▁br idge</w>
▁H ae</w>
ep ti
▁sy mm
▁sal t</w>
▁m es
▁exc eeds</w>
▁compl icated</w>
▁col or
▁Hw as
l ands</w>
ey ed</w>
▁scen ari
▁negoti ation</w>
▁harm ony</w>
▁h in
▁exc lusion</w>
▁en v
▁di ode</w>
▁design ate</w>
▁circ ulation</w>
▁Inst ead</w>
▁7 1</w>
ter ies</w>
si vely</w>
r itis</w>
▁′ ′</w>
▁tax able</w>
▁ste ering</w>
▁represent ation</w>
▁g all
▁compr essor</w>
▁Pyeong taek</w>
▁G un</w>
▁0 5</w>
u ght</w>
im ming</w>
i ated</w>
an der</w>
▁unc ons
▁purs ue</w>
▁m ice</w>
▁g ri
▁concep tual</w>
▁citiz en</w>
z ym
in o</w>
▁wor ry</w>
▁tol er
▁mist ake</w>
▁lov ed</w>
▁dro pped</w>
▁dem anded</w>
▁c um
▁S ohn</w>
▁Mon day</w>
yl ene</w>
truc turing</w>
▁sh ut
▁f estivals</w>
▁dri vers</w>
▁contr ad
▁compr ised</w>
▁am id</w>
▁Viet nam
▁Vietnam ese</w>
▁9 00</w>
▁syst ematically</w>
▁str eam</w>
▁st ance</w>
▁specif ication</w>
▁restric tion</w>
▁mem ories</w>
▁k yung</w>
▁ju ven
▁gl yc
▁Stud ies</w>
▁Sp ea
▁C al
▁Adminis trative</w>
o e</w>
▁flow ing</w>
▁autom obile</w>
▁S 2
▁Hall yu</w>
▁us ual</w>
▁s ang</w>
▁don ations</w>
▁cover age</w>
▁ch an</w>
▁advertis ements</w>
▁a qu
▁Un ification</w>
▁La w
▁J udg
▁D id</w>
▁19 0</w>
im chi</w>
▁wh om</w>
▁sh ops</w>
▁mark ed</w>
▁instruc tors</w>
▁great est</w>
▁cons isted</w>
un ded</w>
uls ory</w>
sh ips</w>
h oon</w>
ab oration</w>
▁sc at
▁inves tor</w>
▁doll ar</w>
▁collap se</w>
▁as th
▁R ule</w>
▁19 5
og s</w>
ic ed</w>
i et</w>
▁un us
▁termin als</w>
▁sec re
▁real istic</w>
▁prov ed</w>
▁prosec utors</w>
▁inv ited</w>
▁a esth
▁S ol
▁M i</w>
v ir</w>
l or
iz z
ass ad
▁prov inces</w>
▁lea kage</w>
▁diplom atic</w>
▁applic ant</w>
▁L i
▁Bar eun
id ays</w>
D A</w>
▁vit amin</w>
▁sp okes
▁mur der</w>
▁advant ageous</w>
▁YouT ube</w>
▁Gl obal</w>
▁Bareun mirae</w>
▁vo ices</w>
▁summ ary</w>
▁pers u
▁inquir y</w>
▁frac tures</w>
▁ac et
ploy ed</w>
ensi vely</w>
▁sn ow</w>
▁progn osis</w>
▁occurr ing</w>
▁obj ection</w>
▁fur n
▁differenti ated</w>
▁cosm etics</w>
▁conver t</w>
▁H ol
▁A L
▁11 4</w>
ul ator</w>
tion ally</w>
f unction</w>
▁sc and
▁ha ven</w>
▁experi encing</w>
▁child b
▁chem otherapy</w>
erc ul
ass ment</w>
▁volunt arily</w>
▁der iv
▁dep end
▁comp ression</w>
▁31 st</w>
agn etic</w>
▁str ic
▁electro m
▁Commun ity</w>
▁6 3</w>
g r
▁th erefore</w>
▁O ver
▁wh enever</w>
▁smoo thly</w>
▁sam pling</w>
▁pres cription</w>
▁low ering</w>
▁log ical</w>
▁fre ez
▁dis orders</w>
▁complex es</w>
▁comp u
▁vill ages</w>
▁min or</w>
▁mic ro</w>
▁fac t
▁d rew</w>
▁allow ance</w>
▁HC V</w>
M A</w>
▁prog ressive</w>
▁med iation</w>
▁lif est
▁fe els</w>
▁exp ense</w>
▁assist ant</w>
▁M A
os t
ons hip</w>
▁immedi ate</w>
▁enroll ed</w>
▁brea king</w>
▁am ounts</w>
▁Y i</w>
▁Academ y</w>
u an</w>
▁explan atory</w>
▁en t
o id
m ar
ar r
1 c</w>
▁m ission</w>
▁imp ed
▁im port</w>
▁h iring</w>
▁flow ers</w>
▁W e
▁P omp
▁Im p
▁5 20</w>
ul l</w>
▁syst emic</w>
▁st eam</w>
▁scen es</w>
▁inf er
▁eth ical</w>
▁dr unk</w>
▁controversi al</w>
▁ch apter</w>
▁5 8</w>
y si
our se</w>
ch ange</w>
a ug
▁pres ervation</w>
▁mis s
▁br ands</w>
▁Hous ing</w>
▁H ak</w>
▁E S
ill a</w>
▁har assment</w>
▁un p
▁rea d
▁r ace</w>
▁harm ful</w>
▁gl ob
▁em otion</w>
▁dismis sed</w>
▁constr ain
▁b icyc
▁ar rive</w>
▁V ol
▁K OS
um ed</w>
m in</w>
▁rep ayment</w>
▁rea dy</w>
▁prev ented</w>
▁pref er</w>
▁instruc tions</w>
▁enh ancing</w>
▁corr ected</w>
▁c up</w>
▁Subs equently</w>
▁R A
▁N owon</w>
ot ype</w>
▁viol ated</w>
▁s lu
▁rest oration</w>
▁loo p</w>
▁comp ulsory</w>
▁ag riculture</w>
▁O L
▁Je ong
▁Foll owing</w>
z ed</w>
am ics</w>
▁recover ed</w>
▁r um
▁minis try</w>
▁citiz enship</w>
▁Cap ital</w>
0 0
▁subscri bers</w>
▁res tructuring</w>
▁num er
▁des cribe</w>
▁d ried</w>
▁d e</w>
▁R yu</w>
▁H eung</w>
▁10 4</w>
e up</w>
M S</w>
3 2</w>
▁mod ules</w>
▁im ported</w>
▁dep osition</w>
▁cy t
▁con j
▁budg etary</w>
▁ar m</w>
▁F ish
▁El ementary</w>
w ol</w>
▁sequ entially</w>
▁id eal</w>
▁far m</w>
▁diff usion</w>
▁asth ma</w>
▁acc ompl
▁Jeoll a</w>
ra is
eal ed</w>
a sive</w>
▁transm itter</w>
▁public ly</w>
▁num erous</w>
▁her itage</w>
▁b id
▁approach es</w>
▁applic able</w>
or able</w>
in ating</w>
▁suppl ementary</w>
▁sa ving</w>
▁predic ting</w>
▁labor atory</w>
▁hur t</w>
▁hol idays</w>
▁extrac tion</w>
▁ch ose</w>
▁bel ongs</w>
▁Dec l
▁ch ul</w>
▁D C</w>
▁C er
▁200 4</w>
ic als</w>
c om
2 4</w>
▁wh eel</w>
▁ta ught</w>
▁synth es
▁im ports</w>
▁bigg er</w>
▁Seong nam</w>
▁P oh
▁Olymp ics</w>
▁B ig</w>
ot ors</w>
▁± ±</w>
▁sing ing</w>
▁recons truction</w>
▁re vers
▁qual ification</w>
▁overl apping</w>
▁loc ations</w>
▁in let</w>
▁h ot
▁f ighting</w>
▁T B</w>
▁Innov ation</w>
▁vel oc
▁unex pec
▁se w
▁review ing</w>
▁prot ecting</w>
▁heal th
▁fac ed</w>
▁en zym
▁co ast</w>
▁13 2</w>
it ud
ecess ary</w>
▁under lying</w>
▁judg ing</w>
▁hol ds</w>
▁he ater</w>
▁b ow
▁ag gre
▁N a
▁M y
ur er</w>
in et</w>
eo p</w>
at er
▁sem i</w>
▁se al</w>
▁gener ations</w>
▁distingu ished</w>
▁cur ved</w>
▁coh ort</w>
▁al k
▁Sh im</w>
▁New s</w>
▁Fil m</w>
▁10 5</w>
ing ton</w>
arg o</w>
▁pul monary</w>
▁instruc tor</w>
▁deteri oration</w>
▁R F</w>
▁B TS</w>
o x</w>
in a</w>
▁was n</w>
▁upd ate</w>
▁t ested</w>
▁su gar</w>
▁o v
▁neighb oring</w>
▁mechan isms</w>
▁j oon</w>
▁cop y</w>
▁ann ually</w>
▁ab und
▁Poh ang</w>
▁J ong
▁wher eas</w>
▁sign ature</w>
▁schol ar
▁reduc es</w>
▁oth erwise</w>
▁lo g</w>
▁k ing</w>
▁imp osition</w>
▁bas ically</w>
▁Christi an</w>
itt ance</w>
in als</w>
at ers</w>
▁slu gg
▁doc tors</w>
▁Ste p</w>
▁Decl aration</w>
▁6 8</w>
ul ness</w>
C A</w>
▁weap ons</w>
▁r iver</w>
▁r ar
▁analyz es</w>
▁an al
▁alloc ated</w>
▁Pr iv
▁Kak ao</w>
▁II I</w>
▁G or
▁20 s</w>
▁11 5</w>
t ant</w>
p yeong</w>
g ate</w>
e em</w>
E A
▁y ield</w>
▁offer ing</w>
▁fol k</w>
▁comm erce</w>
▁cer amic</w>
▁as c
▁ab ilities</w>
▁9 9</w>
▁l ap
▁induc tion</w>
▁exc av
▁compens ate</w>
▁br ight</w>
▁ann ounce</w>
▁V R</w>
▁L ED</w>
our self</w>
ak en</w>
9 0</w>
▁succ eeded</w>
▁purs ued</w>
▁pos to
▁let ters</w>
▁gas tro
▁econom ics</w>
▁d L</w>
▁ass a
▁R eal</w>
▁6 7</w>
ur ies</w>
ill er</w>
▁str ea
▁is n</w>
▁h orm
▁g aining</w>
▁fav or</w>
▁elas ticity</w>
▁confirm ing</w>
▁childb irth</w>
▁certif ied</w>
▁ac tu
re ds</w>
pl us</w>
on ate</w>
oc king</w>
ess ly</w>
ari ffs</w>
ari ate</w>
▁teen agers</w>
▁b its</w>
▁b eat</w>
▁N S
▁K o</w>
h ouse</w>
ercul osis</w>
▁y ellow</w>
▁measur ements</w>
▁divid end</w>
▁discon tin
▁counterm easures</w>
▁Tok yo</w>
▁P T
▁Met eorological</w>
▁t ariffs</w>
▁strug gl
▁ne utr
▁long itud
▁comfor t</w>
▁D P
ub s</w>
or ney</w>
et h</w>
ap s
▁d ic
▁Fur ther</w>
▁Ch us
p t</w>
form ing</w>
et al</w>
▁util ity</w>
▁st em</w>
▁sett led</w>
▁push ing</w>
▁prom ised</w>
▁nar row
▁mix ing</w>
▁d ual</w>
▁cont am
▁co ex
▁bu ying</w>
▁breas t</w>
▁ban king</w>
und reds</w>
ent y</w>
▁recogn izing</w>
▁instr ument</w>
▁i l</w>
▁bul l
▁L ove</w>
▁Gang neung</w>
▁Ex change</w>
g i
▁t ons</w>
▁sugg esting</w>
▁sl ope</w>
▁sav ings</w>
▁ext ending</w>
▁expect ation</w>
▁dis order</w>
▁cul tures</w>
▁bi ological</w>
▁be er</w>
▁Strateg y</w>
w ater</w>
ru ption</w>
ol ved</w>
b ing</w>
ath s</w>
▁rec t
▁conver ter</w>
▁T H
▁P C</w>
▁H o</w>
▁Ch amp
▁7 3</w>
▁6 6</w>
t own</w>
in qu
b rea
▁premi ums</w>
▁man if
▁in aug
▁fun ding</w>
▁fac es</w>
p on</w>
p a</w>
▁tur ns</w>
▁t ar
▁subs cription</w>
▁sil ver</w>
▁f ast
▁ex tingu
▁aw arded</w>
▁auth ors</w>
▁Wor kers</w>
▁Wh ether</w>
▁W ed
▁G iven</w>
▁Ba sic</w>
▁200 2</w>
yr ight</w>
oc ked</w>
eu k
0 5</w>
▁writ er</w>
▁s ought</w>
▁fin es</w>
▁stat utes</w>
▁n odes</w>
▁W o
▁Citiz ens</w>
bl ing</w>
app ropri
▁world wide</w>
▁trad ition</w>
▁stro ke</w>
▁p ill
▁differenti ation</w>
▁child hood</w>
▁Th ail
▁Thail and</w>
▁St adium</w>
▁Am id</w>
▁11 3</w>
un der
R T</w>
▁sever ity</w>
▁sc ri
▁gu il
▁f ail</w>
▁del icious</w>
▁cor ner</w>
▁Y un</w>
▁Sen ior</w>
▁F ree</w>
▁Chang won</w>
▁rar ely</w>
▁ph ones</w>
▁n or</w>
▁m ild</w>
▁antib io
▁Par agraph</w>
▁O peration</w>
per s
ic ted</w>
assad or</w>
▁y ourself</w>
▁prob ably</w>
▁mod erate</w>
▁mat urity</w>
▁in form</w>
▁disadvant age</w>
▁deliber ate</w>
▁aud iences</w>
▁T reat
▁S L
▁H on
▁An san</w>
▁4 50</w>
a es
▁w ear
▁viol ating</w>
▁saf ely</w>
▁preced ents</w>
▁micro sc
▁Gra nd</w>
▁6 10</w>
▁symb ols</w>
▁recogn izes</w>
▁man ual</w>
▁gre w</w>
▁fl ower</w>
▁day care</w>
▁Z one</w>
▁Se och
▁L A
y ang
ro t
it ely</w>
g e
▁w ake</w>
▁valu able</w>
▁ha p
▁forec ast</w>
▁exc eption</w>
▁dis asters</w>
▁affili ates</w>
▁Pri or</w>
▁An y</w>
▁A s
▁sch ematic</w>
▁j ae</w>
▁flo ating</w>
▁An aly
n o</w>
▁provid er</w>
▁mob il
▁mat ches</w>
▁fail s</w>
▁demons tration</w>
▁W ith
▁Str eet</w>
▁Nor thern</w>
D A
▁vess el</w>
▁enh anced</w>
▁Inves tig
t ability</w>
o T</w>
ist an</w>
▁st acked</w>
▁los ing</w>
▁inj ected</w>
▁fl ag</w>
▁elev ated</w>
▁consist ently</w>
▁coll aboration</w>
▁co al</w>
▁ass ess</w>
▁L ear
▁J es
por ary</w>
ec onom
aus al</w>
▁was hing</w>
▁th esis</w>
▁succ ession</w>
▁so il</w>
▁reac tor</w>
▁org an</w>
▁inform ed</w>
▁dis ag
▁depos ited</w>
▁Wed n
▁B el
tion ing</w>
om er
o ted</w>
1 6</w>
▁scand al</w>
▁mem ber
▁bel ong</w>
▁Reg ional</w>
▁Ap ple</w>
ed s</w>
▁s in
▁rea ching</w>
▁n om
▁individ ually</w>
▁identif ying</w>
▁en ters</w>
▁cons ol
▁co ated</w>
▁Gre en</w>
▁Bur eau</w>
▁B L
ough ly</w>
▁veloc ity</w>
▁v ar
▁un st
▁targ eted</w>
▁provid ers</w>
▁predic tive</w>
▁pos ture</w>
▁isol ation</w>
▁govern ed</w>
▁genr e</w>
▁D M</w>
▁Chus eok</w>
j o</w>
iver s</w>
ail s</w>
▁up ward</w>
▁sign aling</w>
▁rhyth m</w>
▁respec tive</w>
▁hab its</w>
▁est eem</w>
▁birth day</w>
▁Philipp ines</w>
▁Exc ept</w>
▁D e
ij ing</w>
gn am</w>
er age</w>
ec tives</w>
ans ori</w>
anc er</w>
▁win ner</w>
▁pros pec
▁marg in</w>
▁lea gue</w>
▁def icit</w>
▁ar tery</w>
▁Med ium</w>
▁I oT</w>
▁B ea
op ausal</w>
m ented</w>
ec e</w>
ati s</w>
a it</w>
▁w edding</w>
▁unn ecessary</w>
▁rot ating</w>
▁on to</w>
▁n od
▁les ion</w>
▁i ons</w>
▁ar my</w>
▁Yong san</w>
▁Sund ay</w>
▁199 0s</w>
w ork</w>
S H</w>
▁suppl ement</w>
▁opp on
▁lux ury</w>
▁far ms</w>
▁del inqu
▁conn ector</w>
▁b ags</w>
▁all erg
▁Pa ju</w>
▁C are</w>
▁26 0</w>
▁vess els</w>
▁ultras onic</w>
▁lea ves</w>
▁fed eral</w>
▁f all
▁ampl ifier</w>
▁accel eration</w>
▁X i</w>
▁W ater</w>
▁Spea ker</w>
▁Pl anning</w>
▁Eng ineering</w>
▁Be ijing</w>
C H</w>
▁requir ing</w>
▁polym er
▁particip ant</w>
▁p in</w>
▁exc eeding</w>
▁deb ut</w>
▁ch a
▁attrib utes</w>
▁anc ient</w>
▁Sur v
▁4 4
in ent</w>
er arch
en sions</w>
an ol</w>
▁u plo
▁th rom
▁reli able</w>
▁prot e
▁phenomen a</w>
▁member ship</w>
▁mas sive</w>
▁lim iting</w>
▁indir ectly</w>
▁a er
▁Y eon</w>
▁S S
▁Conf uc
▁20 1</w>
m ark</w>
ig ation</w>
R D</w>
I C</w>
▁tom ography</w>
▁thor oughly</w>
▁longitud inal</w>
▁fat ty</w>
▁bel ief</w>
▁T ot
▁Al ong</w>
▁27 0</w>
2 a</w>
▁α α</w>
▁w alls</w>
▁terror ism</w>
▁tal ked</w>
▁subsid ize</w>
▁ser iously</w>
▁sear ched</w>
▁rel ax
▁ref used</w>
▁incen tive</w>
▁h undreds</w>
▁gath ering</w>
▁develop mental</w>
▁cum ulative</w>
▁allow ances</w>
▁ad ip
▁M otors</w>
▁200 3</w>
▁12 3</w>
z ens</w>
trib ution</w>
ici ency</w>
V s</w>
▁shap es</w>
▁p H</w>
▁n itr
▁hap tic</w>
▁down town</w>
▁Sev eral</w>
ir es</w>
b uilding</w>
▁rou tes</w>
▁minis tries</w>
▁mic roph
▁l yr
▁b ent</w>
r i</w>
▁transform ed</w>
▁sh iel
▁m unicipal</w>
▁fi erce</w>
▁ev ac
▁coll abor
▁a ro
▁Wedn esday</w>
▁P ension</w>
urr y</w>
i able</w>
and is</w>
P A</w>
▁unus ual</w>
▁sk ill</w>
▁sacr ific
▁rep ly</w>
▁pain tings</w>
▁mut atis</w>
▁m ent
▁f ake</w>
▁concen trations</w>
▁co ding</w>
▁bron ch
▁bat tle</w>
▁analy ses</w>
▁L as
▁J o</w>
ir al</w>
ic ating</w>
az e</w>
▁smo ke</w>
▁sho es</w>
▁r ub
▁ne ural</w>
▁mut andis</w>
▁h ub</w>
▁diff ers</w>
▁H ang
▁Chungch eong
▁14 2</w>
▁surv e
▁real ization</w>
▁eng age</w>
▁en ables</w>
▁dispat ched</w>
▁discus sing</w>
▁decentr alization</w>
▁Ye ou
▁I V</w>
▁Ch a</w>
en ary</w>
▁sh orter</w>
▁regen eration</w>
▁prov en</w>
▁W ash
▁H ave</w>
▁Buddh ist</w>
rop s</w>
a id</w>
▁v ag
▁por tr
▁pneum onia</w>
▁opp osed</w>
▁l ies</w>
▁l ane</w>
▁kn owing</w>
▁fe et</w>
▁dis hes</w>
▁c argo</w>
▁an ticip
▁U I</w>
▁S in
▁Pl an</w>
▁Ex p
▁E th
▁D r
▁21 1</w>
id ate</w>
▁sw imming</w>
▁ref er
▁prol ong
▁prob e</w>
▁priv acy</w>
▁polar ization</w>
▁necess arily</w>
▁l iberal</w>
▁harm on
▁fib ers</w>
▁down ward</w>
▁beh alf</w>
▁attend ance</w>
▁Priv ate</w>
▁Gyeong buk</w>
▁G un
▁3 0s</w>
s u</w>
▁spec ific
▁sec tions</w>
▁pic k</w>
▁mee ts</w>
▁l ob
▁interp ret</w>
▁infl ow</w>
▁dis tur
▁cap ability</w>
▁Sp ain</w>
▁Rev iew</w>
▁Jes us</w>
▁Ever y
▁Chr ist
▁4 5
▁10 3</w>
zz le</w>
un ior</w>
oc ard
ing e</w>
G F
▁spec tr
▁phys ics</w>
▁ost eo
▁merch ants</w>
▁k i</w>
▁initi ally</w>
▁hum idity</w>
▁ep id
▁dec eased</w>
▁accum ulation</w>
▁Tem ple</w>
▁P D</w>
y mm
▁transpar ency</w>
▁suppl ying</w>
▁qu ick</w>
▁oper ational</w>
▁o l
▁gas tric</w>
▁comp artment</w>
▁athl etes</w>
▁Mar ine</w>
▁12 5</w>
▁uni form
▁un ified</w>
▁s essions</w>
▁ra ises</w>
▁ob v
▁met er</w>
▁guarant ees</w>
▁discl ose</w>
▁def ining</w>
▁colon ial</w>
▁be aring</w>
▁Ur ban</w>
▁Reg ulations</w>
or ph
or hood</w>
▁z ones</w>
▁w arm
▁op en
▁hi erarch
▁emp athy</w>
▁eas ing</w>
▁displ ac
▁ar ises</w>
▁Particip ants</w>
z en</w>
enti l
▁w ealth</w>
▁renew able</w>
▁pack et</w>
▁min ority</w>
▁lifest yle</w>
▁ins titutes</w>
▁heal ing</w>
▁fir ef
▁deal s</w>
▁chec ks</w>
▁certif icates</w>
▁I L</w>
▁G o</w>
ec tious</w>
▁t ea</w>
▁sk y</w>
▁sinc er
▁prohib ited</w>
▁pret ty</w>
▁norm ally</w>
▁neg atively</w>
▁mil k</w>
▁gif ted</w>
▁displ aying</w>
▁cons equ
▁Pro g
▁Hwas eong</w>
▁Comp etition</w>
▁200 1</w>
t d</w>
eed ings</w>
L C</w>
▁tre ating</w>
▁off line</w>
▁mul til
▁interv als</w>
▁h ike</w>
▁foun ded</w>
▁don ated</w>
▁M O
on a</w>
▁wor r
▁prop os
▁f ati
▁ess ence</w>
▁8 2</w>
▁p eti
▁ha z
▁fluctu ations</w>
▁earthqu ake</w>
▁discover y</w>
▁coll ea
▁char t</w>
▁Yeou ido</w>
▁Pomp eo</w>
▁Malaysi a</w>
▁E d
▁Braz il</w>
w er</w>
▁v eter
▁suspic ions</w>
▁sing ers</w>
▁mort gage</w>
▁landsc ape</w>
▁hon or</w>
▁form ulate</w>
▁di etary</w>
▁Th anks</w>
▁L td</w>
▁H app
▁Comp an
▁Aut onom
fl ow</w>
▁un ve
▁st om
▁sch eme</w>
▁fr uit</w>
▁dim ension</w>
▁bo ost</w>
▁attrib uted</w>
▁at oms</w>
▁abol ished</w>
▁8 4</w>
oph ag
o pl
h ed</w>
▁str i
▁standard ized</w>
▁off set</w>
▁tr ain
▁slugg ish</w>
▁re ward</w>
▁le g</w>
▁k eeping</w>
▁infr ared</w>
▁improv es</w>
▁Pre fer
▁N ong
▁Ad v
ell a</w>
T O</w>
▁requ esting</w>
▁pun ished</w>
▁poli tic
▁estim ates</w>
▁entr ust</w>
▁W on
▁For est</w>
▁C r
▁C M
▁3 60</w>
▁3 40</w>
ter ial</w>
oo th</w>
m un
ill ance</w>
d f
as si
am a</w>
▁unc omfor
▁str ange</w>
▁st ack</w>
▁mis under
▁gra nd</w>
▁for um</w>
▁f ro
▁camer as</w>
▁Teach ers</w>
it ary</w>
as tasis</w>
▁tub erculosis</w>
▁transl ation</w>
▁th ank</w>
▁proc eedings</w>
▁posto perative</w>
▁obs erve</w>
▁instr uments</w>
▁inf ected</w>
▁dr ying</w>
▁coll ision</w>
▁bri b
▁aut o</w>
▁M ilitary</w>
▁8 1</w>
o ir</w>
▁work sh
▁view point</w>
▁v entil
▁shou lder</w>
▁sat ell
▁resist ant</w>
▁r om
▁prof itability</w>
▁int entions</w>
▁epis ode</w>
▁de aths</w>
▁d ign
rol og
i k</w>
for tun
ee ing</w>
ach e</w>
▁win s</w>
▁unst able</w>
▁subsidi aries</w>
▁stor ing</w>
▁sec ret
▁manufactur er</w>
▁emph asis</w>
▁bo y</w>
▁Re p</w>
▁Prev ention</w>
▁Fed eral</w>
por ting</w>
el v
b rid</w>
ag on</w>
▁tar iff</w>
▁st aying</w>
▁s ick</w>
▁retros pective</w>
▁responsi bilities</w>
▁pharmac eutical</w>
▁mod eling</w>
▁high l
▁Ye on
▁Mat ters</w>
▁Han wha</w>
▁Exper ts</w>
▁Ch un</w>
▁B ang</w>
ul ted</w>
tion ality</w>
om as</w>
▁norm s</w>
▁foo tball</w>
▁fati gue</w>
▁det ects</w>
▁cover ing</w>
▁conduc tor</w>
▁attrib ute</w>
▁acc ordingly</w>
▁Wash ington</w>
▁P P
▁CO PD</w>
ot a</w>
or ary</w>
k et
▁str et
▁investig ative</w>
▁hand led</w>
▁evap or
▁enl arg
▁di oxide</w>
▁b an</w>
▁Industr ies</w>
▁Compan ies</w>
▁7 6</w>
▁under ground</w>
▁taxp ayers</w>
▁surv eys</w>
▁mon opol
▁med ication</w>
▁arg ue</w>
▁W ould</w>
▁The ir</w>
▁I g
▁Ch ar
▁C us
m ic</w>
T R</w>
▁uncomfor table</w>
▁equ ations</w>
▁des truction</w>
▁benef icial</w>
▁arg uments</w>
▁Yong in</w>
▁Seoch o</w>
▁Pro per
▁Ac tor</w>
▁3 7
m as</w>
ec tional</w>
D s</w>
D L</w>
▁s ounds</w>
▁mar itime</w>
▁Ab ove</w>
ocy tes</w>
bl es</w>
▁un ions</w>
▁synth esis</w>
▁l inking</w>
▁g one</w>
▁fact ories</w>
▁entrus tment</w>
▁c ope</w>
▁c a
▁I ts</w>
▁Her itage</w>
▁G ood</w>
▁D S
▁7 4</w>
ul p
oun ded</w>
o ice</w>
g ues</w>
▁sw eet</w>
▁subc on
▁govern ing</w>
▁distinc t</w>
▁decl ined</w>
▁arbitr ary</w>
▁appropri ately</w>
▁An g
i ant</w>
▁v ascular</w>
▁kil om
▁fe wer</w>
▁del eted</w>
▁cons ist</w>
▁calc ium</w>
▁attrac tion</w>
▁ads orb
▁acqu iring</w>
▁S U
▁I N
▁F TA</w>
▁Ever y</w>
l in
ing ing</w>
ak ehol
▁rest ore</w>
▁pleas ant</w>
▁e up</w>
▁dec oding</w>
▁bacter ia</w>
▁agre ements</w>
▁M an</w>
uc e</w>
t op</w>
n ia</w>
h w
e ity</w>
ax y</w>
▁sur p
▁res erve</w>
▁pl enary</w>
▁cyc l
▁br acket</w>
▁Star ting</w>
▁Proc ed
▁P M
▁D rea
▁7 8</w>
u ate</w>
id ated</w>
▁≥ ≥</w>
▁unexpec ted</w>
▁met astasis</w>
▁health care</w>
▁electr ons</w>
▁def ault</w>
▁c ap</w>
▁Independ ence</w>
▁Coo peration</w>
▁9 1</w>
▁typ hoon</w>
▁slow ly</w>
▁doc um
▁accessi bility</w>
▁P ost</w>
n y</w>
ber g</w>
an am</w>
▁t ech</w>
▁subord inate</w>
▁startu ps</w>
▁recyc ling</w>
▁m ood</w>
▁k e
▁dys function</w>
▁correl ated</w>
▁Ag riculture</w>
n ament</w>
▁vari ance</w>
▁tal ents</w>
▁sit ting</w>
▁sel ectively</w>
▁rail way</w>
▁pow ers</w>
▁mol ding</w>
▁ill ness</w>
▁earn ings</w>
▁depos its</w>
▁Prefer ably</w>
▁Gyeongsang nam</w>
▁trou ble</w>
▁t ends</w>
▁narr ative</w>
▁ide ology</w>
▁expir ation</w>
▁em itted</w>
▁ec ological</w>
▁conf r
▁ch eol</w>
▁apprec iate</w>
▁all oy</w>
▁S y
▁S V
▁Mod el</w>
▁Am az
titu tional</w>
ond o</w>
o perative</w>
it or
ar a</w>
▁v otes</w>
▁j u</w>
▁human ities</w>
▁Sw ed
▁Ch ild</w>
▁Ar my</w>
▁Add itionally</w>
v ol
l ey</w>
ac ific</w>
▁s ook</w>
▁s ealing</w>
▁peri ods</w>
▁mob ility</w>
▁law yers</w>
▁inf ections</w>
▁increas ingly</w>
▁imag ination</w>
▁fabr ic</w>
▁expendit ures</w>
▁cultiv ate</w>
▁agg ressive</w>
▁R A</w>
▁9 2</w>
ul atory</w>
1 7</w>
▁remark able</w>
▁r ide</w>
▁pen e
▁fe at
▁ch rom
▁bu yer</w>
▁ap olog
▁D et
▁10 6</w>
es tions</w>
1 9</w>
▁w estern</w>
▁tur n
▁th ir
▁roo f</w>
▁ris es</w>
▁respon ding</w>
▁p ool</w>
▁p ack</w>
▁neighb orhood</w>
▁n eph
▁gr an
▁ear th</w>
▁dism iss
▁depend ence</w>
▁bur ied</w>
tit ude</w>
r esses</w>
atr ic</w>
as ted</w>
▁w ra
▁t ip</w>
▁ox id
▁need le</w>
▁mag az
▁compu ters</w>
▁compreh ensively</w>
▁bat teries</w>
▁Res idents</w>
▁Pres idential</w>
▁M ad
▁K n
▁5 30</w>
k ets</w>
g oing</w>
T s</w>
▁wear able</w>
▁v ein</w>
▁sp ouse</w>
▁sev enth</w>
▁seg ment</w>
▁rec r
▁h un
▁distin ction</w>
▁dem ographic</w>
▁bran ches</w>
▁all ev
▁T el
▁Pol i
▁J oint</w>
▁8 3</w>
▁4 3
re ars</w>
lu sions</w>
ib ri
ib ly</w>
econom ic</w>
▁w illing</w>
▁rob ots</w>
▁prolong ed</w>
▁hy gi
▁cre w</w>
▁claim ing</w>
▁circ les</w>
▁af ra
▁afra id</w>
▁Jeoll anam</w>
▁Att ention</w>
oc c
k m</w>
g ang</w>
ag er</w>
T E</w>
▁pursu ing</w>
▁parti tion</w>
▁int angible</w>
▁in e
▁des crip
▁compet ence</w>
▁anal og</w>
▁Som e
▁Ma j
▁M RI</w>
▁Las tly</w>
▁D an
▁B ae</w>
▁14 1</w>
ti ll
onal ism</w>
ison ment</w>
b al
as an</w>
▁tel eph
▁incl ined</w>
▁hom ogen
▁g arden</w>
▁f illing</w>
▁der ive</w>
▁cl ubs</w>
▁cat ch</w>
▁bro w
▁ar rears</w>
▁W in
▁T own</w>
i us</w>
en tive</w>
I A</w>
▁st akehol
▁spokes man</w>
▁rein forcement</w>
▁qual ifications</w>
▁m oon</w>
▁j un</w>
▁dismiss al</w>
▁cr ack
▁I S
▁C V
▁Bro ad
▁6 9</w>
y alty</w>
ump ing</w>
ul l
ud ing</w>
qu is
em n
aw ei</w>
▁underg oing</w>
▁surve illance</w>
▁specific ity</w>
▁recons truc
▁ox idation</w>
▁mis s</w>
▁microph one</w>
▁fall en</w>
▁enc aps
▁coll ateral</w>
▁clar ify</w>
▁aw ards</w>
▁an tig
▁amb ig
▁H b
▁Br idge</w>
on able</w>
es ides</w>
▁supp osed</w>
▁sem in
▁r o</w>
▁r ank</w>
▁m ys
▁ins isted</w>
▁impr isonment</w>
▁imped ance</w>
▁des c
▁R om
▁Proper ty</w>
▁Hu awei</w>
▁Christ mas</w>
z b
it ch
▁t ears</w>
▁st ood</w>
▁spectr um</w>
▁sol o</w>
▁shiel ding</w>
▁r ally</w>
▁prot est</w>
▁jo ining</w>
▁inv asion</w>
▁inst alling</w>
▁gro ss</w>
▁conver ting</w>
▁T A
▁S o
▁P as
▁K O
▁F uture</w>
ez z
et tes</w>
▁s it</w>
▁inter actions</w>
▁graph ene</w>
▁flex ibility</w>
▁drea ms</w>
▁collap sed</w>
▁clin ic</w>
▁caf e</w>
▁boo k
▁Stud ent</w>
▁R ob
▁Gang seo</w>
▁Cl in
▁7 7</w>
si n</w>
od i
ic ian</w>
▁treas ury</w>
▁s izes</w>
▁po is
▁in appropri
▁gre en
▁estim ating</w>
▁dim ensions</w>
▁dang er</w>
▁breat hing</w>
▁acqu ain
▁R E
▁Hb A
▁B re
▁9 6</w>
u ff
ili ation</w>
h a</w>
A s</w>
▁urg ed</w>
▁un reas
▁tro ops</w>
▁tour nament</w>
▁inst ability</w>
▁hy brid</w>
▁gu ess</w>
▁com ment</w>
▁arbitr ation</w>
▁K wang</w>
▁Fish eries</w>
si l</w>
e ight</w>
▁th row
▁satisf y</w>
▁det ach
▁constrain ts</w>
▁11 9</w>
r essing</w>
r ase</w>
ific ant</w>
ear ance</w>
▁vis c
▁ultim ately</w>
▁tor que</w>
▁scenari o</w>
▁n erve</w>
▁method ology</w>
▁mar ks</w>
▁issu ing</w>
▁fun eral</w>
▁electrom agnetic</w>
▁Tr ad
▁Intell igence</w>
▁I l</w>
▁I R</w>
rais al</w>
ac ts</w>
O 2</w>
▁vari ation</w>
▁sent ences</w>
▁refug ees</w>
▁por ous</w>
▁path s</w>
▁p our
▁mar tial</w>
▁j oo</w>
▁inf ectious</w>
▁id ol</w>
▁fil ming</w>
▁compet e</w>
▁cl ause</w>
▁O ffici
od ium</w>
ingd om</w>
en z
b ly</w>
az a</w>
▁spl it</w>
▁sa d</w>
▁reveal s</w>
▁publ ication</w>
▁occup ation</w>
▁kn ee</w>
▁intell igent</w>
▁inspec tions</w>
▁inher ited</w>
▁heter ogen
▁happ ens</w>
▁grad uation</w>
▁fu sion</w>
▁facilit ate</w>
▁cop yright</w>
▁Cheong ju</w>
op ar
h eung</w>
▁won der</w>
▁regul arly</w>
▁rec ession</w>
▁over wh
▁mat ched</w>
▁manufactur ers</w>
▁hom et
▁fir m
▁emb ezz
▁aqu eous</w>
▁ang er</w>
▁abol ition</w>
▁T im
▁6 20</w>
▁3 8
▁200 0s</w>
▁198 0s</w>
it us</w>
ag g
▁wor st</w>
▁st ere
▁scre w</w>
▁resign ation</w>
▁ra il</w>
▁perc eptions</w>
▁overwh el
▁abund ant</w>
▁abs tract</w>
▁Sa ud
▁S or
▁M ath
▁Dis aster</w>
uc tion</w>
il ibri
igh ter</w>
N E
▁symp tom</w>
▁prec ip
▁encryp tion</w>
▁deleg ation</w>
▁constitu ting</w>
▁bu yers</w>
▁aut umn</w>
▁adv is
▁Offici als</w>
▁8 7</w>
um i</w>
u i</w>
oc ellular</w>
hib ition</w>
f f</w>
▁β β</w>
▁tiss ues</w>
▁thor ough</w>
▁substanti al</w>
▁str ain</w>
▁serv ants</w>
▁prom ising</w>
▁prom ise</w>
▁pas si
▁franch ise</w>
▁div or
▁S us
▁S il
▁P acific</w>
▁HbA 1c</w>
▁For um</w>
al uation</w>
▁recip ients</w>
▁p ig
▁nerv ous</w>
▁fil es</w>
▁fem oral</w>
▁disapp oin
▁bo at</w>
▁b re
▁b ath
▁adv isory</w>
▁U zb
▁Mar itime</w>
r ess
in oph
eas ing</w>
ati le</w>
▁relig ion</w>
▁ph rase</w>
▁nutr ition</w>
▁m all</w>
▁fos tering</w>
▁ex it</w>
▁eth n
▁brief ly</w>
or ative</w>
itt ees</w>
in ery</w>
▁v ap
▁unm anned</w>
▁rej ection</w>
▁rati ngs</w>
▁par ental</w>
▁ma k
▁g rid</w>
▁cav ity</w>
▁K E
▁Ear lier</w>
▁A uth
s l
ic ting</w>
enti onally</w>
▁up coming</w>
▁t ens
▁sen iors</w>
▁mem orial</w>
▁dis si
▁coord ination</w>
▁compl eting</w>
▁S qu
▁M ic
▁Int egr
▁Ex pr
▁Comm and</w>
▁Amaz on</w>
uch eon</w>
uc ks</w>
r el
e time</w>
▁tra um
▁pas sw
▁illeg ally</w>
▁dign ity</w>
▁cloth ing</w>
▁cho osing</w>
▁S al
▁S A
▁P at
▁H ome</w>
ul ent</w>
ot yp
ilibri um</w>
▁un li
▁pen alties</w>
▁magn et</w>
▁mac ro
▁gu est</w>
▁fluor esc
▁fil ing</w>
▁equ ally</w>
▁contrib uting</w>
▁circum fer
▁c ake</w>
▁b ile</w>
▁N ex
▁C el
▁C ath
oc ket</w>
▁musc les</w>
▁mor ality</w>
▁environ ments</w>
▁consi ders</w>
▁comp rom
▁bro ad</w>
▁aband oned</w>
▁K ia</w>
▁F our</w>
▁Ch os
c m</w>
and w
am ine</w>
ab ul
▁unli kely</w>
▁th reat</w>
▁subc omm
▁rang ing</w>
▁phosph or
▁mater n
▁lat eral</w>
▁kn ows</w>
▁k yu</w>
▁immigr ants</w>
▁expl oration</w>
▁c ere
▁adhes ion</w>
▁I mm
▁H ong
▁C K
or ship</w>
igh ters</w>
f y</w>
er b
bo k</w>
ati ent</w>
▁reg ret</w>
▁pri or
▁disc ourse</w>
▁contrib utions</w>
▁comp os
▁Saud i</w>
▁L ibr
▁Gw an
k l
h aps</w>
end ers</w>
▁w est</w>
▁sel ler</w>
▁ris en</w>
▁pr on
▁l isting</w>
▁instruc tional</w>
▁destro yed</w>
▁conc lusions</w>
▁Turk ey</w>
▁7 0
yc emia</w>
of f</w>
f ol
C T</w>
▁ur ine</w>
▁transist ors</w>
▁prol if
▁domin ant</w>
▁d ogs</w>
▁bu b
▁ad en
▁Environ mental</w>
omfor t</w>
n ight</w>
▁superv isory</w>
▁str eets</w>
▁occup ational</w>
▁ind ication</w>
▁c u
▁aud itor</w>
▁M o
um es</w>
ul ty</w>
h ere</w>
▁vir tually</w>
▁propos als</w>
▁prefer ential</w>
▁molec ules</w>
▁liter ary</w>
▁interp re
▁inc umb
▁gir ls</w>
▁g il</w>
▁enjo ying</w>
▁b ilateral</w>
▁Th urs
▁Sou theast</w>
▁Par is</w>
▁P O
▁J ung
▁Ear th</w>
▁Commun ication</w>
ir s</w>
ag on
1 b</w>
▁viol ate</w>
▁univer se</w>
▁lyr ics</w>
▁inv ent
▁int ense</w>
▁inappropri ate</w>
▁fix ation</w>
▁enc oding</w>
▁bur eau</w>
▁attrac tive</w>
▁Tr aining</w>
▁R en
▁M S
▁Comm erce</w>
▁Chun gnam</w>
n esses</w>
il eg
O s</w>
D F</w>
▁s u</w>
▁s outh</w>
▁id en
▁guidel ine</w>
▁ev asion</w>
▁dism ant
▁ass embl
▁Gor yeo</w>
▁Gal axy</w>
y friend</w>
ell o</w>
▁trans c
▁supplem ented</w>
▁struc tured</w>
▁spac er</w>
▁sear ching</w>
▁ro yal</w>
▁r ip
▁pr ide</w>
▁pat ch</w>
▁p e
▁neighb ors</w>
▁encour aged</w>
▁cr u
▁co ach
▁circ uits</w>
▁b ever
▁b erea
▁app oint</w>
▁V alley</w>
▁Sh ow</w>
▁D ance</w>
▁9 8</w>
w ondo</w>
is s</w>
h am</w>
an ch</w>
▁strug gle</w>
▁sch ematically</w>
▁pl ates</w>
▁on set</w>
▁off ers</w>
▁nor th</w>
▁k een</w>
▁har m</w>
▁ge un</w>
▁exchang ed</w>
▁emphasiz e</w>
▁c ut
▁bel iefs</w>
▁M er
▁Ital y</w>
▁H ead</w>
▁Engl and</w>
▁A P</w>
▁8 6</w>
i osity</w>
arb age</w>
an es</w>
▁upd ated</w>
▁struggl ing</w>
▁stric tly</w>
▁sel ective</w>
▁recr uit</w>
▁rea ches</w>
▁mis sed</w>
▁langu ages</w>
▁jud iciary</w>
▁du pl
▁de ems</w>
▁cho ices</w>
▁challeng es</w>
▁b in</w>
▁air line</w>
▁Surv ey</w>
▁Ins pec
▁Del iberation</w>
▁Comp ar
ol u
▁sc anning</w>
▁inf inite</w>
▁imp ression</w>
▁i l
▁exemp ted</w>
▁Stand ards</w>
▁Over all</w>
▁K oo</w>
▁I M
▁H ar
ox y</w>
el ial</w>
ac t
▁th ick</w>
▁st ands</w>
▁st adium</w>
▁rect ang
▁radi us</w>
▁prop ose</w>
▁m yung</w>
▁jo y</w>
▁her self</w>
▁fr action</w>
▁exhib itions</w>
▁er ad
▁describ es</w>
▁d eh
▁cur ious</w>
▁comb ines</w>
▁Song pa</w>
▁L ik
as m</w>
▁stom ach</w>
▁re imb
▁random ly</w>
▁organ izing</w>
▁n ative</w>
▁maxim ize</w>
▁inver ter</w>
▁emb ar
▁bel t</w>
▁ac tress</w>
▁Jo b</w>
▁Dru g</w>
▁A v
▁8 8</w>
y t
ie z
ic it
g u
ch estr
R A</w>
D I</w>
▁r ib
▁probl ematic</w>
▁poll ut
▁off ense</w>
▁li k
▁k illing</w>
▁induc ing</w>
▁hon orary</w>
▁h h</w>
▁down lo
▁co inc
▁St ar</w>
▁Par tic
im al</w>
e ating</w>
c el
▁s tir
▁or th
▁justif ication</w>
▁isol ated</w>
▁incumb ent</w>
▁exclud e</w>
▁correspon d
▁consum ed</w>
▁col ored</w>
▁circumfer ential</w>
▁as ymm
▁accompan ying</w>
▁academ ia</w>
▁St ore</w>
▁M oo</w>
▁J ud
ous tic</w>
at o</w>
an tic</w>
▁vir tu
▁reinforc ing</w>
▁produc es</w>
▁offici o</w>
▁mark er</w>
▁har v
▁cylin der</w>
▁c reat
▁ag es</w>
▁add iction</w>
▁M P
▁Lear ning</w>
▁Il bo</w>
or e
om ic</w>
a king</w>
M P</w>
▁throm b
▁tes tim
▁synchron ization</w>
▁sur plus</w>
▁revit alization</w>
▁resist or</w>
▁recommend ations</w>
▁protr uding</w>
▁mach ines</w>
▁cour ts</w>
▁cen tering</w>
▁K w
▁Han oi</w>
▁Est abl
tr ates</w>
p ed</w>
og raph</w>
es el</w>
T P</w>
▁tr ained</w>
▁t one</w>
▁suc tion</w>
▁rep utation</w>
▁re un
▁h al
▁equ ilibrium</w>
▁e g
▁disc over</w>
▁commun ications</w>
▁aesth etic</w>
▁V al
▁Thurs day</w>
▁Sing er</w>
▁OL ED</w>
▁J u</w>
▁In come</w>
w r
f r
en ous</w>
bl ed</w>
ang h
▁termin ation</w>
▁teleph one</w>
▁stea dy</w>
▁scholar ship</w>
▁recip ient</w>
▁oppon ent</w>
▁n ood
▁integr ity</w>
▁in tim
▁imp aired</w>
▁gu ided</w>
▁fir es</w>
▁enac tment</w>
▁div ide</w>
▁confr ont
▁categor ized</w>
▁associ ations</w>
▁academ y</w>
▁T u
▁S u</w>
▁S C
▁E g
▁21 2</w>
o ids</w>
ap o</w>
▁volunt eers</w>
▁subcon trac
▁lo yalty</w>
▁gen es</w>
▁g arbage</w>
▁exc ep
▁cur iosity</w>
▁constitu ent</w>
▁comp ounds</w>
▁bicyc le</w>
▁assum ption</w>
▁achiev ing</w>
ou ldn</w>
ket ball</w>
int estinal</w>
▁w ild</w>
▁w af
▁short age</w>
▁sc oring</w>
▁p iez
▁non vol
▁m ention</w>
▁l ed
▁civ ilian</w>
▁ch lor
▁cardi ac</w>
▁att orney</w>
▁R ural</w>
▁O S</w>
▁Mongol ia</w>
▁B uilding</w>
▁vis u
▁t uition</w>
▁sup er</w>
▁rol l</w>
▁parad ig
▁miss ile</w>
▁inf il
▁in h
▁accep ting</w>
▁U SA</w>
▁R ed</w>
▁Gyeongsang buk</w>
▁F re
▁Consum er</w>
▁Br anch</w>
os ter
on ym
ee k</w>
a pped</w>
▁transpl ant</w>
▁purch ases</w>
▁nonvol atile</w>
▁m om</w>
▁gu ard</w>
▁d ur
▁coord inates</w>
▁compl ained</w>
▁Chos un</w>
▁4 40</w>
▁199 7</w>
im ent</w>
ek wondo</w>
▁vir al</w>
▁r ays</w>
▁ph ysi
▁ori ental</w>
▁med al</w>
▁l acking</w>
▁inhib itors</w>
▁gr amm
▁entir ely</w>
▁diag rams</w>
▁Gir ls</w>
▁F F
▁Enter pr
ur ement</w>
ogl ob
f erence</w>
▁r ac
▁evapor ator</w>
▁design s</w>
▁consult ations</w>
▁cons ervation</w>
▁chol ester
▁ch at</w>
▁benef iciary</w>
▁C ri
uc k
P I</w>
▁succ eed</w>
▁soci ally</w>
▁pois oning</w>
▁nan opar
▁k imchi</w>
▁inter c
▁fl av
▁fe ed</w>
▁en ding</w>
▁d egr
▁cy ber</w>
▁M ok
▁Jong no</w>
▁8 10</w>
oo den</w>
eb o</w>
▁termin ated</w>
▁stip ulate</w>
▁startu p</w>
▁rest ored</w>
▁produc ers</w>
▁par ks</w>
▁f in</w>
▁e ast</w>
▁cul tivation</w>
▁coll ector</w>
▁altern atives</w>
▁U N</w>
▁Se wol</w>
▁Maj or</w>
ra v
en ues</w>
e ud
▁ultr a</w>
▁rea der</w>
▁pen insula</w>
▁manufac ture</w>
▁juven ile</w>
▁fa ult</w>
▁b id</w>
▁acquain t
▁Partic ularly</w>
l er
il ization</w>
co in</w>
2 8</w>
1 8</w>
▁stir r
▁s over
▁reason ing</w>
▁pr int</w>
▁keyw ords</w>
▁hear ts</w>
▁depar ture</w>
▁ass ume</w>
▁Yeong d
▁H am
tif ied</w>
j ud
icit ly</w>
d ays</w>
d aemun</w>
I P</w>
▁st ake</w>
▁sew age</w>
▁sc ulp
▁rem in
▁no zzle</w>
▁legitim ate</w>
▁inn oc
▁improv ements</w>
▁h wa</w>
▁gra vity</w>
▁cou ples</w>
▁berea ved</w>
▁au g
▁an tiv
▁an esth
▁Tw itter</w>
▁Proced ure</w>
▁P OS
▁Math ematic
▁Afric a</w>
R E
▁wav e
▁unf am
▁surv eyed</w>
▁st ayed</w>
▁recep tor</w>
▁produc er</w>
▁plat forms</w>
▁nutr itional</w>
▁m m
▁dep end</w>
▁conclud e</w>
▁Wh ich</w>
▁N e
▁B ucheon</w>
or thy</w>
▁weak ness</w>
▁unreas onable</w>
▁trav el
▁tex ture</w>
▁pul l</w>
▁phys ically</w>
▁perp etr
▁gu ests</w>
▁geom etry</w>
▁fr ames</w>
▁discipl ine</w>
▁det ention</w>
▁a h</w>
▁T yp
▁N on</w>
▁Des ign</w>
▁Da ew
ogen esis</w>
l ers</w>
in sic</w>
ain age</w>
▁tem ple</w>
▁sub d
▁pas sion</w>
▁medi ating</w>
▁dissi p
▁c iting</w>
▁as pir
▁ac oustic</w>
▁S 3
▁O k
▁Jeon ju</w>
▁7 9</w>
▁15 2</w>
pec tives</w>
on als</w>
es ian</w>
a h</w>
▁under way</w>
▁pr iced</w>
▁phot os
▁pen etr
▁p ace</w>
▁m uc
▁k itch
▁inves ting</w>
▁influ encing</w>
▁guil ty</w>
▁gro und
▁don or</w>
▁cover s</w>
▁cons titute</w>
▁c ast</w>
▁any where</w>
▁Squ are</w>
▁S ection</w>
▁Op en</w>
▁12 4</w>
ass y</w>
▁sa ved</w>
▁out brea
▁obs truction</w>
▁ob ese</w>
▁med ic
▁hospit alized</w>
▁fin ances</w>
▁exam ines</w>
▁dem anding</w>
▁ang les</w>
▁P 2
▁K ook
▁B u
▁Ar ab
▁20 2</w>
umin ance</w>
p ro
en ic</w>
▁rev enues</w>
▁p ending</w>
▁obv ious</w>
▁obst acle</w>
▁nav igation</w>
▁mem or
▁lab el</w>
▁fin als</w>
▁dec oder</w>
▁cop ies</w>
▁att acks</w>
▁Shin han</w>
▁M c
▁7 10</w>
ump ed</w>
u ality</w>
an ism</w>
▁satell ite</w>
▁pres umed</w>
▁pancre atitis</w>
▁inj uries</w>
▁inaug uration</w>
▁O ut
▁Do osan</w>
▁199 8</w>
ob ic</w>
as sed</w>
A S</w>
▁ste pped</w>
▁sm ile</w>
▁sh ipment</w>
▁paradig m</w>
▁maj ors</w>
▁li able</w>
▁Sm art</w>
▁K um
▁J ohn</w>
▁13 3</w>
o ong</w>
it coin</w>
▁v s</w>
▁sl eeping</w>
▁pers pectives</w>
▁f resh
▁f asting</w>
▁dr one</w>
▁contem porary</w>
▁Pr ize</w>
▁M apo</w>
▁9 3</w>
ym n
ut able</w>
ous es</w>
j us
ic op
▁unve iled</w>
▁u pl
▁tr act</w>
▁sou p</w>
▁rel ocation</w>
▁prov isional</w>
▁l iberation</w>
▁homet own</w>
▁emphasiz ing</w>
▁em issions</w>
▁dr ainage</w>
▁d ea
▁cryst all
▁cong rat
▁comp uted</w>
▁Investig ation</w>
▁C and
▁A R
ro oms</w>
os inoph
m m</w>
e ul</w>
▁slow down</w>
▁s ided</w>
▁on going</w>
▁not es</w>
▁int eg
▁fulf ill</w>
▁disapp ear</w>
▁cor onary</w>
▁b arg
▁at om</w>
▁activ ate</w>
▁Simil arly</w>
▁Ag reement</w>
▁13 5</w>
ech eon</w>
e on
▁veget ables</w>
▁unfam iliar</w>
▁solid arity</w>
▁sett le</w>
▁rot or</w>
▁rea ders</w>
▁professi onalism</w>
▁iden tical</w>
▁g aze</w>
▁c erv
▁a for
▁Mem bers</w>
▁Em b
it ure</w>
id al</w>
d ly</w>
ch ang
T X</w>
▁viol ent</w>
▁rev ise</w>
▁prom p
▁por k</w>
▁pa ds</w>
▁org ans</w>
▁leg ally</w>
▁hepat ocellular</w>
▁cholester ol</w>
▁c odes</w>
▁Res ources</w>
▁Analy sts</w>
▁A N
▁underg o</w>
▁sel ects</w>
▁post pon
▁obj ectives</w>
▁mo tiv
▁grow s</w>
▁disc omfort</w>
▁ang ry</w>
▁Stud y</w>
▁Do es</w>
um ab</w>
it on
em entioned</w>
▁to il
▁thous ands</w>
▁surpr ised</w>
▁publ icity</w>
▁prev entive</w>
▁piez oelectric</w>
▁perm itted</w>
▁insi gn
▁displac ement</w>
▁L un
▁K e
▁H eav
▁For ce</w>
▁22 1</w>
is try</w>
▁treat y</w>
▁prec ious</w>
▁in k</w>
▁enh ancement</w>
▁discharg ing</w>
▁develop s</w>
▁commerci alization</w>
▁coe ffici
▁coeffici ents</w>
▁cal ibr
▁bo yfriend</w>
▁am az
▁5 0s</w>
ym ore</w>
os s
op athy</w>
i ances</w>
ed ged</w>
b or
▁the aters</w>
▁stabil ization</w>
▁s ed
▁reveal ing</w>
▁perm it</w>
▁passw ord</w>
▁ordin ances</w>
▁neu tral</w>
▁negl ected</w>
▁n ick
▁malign ant</w>
▁leg s</w>
▁fac ial</w>
▁consist ency</w>
▁b ol
▁an ymore</w>
▁S k
▁N etw
▁M ich
▁Kook min</w>
▁G reat</w>
▁C L
▁Broad c
▁Af ter
ch o</w>
C P</w>
▁sens ed</w>
▁prop ag
▁press ing</w>
▁pres erve</w>
▁ins ured</w>
▁gastro intestinal</w>
▁forg et</w>
▁exc ited</w>
▁cra f
▁busin ess
▁acc us
▁P L
▁Ex hibition</w>
▁Cong ress</w>
y th
p m</w>
ad der</w>
abul ary</w>
▁withdra w</w>
▁w ooden</w>
▁transf erring</w>
▁te eth</w>
▁ret ail</w>
▁random ized</w>
▁post p
▁plac ebo</w>
▁p et
▁observ ations</w>
▁n a
▁marg inal</w>
▁inc ons
▁divid ends</w>
▁collea gues</w>
▁bro k
▁attrac tions</w>
▁ar ms</w>
▁al arm</w>
▁S 4
▁Libr ary</w>
▁Conf erence</w>
C S</w>
▁upl ink</w>
▁refug ee</w>
▁mel ody</w>
▁m ouse</w>
▁liqu idity</w>
▁l ights</w>
▁j a</w>
▁extr a
▁de formation</w>
▁construc t</w>
▁H P
▁Drea m</w>
▁A l</w>
▁9 7</w>
▁19 3
U S</w>
▁t il
▁st agn
▁mul tiv
▁impl ies</w>
▁encour aging</w>
▁c uring</w>
▁Tu esday</w>
▁Tim es</w>
▁CC TV</w>
▁A F
▁3 9
ucl ear</w>
en ter</w>
chestr a</w>
H z</w>
▁w t</w>
▁typ ically</w>
▁tr uck</w>
▁theor em</w>
▁stim ulation</w>
▁spec t
▁separ ator</w>
▁res ist</w>
▁pack aging</w>
▁initi ated</w>
▁h ang
▁faith fully</w>
▁des per
▁cr ack</w>
▁Hist ory</w>
ot ten</w>
▁turb ine</w>
▁st ops</w>
▁sol u
▁prom otes</w>
▁prohib ition</w>
▁lo ading</w>
▁distrib ute</w>
▁cr eam</w>
▁ass ist</w>
▁arth ritis</w>
▁O s
▁Gwan ak</w>
▁Ev aluation</w>
ch ang</w>
▁win ners</w>
▁ta g</w>
▁semiconduc tors</w>
▁prec ise</w>
▁off ender</w>
▁cl ou
▁afor ementioned</w>
▁I P</w>
▁F e
▁B er
▁An y
▁9 4</w>
tr ial</w>
ogen ic</w>
0 4</w>
▁rou gh
▁reg im
▁p yo</w>
▁p ays</w>
▁immun os
▁gir l
▁ed iting</w>
▁econom ies</w>
▁bin der</w>
▁T reas
▁Statis tical</w>
▁D oc
▁4 0s</w>
t a</w>
am ing</w>
T T</w>
G A</w>
AC E</w>
▁wors ening</w>
▁tr ench</w>
▁rep eti
▁rel iev
▁inval id</w>
▁imp air
▁identif ier</w>
▁discre tion</w>
▁dis h</w>
▁deb ts</w>
▁comp ressed</w>
▁antiv iral</w>
▁Nav er</w>
▁M ike</w>
▁L ond
▁C amp
y a</w>
t osis</w>
i en
el etal</w>
b ur
ann er</w>
▁v i
▁sp in</w>
▁regul ate</w>
▁recon c
▁p elv
▁main tains</w>
▁fra ud
▁fr iction</w>
▁f erry</w>
▁f erm
▁f ellow</w>
▁embezz lement</w>
▁S I
▁Judg e</w>
▁El ection</w>
v eness</w>
ush ing</w>
urs ement</w>
os u</w>
og ram</w>
mun j
lu b</w>
il or</w>
ew ay</w>
en ia</w>
b it</w>
▁wh ol
▁waf er</w>
▁th r
▁sl ight</w>
▁sh el
▁rel ay</w>
▁real izing</w>
▁prim arily</w>
▁pl ating</w>
▁fi x</w>
▁cr uc
▁cons ult</w>
▁char m</w>
▁b oss</w>
▁all iance</w>
▁a ired</w>
▁Wh o</w>
▁J ak
▁H er</w>
▁5 4
ensi tive</w>
d ang</w>
▁transf ers</w>
▁terror ist</w>
▁stakehol ders</w>
▁classif y</w>
▁circum ference</w>
▁ch ips</w>
▁Pan munj
▁Olymp ic</w>
▁M ee
▁E ff
▁D r</w>
▁Aud it</w>
s ang
f ast</w>
▁t ells</w>
▁sub g
▁ps eud
▁port fol
▁hygi ene</w>
▁fl edged</w>
▁actu ator</w>
▁I d
▁Em erg
ur ia</w>
un eration</w>
th ers</w>
▁voc abulary</w>
▁u t
▁tex ts</w>
▁tens ile</w>
▁t ens</w>
▁sl ot</w>
▁r ock</w>
▁quar ters</w>
▁preserv ed</w>
▁pled ge</w>
▁introduc es</w>
▁conn ects</w>
▁R ad
▁Per i
▁Eg yp
▁Bre x
▁Brex it</w>
oc ated</w>
▁wir ed</w>
▁sex ually</w>
▁r od</w>
▁professi onals</w>
▁pres tig
▁pit ch</w>
▁perp end
▁met als</w>
▁lic ens
▁journ al</w>
▁hom ep
▁guard ian</w>
▁e osinoph
▁am ended</w>
▁V AT</w>
▁P2 P</w>
▁Lond on</w>
▁Imp rov
▁E as
▁Ch ae</w>
osi tions</w>
am ation</w>
T E
2 6</w>
▁toler ance</w>
▁sp ot
▁sh am
▁s ound
▁prom inent</w>
▁mis si
▁manag es</w>
▁inhib itor</w>
▁friend ship</w>
▁crack down</w>
▁contac ts</w>
▁S er
▁M BC</w>
▁Gwang jin</w>
▁8 9</w>
ut ted</w>
it ate</w>
al k
▁wid er</w>
▁w ine</w>
▁stud io</w>
▁st atic</w>
▁recru ited</w>
▁rad ical</w>
▁kilom eters</w>
▁illeg ality</w>
▁i P
▁h itting</w>
▁fer tility</w>
▁end oscopic</w>
▁compr ise</w>
▁compl ication</w>
▁c an
▁Some times</w>
▁N et
▁Ind ian</w>
▁Hy o</w>
▁E r
▁Di ffer
▁5 5
t ages</w>
form ed</w>
at ch</w>
N G</w>
▁uncer tain</w>
▁sp ots</w>
▁rub ber</w>
▁lin kage</w>
▁h ired</w>
▁fl oo
▁expr esses</w>
▁exhib ited</w>
▁eng ines</w>
▁ear n</w>
▁disper sion</w>
▁cool ed</w>
▁confront ation</w>
▁bea ch</w>
▁arr ival</w>
▁V en
▁Hy ung</w>
▁Bl ack</w>
ox id
ight ness</w>
f ying</w>
▁vacc ination</w>
▁sp icy</w>
▁psych ology</w>
▁inf ant</w>
▁ill um
▁h ate</w>
▁embar ras
▁crim inals</w>
▁archit ecture</w>
▁T est</w>
▁F SS</w>
▁D av
▁Compar ative</w>
▁C I
x y</w>
m ar</w>
in f
a w</w>
▁viol ates</w>
▁subs titute</w>
▁insign ificant</w>
▁imp ressive</w>
▁hot els</w>
▁disadvant ages</w>
▁consequ ences</w>
▁cerv ical</w>
▁bid ding</w>
▁Uzb ek
▁O ver</w>
▁F oo
▁F TC</w>
on ality</w>
ew orthy</w>
ens tr
ec tion
b y
ach eon</w>
A A
▁worksh op</w>
▁wh e
▁w all
▁ventil ation</w>
▁inspec t</w>
▁ass er
▁R ea
▁A M
oun ting</w>
▁spons ored</w>
▁show c
▁hum id
▁develop er</w>
▁brok erage</w>
▁a uction</w>
▁POS CO</w>
▁L 1</w>
▁E un
ut aneous</w>
al ed</w>
▁sw ing</w>
▁surv ive</w>
▁part nership</w>
▁ov arian</w>
▁mach inery</w>
▁demons trate</w>
▁conduc ts</w>
▁appear ing</w>
▁Uzbek istan</w>
▁U pon</w>
▁J u
▁D B</w>
tif ication</w>
eas ure</w>
▁wor n</w>
▁wit ness</w>
▁tr ag
▁rec all</w>
▁pleas ure</w>
▁ped estr
▁o k</w>
▁mist akes</w>
▁metab olism</w>
▁laws uits</w>
▁l od
▁kitch en</w>
▁ind emn
▁f eeding</w>
▁extra ord
▁emb ed
▁capit a</w>
▁ar ising</w>
▁ad ren
▁V is
▁Swed en</w>
▁D C
▁Cre d
▁7 20</w>
▁0 1</w>
o pping</w>
er ative</w>
▁week ly</w>
▁person ally</w>
▁opp osing</w>
▁not eworthy</w>
▁lea ked</w>
▁j unior</w>
▁im bal
▁hop ed</w>
▁ext ends</w>
▁explo sion</w>
▁ex isted</w>
▁dec ades</w>
▁bl ade</w>
▁S W</w>
▁S B
▁Pers ons</w>
▁K B
▁F ive</w>
▁A wards</w>
▁6 30</w>
unc ture</w>
ov en</w>
▁war eh
▁vis ually</w>
▁v iv
▁p il</w>
▁met ast
▁loc k</w>
▁lik elihood</w>
▁join ts</w>
▁interv entions</w>
▁int entional</w>
▁h a</w>
▁exerc ised</w>
▁def eat</w>
▁bo xes</w>
▁Un ions</w>
▁Teach er</w>
▁Ch am
ur ches</w>
ra in</w>
i h
f all</w>
▁res et</w>
▁lo aded</w>
▁girl friend</w>
▁g ut</w>
▁evalu ations</w>
▁esc ap
▁encaps ulation</w>
▁d ental</w>
▁con gl
▁compr ises</w>
▁an onym
▁Summ it</w>
▁K in
▁I F
▁Establ ishment</w>
▁Enter tainment</w>
m other</w>
▁volati le</w>
▁tr ies</w>
▁telecommun ications</w>
▁sp ont
▁sp ar
▁see ks</w>
▁s odium</w>
▁pit cher</w>
▁pea c
▁liv elihood</w>
▁intr av
▁int u
▁inher ent</w>
▁h ire</w>
▁gra ft</w>
▁fr ustr
▁elim inate</w>
▁conf ident</w>
▁color ful</w>
▁celebr ate</w>
▁bon ded</w>
▁avo ided</w>
▁W ill</w>
▁M un
▁Gen der</w>
▁Cl ass</w>
▁C lub</w>
▁A I
ubl ic
ot o</w>
or ous</w>
art a</w>
A R
▁ver tically</w>
▁un av
▁tabl et</w>
▁sugg estions</w>
▁streng ths</w>
▁rem uneration</w>
▁r itual</w>
▁r iding</w>
▁mass age</w>
▁integr ally</w>
▁horm one</w>
▁graph ic</w>
▁f et
▁T ime</w>
▁Prev iously</w>
▁P u
▁M I
y w
ch emical</w>
▁wave form</w>
▁thous and</w>
▁pro ud</w>
▁inc ompl
▁h ob
▁en forc
▁contrib utes</w>
▁bound aries</w>
▁bar riers</w>
▁approach ed</w>
▁N ot
▁M yeong</w>
▁Jeon nam</w>
y b
ill ary</w>
▁sent encing</w>
▁proxim al</w>
▁ma ker</w>
▁l ot
▁invol ves</w>
▁hea der</w>
▁exerc ising</w>
▁destin ations</w>
▁conv ention</w>
▁ch air</w>
▁apprec iation</w>
▁an tic
▁Pr inc
▁J a</w>
▁DM Z</w>
▁Br it
roph y</w>
rop y</w>
ati onally</w>
▁workpl aces</w>
▁weap on</w>
▁w ing</w>
▁t ower</w>
▁substitu ted</w>
▁specif y</w>
▁sp here</w>
▁part ners</w>
▁mill ions</w>
▁me ant</w>
▁lip id</w>
▁comm od
▁col um
▁arg ues</w>
▁allerg ic</w>
▁Sa em
▁P A</w>
▁In iti
▁G umi</w>
▁Buddh a</w>
▁Ab e</w>
eti n</w>
ati n
ar ization</w>
ar i</w>
▁weak ened</w>
▁surpr ise</w>
▁s eop</w>
▁rot ational</w>
▁prog ressed</w>
▁politic ians</w>
▁par enting</w>
▁ne ur
▁less on</w>
▁l on
▁h oll
▁gra in</w>
▁furn iture</w>
▁foun der</w>
▁exam s</w>
▁exac erb
▁ex agg
▁ev il</w>
▁emerg ence</w>
▁design ing</w>
▁co in</w>
▁cham pi
▁S BS</w>
▁K az
▁Asi ana</w>
z ing</w>
▁tal ented</w>
▁suppor ters</w>
▁sh ad
▁pre jud
▁perpend icular</w>
▁inp uts</w>
▁gas es</w>
▁doub t</w>
▁cos t
▁c uts</w>
▁adap t</w>
▁Ta x
▁S l
▁Gang dong</w>
▁B o</w>
▁B ang
▁Ar g
▁# #</w>
tin c
ov es</w>
l in</w>
j ang</w>
▁y ou
▁ver bal</w>
▁urg ently</w>
▁summar izes</w>
▁p ansori</w>
▁mod ification</w>
▁ma pping</w>
▁g y
▁fri ed</w>
▁extraord inary</w>
▁dram atic</w>
▁assa ulted</w>
▁adop t</w>
▁Sp an
▁Netw ork</w>
▁D om
▁20 22</w>
ro sion</w>
ogen ous</w>
af en
▁swit ched</w>
▁scri pt</w>
▁sa uce</w>
▁relev ance</w>
▁red is
▁par agraphs</w>
▁over coming</w>
▁oblig ated</w>
▁nur se</w>
▁inv oice</w>
▁initi ative</w>
▁hop es</w>
▁he at
▁gr at
▁fl ood</w>
▁expl oded</w>
▁dist al</w>
▁T our</w>
▁Prosec utor</w>
▁Heav y</w>
▁B en
ti ble</w>
os a</w>
m en
aes ong</w>
▁syn ergy</w>
▁symp ath
▁refr active</w>
▁ne ti
▁mal icious</w>
▁intr insic</w>
▁immun ity</w>
▁gif ts</w>
▁g yu</w>
▁fl ash</w>
▁embed ded</w>
▁em it</w>
▁complex ity</w>
▁cer tain
▁b anned</w>
▁aug mented</w>
▁align ment</w>
▁Statis tics</w>
▁G uro</w>
▁D oo</w>
▁C J</w>
▁An ti</w>
▁4 01</w>
▁30 1</w>
▁11 00</w>
och eon</w>
es es</w>
▁transl ated</w>
▁s an
▁reorgan ized</w>
▁newspap ers</w>
▁mark ers</w>
▁loc als</w>
▁emb r
▁car riers</w>
▁c at</w>
▁br inging</w>
▁S an</w>
▁K BS</w>
▁Ind ivid
▁I C</w>
▁5 3
▁telecommun ication</w>
▁t ight</w>
▁outp atient</w>
▁mes h</w>
▁k ids</w>
▁inter act</w>
▁homep age</w>
▁hel icop
▁dec ade</w>
▁d erm
▁cur v
▁comp eting</w>
▁antib odies</w>
▁anim ation</w>
▁Eu i</w>
pers onal</w>
ou ts</w>
os able</w>
it arian</w>
▁y eol</w>
▁synthes ized</w>
▁prop ensity</w>
▁prolif eration</w>
▁pat ri
▁mod es</w>
▁k m</w>
▁j ong</w>
▁ins ol
▁fin alized</w>
▁eng in
▁draw ings</w>
▁concen trate</w>
▁B udg
um in</w>
t ude</w>
ro g
L 1</w>
B I</w>
▁writ ers</w>
▁subcomm ittee</w>
▁ques tioned</w>
▁mean ings</w>
▁int ent</w>
▁ep oxy</w>
▁elim inated</w>
▁dis k</w>
▁car ing</w>
▁adequ ate</w>
▁Treat ment</w>
▁Man ch
▁197 0s</w>
om b</w>
ev ision</w>
crip t</w>
ch ers</w>
E T</w>
A g</w>
▁y en</w>
▁there in</w>
▁reinforc ed</w>
▁publ ishing</w>
▁m it
▁li ked</w>
▁inv asive</w>
▁inc lusive</w>
▁fil ters</w>
▁dom inated</w>
▁def ines</w>
▁bow el</w>
▁antibio tics</w>
▁Span ish</w>
▁Sh angh
▁Se ung
▁E B
▁199 5</w>
u h
tic es</w>
afen ib</w>
A R</w>
▁su k</w>
▁short ly</w>
▁ship building</w>
▁qu ad
▁pros per
▁p ages</w>
▁over h
▁mut ation</w>
▁m ine</w>
▁immer sion</w>
▁h es
▁commun icating</w>
▁b inary</w>
▁Shangh ai</w>
▁O kay</w>
▁Lun ar</w>
▁L iter
▁Is l
▁H I
▁Corpor ate</w>
▁CS AT</w>
P s</w>
▁trigg er</w>
▁trans form</w>
▁semin ar</w>
▁scat tered</w>
▁question able</w>
▁proc eeded</w>
▁prev ents</w>
▁pat ents</w>
▁osteo por
▁mak eup</w>
▁lif etime</w>
▁in ad
▁immigr ation</w>
▁hy d
▁gramm ar</w>
▁boo ked</w>
▁ang i
▁al ph
▁L if
▁Brit ain</w>
ul sion</w>
ol ine</w>
ob iles</w>
em i
asi a</w>
▁w et</w>
▁vari ed</w>
▁up gr
▁uniform ly</w>
▁sm ell</w>
▁roll er</w>
▁proced ural</w>
▁outbrea k</w>
▁nucl e
▁medi ated</w>
▁dec is
▁comp ati
▁break fast</w>
▁an k
▁acc ess
▁Ir an
▁Han jin</w>
▁14 4</w>
k i</w>
is p
as tically</w>
▁win ds</w>
▁trad ed</w>
▁spec ulation</w>
▁sens es</w>
▁recurr ent</w>
▁il l</w>
▁en em
▁c e
▁adop tion</w>
▁ab or
▁Is ra
▁I B
id el
eng ths</w>
ed ia</w>
ang g
R P</w>
0 7</w>
▁w ound</w>
▁vol tages</w>
▁s oph
▁program ming</w>
▁lau ghter</w>
▁fin ite</w>
▁deleg ated</w>
▁cap turing</w>
▁bas ketball</w>
▁T i
▁O per
▁Gim po</w>
▁Cor p</w>
▁Chungcheong nam</w>
olog ically</w>
is ely</w>
fortun ately</w>
▁trad em
▁prob ation</w>
▁pas tor</w>
▁op ens</w>
▁la id</w>
▁influ ences</w>
▁har der</w>
▁exc lu
▁econom ically</w>
▁divor ce</w>
▁d ol
▁cyc les</w>
▁consult ative</w>
▁comprom ise</w>
▁cigar ettes</w>
▁ch ances</w>
▁anc es
▁algorith ms</w>
▁Pas tor</w>
▁A R</w>
▁0 01</w>
ymp h</w>
s ch
os h
o om
g ent</w>
▁unf ol
▁turn over</w>
▁reg ret
▁pos ts</w>
▁numer ical</w>
▁magaz ine</w>
▁expl ored</w>
▁exerc ises</w>
▁entreprene ur
▁di esel</w>
▁circ ulating</w>
▁aud itors</w>
▁assi gnment</w>
▁acknowled ged</w>
▁P S
▁H eo</w>
▁G a
▁Confuc ian</w>
▁CK D</w>
▁B an
▁Austral ian</w>
▁A C</w>
▁28 0</w>
sc ill
er ic</w>
av ing</w>
ac les</w>
▁vap or</w>
▁tr ips</w>
▁subm ission</w>
▁st ones</w>
▁l ending</w>
▁k yun</w>
▁hyp ogl
▁e igh
▁b ill
▁b iliary</w>
▁abnorm alities</w>
▁Gyeong ju</w>
up uncture</w>
os eong</w>
it orial</w>
ev en</w>
essi vely</w>
an n</w>
ag en</w>
N D</w>
▁w ishes</w>
▁testim ony</w>
▁sh ell</w>
▁rip ple</w>
▁or dering</w>
▁o scill
▁mal es</w>
▁h as
▁fil tering</w>
▁dr inks</w>
▁cong estion</w>
▁compl ementary</w>
▁ch eering</w>
▁at e</w>
▁ap ology</w>
▁S illa</w>
▁Jak arta</w>
▁H ello</w>
▁Cred it</w>
▁C ard</w>
if ies</w>
d ae</w>
▁tr ib
▁sidew all</w>
▁se es</w>
▁rum ors</w>
▁rot ate</w>
▁reproduc tion</w>
▁l ying</w>
▁inc ub
▁green house</w>
▁crow ded</w>
▁cl osure</w>
▁autom obiles</w>
▁app raisal</w>
▁adv ancement</w>
▁K A
▁Emerg ency</w>
▁Eas tern</w>
▁D R
▁10 8</w>
y dr
v ation</w>
ileg ed</w>
ess way</w>
a ff
▁simultan eous</w>
▁sever ely</w>
▁res ume</w>
▁prote ins</w>
▁pan els</w>
▁nanopar ticles</w>
▁ins urer</w>
▁fro zen</w>
▁f ant
▁comb ine</w>
▁U ij
▁F C</w>
▁13 4</w>
g ro
es elf</w>
ed r
▁tit led</w>
▁st ating</w>
▁repe ating</w>
▁relati ves</w>
▁pl us</w>
▁ne ither</w>
▁mul tim
▁j eong</w>
▁hem at
▁fraud ulent</w>
▁fir ed</w>
▁e gg
▁diss atis
▁boo m</w>
▁as ks</w>
▁T ri
▁Se od
▁Offic ial</w>
▁Inspec tion</w>
▁An n
▁22 2</w>
pl ay</w>
or rh
ograph ical</w>
l a
ement ations</w>
2 7</w>
▁tun nel</w>
▁stabil ize</w>
▁proj ection</w>
▁prestig ious</w>
▁pra ised</w>
▁p in
▁on eself</w>
▁lat ch</w>
▁l ymph</w>
▁f old</w>
▁ext ensive</w>
▁enti ties</w>
▁cyt ok
▁c all
▁Rep ublic
▁Peri od</w>
▁Con versely</w>
▁A T
▁4 7
▁4 6
w eight</w>
th w
om er</w>
en a</w>
dr ical</w>
▁suppl ier</w>
▁scen ery</w>
▁pur ification</w>
▁pain ful</w>
▁holl ow</w>
▁distor tion</w>
▁cylin drical</w>
▁conv inc
▁barg aining</w>
▁Res earch
▁L iving</w>
▁CH B</w>
▁C F
▁B und
il er</w>
eung po</w>
ati tude</w>
▁triang le</w>
▁th inks</w>
▁rel ieve</w>
▁proxim ity</w>
▁prec ision</w>
▁mus icians</w>
▁libr aries</w>
▁intr a</w>
▁gra v
▁fr uits</w>
▁expl icitly</w>
▁contac ted</w>
▁alcoh olic</w>
▁Ye osu</w>
▁Trad itional</w>
▁P V
▁Jin ju</w>
z y</w>
ens ation</w>
ef ulness</w>
▁w ood</w>
▁t ang
▁possi bilities</w>
▁inters ection</w>
▁insol v
▁heav ily</w>
▁explan ations</w>
▁U V</w>
▁Re form</w>
▁N O
▁L D
▁Budg et</w>
▁B ong</w>
▁5 50</w>
fac tory</w>
el et</w>
al ition</w>
C E</w>
▁tou ched</w>
▁subj ected</w>
▁sp her
▁rot ated</w>
▁promo tional</w>
▁prec urs
▁poin ting</w>
▁main stream</w>
▁hy dra
▁es ophag
▁diss em
▁brib ery</w>
▁brea d</w>
▁app rove</w>
▁Yeongd eungpo</w>
▁Th ai</w>
▁M il
▁J un
▁Am b
▁11 6</w>
y les</w>
t ech</w>
at en</w>
E C</w>
▁unem ployed</w>
▁practic ed</w>
▁pl ug</w>
▁n one</w>
▁lif ting</w>
▁impair ment</w>
▁g ar
▁flo ors</w>
▁fil tration</w>
▁curv ature</w>
▁be ef</w>
▁air lines</w>
▁Win ter</w>
▁Uij eong
▁S ung
▁Pl aza</w>
▁Mee ting</w>
▁Mar t</w>
▁Jeon buk</w>
▁J ourn
▁Foo tball</w>
▁D aily</w>
or king</w>
om eter</w>
at al</w>
▁susp end</w>
▁outl ook</w>
▁k k</w>
▁judg ments</w>
▁interp osed</w>
▁hom e
▁ev enly</w>
▁enzym e</w>
▁diagn ose</w>
▁cross ing</w>
▁conf isc
▁chec k
▁ch urches</w>
▁c ook</w>
▁b yp
▁S pr
▁Pr em
▁I U</w>
▁Cont est</w>
u ing</w>
tom atic</w>
oun ding</w>
it er</w>
H O</w>
▁wa ist</w>
▁ta il
▁t ied</w>
▁synth etic</w>
▁prev iew</w>
▁prac tically</w>
▁pas te</w>
▁minis ters</w>
▁m acr
▁loc king</w>
▁k eep
▁fundam entally</w>
▁ethn ic</w>
▁conv ey</w>
▁bott le</w>
▁V er
▁Un der
▁Uijeong bu</w>
▁Sch ol
▁Poli tical</w>
▁Lea der</w>
iz ations</w>
il ic</w>
ig raph
em ble</w>
eal thy</w>
ag ram</w>
▁transf er
▁tax ed</w>
▁t elling</w>
▁secre tion</w>
▁occup ied</w>
▁key board</w>
▁inter personal</w>
▁int end</w>
▁gl ad</w>
▁fin ishing</w>
▁farm land</w>
▁entreprene urs</w>
▁dis rup
▁d ancing</w>
▁chea p</w>
▁ce iling</w>
▁borrow ing</w>
▁ba k</w>
▁am m
▁Trans portation</w>
▁Star tu
▁P 1</w>
▁H e
▁Daew oo</w>
▁4 8
it ness</w>
id ental</w>
▁tr uly</w>
▁spr ay</w>
▁rou tine</w>
▁rel easing</w>
▁photos ensitive</w>
▁migr ation</w>
▁incorpor ated</w>
▁hor se</w>
▁dispat ch</w>
▁diff r
▁competi tors</w>
▁cal m</w>
▁S 5
▁My an
▁M C
▁Champ i
▁C ab
▁Bur ning</w>
▁An yang</w>
t ue</w>
olog ists</w>
er ated</w>
ell itus</w>
▁ultim ate</w>
▁t ape</w>
▁stat ue</w>
▁po or
▁pi ano</w>
▁mut ations</w>
▁mis c
▁exhib it</w>
▁enc omp
▁employ er</w>
▁dom ains</w>
▁Prog ram</w>
▁N ations</w>
▁L ater</w>
▁Ch an</w>
▁C I</w>
▁Autonom y</w>
▁199 9</w>
ul ic</w>
titu tion</w>
▁un ity</w>
▁symb ol
▁surro unded</w>
▁rem emb
▁rec ess</w>
▁qu iet</w>
▁peti tions</w>
▁optim ized</w>
▁mov able</w>
▁li e</w>
▁less ons</w>
▁immunos upp
▁exam inations</w>
▁diss olved</w>
▁disp osable</w>
▁def iciency</w>
▁decis ive</w>
▁dec ides</w>
▁bo os
▁b ars</w>
▁appl iances</w>
▁Z n
▁T ype</w>
▁N H
▁M eth
st an</w>
ro l</w>
olog ist</w>
ocy te</w>
ast al</w>
DA Q</w>
▁· ·</w>
▁traum a</w>
▁rad ial</w>
▁pr ay</w>
▁portfol io</w>
▁m ellitus</w>
▁lod ging</w>
▁lif ted</w>
▁irrad iation</w>
▁impl ementations</w>
▁g at
▁fac ulty</w>
▁des k</w>
▁dep r
▁competi tions</w>
▁cigar ette</w>
▁car p
▁biom ar
▁ar terial</w>
▁app s</w>
▁Y e</w>
▁P or
▁N ak
▁Han a</w>
▁Air lines</w>
or ating</w>
op rot
es p
end ation</w>
R C</w>
▁wel come</w>
▁pen sions</w>
▁micro b
▁lif t</w>
▁l ing
▁keyw ord</w>
▁imbal ance</w>
▁hyd roph
▁h erein</w>
▁compr ising</w>
▁bra ke</w>
▁T ower</w>
▁S an
▁Prev ious</w>
▁Per haps</w>
▁14 3</w>
och emical</w>
▁sti ff
▁repeti tive</w>
▁pers istent</w>
▁minim al</w>
▁matern al</w>
▁int estinal</w>
▁initi ation</w>
▁ess ay</w>
▁enlarg ed</w>
▁distor ted</w>
▁consi gnment</w>
▁comm ander</w>
▁b ands</w>
▁W ol
▁Res pon
▁R h
▁Pan el</w>
▁P un
▁P B
▁Mem orial</w>
▁L angu
si us</w>
ow ed</w>
oun ted</w>
at ural</w>
ad uate</w>
O C</w>
▁replac ing</w>
▁rec re
▁rati os</w>
▁pic ked</w>
▁over d
▁int entionally</w>
▁incompl ete</w>
▁hy uk</w>
▁highl ighted</w>
▁for ests</w>
▁eigh th</w>
▁decomp osition</w>
▁br ightness</w>
▁aut o
▁att en
▁ambig uous</w>
▁adm issions</w>
▁` `</w>
▁Y eong</w>
▁W i</w>
▁T ACE</w>
▁Med ia</w>
▁L e
▁J am
▁Ind eed</w>
▁I m</w>
▁E ul
▁CO 2</w>
ut ch</w>
or ized</w>
in i</w>
ell ed</w>
am s</w>
ak h
ain t</w>
P G</w>
▁simil arity</w>
▁rem od
▁phot ograph</w>
▁norm ative</w>
▁deriv ative</w>
▁defin ite</w>
▁c ov
▁attach ing</w>
▁ampl itude</w>
▁al ive</w>
▁Vol unt
▁T 1</w>
▁Su per</w>
▁Panmunj om</w>
▁Myan mar</w>
▁M e
▁Ang el
▁* *</w>
ush ed</w>
us al</w>
▁we ighted</w>
▁threat ening</w>
▁ther ef
▁suspic ious</w>
▁redis tribution</w>
▁pos ting</w>
▁pop ulations</w>
▁plac ement</w>
▁photograph s</w>
▁nood les</w>
▁mul tin
▁led ger</w>
▁lay out</w>
▁integr al</w>
▁human ity</w>
▁f ly</w>
▁celebr ities</w>
▁car eg
▁avoid ing</w>
▁Y eo</w>
▁U A
▁Law m
▁Langu age</w>
▁Happ y</w>
▁H erein</w>
▁Commun ications</w>
▁Ch emical</w>
▁B ong
▁Auth ority</w>
▁6 5
▁5 7
▁12 00</w>
t w
l ink</w>
et a</w>
e tically</w>
ak a</w>
▁was hed</w>
▁war ned</w>
▁unav oid
▁tou ching</w>
▁the atr
▁sub trac
▁sp ine</w>
▁sover eign
▁ret al
▁rectang ular</w>
▁inst ance</w>
▁exp ands</w>
▁en orm
▁distur b
▁confl icting</w>
▁cas u
▁bl ack
▁adv ised</w>
▁W ang</w>
▁Ph ys
▁K ingdom</w>
▁Every one</w>
▁After wards</w>
our ney</w>
lud ing</w>
il ience</w>
gro unds</w>
g ers</w>
ere quis
2 b</w>
0 6</w>
▁whol es
▁st yl
▁sp ut
▁sincer ity</w>
▁resol ving</w>
▁rang es</w>
▁quanti ties</w>
▁pr erequis
▁pr ea
▁m enstr
▁infer ior</w>
▁inad equ
▁hydra ulic</w>
▁di alysis</w>
▁conf used</w>
▁c ys
▁antig en</w>
▁analy sts</w>
▁T N
▁D ig
▁C G
▁Broadc asting</w>
▁A B
i ently</w>
each ment</w>
arb on</w>
an tine</w>
▁surv iv
▁ign ored</w>
▁exc it
▁d orm
▁cat ching</w>
▁c od
▁bull etin</w>
▁borrow ed</w>
▁anti oxid
▁K aesong</w>
▁Ind ex</w>
▁D a</w>
▁C T
▁An alysis</w>
▁Ac ts</w>
ur a</w>
ins eng</w>
▁vir tue</w>
▁t on
▁s ing</w>
▁re wards</w>
▁por ts</w>
▁photograph ed</w>
▁inc lusion</w>
▁in verse</w>
▁gradu ated</w>
▁fem ales</w>
▁exec uting</w>
▁distrib uting</w>
▁design er</w>
▁contrad ic
▁cont ex
▁brea ks</w>
▁bo ys</w>
▁an th
▁amaz ing</w>
▁With out</w>
▁S n
▁R ail
▁H igh
▁G y
▁E L
▁D 1</w>
▁C om
▁B itcoin</w>
▁A rea</w>
▁4 9
yro id
ow ad
ir t</w>
es tim
3 6</w>
▁w ard</w>
▁supp ressed</w>
▁quar ter
▁qual ified</w>
▁pre emp
▁multiv ariate</w>
▁hea ded</w>
▁h its</w>
▁fl ying</w>
▁end oscopy</w>
▁emerg e</w>
▁e ar</w>
▁deteri orated</w>
▁cruc ial</w>
▁an terior</w>
▁ac upuncture</w>
▁O r</w>
▁N uclear</w>
▁L S
▁G ame</w>
▁Cre ative</w>
▁Arg enti
▁31 1</w>
tr ans
owad ays</w>
eng er</w>
ea bility</w>
GF R</w>
▁ret ention</w>
▁res trict</w>
▁res tr
▁res ort</w>
▁predic ts</w>
▁pollut ants</w>
▁moun tains</w>
▁mer ely</w>
▁inform atization</w>
▁inc idents</w>
▁im per
▁exclu sively</w>
▁excep tional</w>
▁exc essively</w>
▁do ors</w>
▁conditi oning</w>
▁conc ave</w>
▁compar able</w>
▁champi onship</w>
▁ben ch
▁alk al
▁ac ids</w>
▁abs or
▁T ex
▁Reg ard
▁Regard less</w>
▁R am
▁P U
▁Jin ping</w>
▁Electr onic</w>
▁Conf ed
▁23 1</w>
tic ism</w>
oglob in</w>
acc o</w>
▁wind ows</w>
▁separ ating</w>
▁pip es</w>
▁osteopor osis</w>
▁min ing</w>
▁m 2</w>
▁inf erred</w>
▁imp eachment</w>
▁heat w
▁grand mother</w>
▁conc urr
▁classif ying</w>
▁V iol
▁P o
▁Expr essway</w>
▁Dong daemun</w>
▁Chung buk</w>
▁Bel g
▁B yeong</w>
▁B al
▁7 5
it z
at ar</w>
▁trigg ered</w>
▁t ended</w>
▁suppl iers</w>
▁st ably</w>
▁rep eat</w>
▁purs uit</w>
▁prefer ences</w>
▁open ings</w>
▁off enders</w>
▁od ds</w>
▁li abilities</w>
▁den y</w>
▁conven iently</w>
▁construc ting</w>
▁adminis tr
▁adm it</w>
▁Wo ori</w>
▁U n</w>
▁R ight</w>
▁Pal ace</w>
▁M M
▁H ope</w>
▁Dis ease</w>
▁Dem ocracy</w>
ol ate</w>
m u</w>
ew ise</w>
ad m
F S</w>
▁was t
▁unavoid able</w>
▁ten ant</w>
▁supp ression</w>
▁shif ted</w>
▁ser ial</w>
▁se ed</w>
▁parli ament</w>
▁n ations</w>
▁dec orated</w>
▁comm enc
▁cl er
▁ch at
▁calibr ation</w>
▁bath room</w>
▁U se</w>
▁Sou thern</w>
▁P I
▁M e</w>
▁Iran ian</w>
▁Integr ated</w>
▁H om
▁H oll
▁E arly</w>
▁23 2</w>
▁199 4</w>
re l</w>
ocr atization</w>
ob acco</w>
isd om</w>
es pr
atur ated</w>
an ium</w>
▁w il
▁sus c
▁superv ise</w>
▁see kers</w>
▁manif est
▁inc in
▁iP h
▁grat eful</w>
▁der eg
▁commenc ement</w>
▁comb inations</w>
▁S 1</w>
▁Offic er</w>
▁M ac
▁Gol den</w>
▁G ap
▁Equ ality</w>
▁Cal i
▁Cali for
ul g
rop athy</w>
f ish</w>
df unding</w>
bo x</w>
aw n</w>
EA N</w>
▁us efulness</w>
▁tox ic</w>
▁to ken</w>
▁tel evision</w>
▁subd iv
▁poss ession</w>
▁j o</w>
▁irreg ular</w>
▁for th</w>
▁exc iting</w>
▁ev ident</w>
▁eth anol</w>
▁enthusi asm</w>
▁educ ated</w>
▁dur ability</w>
▁dr ess</w>
▁d ye</w>
▁d am</w>
▁av iation</w>
▁accept able</w>
▁T ong
▁T F
▁E M
▁Cel sius</w>
▁B ol
▁B io
▁16 1</w>
ular ities</w>
tur n</w>
pr iv
eep er</w>
as sing</w>
▁wir es</w>
▁tim ely</w>
▁th rea
▁sound ness</w>
▁simpl ified</w>
▁rea pp
▁prior itiz
▁mod ern
▁li kes</w>
▁approach ing</w>
▁aff ection</w>
▁V I
▁St ock</w>
▁P ay</w>
▁N FC</w>
▁Form ula</w>
▁D ang
▁Ch ul</w>
▁Califor nia</w>
▁B ible</w>
▁Ac tress</w>
y hol
op ause</w>
e z</w>
ail ing</w>
ad y</w>
▁ver ifying</w>
▁under priv
▁terr itory</w>
▁supp ress</w>
▁stand point</w>
▁sovereign ty</w>
▁sl it</w>
▁repl ied</w>
▁pro xy</w>
▁interpre ting</w>
▁ind ices</w>
▁fo il</w>
▁fo am</w>
▁fair ly</w>
▁differenti ate</w>
▁coex ist</w>
▁chea per</w>
▁bl ow</w>
▁Mar kets</w>
▁L ake</w>
▁Cand idate</w>
▁CO V
z h
j ae</w>
id emia</w>
ay a</w>
a que</w>
3 3</w>
▁vit ality</w>
▁v in
▁tas tes</w>
▁sur ge</w>
▁simil arly</w>
▁scre ens</w>
▁reb ound</w>
▁radi o
▁polic yhol
▁pol yp
▁legitim acy</w>
▁laun ching</w>
▁lam p</w>
▁k er
▁j ourney</w>
▁hea ding</w>
▁hard ly</w>
▁h inge</w>
▁de ployed</w>
▁consc ious</w>
▁ca ution</w>
▁bl owing</w>
▁Inst agram</w>
▁H R</w>
▁Dom estic</w>
▁Cham ber</w>
j ect
i z</w>
espr ead</w>
c on</w>
▁you ths</w>
▁wid espread</w>
▁tail ored</w>
▁sto pping</w>
▁ste at
▁spea kers</w>
▁scre ened</w>
▁reac tive</w>
▁re w
▁peac eful</w>
▁pass port</w>
▁n ights</w>
▁grad ers</w>
▁cas ting</w>
▁c rops</w>
▁br ings</w>
▁bacter ial</w>
▁anesth esia</w>
▁T B
▁P ocheon</w>
▁F ri
▁Ex isting</w>
▁5 40</w>
ym er</w>
un t</w>
t ex</w>
otyp es</w>
ot t</w>
op ath
om etr
od yn
em an</w>
ac tic</w>
▁week ends</w>
▁ur inary</w>
▁underpriv ileged</w>
▁th row</w>
▁sustain ability</w>
▁su itability</w>
▁stat ute</w>
▁r id
▁p epti
▁macr o</w>
▁m alls</w>
▁ir re
▁hydro x
▁gol den</w>
▁g el</w>
▁brea ch</w>
▁app eals</w>
▁absorb ed</w>
▁T or
▁Se on</w>
▁S em
▁Educ ational</w>
▁BM W</w>
▁Amb assador</w>
od a</w>
o v</w>
ffici ency</w>
er land</w>
ash ed</w>
as k</w>
and a</w>
ad d
R NA</w>
O D</w>
▁recru iting</w>
▁nan o</w>
▁l anding</w>
▁infil tration</w>
▁gl ance</w>
▁fish eries</w>
▁encryp ted</w>
▁dis till
▁break th
▁agg rav
▁Per form
▁PC B</w>
▁Inc reas
▁COV ID</w>
▁AS EAN</w>
yw ood</w>
w ith
st ein</w>
ep atic</w>
ar ction</w>
ab etes</w>
K I</w>
▁worr ies</w>
▁w an
▁transm ittance</w>
▁them es</w>
▁ster oid</w>
▁prejud ice</w>
▁j i</w>
▁g i</w>
▁ent ropy</w>
▁creati n
▁creatin ine</w>
▁coun ting</w>
▁bor ne</w>
▁boo th</w>
▁ass ay</w>
▁Co ast</w>
▁B P</w>
rol l</w>
l ad
fr ame</w>
ch on</w>
as te</w>
G B</w>
▁tox icity</w>
▁symb olic</w>
▁sk illed</w>
▁reserv es</w>
▁ref use</w>
▁r am
▁practic ing</w>
▁por es</w>
▁mid st</w>
▁mar king</w>
▁loc ked</w>
▁genr es</w>
▁fast ening</w>
▁egg s</w>
▁dic t
▁colum ns</w>
▁bi ased</w>
▁apolog ize</w>
▁ab used</w>
▁R 1</w>
▁KOS PI</w>
▁KOS DAQ</w>
▁G M</w>
▁D al
▁Confed eration</w>
▁Ar ch
with standing</w>
ot rop
im m
if iers</w>
ed ness</w>
ap er</w>
4 2</w>
3 5</w>
0 8</w>
▁tra ject
▁tr aces</w>
▁schol ar</w>
▁revers ed</w>
▁rem ittance</w>
▁progn ostic</w>
▁particip atory</w>
▁multin ational</w>
▁mul tic
▁minim ized</w>
▁inc omp
▁every where</w>
▁dismis s</w>
▁discre tionary</w>
▁deliver ing</w>
▁crow dfunding</w>
▁coun s
▁corr ective</w>
▁cap s
▁ang ular</w>
▁T P
▁Represent atives</w>
▁Lif elong</w>
▁Leg isl
▁L ong</w>
▁199 6</w>
utr ition</w>
ut ely</w>
tis m</w>
pi ece</w>
op enia</w>
oc l
el and</w>
am un</w>
T 1</w>
I ST</w>
▁w ouldn</w>
▁stiff ness</w>
▁seas ons</w>
▁rig id</w>
▁prosper ity</w>
▁pres upp
▁per for
▁lea p</w>
▁inter con
▁hab it</w>
▁desir es</w>
▁conver ts</w>
▁cons titutes</w>
▁comm ittees</w>
▁cab inet</w>
▁c ellular</w>
▁bur ned</w>
▁assum ing</w>
▁Gwang hw
▁B ook</w>
▁Acc ounting</w>
ra b</w>
m yeong</w>
ess ation</w>
ell er</w>
av il
▁y uan</w>
▁soci o</w>
▁sn acks</w>
▁keep s</w>
▁j umped</w>
▁h un</w>
▁excav ation</w>
▁enforc ed</w>
▁dop ed</w>
▁coll eg
▁challeng ing</w>
▁c ell
▁an alog
▁S yn
▁Par ents</w>
▁Nam yang
▁Mok po</w>
▁Cus tom
▁Ap pl
▁15 3</w>
▁14 5</w>
unic ip
oo ked</w>
ici aries</w>
ew ater</w>
▁vis a</w>
▁travel ers</w>
▁tr ig
▁succ essor</w>
▁sl owing</w>
▁satisf ies</w>
▁period ically</w>
▁n omin
▁lin ks</w>
▁inf arction</w>
▁imp osing</w>
▁fat al</w>
▁exhib its</w>
▁enjo y
▁dist ant</w>
▁d ating</w>
▁casu alties</w>
▁c essation</w>
▁be om</w>
▁alb umin</w>
▁ac ted</w>
▁Treas ury</w>
▁Tot ten
▁Totten ham</w>
▁P ang
▁P M</w>
▁H M
▁Dis abled</w>
▁B io</w>
ow ned</w>
och ang</w>
id enti
i alization</w>
at eness</w>
al a</w>
a j
4 1</w>
▁w isdom</w>
▁set tings</w>
▁sel ls</w>
▁sacrific ial</w>
▁pr essed</w>
▁my ocard
▁lev ied</w>
▁imag ine</w>
▁ex terior</w>
▁dra g</w>
▁dissip ation</w>
▁discrim in
▁convers ations</w>
▁breat h
▁att ach</w>
▁T I
▁Pers onal</w>
▁M unicipal</w>
▁Ass et</w>
over s</w>
ic on</w>
h ang</w>
ent ations</w>
▁we ights</w>
▁unf air
▁reconstruc ted</w>
▁qu it</w>
▁protr ude</w>
▁period ic</w>
▁n ose</w>
▁m erc
▁l ig
▁irreg ularities</w>
▁enorm ous</w>
▁develop ers</w>
▁dec iding</w>
▁d awn</w>
▁continu ity</w>
▁col on</w>
▁certain ly</w>
▁W all</w>
▁US D</w>
▁S 6
▁Reg ulation</w>
▁Namyang ju</w>
▁Exper ience</w>
▁Cab inet</w>
▁Afric an</w>
ur ers</w>
or es
n ea</w>
is tic
ea h</w>
ation ary</w>
ag o</w>
▁visc osity</w>
▁threat ened</w>
▁stic k</w>
▁sp o
▁sinc ere</w>
▁res ilience</w>
▁perform ers</w>
▁perce ive</w>
▁p acking</w>
▁nitr ide</w>
▁n am</w>
▁justif ied</w>
▁induc es</w>
▁hard ness</w>
▁ep ith
▁dis inf
▁corr ectly</w>
▁cap tain</w>
▁calc ulations</w>
▁an ch
▁R oom</w>
▁ME RS</w>
▁Ch i</w>
ut ures</w>
truc tive</w>
ter m
k y
a der</w>
▁wor ship</w>
▁ver s
▁unf av
▁tradem ark</w>
▁t ough</w>
▁speci alizing</w>
▁rein force</w>
▁re tin
▁r ib</w>
▁post men
▁micro organ
▁f asc
▁empir ically</w>
▁ed ition</w>
▁e ti
▁defin itely</w>
▁consi gn
▁amb assador</w>
▁Tra ffic</w>
▁Simil ar</w>
▁R em
▁N M
z one</w>
tif y</w>
rov ascular</w>
pl ate</w>
form ity</w>
ect able</w>
ec ed
▁uncons c
▁sun light</w>
▁retir ed</w>
▁precurs or</w>
▁pre operative</w>
▁optim ization</w>
▁min i</w>
▁k ill</w>
▁inter fac
▁in ning</w>
▁happ ening</w>
▁freez ing</w>
▁er ase</w>
▁down link</w>
▁capac itance</w>
▁Seod aemun</w>
▁Kin dergart
▁H el
▁G L
▁8 20</w>
▁20 3</w>
u ity</w>
pl ed</w>
ol y
k g</w>
j ak</w>
ith m
es try</w>
ect ural</w>
E A</w>
▁superv isor</w>
▁str ings</w>
▁st ent</w>
▁ren owned</w>
▁reconc iliation</w>
▁rain y</w>
▁proc urement</w>
▁p ocket</w>
▁ost e
▁obst acles</w>
▁intensi vely</w>
▁h an</w>
▁gri p</w>
▁glob alization</w>
▁fil tered</w>
▁determin ants</w>
▁deduc ted</w>
▁co astal</w>
▁camp us</w>
▁bub ble</w>
▁b it
▁attrib utable</w>
▁Ta xes</w>
▁S sang
▁S eo
▁R eu
▁Reu ters</w>
▁Hw a</w>
▁H yp
▁D A</w>
▁Coo perative</w>
▁B lu
yl ation</w>
u sions</w>
tr ating</w>
pir e</w>
ph one</w>
n ings</w>
ar k
ag ging</w>
a eg
▁wareh ouse</w>
▁val uation</w>
▁uncons titutional</w>
▁surpr ising</w>
▁subsid ized</w>
▁se ized</w>
▁reserv oir</w>
▁renew al</w>
▁pour ed</w>
▁polymer ization</w>
▁po em</w>
▁oper a</w>
▁misunder st
▁land f
▁h ide</w>
▁g ood
▁frequ encies</w>
▁day time</w>
▁c ured</w>
▁back ward</w>
▁W HO</w>
▁T o
▁T R
▁Sh ins
▁S el
▁O ri
▁L NG</w>
▁F ed</w>
▁C ase</w>
▁B est</w>
oin ts</w>
ff ers</w>
ant a</w>
▁weak ening</w>
▁veter ans</w>
▁train ees</w>
▁sur round</w>
▁sulf ur</w>
▁rel y</w>
▁r ight
▁pur ifier</w>
▁po etry</w>
▁perf ectly</w>
▁monopol y</w>
▁men opause</w>
▁m entally</w>
▁has n</w>
▁h ed
▁gat eway</w>
▁fr actions</w>
▁d ances</w>
▁cur ves</w>
▁cred ibility</w>
▁consider ably</w>
▁bir ds</w>
▁benef iciaries</w>
▁al ert</w>
▁accommod ate</w>
▁absorb ing</w>
▁Us ually</w>
▁Ta ekwondo</w>
▁Sun cheon</w>
▁Pr ac
▁Improv ement</w>
▁9 10</w>
rou s</w>
p e</w>
erm al</w>
crib ing</w>
as i</w>
▁specim ens</w>
▁speci alty</w>
▁sp oke</w>
▁rel uc
▁postmen opausal</w>
▁out s
▁nod ules</w>
▁mut ually</w>
▁m unicip
▁m l</w>
▁log istic</w>
▁gam bling</w>
▁expl oring</w>
▁excell ence</w>
▁cop ol
▁compens ated</w>
▁breakth rough</w>
▁adren al</w>
▁add ressed</w>
▁Or ig
▁M yeong
▁Gen er
▁For ces</w>
▁Cath olic</w>
▁A S</w>
▁7 50</w>
▁2 D</w>
▁12 6</w>
t less</w>
pl ace</w>
em ption</w>
ang i
▁— —</w>
▁view er</w>
▁uplo aded</w>
▁un chang
▁tabl es</w>
▁smo kers</w>
▁sl iding</w>
▁re ign</w>
▁par en
▁observ ing</w>
▁notic eable</w>
▁neutr ality</w>
▁nation ality</w>
▁multipl ication</w>
▁mer it</w>
▁lap ar
▁integ er</w>
▁elig ibility</w>
▁docum entary</w>
▁aim ing</w>
▁T O
▁M C</w>
▁Gim hae</w>
▁Electr ic</w>
▁Dis play</w>
▁C P</w>
▁100 th</w>
ye on
us c
ro gation</w>
oc ar
L T</w>
▁threat s</w>
▁soph istic
▁s lud
▁r a</w>
▁outl ets</w>
▁obj ectively</w>
▁n in
▁mat ure</w>
▁ma kers</w>
▁interf ere</w>
▁geom etric</w>
▁fail ing</w>
▁evac uation</w>
▁elev ation</w>
▁eas tern</w>
▁def ectors</w>
▁colleg es</w>
▁co ins</w>
▁b und
▁abor tion</w>
▁W r
▁Indon esian</w>
▁Gwanghw amun</w>
▁G i
▁G all
ter m</w>
pro of</w>
or c
f ield</w>
b ook</w>
▁t angible</w>
▁shou ldn</w>
▁play back</w>
▁pill ar</w>
▁path way</w>
▁pat rol</w>
▁nan ot
▁minim izing</w>
▁l uminance</w>
▁l acks</w>
▁in land</w>
▁her bal</w>
▁guid es</w>
▁fun ded</w>
▁f itness</w>
▁encoun ter</w>
▁diversi fied</w>
▁dereg ulation</w>
▁ar en</w>
▁abs ur
▁Y oun
▁T E
▁T DF</w>
▁Pang yo</w>
▁C u</w>
▁10 7</w>
k ings</w>
itor ium</w>
abl ing</w>
T I</w>
D D</w>
0 9</w>
▁ta p</w>
▁stim ulus</w>
▁sol der</w>
▁shad ow</w>
▁question ing</w>
▁pul led</w>
▁plac ing</w>
▁pl e
▁oc ean</w>
▁neti zens</w>
▁met aph
▁man us
▁inform al</w>
▁iPh one</w>
▁hy ung</w>
▁hierarch ical</w>
▁h ung
▁fin ds</w>
▁excit ement</w>
▁exc eptions</w>
▁allev iate</w>
▁Nor theast</w>
▁Lawm aker</w>
▁F ortun
▁Ass essment</w>
▁31 2</w>
▁10 10</w>
ot ox
f ather</w>
eg u
dr y</w>
at ri
at ever</w>
anc ies</w>
agon ist</w>
ab uk</w>
9 2</w>
▁wat ers</w>
▁wast ewater</w>
▁showc ase</w>
▁s ight</w>
▁plan ar</w>
▁off ensive</w>
▁lea k</w>
▁influ ential</w>
▁h ex
▁en abled</w>
▁dr ones</w>
▁delinqu ency</w>
▁bas es</w>
▁appropri ateness</w>
▁ad ds</w>
▁Sh opping</w>
▁SV R</w>
▁Ev entually</w>
▁16 2</w>
▁13 6</w>
l osure</w>
im a</w>
if ice</w>
g en
form in</w>
ec om</w>
br al</w>
ail ed</w>
a ul</w>
▁was h</w>
▁ton ight</w>
▁sh ipped</w>
▁sched ules</w>
▁re forms</w>
▁r ough</w>
▁quar antine</w>
▁p ose</w>
▁p airs</w>
▁meaning less</w>
▁fl ame</w>
▁f eared</w>
▁enthusi astic</w>
▁electr onics</w>
▁de pl
▁c ute</w>
▁appl iance</w>
▁Gun san</w>
▁AL T</w>
ounc ed</w>
oc or
▁sh aking</w>
▁ret ro
▁pol e</w>
▁l ay</w>
▁k it</w>
▁gl asses</w>
▁foc al</w>
▁epid emi
▁ed ges</w>
▁disp ose</w>
▁comp ut
▁camp ing</w>
▁bever age</w>
▁ax ial</w>
▁arbitr arily</w>
▁adv oc
▁ac r
▁T 2</w>
▁No h</w>
▁Mathematic s</w>
▁L ight</w>
▁Dig ital</w>
▁D ob
▁Comp ensation</w>
▁30 2</w>
ver sible</w>
u v
or ic</w>
ea ge</w>
b orn</w>
as vir</w>
▁we igh
▁tempor al</w>
▁t ies</w>
▁spec ifications</w>
▁slud ge</w>
▁sea f
▁over time</w>
▁mit och
▁mic row
▁l ight
▁inv itation</w>
▁inter active</w>
▁hem oglobin</w>
▁guid ing</w>
▁firef ighters</w>
▁exemp t</w>
▁entrepreneur ship</w>
▁encoun tered</w>
▁comm it</w>
▁chem icals</w>
▁calc ulates</w>
▁amend ments</w>
▁align ed</w>
▁Super intendent</w>
▁Ital ian</w>
▁In ter</w>
▁H ad
▁G PS</w>
▁Con ver
▁Clin ical</w>
▁B C
▁15 5</w>
yc er
ax is</w>
G F</w>
▁wholes ale</w>
▁ste pping</w>
▁regul ates</w>
▁re forming</w>
▁r ush</w>
▁questionnair es</w>
▁orig inated</w>
▁microsc ope</w>
▁indic ted</w>
▁incor r
▁ide ological</w>
▁elect oral</w>
▁dr astically</w>
▁defin itions</w>
▁comm ands</w>
▁business men</w>
▁bur ning</w>
▁bo iler</w>
▁antioxid ant</w>
▁adv ances</w>
▁Mongol ian</w>
▁L ord</w>
our c
it ated</w>
A C</w>
▁unfav orable</w>
▁ser vers</w>
▁rom ance</w>
▁respec ted</w>
▁reserv ed</w>
▁pl ot</w>
▁overwhel ming</w>
▁om ission</w>
▁medic ines</w>
▁incons istent</w>
▁gen otype</w>
▁forg otten</w>
▁f iller</w>
▁e ch
▁desc end
▁ap op
▁Turk ish</w>
▁T ake</w>
▁Sor ry</w>
▁SP SS</w>
▁Lik ewise</w>
▁L T</w>
▁Fac ilities</w>
im ited</w>
i ating</w>
el essly</w>
O 3</w>
▁symp athy</w>
▁sub t
▁su its</w>
▁seas onal</w>
▁scienti sts</w>
▁s arc
▁s and
▁rel ate</w>
▁r up
▁r it
▁pun ish</w>
▁physi ological</w>
▁p uts</w>
▁n a</w>
▁gras ping</w>
▁faith ful</w>
▁disag reement</w>
▁decl ining</w>
▁commem orative</w>
▁chem istry</w>
▁campa ign
▁breat h</w>
▁Th ough</w>
▁Mul ti
▁D ok
▁3 21</w>
ri a</w>
res si
e un</w>
e ived</w>
avil ion</w>
▁t ight
▁star r
▁sa nd</w>
▁r ated</w>
▁quad r
▁prec isely</w>
▁occup ancy</w>
▁o ven</w>
▁multil ayer</w>
▁lau gh</w>
▁interv ene</w>
▁inser t</w>
▁ingredi ent</w>
▁heatw ave</w>
▁gr atitude</w>
▁fl ip</w>
▁fing ers</w>
▁f its</w>
▁f are</w>
▁el ong
▁draw s</w>
▁disper sed</w>
▁deep er</w>
▁cond itional</w>
▁com orb
▁ar ithm
▁aff ir
▁aer ial</w>
▁Kw ak</w>
▁G ong
▁Conc er
▁3 70</w>
▁199 0</w>
▁196 0s</w>
▁17 1</w>
yl ic</w>
j a</w>
in ning</w>
duc tion</w>
S I</w>
▁wr ist</w>
▁symm etry</w>
▁susc epti
▁sil ent</w>
▁s in</w>
▁postpon ed</w>
▁mod er
▁mo tive</w>
▁invent ory</w>
▁immer sed</w>
▁hem orrh
▁del ete</w>
▁d ot</w>
▁al ien
▁abs ent</w>
▁V ir
▁N ight</w>
▁Kak a
▁I L
▁D en
▁C 1</w>
▁Bl oom
▁A ge</w>
▁6 0s</w>
um ps</w>
u el
o tive</w>
h yeon</w>
g yo</w>
dr ed</w>
T M</w>
I s</w>
▁termin ate</w>
▁rot at
▁rh eum
▁pelv ic</w>
▁mod ulation</w>
▁l iber
▁l euk
▁ev olution</w>
▁dram atically</w>
▁cru ise</w>
▁br id
▁bea ms</w>
▁Tai w
▁Sw itz
▁Switz erland</w>
▁S D
▁M ir
▁En tr
▁Cheong do</w>
▁4 2
▁21 3</w>
um ption</w>
u ated</w>
p tions</w>
n i</w>
ec k</w>
▁ven tric
▁t h</w>
▁rot ary</w>
▁phot ography</w>
▁perpetr ator</w>
▁mar ital</w>
▁extrac ting</w>
▁dou bled</w>
▁def ic
▁deep ening</w>
▁cri tics</w>
▁contrac tor</w>
▁any time</w>
▁Un it</w>
▁Taiw anese</w>
▁S ok
▁Republic an</w>
▁R eal
▁Ha e
▁4 70</w>
▁20 30</w>
ow ns</w>
o economic</w>
es ium</w>
an ity</w>
▁somewh ere</w>
▁shoo t</w>
▁revit alizing</w>
▁r im</w>
▁pro ph
▁preval ent</w>
▁predic tions</w>
▁pene trate</w>
▁negoti ating</w>
▁ma ps</w>
▁inconven ient</w>
▁illum ination</w>
▁glyc emic</w>
▁gas oline</w>
▁experi ential</w>
▁ed ema</w>
▁diffr action</w>
▁dea c
▁conj unction</w>
▁clos est</w>
▁bul k</w>
▁asc ites</w>
▁V ic
▁V eter
▁Si heung</w>
▁S ign
▁M el
▁Kaz akh
▁K C
▁Aut om
▁Arab ia</w>
▁5 6
i pp
eg ae</w>
ap se</w>
ad o</w>
▁strea ming</w>
▁stor yt
▁sens ory</w>
▁r u
▁promp tly</w>
▁pos ter</w>
▁p et</w>
▁not able</w>
▁n am
▁myocard ial</w>
▁mechan ics</w>
▁indic tment</w>
▁inadequ ate</w>
▁imp urity</w>
▁g h
▁end ometr
▁coll usion</w>
▁b esides</w>
▁a e</w>
▁Yang cheon</w>
▁Shins egae</w>
▁S ov
▁PE T</w>
▁P ur
▁N ur
▁M easures</w>
▁L ev
▁Ad visory</w>
▁6 7
ti ary</w>
ocr ine</w>
es tive</w>
crip tions</w>
P C</w>
▁sl og
▁ran ks</w>
▁ran kings</w>
▁r ows</w>
▁play ground</w>
▁occup y</w>
▁occ asi
▁mol ded</w>
▁firm ly</w>
▁expl icit</w>
▁employ ers</w>
▁cr ude</w>
▁cl ients</w>
▁budg ets</w>
▁author ized</w>
▁W at
▁W al
▁Bund ang</w>
▁Americ ans</w>
▁17 5</w>
ul in</w>
t oon</w>
sh ore</w>
per or</w>
op es</w>
o ked</w>
l ycer
id entally</w>
ge uk</w>
ard i
ag og
ad ation</w>
D C</w>
▁withdraw n</w>
▁vacc ine</w>
▁unchang ed</w>
▁suppl ementation</w>
▁roll ing</w>
▁retros pec
▁res ear
▁reproduc ed</w>
▁rail road</w>
▁qu ota</w>
▁multim edia</w>
▁m ix</w>
▁k ick</w>
▁inter im</w>
▁h an
▁g od</w>
▁for ever</w>
▁def l
▁byp ass</w>
▁adsorb ent</w>
▁Y eah</w>
▁Pre f
▁Man ager</w>
▁L u
▁Kazakh stan</w>
▁Hu h</w>
▁Dong jak</w>
▁BM D</w>
st one</w>
m ath</w>
ic a</w>
h i</w>
ex p
eth er
av ir
av es</w>
▁z z</w>
▁wal ked</w>
▁unc on
▁un pr
▁ter tiary</w>
▁small est</w>
▁sh eets</w>
▁prov ing</w>
▁prot ests</w>
▁p ore</w>
▁mor ph
▁gu ys</w>
▁flu x</w>
▁fl ipped</w>
▁ex er
▁down turn</w>
▁conn ections</w>
▁compar es</w>
▁cal end
▁autom ation</w>
▁accum ulate</w>
▁Z eal
▁Wor king</w>
▁Techn o</w>
▁S till</w>
▁Not withstanding</w>
▁Kindergart en</w>
▁Isl amic</w>
▁Is n</w>
▁D od
▁Ch eol</w>
▁Bloom berg</w>
▁A san</w>
▁12 8</w>
rea s</w>
is k</w>
e ing</w>
am i</w>
ag ged</w>
R s</w>
▁vari ously</w>
▁tour s</w>
▁tex tile</w>
▁surp assed</w>
▁slow ed</w>
▁secre ts</w>
▁ref resh
▁proc eeding</w>
▁pra ise</w>
▁men us</w>
▁m ot
▁list ened</w>
▁int estin
▁hydro c
▁fl ights</w>
▁en tit
▁concer ts</w>
▁ch oc
▁canc ers</w>
▁bas ement</w>
▁b il
▁ar med</w>
▁aggre gate</w>
▁Ven ez
▁Sh ould</w>
▁M aster</w>
▁Journ al</w>
▁Gu arant
▁G S
▁E p
▁Conc ert</w>
▁C ro
▁B or
▁8 30</w>
ou ch</w>
ev ant</w>
3 4</w>
▁vo ters</w>
▁vari ability</w>
▁suspec ts</w>
▁sp inal</w>
▁sl ump</w>
▁resid ing</w>
▁norm alization</w>
▁long est</w>
▁he ir</w>
▁corr ecting</w>
▁contac ting</w>
▁cere bral</w>
▁cau tious</w>
▁bro thers</w>
▁ben ign</w>
▁asymm etry</w>
▁assi gn
▁an t
▁after math</w>
▁acqu ires</w>
▁L og
▁L iver</w>
▁F i</w>
▁F E
▁Comp reh
▁B A
ro s</w>
m un</w>
is ible</w>
▁traject ory</w>
▁tom b</w>
▁psych i
▁p ist
▁mas ks</w>
▁m iti
▁key s</w>
▁invol ve</w>
▁inter rup
▁hun dred</w>
▁gre eting</w>
▁g inseng</w>
▁feat ured</w>
▁ex tern
▁epis odes</w>
▁descrip tive</w>
▁d ense</w>
▁cus t
▁cred its</w>
▁comm ent
▁cha eb
▁bo ards</w>
▁absol utely</w>
▁Sov iet</w>
▁Seung ri</w>
▁SL E</w>
▁N ob
▁Holl ywood</w>
▁C O</w>
▁An seong</w>
▁A 1</w>
▁7 30</w>
▁199 2</w>
yl axis</w>
t ably</w>
st atic</w>
rolog ical</w>
res trial</w>
omer ates</w>
ler osis</w>
l ic</w>
ip e</w>
ebr a</w>
eb ack</w>
4 a</w>
▁u m
▁ter ri
▁t obacco</w>
▁st en
▁soci oeconomic</w>
▁relax ed</w>
▁r ains</w>
▁philosoph ical</w>
▁perm eability</w>
▁new sl
▁n ominal</w>
▁intrav enous</w>
▁integr ating</w>
▁impl ant</w>
▁h yeon</w>
▁feat uring</w>
▁e ased</w>
▁desper ate</w>
▁deg en
▁bri ef</w>
▁aud its</w>
▁assum ptions</w>
▁ank le</w>
▁Yang ju</w>
▁Un fortunately</w>
▁N atural</w>
▁L E
▁K ang
▁H o
▁G yeong</w>
▁Chun cheon</w>
▁Ber lin</w>
t een</w>
ic ked</w>
d an</w>
b ody</w>
▁× ×</w>
▁unpr eced
▁solu ble</w>
▁s ealed</w>
▁prop oses</w>
▁pl ung
▁per iton
▁overl ooked</w>
▁out flow</w>
▁nec rosis</w>
▁m o</w>
▁liqu idation</w>
▁lat ent</w>
▁is ch
▁h alls</w>
▁foun ding</w>
▁for eg
▁fair y</w>
▁el ap
▁e u
▁correspond ent</w>
▁contr action</w>
▁contain ers</w>
▁condens er</w>
▁bur n
▁b andw
▁accessi ble</w>
▁Zeal and</w>
▁Venez uel
▁S W
▁Qu ality</w>
▁Med icine</w>
▁M ag
▁M B
▁Jeoll abuk</w>
▁G arden</w>
▁D am
▁Counc ilor</w>
▁C D</w>
▁11 7</w>
til es</w>
st ate</w>
il le</w>
id th</w>
all ic</w>
a ek</w>
▁warm ing</w>
▁v ig
▁toil et</w>
▁p ine</w>
▁mys ter
▁missi onary</w>
▁mel ting</w>
▁incorpor ation</w>
▁hos ting</w>
▁extrac ts</w>
▁explo sive</w>
▁coach ing</w>
▁break down</w>
▁N I
▁Met S</w>
▁KB O</w>
▁Individ ual</w>
▁E R
▁Co ach</w>
▁CV D</w>
▁Argenti na</w>
ut ory</w>
ul as</w>
ting ly</w>
sch e</w>
ol ving</w>
n eys</w>
ent o</w>
av iol
au th
▁uni forms</w>
▁underg one</w>
▁un ilateral</w>
▁sub frame</w>
▁shel ter</w>
▁rot ates</w>
▁reimb ursement</w>
▁p ick
▁mod ify</w>
▁merg ed</w>
▁los es</w>
▁instr um
▁graph s</w>
▁foo tage</w>
▁en abling</w>
▁embod ied</w>
▁el lip
▁dir ecting</w>
▁def ective</w>
▁critic izing</w>
▁call igraph
▁U p</w>
▁P s
▁P H
▁N ether
▁Ky ung
▁K o
▁Egyp t</w>
▁Disc us
▁Comm issi
▁20 21</w>
ot omy</w>
olu tionary</w>
lip idemia</w>
e c</w>
art um</w>
▁v ast</w>
▁uncertain ties</w>
▁th rew</w>
▁sub tit
▁recyc led</w>
▁qu asi</w>
▁prospec ts</w>
▁phys ic
▁misunder standing</w>
▁meth ane</w>
▁ges tures</w>
▁diagn osing</w>
▁dem ocratization</w>
▁deduc tions</w>
▁comput ational</w>
▁arithm etic</w>
▁appar ent</w>
▁SM E</w>
▁S G
▁Perform ance</w>
▁PC R</w>
▁Nether lands</w>
▁L ive</w>
▁Gen eration</w>
▁Coll ection</w>
▁Blu et
▁Bluet ooth</w>
unc iation</w>
t f
row th</w>
row n</w>
ov ir</w>
osp el</w>
or ti
etr ical</w>
b u
5 a</w>
3 a</w>
▁wr ink
▁v ital</w>
▁tax is</w>
▁spont aneous</w>
▁sat uration</w>
▁prerequis ite</w>
▁pr ayer</w>
▁met formin</w>
▁met ad
▁mag ic</w>
▁j ury</w>
▁intercon n
▁id le</w>
▁gu ards</w>
▁evalu ates</w>
▁establ ishes</w>
▁dem ol
▁cool ant</w>
▁contrac ted</w>
▁co alition</w>
▁cler k</w>
▁bor row</w>
▁Song do</w>
▁Si x</w>
▁R NA</w>
▁N um
▁M u
▁H ep
v el</w>
ar ities</w>
▁work force</w>
▁won der
▁vers us</w>
▁t all</w>
▁st aining</w>
▁sor afenib</w>
▁sl ide</w>
▁show er</w>
▁se on</w>
▁s ep
▁pedestr ian</w>
▁over night</w>
▁molec ule</w>
▁mem o</w>
▁inspec ted</w>
▁hon est</w>
▁g ard
▁diss olution</w>
▁dis b
▁degr adation</w>
▁couns el</w>
▁contam ination</w>
▁compl aining</w>
▁but t
▁amm onia</w>
▁aff ord</w>
▁acceler ated</w>
▁Sh ip
▁J ames</w>
▁I cheon</w>
▁H ans
▁Fr anc
▁E TR</w>
▁Cont ent</w>
▁6 50</w>
yroid ism</w>
jus tment</w>
id er</w>
g ia</w>
ear ity</w>
aviol et</w>
auth orized</w>
and ong</w>
H g</w>
▁retr iev
▁pred ec
▁pos terior</w>
▁pene tration</w>
▁ol ig
▁nom inated</w>
▁mus h
▁inv ite</w>
▁incl ination</w>
▁h urry</w>
▁f ed</w>
▁expec ting</w>
▁exp on
▁enem y</w>
▁dyn amics</w>
▁clin ically</w>
▁cer amics</w>
▁al t
▁W il
▁T alk</w>
▁Stand ard</w>
▁Sh aring</w>
▁Prem ier</w>
▁Oc c
▁NA SH</w>
▁Kum ho</w>
▁Isra el</w>
▁HI V</w>
▁Gap yeong</w>
▁AF P</w>
▁9 9
▁5 11</w>
▁29 0</w>
oprot ein</w>
o ys</w>
iti c</w>
ic ing</w>
ad a</w>
T 2</w>
▁y oon</w>
▁subscri ber</w>
▁st uck</w>
▁short ened</w>
▁sh ield</w>
▁sc ar
▁s oul</w>
▁perm its</w>
▁pain t</w>
▁negl ect</w>
▁mor b
▁mac roph
▁fluoresc ence</w>
▁exhaus ted</w>
▁ex ported</w>
▁ess entially</w>
▁educ ate</w>
▁di ver
▁crow d</w>
▁coun ted</w>
▁bandw idth</w>
▁at omic</w>
▁W ell</w>
▁S ite</w>
▁Pl ant</w>
▁Manch ester</w>
▁M ob
▁L ow</w>
▁Jud icial</w>
▁Inter ior</w>
t ations</w>
sc opic</w>
ro ads</w>
on dr
o ol
lo ad</w>
ir ts</w>
iel ds</w>
an ic</w>
▁un w
▁the ft</w>
▁subg roup</w>
▁speci alists</w>
▁se ated</w>
▁ren ov
▁recip roc
▁prepar ations</w>
▁pain ted</w>
▁nor m</w>
▁nick el</w>
▁j unction</w>
▁hypogl ycemia</w>
▁haz ard</w>
▁gr ants</w>
▁def ensive</w>
▁copol ymer</w>
▁commem orate</w>
▁cath eter</w>
▁be ars</w>
▁arr ange</w>
▁anticip ated</w>
▁SE M</w>
▁Rom an</w>
▁P E</w>
▁N ak</w>
▁L iberal</w>
▁K i
▁G oseong</w>
▁Eth ics</w>
▁Compreh ensive</w>
▁Ass ist
▁Add itional</w>
▁4 1
us t
izz a</w>
is ter</w>
er ial</w>
H D</w>
▁tr ucks</w>
▁revers al</w>
▁ret ail
▁remod eling</w>
▁plan arization</w>
▁p acked</w>
▁mathematic ians</w>
▁inhib ition</w>
▁hyper gl
▁high way</w>
▁h iding</w>
▁fet us</w>
▁end oth
▁congl omerates</w>
▁ch air
▁c ot
▁c apping</w>
▁b ones</w>
▁attrac ts</w>
▁adv isor</w>
▁acknowled ging</w>
▁R et
▁P 2</w>
▁Exam ination</w>
▁D 2</w>
▁Cor ruption</w>
▁C amp</w>
▁C a
yc le</w>
y oung</w>
und ae</w>
hy up</w>
enz a</w>
al c
▁u ter
▁ter restrial</w>
▁ten ants</w>
▁tac tile</w>
▁subm itting</w>
▁storyt elling</w>
▁stat utory</w>
▁resc ued</w>
▁prof ession</w>
▁predic tor</w>
▁outp utting</w>
▁mo tives</w>
▁micro s
▁med ications</w>
▁inquir ies</w>
▁cop ing</w>
▁bab ies</w>
▁b alls</w>
▁accommod ated</w>
▁abol ish</w>
▁Sp ace</w>
▁Seong dong</w>
▁Nex en</w>
▁M obile</w>
▁Leg al</w>
▁L o
▁Guarant ee</w>
▁Eff orts</w>
▁Dru king</w>
▁D eok
▁D L</w>
▁Con tin
▁Canad ian</w>
▁CS R</w>
▁Buddh ism</w>
▁4 60</w>
▁11 8</w>
p oints</w>
ot ted</w>
ocar cinoma</w>
ipl inary</w>
ig en
g a</w>
es tingly</w>
b ang</w>
▁str ip</w>
▁sti r</w>
▁sequ ences</w>
▁sacr ifice</w>
▁rep etition</w>
▁rememb ered</w>
▁regret table</w>
▁prot ested</w>
▁p eers</w>
▁min eral</w>
▁inf inity</w>
▁hab it
▁graph ite</w>
▁cytok ines</w>
▁ch ap
▁book st
▁altern ately</w>
▁T om
▁S D</w>
▁R 2</w>
▁L os</w>
▁F arm
▁C B
▁9 20</w>
▁5 8
ymn asi
v iew</w>
u ating</w>
s erv
om ial</w>
of t</w>
odi alysis</w>
esc ent</w>
e at
d rew</w>
ann ers</w>
an th
▁vari ations</w>
▁tw in</w>
▁rev ising</w>
▁retrospec tively</w>
▁renew ed</w>
▁regim en</w>
▁refr ac
▁r ape</w>
▁precip itation</w>
▁portr ait</w>
▁panc reas</w>
▁p es
▁overd ue</w>
▁out line</w>
▁intensi fied</w>
▁ind ex
▁hol ders</w>
▁gener alized</w>
▁expl or
▁erad ication</w>
▁ens uring</w>
▁diversi fication</w>
▁deriv atives</w>
▁def eated</w>
▁cor rosion</w>
▁conf essed</w>
▁ch ore
▁car cin
▁brow n</w>
▁bl oss
▁bea m
▁ar c</w>
▁app ealed</w>
▁an at
▁Ph il
▁Liter ature</w>
▁Coun term
▁199 1</w>
im p
▁un authorized</w>
▁theatr ical</w>
▁sophistic ated</w>
▁satis factory</w>
▁red evelopment</w>
▁r ivers</w>
▁qu oted</w>
▁pi on
▁norm alized</w>
▁netw orking</w>
▁myster ious</w>
▁monit ored</w>
▁mon omer</w>
▁metast atic</w>
▁investig ators</w>
▁inter ac
▁inst ant</w>
▁heterogen eity</w>
▁har sh</w>
▁fol ding</w>
▁f ate</w>
▁entit led</w>
▁dop ing</w>
▁cus tom</w>
▁collabor ative</w>
▁clus ters</w>
▁calend ar</w>
▁accel erate</w>
▁Y ons
▁With in</w>
▁Spr ing</w>
▁K B</w>
▁Fortun ately</w>
▁En d
▁C amb
▁B esides</w>
▁B ay</w>
▁B at
▁8 5
yst ems</w>
uc ky</w>
tiv ated</w>
it ational</w>
i i</w>
eb ra
and ers</w>
▁wors ened</w>
▁unpreced ented</w>
▁rev is
▁postp artum</w>
▁pi g</w>
▁path ways</w>
▁lau gh
▁induc ement</w>
▁h ang</w>
▁gro oves</w>
▁gran ting</w>
▁enc oded</w>
▁comfor tably</w>
▁clean er</w>
▁burd ens</w>
▁autom ated</w>
▁atmosph eric</w>
▁ampl ified</w>
▁alloc ate</w>
▁abs c
▁Y eo
▁Se og
▁Pro bl
▁Os aka</w>
▁IC O</w>
▁Gwang yang</w>
▁D eb
▁Cons equently</w>
▁Angel es</w>
▁A V
▁12 7</w>
▁11 10</w>
rop ical</w>
r s</w>
ons hips</w>
ol ar</w>
iti vely</w>
g ok</w>
ere by</w>
▁w oong</w>
▁ultr aviolet</w>
▁tr ace</w>
▁ta ek</w>
▁sh ear</w>
▁sh ake</w>
▁proj ected</w>
▁persu ade</w>
▁metad ata</w>
▁in trac
▁fish ery</w>
▁esc al
▁en erg
▁electro chemical</w>
▁def amation</w>
▁centr if
▁car eers</w>
▁broadc asts</w>
▁arth ro
▁Di abetes</w>
▁Cor ps</w>
▁Chang es</w>
▁Bea ch</w>
to s</w>
s ome</w>
qu al
on ically</w>
en al</w>
aw s</w>
M O</w>
▁vac ancy</w>
▁therap ies</w>
▁st amp</w>
▁spher ical</w>
▁shut down</w>
▁sh ut</w>
▁rev ocation</w>
▁qu in
▁po et</w>
▁pl ain</w>
▁pal ace</w>
▁insolv ency</w>
▁imp ressed</w>
▁flav or</w>
▁fil med</w>
▁fib ro
▁fabr icated</w>
▁enzym es</w>
▁conv ex</w>
▁celebr ation</w>
▁antibio tic</w>
▁air way</w>
▁aff ective</w>
▁accoun tability</w>
▁Sy d
▁P ress</w>
▁Mus l
▁Mod ern</w>
▁May be</w>
▁H yeon</w>
▁G S</w>
▁Ex pl
▁E X
▁Dob ong</w>
▁Da es
▁Da eh
▁Con tr
▁CR P</w>
▁B etween</w>
▁Any one</w>
▁198 8</w>
um ing</w>
uc c
on ography</w>
il ation</w>
eg a</w>
ari a</w>
an tive</w>
ah epatic</w>
▁wonder ful</w>
▁var ying</w>
▁ta il</w>
▁subs trates</w>
▁spir itual</w>
▁sol ely</w>
▁shif ting</w>
▁s ink</w>
▁reson ator</w>
▁res h
▁relax ation</w>
▁opp ose</w>
▁notic ed</w>
▁newsl etter</w>
▁m ock</w>
▁juven iles</w>
▁intr a
▁intern ally</w>
▁ge ographical</w>
▁g un
▁en r
▁eg g</w>
▁den ial</w>
▁consider ations</w>
▁compan ion</w>
▁broadc aster</w>
▁b ae</w>
▁ar row</w>
▁ar m
▁al ter
▁ad ul
▁acquaint ances</w>
▁Syd ney</w>
▁Sev en</w>
▁M ain
▁HP V</w>
▁Go v</w>
▁G i</w>
▁Cri tics</w>
▁B up
▁6 40</w>
n ame</w>
k in</w>
hol ding</w>
ari at</w>
▁tr em
▁tr ay</w>
▁t on</w>
▁sugg estion</w>
▁sprea ds</w>
▁pres entations</w>
▁prefer entially</w>
▁po ems</w>
▁pepti de</w>
▁neu ro
▁min ds</w>
▁mid term</w>
▁lay ered</w>
▁journ alists</w>
▁investig ator</w>
▁impl antation</w>
▁heterogen eous</w>
▁hem odialysis</w>
▁helicop ter</w>
▁govern mental</w>
▁g aps</w>
▁dys p
▁d oses</w>
▁coll ectively</w>
▁co ag
▁affili ate</w>
▁adequ acy</w>
▁Sub si
▁Str eam</w>
▁St aff</w>
▁O vers
▁O ld</w>
▁Gre ek</w>
▁Gener ally</w>
▁F ol
▁F A</w>
▁Cen ters</w>
▁Camb od
▁4 11</w>
t ants</w>
re gn
n is
a sions</w>
a pl
▁sw elling</w>
▁sto pper</w>
▁sk eletal</w>
▁seg ments</w>
▁roo f
▁resign ed</w>
▁reliev ed</w>
▁reli ance</w>
▁ref usal</w>
▁re ject</w>
▁press ur
▁phot ores
▁no ting</w>
▁n ons
▁innoc ent</w>
▁induc tor</w>
▁individ u
▁hom er
▁hob by</w>
▁gr ay</w>
▁fluctu ation</w>
▁escap ed</w>
▁dissatis faction</w>
▁cour age</w>
▁cl ip</w>
▁cl earance</w>
▁choc olate</w>
▁boo ths</w>
▁author ization</w>
▁a rom
▁a bl
▁Yons ei</w>
▁Qu al
▁Particip ation</w>
▁P os
▁Or chestra</w>
▁J oh
▁Dis p
▁Academ ic</w>
v al
und ings</w>
t ake</w>
s man</w>
on c
o ons</w>
n is</w>
li x</w>
O N</w>
▁wit nesses</w>
▁war nings</w>
▁surviv ors</w>
▁surro undings</w>
▁strong est</w>
▁stand by</w>
▁schedul ing</w>
▁rel ics</w>
▁r ae</w>
▁pack ages</w>
▁ne ut
▁lat tice</w>
▁l oud</w>
▁irr ational</w>
▁integr ate</w>
▁imp urities</w>
▁homogen eous</w>
▁h o
▁h ash</w>
▁h all
▁exchang ing</w>
▁ear s</w>
▁dr ives</w>
▁doub ts</w>
▁disturb ance</w>
▁dep icts</w>
▁coll ects</w>
▁authentic ity</w>
▁aud ition</w>
▁absur d</w>
▁Tr ust</w>
▁TN F</w>
▁T ermin
▁Sh ar
▁Sen ate</w>
▁M un</w>
▁Hon am</w>
▁H F
▁G ug
▁F if
▁Chr ist</w>
▁Champ ions</w>
▁C omb
▁C A</w>
▁7 6
pl asty</w>
ir o</w>
im ents</w>
es h</w>
al izes</w>
▁with holding</w>
▁warr ants</w>
▁v ocal</w>
▁tri ple</w>
▁t ooth</w>
▁sincer ely</w>
▁sh ame</w>
▁rad ar</w>
▁pot tery</w>
▁phosphor us</w>
▁loc ally</w>
▁liqu or</w>
▁kn ot</w>
▁j ump</w>
▁histor ic</w>
▁h acking</w>
▁g au
▁fl ag
▁discover ing</w>
▁disc ounts</w>
▁dir ectional</w>
▁c ache</w>
▁bur st</w>
▁b eta</w>
▁avail ability</w>
▁aud itorium</w>
▁add resses</w>
▁ackn owledge</w>
▁Z h
▁Tot al</w>
▁Se on
▁SO C</w>
▁R S
▁Pl ay</w>
▁Overs eas</w>
▁Mexic an</w>
▁M t</w>
▁H aving</w>
▁G am
▁G a</w>
▁D I
▁Bup yeong</w>
▁Ac tually</w>
▁17 2</w>
ti tion
t oral</w>
opl astic</w>
iti ngs</w>
i os</w>
i on
f lix</w>
eth ane</w>
4 5</w>
0 A</w>
▁wor e</w>
▁un h
▁sp are</w>
▁se ating</w>
▁s port</w>
▁rel ational</w>
▁par c
▁p all
▁irr el
▁ir is</w>
▁hom ework</w>
▁hom eless</w>
▁grand father</w>
▁exp ose</w>
▁enroll ment</w>
▁dr essed</w>
▁don ate</w>
▁discontin ued</w>
▁design ers</w>
▁deliver s</w>
▁cultiv ating</w>
▁cosm etic</w>
▁cor tic
▁cooper atives</w>
▁condens ed</w>
▁compos er</w>
▁bron ze</w>
▁broadc asters</w>
▁b omb
▁Sp okes
▁O ut</w>
▁H O
▁H E
▁Emb assy</w>
▁40 2</w>
▁25 1</w>
ol ization</w>
o th</w>
n ori</w>
im s</w>
aw a</w>
air ing</w>
a e
▁t ie</w>
▁sus tained</w>
▁sh ed</w>
▁se ong</w>
▁recover ing</w>
▁real m</w>
▁r ival</w>
▁pill ars</w>
▁ped agog
▁lea king</w>
▁ign ition</w>
▁h olog
▁gu k</w>
▁gu it
▁gr ace</w>
▁g ent
▁furn ace</w>
▁f ought</w>
▁dic tionary</w>
▁coo ked</w>
▁compl ain</w>
▁alph a</w>
▁Ta eg
▁Ph armac
▁Gu ard</w>
▁G O
▁Enterpr ise</w>
▁E T
▁C os
▁C C</w>
▁Baek je</w>
▁6 6
▁20 4</w>
▁199 3</w>
oo t</w>
ondr ial</w>
eas ant</w>
S E</w>
D 1</w>
▁vac ant</w>
▁v itr
▁tr ains</w>
▁substitu tion</w>
▁steat osis</w>
▁spec tro
▁silic a</w>
▁roo ted</w>
▁regul ating</w>
▁reg ards</w>
▁publ ish</w>
▁publ ish
▁produc tive</w>
▁p yeong</w>
▁p edi
▁optim um</w>
▁o ur
▁ment oring</w>
▁la g</w>
▁interm itt
▁int uition</w>
▁industr ialization</w>
▁ha t</w>
▁fin tech</w>
▁dr um</w>
▁dis l
▁dep rec
▁counc ils</w>
▁compar ator</w>
▁commerci alized</w>
▁bl o
▁aro se</w>
▁an emia</w>
▁activ ating</w>
▁a per
▁Ta king</w>
▁S ure</w>
▁Net flix</w>
▁N i</w>
▁N L
▁L C
▁Champi onship</w>
▁C irc
▁4 12</w>
▁21 4</w>
tit e</w>
ol ve</w>
ly sis</w>
k ie</w>
k a</w>
gh ters</w>
g y
ef r
ax ial</w>
and o</w>
an i</w>
V 1</w>
▁trus ted</w>
▁therm oelectric</w>
▁summar ize</w>
▁speci alist</w>
▁sh ocked</w>
▁rough ly</w>
▁p u
▁our selves</w>
▁non lin
▁neighb or</w>
▁mobil ized</w>
▁irrel evant</w>
▁ign ore</w>
▁hy dr
▁flex ibly</w>
▁enc oder</w>
▁disapp ears</w>
▁conv eyed</w>
▁clin ics</w>
▁ch eon</w>
▁c ure</w>
▁bench mark</w>
▁a side</w>
▁St eering</w>
▁K imchi</w>
▁Bas eball</w>
▁A rab</w>
ymnasi um</w>
s ter</w>
is tically</w>
A P</w>
▁vic inity</w>
▁transc e
▁theref or</w>
▁se eds</w>
▁rev ive</w>
▁restric ting</w>
▁res ting</w>
▁reluc tant</w>
▁rain fall</w>
▁prospec t</w>
▁polar izing</w>
▁pol yc
▁nin th</w>
▁lev er</w>
▁inspec tor</w>
▁go alk
▁fluoresc ent</w>
▁extingu ished</w>
▁di am
▁deh um
▁def end</w>
▁d rove</w>
▁congrat ulatory</w>
▁comm uting</w>
▁be ating</w>
▁W om
▁Treat y</w>
▁Th ings</w>
▁St eel</w>
▁S t</w>
▁Rep ort</w>
▁P op
▁Ins titutional</w>
▁Hyp oth
▁Gw acheon</w>
▁F O
▁F A
▁Braz ilian</w>
ter ic</w>
ro b
ress man</w>
n ae</w>
m ission</w>
m g</w>
ili ans</w>
am ide</w>
ack er</w>
▁wr itings</w>
▁v om
▁un il
▁trag edy</w>
▁str ang
▁st yles</w>
▁sc al
▁s quar
▁roo ts</w>
▁reac t</w>
▁prov es</w>
▁men opausal</w>
▁kn ife</w>
▁human itarian</w>
▁emp ath
▁el abor
▁disappoin ted</w>
▁detach ed</w>
▁destro y</w>
▁derm atitis</w>
▁delinqu ent</w>
▁clou ds</w>
▁celebr ity</w>
▁c ement</w>
▁broad ly</w>
▁br ush</w>
▁believ ing</w>
▁activ ists</w>
▁Sok cho</w>
▁S am</w>
▁N an
▁Mor ning</w>
▁Hae undae</w>
▁H D</w>
▁G il</w>
▁Ex tension</w>
▁Differ ent</w>
▁D P</w>
▁C am
▁8 70</w>
yn ec
us an</w>
or a</w>
i y
e ur</w>
ar rh
ain e</w>
R E</w>
L A</w>
D R</w>
▁v alley</w>
▁tub es</w>
▁tra pped</w>
▁subdiv ided</w>
▁sh ocking</w>
▁rig idity</w>
▁rh in
▁remark ably</w>
▁prot ects</w>
▁pot entially</w>
▁photores ist</w>
▁phosph ate</w>
▁microw ave</w>
▁l ou
▁influ enza</w>
▁for tun
▁discon n
▁disc arded</w>
▁diplom acy</w>
▁cot ton</w>
▁ch un</w>
▁centrif ug
▁c raft</w>
▁back grounds</w>
▁am ino</w>
▁add itive</w>
▁abs trac
▁Wh enever</w>
▁S 7
▁S 2</w>
▁L i</w>
▁H ung
▁Enterpr ises</w>
▁B os
▁A KI</w>
od d
o ting</w>
ensi tivity</w>
ens ome</w>
eas on</w>
as y</w>
▁vill agers</w>
▁v ectors</w>
▁underst ands</w>
▁ten nis</w>
▁sw eat</w>
▁stim ulate</w>
▁shut tle</w>
▁rec essed</w>
▁reb orn</w>
▁prin ter</w>
▁pres cribing</w>
▁pol yn
▁phot oc
▁o ld
▁mater i
▁malign ancy</w>
▁laun dry</w>
▁l uck</w>
▁k won</w>
▁hypoth eses</w>
▁do zens</w>
▁char ts</w>
▁burd ensome</w>
▁bur ea
▁at opic</w>
▁ampl ification</w>
▁St arb
▁Sam ch
▁Produc ts</w>
▁Nor m
▁H eung
▁Geum cheon</w>
▁Est ate</w>
▁D eok</w>
▁CN N</w>
▁20 5</w>
w riting</w>
u el</w>
ow ners</w>
ish ments</w>
in itely</w>
imm une</w>
e ol
ac ic</w>
V C</w>
M C</w>
▁wea kn
▁weakn esses</w>
▁vitr o</w>
▁v end
▁subst antive</w>
▁sn ack</w>
▁prac tition
▁occ asion</w>
▁observ er</w>
▁nam ely</w>
▁mitoch ondrial</w>
▁migr ant</w>
▁microorgan isms</w>
▁mathematic ian</w>
▁las ted</w>
▁l ug
▁env el
▁dev oted</w>
▁conf idential</w>
▁conduc tion</w>
▁commod ity</w>
▁clar ified</w>
▁c ough</w>
▁burd ened</w>
▁breas tf
▁bo k</w>
▁bar r
▁assembl ed</w>
▁apop tosis</w>
▁aggre g
▁V enture</w>
▁Un less</w>
▁Starb ucks</w>
▁Pl us</w>
▁K yu</w>
▁K TX</w>
▁Exp enses</w>
▁Dok do</w>
▁Conver gence</w>
▁Chung ju</w>
▁CP U</w>
▁B eh
▁8 50</w>
uv ant</w>
sh in</w>
os ex
m entation</w>
in c</w>
g ung</w>
ew orks</w>
ess ness</w>
en er</w>
S C</w>
P 1</w>
▁° °</w>
▁tend encies</w>
▁spec ially</w>
▁recomm ends</w>
▁passi onate</w>
▁p iv
▁old est</w>
▁lon ely</w>
▁indemn ity</w>
▁hang ing</w>
▁h ong</w>
▁forec asts</w>
▁expect ancy</w>
▁epith elial</w>
▁dig it</w>
▁dep ressed</w>
▁dau ghters</w>
▁che ese</w>
▁carb on
▁bo arding</w>
▁bat t
▁all ey</w>
▁acc essed</w>
▁absor b</w>
▁V lad
▁Pa ul
▁MA C</w>
▁Belg ium</w>
▁B ento</w>
ug ated</w>
rol eum</w>
pl er</w>
ons an</w>
om ers</w>
ol en</w>
oid al</w>
m i</w>
h eon</w>
edr al</w>
b ok
P CO</w>
▁tim er</w>
▁super f
▁spot light</w>
▁seaf ood</w>
▁scienti st</w>
▁reserv ations</w>
▁r ounds</w>
▁nom ination</w>
▁mm Hg</w>
▁journ als</w>
▁irrad iated</w>
▁ins pir
▁imp ul
▁hin der</w>
▁gr ass</w>
▁foreign er</w>
▁evap oration</w>
▁dev ised</w>
▁del ays</w>
▁contam inated</w>
▁bow l</w>
▁be ats</w>
▁b ell</w>
▁as ymp
▁anonym ous</w>
▁ances tors</w>
▁alleg edly</w>
▁Tel ecom</w>
▁Ser um</w>
▁Qu een</w>
▁M as
▁K h
▁Jo ong</w>
▁Ex po</w>
▁D on
▁Christi ans</w>
▁Chil d
▁198 0</w>
un al</w>
om y
o ors</w>
imb ap</w>
ic ks</w>
i ples</w>
B s</w>
2 9</w>
▁wall et</w>
▁trav eled</w>
▁st olen</w>
▁scat tering</w>
▁rom antic</w>
▁recon si
▁rati onality</w>
▁r yong</w>
▁prem ature</w>
▁p upp
▁open ness</w>
▁no tion</w>
▁multi d
▁lo os
▁l enses</w>
▁ed itorial</w>
▁down stream</w>
▁consum e</w>
▁comm itting</w>
▁com edy</w>
▁be ds</w>
▁artif acts</w>
▁Volunt eer</w>
▁Se x
▁M en</w>
▁H aw
▁H am</w>
▁F e</w>
▁Eun pyeong</w>
▁D V
▁D E
▁C ross</w>
▁C op
▁B uk
▁B O
u istic</w>
p art</w>
on ers</w>
e ur
d am</w>
as tics</w>
B A</w>
4 3</w>
▁wel com
▁unil ater
▁throw ing</w>
▁terri ble</w>
▁swit ches</w>
▁reapp oin
▁pist on</w>
▁par ity</w>
▁microsc opic</w>
▁macro economic</w>
▁lin er</w>
▁la b</w>
▁insi ght</w>
▁ind eed</w>
▁form ulation</w>
▁floo ding</w>
▁fail ures</w>
▁elim ination</w>
▁dupl icate</w>
▁diff use</w>
▁design ating</w>
▁d ates</w>
▁cr acks</w>
▁class rooms</w>
▁V ision</w>
▁S ar
▁P rim
▁K wan</w>
▁Ag ainst</w>
▁0 3</w>
un gh
truc tures</w>
re en</w>
r a</w>
or ting</w>
ol one</w>
ig a</w>
enti m
d ies</w>
ch ym
b ow</w>
ar th
▁wors en</w>
▁wir elessly</w>
▁welcom ed</w>
▁vag ue</w>
▁trans cription</w>
▁sten osis</w>
▁sl urry</w>
▁run ner</w>
▁predec essor</w>
▁off shore</w>
▁narrow ed</w>
▁merg ers</w>
▁lapar oscopic</w>
▁l umb
▁k y
▁ir res
▁intensi fying</w>
▁instrum ental</w>
▁imp regn
▁i od
▁hierarch y</w>
▁guard ians</w>
▁fal s
▁f ist
▁emb ro
▁differ ed</w>
▁counterm easure</w>
▁comm entary</w>
▁char ter</w>
▁caf es</w>
▁cab in</w>
▁altern ating</w>
▁Su k</w>
▁Seong buk</w>
▁R S</w>
▁Prof essi
▁P rop
▁Orig inally</w>
▁Nav y</w>
▁M ount</w>
▁KE PCO</w>
▁Inter est</w>
▁For tress</w>
▁Cus toms</w>
it ers</w>
ie ties</w>
i ority</w>
ag oda</w>
S 2</w>
▁y ard</w>
▁w ise</w>
▁vo ted</w>
▁unc ond
▁threa d</w>
▁th umb
▁super mar
▁suic idal</w>
▁str ive</w>
▁presupp oses</w>
▁pea ks</w>
▁over weight</w>
▁oc t
▁o zone</w>
▁morb idity</w>
▁m i
▁l id</w>
▁homer oom</w>
▁goalk eeper</w>
▁exp ired</w>
▁end ogenous</w>
▁electro static</w>
▁distr ust</w>
▁disapp earance</w>
▁cul tured</w>
▁cr ying</w>
▁attemp ting</w>
▁ass essing</w>
▁as tr
▁adip ose</w>
▁abd omen</w>
▁Won ju</w>
▁Rec ent</w>
▁P ansori</w>
▁P R</w>
▁O F
▁Multi ple</w>
▁K I
▁Ge or
▁G ong</w>
▁Dav id</w>
▁C ancer</w>
▁Bl oc
▁Bar cel
▁Barcel ona</w>
▁An imal</w>
th eas
r ine</w>
or us</w>
og en</w>
oc omp
in er</w>
evelop ed</w>
d est</w>
d able</w>
at oes</w>
A N</w>
▁ventric ular</w>
▁unp aid</w>
▁trig lycer
▁su bl
▁st ems</w>
▁speci alization</w>
▁research es</w>
▁radio active</w>
▁prot agonist</w>
▁prof iles</w>
▁pol l</w>
▁par ked</w>
▁p ec
▁oxid ative</w>
▁ow ns</w>
▁mar row</w>
▁lug gage</w>
▁ic ons</w>
▁gl omer
▁gall ery</w>
▁freez e</w>
▁fi erc
▁est rogen</w>
▁el eg
▁confirm s</w>
▁adap tive</w>
▁Veter ans</w>
▁U NE
▁T op</w>
▁R onal
▁Pr ince</w>
▁Par t</w>
▁L TE</w>
▁K on
▁Hw ang
▁Exc use</w>
▁Citiz en</w>
▁All iance</w>
▁7 7
tr a</w>
row s</w>
ou l
or ities</w>
oo th
m 2</w>
ir ectional</w>
id a</w>
el iness</w>
amp ing</w>
a ver
▁week days</w>
▁un iqu
▁trans duc
▁tom bs</w>
▁thromb osis</w>
▁stim ulating</w>
▁so yb
▁satisf ying</w>
▁reorgan ize</w>
▁r ich
▁plat elet</w>
▁ph ases</w>
▁path ological</w>
▁p y
▁ker nel</w>
▁is lands</w>
▁high light</w>
▁hi kes</w>
▁gau ge</w>
▁fulf illed</w>
▁f ibr
▁elap sed</w>
▁dol l</w>
▁dehum id
▁d izz
▁cross ed</w>
▁counsel ors</w>
▁commun icates</w>
▁bill ions</w>
▁bat ting</w>
▁ap titude</w>
▁activ ist</w>
▁Youn g
▁W ork</w>
▁M L
▁L atin</w>
▁Hypoth esis</w>
▁FI FA</w>
▁C in
▁Autonom ous</w>
theas tern</w>
ram a</w>
m ates</w>
k ey</w>
es tos</w>
es tly</w>
er a</w>
ab ular</w>
S CO</w>
▁tub ular</w>
▁st airs</w>
▁sn ow
▁sho ts</w>
▁sequ ential</w>
▁s aturated</w>
▁remin ds</w>
▁r id</w>
▁pros titution</w>
▁posi tioning</w>
▁pes tic
▁op tional</w>
▁merch ant</w>
▁med als</w>
▁lot tery</w>
▁inter fer
▁inn ings</w>
▁guarant eeing</w>
▁f ence</w>
▁ex tinc
▁e aten</w>
▁di arrh
▁depl etion</w>
▁dec ryp
▁consc ience</w>
▁bo ats</w>
▁b uck
▁accep ts</w>
▁Yeon cheon</w>
▁Ssang yong</w>
▁L iv
▁Curr ent</w>
ub es</w>
rou ps</w>
oc occ
l eep</w>
▁water proof</w>
▁unm et</w>
▁triang ular</w>
▁st ati
▁sh in</w>
▁regis tering</w>
▁red emption</w>
▁pour ing</w>
▁pit chers</w>
▁p an</w>
▁orth og
▁meas les</w>
▁le ather</w>
▁inv isible</w>
▁interl ea
▁firm ware</w>
▁el der</w>
▁distingu ishing</w>
▁cat s</w>
▁bea con</w>
▁b ird</w>
▁att acked</w>
▁announc ing</w>
▁acquaint ance</w>
▁T F</w>
▁M T
▁L a</w>
▁L A</w>
▁J ew
▁Il san</w>
▁G og
▁Camp us</w>
▁Bas ically</w>
▁Ar tif
▁22 5</w>
▁13 00</w>
u ff</w>
p ool</w>
os tasis</w>
ocard i
g an</w>
b estos</w>
af e</w>
M s</w>
▁y es</w>
▁tw enty</w>
▁tem plate</w>
▁t ong
▁stirr ing</w>
▁sc roll</w>
▁sc iences</w>
▁sc ent</w>
▁rest oring</w>
▁red und
▁quarter ly</w>
▁perfor ation</w>
▁multipl ying</w>
▁min d
▁m ang
▁landf ill</w>
▁downlo ad</w>
▁don ors</w>
▁dep icted</w>
▁d ich
▁cortic oster
▁comm endation</w>
▁civ ilization</w>
▁chaeb ol</w>
▁c ad
▁bro ker</w>
▁bi o
▁bi ke</w>
▁auto immune</w>
▁assign ments</w>
▁as leep</w>
▁administr ator</w>
▁abnorm ality</w>
▁Gwang gyo</w>
▁G eo
▁E G
▁Commissi oner</w>
▁24 1</w>
▁14 6</w>
▁10 9</w>
w ard
sc opy</w>
red ic
on ium</w>
ef ined</w>
b i</w>
0 c</w>
▁val idation</w>
▁sl ave</w>
▁sen ds</w>
▁sculp ture</w>
▁ple ural</w>
▁perc utaneous</w>
▁p izza</w>
▁l overs</w>
▁identif ies</w>
▁fluor ine</w>
▁explor atory</w>
▁esophag eal</w>
▁diarrh ea</w>
▁d ad</w>
▁cys tic</w>
▁archit ectural</w>
▁W L
▁US B</w>
▁T ell</w>
▁Startu ps</w>
▁Ship building</w>
▁Rel ations</w>
▁Ph ot
▁PO P</w>
▁P R
▁L O
▁Govern ing</w>
▁Ex pec
▁Ex ecutive</w>
▁5 1
▁21 5</w>
w or
t an</w>
s en</w>
ection ism</w>
bo ards</w>
b ud
E X</w>
▁und ermin
▁un r
▁throw n</w>
▁standard ization</w>
▁spac ing</w>
▁soldi er</w>
▁so ared</w>
▁serv ant</w>
▁sel lers</w>
▁res ign</w>
▁ref unded</w>
▁poor ly</w>
▁passi vation</w>
▁observ ational</w>
▁mul tif
▁manus cript</w>
▁land l
▁in active</w>
▁eu ros</w>
▁d rought</w>
▁contem pl
▁compl ement</w>
▁compati ble</w>
▁caps ule</w>
▁c akes</w>
▁bat h</w>
▁aw k
▁am orph
▁absc ess</w>
▁Termin al</w>
▁L 2</w>
▁G rowth</w>
▁Cre ation</w>
▁B an</w>
▁A th
▁8 7
▁5 01</w>
w oo</w>
por ters</w>
it ant</w>
is ons</w>
el e</w>
V A</w>
▁z inc</w>
▁tr ash</w>
▁re arr
▁qual ities</w>
▁qu ery</w>
▁pred omin
▁plan es</w>
▁particip ates</w>
▁p up
▁o h</w>
▁nur turing</w>
▁nov els</w>
▁not ation</w>
▁min us</w>
▁innoc ence</w>
▁in g
▁grav itational</w>
▁g iant</w>
▁fir ing</w>
▁embarras sed</w>
▁deteri orate</w>
▁d ae</w>
▁counter part</w>
▁correl ations</w>
▁conserv atives</w>
▁consc ienti
▁c entim
▁autonom ously</w>
▁ass ess
▁T S
▁St ory</w>
▁RE I
▁J i
▁J an</w>
▁I k</w>
▁H ence</w>
▁A k
▁7 3
▁15 4</w>
s er</w>
la im
iz able</w>
i pper</w>
f ulness</w>
es ty</w>
es ters</w>
em on
d ness</w>
an b
▁vom iting</w>
▁viv id</w>
▁util izes</w>
▁squar es</w>
▁soci alist</w>
▁secret ly</w>
▁rev oke</w>
▁res umed</w>
▁quantit atively</w>
▁protr usions</w>
▁n g</w>
▁lymph oma</w>
▁justif iable</w>
▁inp utted</w>
▁immigr ant</w>
▁imag inary</w>
▁hyper t
▁head ache</w>
▁fre ight</w>
▁exagg eration</w>
▁ep it
▁cou pon</w>
▁cost umes</w>
▁c ave</w>
▁butt ons</w>
▁arrang ing</w>
▁am ounted</w>
▁acceler ating</w>
▁Us er</w>
▁UNE SCO</w>
▁Sex ual</w>
▁Rea ding</w>
▁Pu tin</w>
▁Phys ical</w>
▁O k</w>
▁M ake</w>
▁Inter estingly</w>
▁H ear
▁H DL</w>
▁Gu ard
▁G A
▁C y
▁Bloc kchain</w>
▁3 22</w>
roph ic</w>
osc ope</w>
ont o</w>
o king</w>
o b</w>
m on</w>
for d</w>
es l
es h
er ment</w>
em ma</w>
atin um</w>
▁wra pped</w>
▁stabil ized</w>
▁se o</w>
▁refrac tory</w>
▁re per
▁pron ounced</w>
▁prohib it</w>
▁predic tors</w>
▁pr izes</w>
▁por n
▁polar ized</w>
▁perform er</w>
▁pattern ed</w>
▁p ar</w>
▁occup ations</w>
▁mon ument</w>
▁magn esium</w>
▁kin etic</w>
▁impl ements</w>
▁grad ual</w>
▁dict at
▁descend ants</w>
▁d ess
▁capac itive</w>
▁calc ulus</w>
▁brib es</w>
▁anth rop
▁al titude</w>
▁S AT</w>
▁Res tric
▁M s</w>
▁L T
▁IM F</w>
▁Han yang</w>
▁H S
▁Contr ary</w>
▁Chungcheong buk</w>
▁B T
▁Artif icial</w>
▁All ow
▁6 8
ti ffs</w>
ic king</w>
ed icine</w>
dro p</w>
ag l
ac ing</w>
▁wh atever</w>
▁wea ken</w>
▁t ropical</w>
▁su preme</w>
▁str ati
▁st aged</w>
▁sput um</w>
▁sp ouses</w>
▁shou l
▁short com
▁shortcom ings</w>
▁sensi bility</w>
▁ret ard
▁prog resses</w>
▁preemp tive</w>
▁policyhol der</w>
▁pl enty</w>
▁obj ectivity</w>
▁nan ow
▁n ail</w>
▁mod ulus</w>
▁lam inated</w>
▁ju ice</w>
▁impl ied</w>
▁fol ded</w>
▁elev ator</w>
▁domin ance</w>
▁del etion</w>
▁cr ashed</w>
▁counsel or</w>
▁coex istence</w>
▁cham p
▁carr ies</w>
▁c em
▁biomar kers</w>
▁back l
▁assig n</w>
▁assess ments</w>
▁aspir ation</w>
▁amorph ous</w>
▁Spec ific</w>
▁Pal emb
▁Pa ul</w>
▁Jam sil</w>
▁J a
▁Hang eul</w>
▁H oon</w>
▁G as</w>
▁D u
▁A round</w>
▁5 12</w>
▁3 80</w>
▁24 2</w>
▁198 9</w>
▁16 3</w>
is tive</w>
ing er</w>
id ities</w>
e enth</w>
ar ith
ac tively</w>
a el</w>
▁vag inal</w>
▁unp redic
▁unilater ally</w>
▁sp ite</w>
▁roll ed</w>
▁rep ay</w>
▁prem ised</w>
▁pl ag
▁od or</w>
▁inh al
▁in ability</w>
▁gr ains</w>
▁exhaus tion</w>
▁exacerb ation</w>
▁eng ra
▁encour agement</w>
▁di al
▁coun tless</w>
▁contradic tory</w>
▁consol idation</w>
▁civ ilians</w>
▁arr iving</w>
▁air pl
▁a ids</w>
▁T ig
▁S ky</w>
▁Ronal do</w>
▁Ro yal</w>
▁Rec ogn
▁Palemb ang</w>
▁N uri</w>
▁M is
▁M R</w>
▁La b</w>
▁J T
▁H A
▁H 2</w>
▁Gir l</w>
un a</w>
ul i
ud ed</w>
rel ated</w>
it o</w>
in stein</w>
ig ible</w>
h ak</w>
ent ures</w>
ac ed</w>
5 3</w>
▁win ding</w>
▁tou ches</w>
▁sou ven
▁sis ters</w>
▁sens ation</w>
▁sa t</w>
▁s andw
▁ph ras
▁overl aps</w>
▁nomin ee</w>
▁mom ents</w>
▁met allic</w>
▁hypergl ycemia</w>
▁hand ic
▁grad ient</w>
▁eng aging</w>
▁ear ners</w>
▁disadvant aged</w>
▁de formed</w>
▁critic ize</w>
▁contrac tual</w>
▁cl oth</w>
▁car tr
▁bra king</w>
▁boos ting</w>
▁b oring</w>
▁b ong</w>
▁adop ting</w>
▁Nam san</w>
▁J echeon</w>
▁Intell ect
▁Happ iness</w>
▁Bl ood</w>
▁22 3</w>
ul monary</w>
il ors</w>
igh ten
el d</w>
ann a</w>
amb oo</w>
RA M</w>
N T</w>
▁sc rat
▁res embl
▁phot oelectric</w>
▁outs ourc
▁mess enger</w>
▁licens ing</w>
▁intern ationally</w>
▁gener alization</w>
▁form ulas</w>
▁eng agement</w>
▁dev i
▁d w
▁consign ee</w>
▁comp act</w>
▁ch erry</w>
▁campaign s</w>
▁believ ers</w>
▁att ends</w>
▁Yeo ju</w>
▁S pir
▁S S</w>
▁Nong hyup</w>
▁Nong ak</w>
▁N iet
▁K u
▁G ye
▁D AA</w>
▁18 1</w>
▁12 10</w>
or ean</w>
om etric</w>
m et</w>
iv ation</w>
im ide</w>
bu vir</w>
▁wit n
▁webs ites</w>
▁wal ks</w>
▁ver d
▁veget able</w>
▁um br
▁there on</w>
▁stirr ed</w>
▁s ort</w>
▁pur ity</w>
▁prea m
▁p ants</w>
▁nur ture</w>
▁ma pped</w>
▁lumb ar</w>
▁ind isp
▁i onic</w>
▁hop ing</w>
▁h ook</w>
▁gas tr
▁g al
▁flag ship</w>
▁ferm entation</w>
▁descrip tions</w>
▁cycl ic</w>
▁cust ody</w>
▁conf ession</w>
▁comp iled</w>
▁co at</w>
▁clean ed</w>
▁careg ivers</w>
▁bl ank</w>
▁be z
▁bar ely</w>
▁Zn O</w>
▁TH A</w>
▁T al
▁St art</w>
▁S A</w>
▁N IS</w>
▁Intellect ual</w>
▁H or
▁Em pire</w>
▁CE Os</w>
▁B ab
▁B 1</w>
▁50 2</w>
▁198 7</w>
▁16 4</w>
uk i</w>
otrop ic</w>
os buvir</w>
it az
in o
in ement</w>
al t</w>
▁wel coming</w>
▁ul c
▁tot ally</w>
▁sk ep
▁simil arities</w>
▁shr ine</w>
▁shoul ders</w>
▁purs ues</w>
▁prom pt</w>
▁poly g
▁penetr ating</w>
▁path ogenesis</w>
▁p ink</w>
▁out ward</w>
▁menstr ual</w>
▁maj ored</w>
▁log arith
▁incin eration</w>
▁heav en</w>
▁g ynec
▁func tionality</w>
▁fol dable</w>
▁emp ow
▁d os
▁critic isms</w>
▁cere b
▁cal or
▁ball oon</w>
▁ar tic
▁adolesc ence</w>
▁adjus tments</w>
▁adh erence</w>
▁W ill
▁Summ er</w>
▁S ept</w>
▁S ales</w>
▁M osc
▁M irae</w>
▁L H</w>
▁C old</w>
▁16 5</w>
uc r
s ter
ec tin</w>
ea fter</w>
b erry</w>
au ghter</w>
at aly
air y</w>
G O</w>
▁virtu ous</w>
▁up set</w>
▁tong ue</w>
▁thumb n
▁tel em
▁ta k
▁scenari os</w>
▁rob ust</w>
▁respon ds</w>
▁ref ined</w>
▁outp utted</w>
▁mon k</w>
▁miss iles</w>
▁may be</w>
▁l acked</w>
▁issu er</w>
▁imp oses</w>
▁gen u
▁fish erm
▁epidemi ological</w>
▁enter tain
▁dom inate</w>
▁d umping</w>
▁che er
▁bever ages</w>
▁b ad
▁as h</w>
▁adv ent</w>
▁acet abular</w>
▁abl ation</w>
▁S on
▁S 10</w>
▁Proc essor</w>
▁Pl at
▁P ubl
▁Organ izations</w>
▁N ote</w>
▁Had ong</w>
▁Gwang myeong</w>
▁G ochang</w>
▁E ucl
▁Ch ange</w>
▁B E
▁0 2</w>
▁0 00
t ful</w>
s m
p ons</w>
isc iplinary</w>
as tom
4 4</w>
▁wavel engths</w>
▁st ays</w>
▁rit uals</w>
▁rhin itis</w>
▁rheum at
▁reimb ur
▁prop osition</w>
▁por osity</w>
▁mod ulator</w>
▁merc ury</w>
▁maj oring</w>
▁k id</w>
▁journ alist</w>
▁intu itively</w>
▁intestin e</w>
▁hous ew
▁f use</w>
▁exp osing</w>
▁discrimin atory</w>
▁deleg ate</w>
▁cy st</w>
▁contex ts</w>
▁com eback</w>
▁cl eared</w>
▁cataly sts</w>
▁bicyc les</w>
▁analyz er</w>
▁alleg ation</w>
▁Tor onto</w>
▁Sol id
▁Professi onal</w>
▁Pers on
▁New ton</w>
▁M rs</w>
▁M erc
▁M a</w>
▁JT BC</w>
▁I S</w>
▁DS C</w>
▁D ub
▁C E</w>
▁A g</w>
y g
thw est</w>
f ts</w>
ew ard
ar es</w>
a er
▁wr ong
▁wa ited</w>
▁unconsc ious</w>
▁supp ressing</w>
▁super iority</w>
▁stri ker</w>
▁sin tering</w>
▁rev ived</w>
▁respec ts</w>
▁res ide</w>
▁rad on</w>
▁r ab
▁pron unciation</w>
▁posi tivity</w>
▁pec uli
▁occup ies</w>
▁nucle us</w>
▁l over</w>
▁inter d
▁insul ator</w>
▁install ment</w>
▁ind ef
▁incorr ect</w>
▁inconven iences</w>
▁hydroc arbon</w>
▁horiz ont
▁fl ange</w>
▁dro pl
▁disp ens
▁defend ants</w>
▁counter par
▁cl ue</w>
▁br ill
▁bl ame</w>
▁b old</w>
▁assum es</w>
▁answ ering</w>
▁Y em
▁Th ir
▁S 8
▁Rel ated</w>
▁R a
▁O m
▁N C
▁Ju ven
▁Hol y</w>
▁Gre ece</w>
▁F erm
▁EC G</w>
▁Bea uty</w>
▁B L</w>
▁A U
▁4 21</w>
ul i</w>
ov ol
ol ation</w>
og a</w>
o T
en ings</w>
el ve</w>
bl adder</w>
b in</w>
anc ers</w>
ad i
6 5</w>
▁won dering</w>
▁unm ar
▁ten sions</w>
▁sub tle</w>
▁sh aken</w>
▁sa ke</w>
▁retail ers</w>
▁rece iv
▁radi otherapy</w>
▁prog ressing</w>
▁periph ery</w>
▁par tly</w>
▁nutr ients</w>
▁negoti ate</w>
▁liter ally</w>
▁landsc ap
▁hemorrh age</w>
▁grou ped</w>
▁forc ibly</w>
▁extern ally</w>
▁divid es</w>
▁d ying</w>
▁cus h
▁coun ts</w>
▁consum ing</w>
▁cons pir
▁config ure</w>
▁c in
▁bott les</w>
▁be ans</w>
▁as bestos</w>
▁Yang pyeong</w>
▁Viol ence</w>
▁Se osan</w>
▁S T</w>
▁Res erve</w>
▁R C
▁Niet z
▁Nietz sche</w>
▁Jin cheon</w>
▁Gr aduate</w>
▁Dis tribution</w>
▁D ev
▁Con d
▁Co ord
▁C rime</w>
▁B A</w>
▁Ag ain</w>
z o</w>
y man</w>
unc tional</w>
s tic
r ement</w>
os k
k ind</w>
it ating</w>
ir ates</w>
ip o</w>
efr ont</w>
ath on</w>
an ia</w>
▁vin yl</w>
▁sun set</w>
▁stor m</w>
▁ser iousness</w>
▁rel ax</w>
▁reac ted</w>
▁pig ment</w>
▁orthog onal</w>
▁mot orc
▁mon itors</w>
▁maxim ized</w>
▁lin eup</w>
▁licens ed</w>
▁l act
▁j ew
▁hur ts</w>
▁happ ily</w>
▁hand over</w>
▁gener alize</w>
▁floo ded</w>
▁fin ed</w>
▁fem ur</w>
▁end ure</w>
▁enc l
▁el ect</w>
▁dysp nea</w>
▁dyn am
▁den otes</w>
▁demons trations</w>
▁cu ps</w>
▁cross l
▁cr ash</w>
▁cov ari
▁cl utch</w>
▁cl ear
▁chap ters</w>
▁ch eer</w>
▁backl ash</w>
▁aff ord
▁access ory</w>
▁V O
▁U N
▁Solid arity</w>
▁Research ers</w>
▁Paul o</w>
▁New spap
▁Hol dings</w>
▁Gol f</w>
▁G ar
▁F em
▁E P
▁Christi anity</w>
▁Cambod ia</w>
▁C ases</w>
▁A M</w>
▁4 22</w>
u it
tur ally</w>
ti de</w>
t ance</w>
p ired</w>
odyn amic</w>
iv ariate</w>
itaz one</w>
eph al
c ut</w>
b on</w>
▁wid ening</w>
▁virtu es</w>
▁ta b</w>
▁t ile</w>
▁stagn ant</w>
▁sp eeding</w>
▁silic one</w>
▁rotat ably</w>
▁rev isions</w>
▁res umption</w>
▁reason ably</w>
▁ram en</w>
▁r ack</w>
▁phys icians</w>
▁peti tion
▁pedi atric</w>
▁liqu ef
▁interview ed</w>
▁engin eers</w>
▁em its</w>
▁e GFR</w>
▁distill ed</w>
▁di es</w>
▁dec imal</w>
▁con formity</w>
▁clas sic</w>
▁charg er</w>
▁cha os</w>
▁bro ader</w>
▁ath er
▁asymp tomatic</w>
▁amb ient</w>
▁accommod ating</w>
▁W TO</w>
▁Venezuel a</w>
▁T G</w>
▁Pat ri
▁Par li
▁Oc ean</w>
▁Nob el</w>
▁NA ND</w>
▁N C</w>
▁Mosc ow</w>
▁M om</w>
▁L in
▁Initi ally</w>
▁Gw ang</w>
▁G ang</w>
▁G E
▁Curr iculum</w>
▁CN T</w>
▁B C</w>
▁18 2</w>
us ement</w>
ung s</w>
un k
uff le</w>
tr esses</w>
st ly</w>
s eon</w>
r on</w>
is sive</w>
il ia</w>
ighten ment</w>
h arm
eum s</w>
ch an
▁wra p</w>
▁wid ened</w>
▁w ounds</w>
▁vulner ability</w>
▁unmar ried</w>
▁unfair ly</w>
▁supplem enting</w>
▁suppl ements</w>
▁st a
▁spr aying</w>
▁reson ant</w>
▁ref rain</w>
▁receip ts</w>
▁program med</w>
▁poss essed</w>
▁phras es</w>
▁p ets</w>
▁or chestra</w>
▁micros tructure</w>
▁lect urer</w>
▁l ump</w>
▁j acket</w>
▁int act</w>
▁hear tb
▁gr ab
▁foo t
▁div isions</w>
▁dissem ination</w>
▁dig its</w>
▁decl are</w>
▁d eok</w>
▁cri tically</w>
▁compreh ension</w>
▁coach es</w>
▁che ered</w>
▁borrow ers</w>
▁arr ives</w>
▁alk yl</w>
▁aff air</w>
[...]
