<unk>	0
<s>	0
</s>	0
▁t	-0
he	-1
▁a	-2
in	-3
▁the	-4
on	-5
re	-6
▁s	-7
at	-8
er	-9
▁o	-10
▁c	-11
en	-12
▁.	-13
▁,	-14
▁p	-15
is	-16
ed	-17
▁w	-18
or	-19
it	-20
▁of	-21
an	-22
ion	-23
▁in	-24
al	-25
▁b	-26
es	-27
▁an	-28
▁m	-29
▁f	-30
ing	-31
▁d	-32
ic	-33
ar	-34
▁to	-35
ro	-36
▁and	-37
ent	-38
as	-39
ct	-40
le	-41
▁re	-42
▁e	-43
▁th	-44
ou	-45
ation	-46
▁h	-47
▁T	-48
▁is	-49
▁be	-50
ve	-51
om	-52
▁l	-53
st	-54
▁"	-55
▁I	-56
il	-57
▁n	-58
ce	-59
▁-	-60
ay	-61
im	-62
▁The	-63
id	-64
▁g	-65
ly	-66
un	-67
et	-68
ol	-69
ut	-70
▁con	-71
▁for	-72
us	-73
ur	-74
▁st	-75
ig	-76
▁that	-77
▁on	-78
ch	-79
▁A	-80
▁pro	-81
ment	-82
ul	-83
ot	-84
ir	-85
▁S	-86
▁1	-87
▁as	-88
ow	-89
ver	-90
am	-91
▁ex	-92
▁de	-93
ter	-94
▁C	-95
ore	-96
ith	-97
if	-98
▁it	-99
▁'	-100
ad	-101
ge	-102
▁with	-103
ect	-104
▁com	-105
▁su	-106
os	-107
▁was	-108
ud	-109
od	-110
▁wh	-111
▁v	-112
▁are	-113
ate	-114
her	-115
ere	-116
▁se	-117
ity	-118
res	-119
ess	-120
▁In	-121
ive	-122
▁may	-123
pp	-124
▁2	-125
▁by	-126
▁r	-127
ort	-128
em	-129
el	-130
▁or	-131
▁K	-132
ill	-133
▁y	-134
est	-135
▁sh	-136
ist	-137
ers	-138
ial	-139
ies	-140
iv	-141
ong	-142
▁P	-143
▁he	-144
ab	-145
▁at	-146
um	-147
oc	-148
▁al	-149
th	-150
ain	-151
ure	-152
▁M	-153
art	-154
op	-155
du	-156
▁inc	-157
▁ch	-158
▁res	-159
▁comp	-160
act	-161
qu	-162
oun	-163
▁un	-164
ant	-165
ac	-166
▁G	-167
ated	-168
▁H	-169
ding	-170
▁F	-171
rom	-172
ice	-173
▁tr	-174
age	-175
iz	-176
cc	-177
igh	-178
▁le	-179
▁not	-180
▁us	-181
▁can	-182
▁ne	-183
ave	-184
per	-185
ult	-186
▁cont	-187
ld	-188
ib	-189
▁from	-190
orm	-191
▁D	-192
▁im	-193
ip	-194
ap	-195
▁this	-196
all	-197
se	-198
ear	-199
▁dis	-200
▁W	-201
▁)	-202
▁(	-203
ff	-204
ak	-205
ase	-206
▁will	-207
ance	-208
ical	-209
▁ad	-210
▁have	-211
▁Kore	-212
and	-213
ition	-214
lect	-215
▁B	-216
end	-217
form	-218
ang	-219
ich	-220
rou	-221
▁int	-222
▁has	-223
ans	-224
▁pl	-225
are	-226
pl	-227
ents	-228
▁N	-229
gh	-230
▁which	-231
▁me	-232
▁E	-233
ous	-234
▁3	-235
▁whe	-236
ther	-237
ary	-238
▁sp	-239
▁per	-240
ire	-241
our	-242
▁ab	-243
▁J	-244
ign	-245
▁app	-246
der	-247
ue	-248
▁were	-249
ag	-250
00	-251
▁It	-252
▁pre	-253
▁part	-254
ight	-255
▁stud	-256
con	-257
▁L	-258
ction	-259
▁wor	-260
ast	-261
og	-262
▁go	-263
ust	-264
irst	-265
▁em	-266
▁acc	-267
lud	-268
ations	-269
ens	-270
▁imp	-271
ec	-272
ime	-273
ide	-274
▁Th	-275
▁R	-276
▁first	-277
pt	-278
▁O	-279
nt	-280
▁j	-281
▁you	-282
cess	-283
ard	-284
▁who	-285
▁pres	-286
▁exp	-287
ie	-288
▁man	-289
▁includ	-290
ould	-291
▁pr	-292
vel	-293
ome	-294
ence	-295
▁k	-296
▁cl	-297
▁rel	-298
str	-299
ine	-300
▁inv	-301
▁but	-302
ost	-303
▁te	-304
able	-305
fter	-306
▁there	-307
▁year	-308
iff	-309
▁we	-310
▁U	-311
erm	-312
low	-313
ount	-314
out	-315
ok	-316
▁4	-317
ions	-318
▁sub	-319
▁ev	-320
ording	-321
▁reg	-322
▁5	-323
▁Ch	-324
▁out	-325
ace	-326
ber	-327
▁time	-328
ach	-329
ject	-330
so	-331
▁diff	-332
aus	-333
rough	-334
▁sy	-335
▁sa	-336
▁en	-337
▁act	-338
lic	-339
ual	-340
ific	-341
ased	-342
vice	-343
ating	-344
ame	-345
▁Korea	-346
▁also	-347
▁do	-348
▁other	-349
▁than	-350
ative	-351
▁cons	-352
▁20	-353
▁such	-354
▁As	-355
▁so	-356
▁been	-357
ied	-358
ass	-359
▁bec	-360
▁prov	-361
ors	-362
ational	-363
uc	-364
ark	-365
ye	-366
▁comm	-367
ious	-368
▁rec	-369
▁sc	-370
duct	-371
▁ag	-372
▁rep	-373
▁more	-374
up	-375
ater	-376
▁through	-377
ub	-378
▁trans	-379
ee	-380
▁met	-381
▁pat	-382
▁inter	-383
▁bet	-384
▁ar	-385
ention	-386
▁Y	-387
▁eff	-388
vern	-389
ities	-390
istr	-391
▁one	-392
▁form	-393
ory	-394
ell	-395
ced	-396
we	-397
▁work	-398
▁ro	-399
ree	-400
int	-401
ose	-402
▁am	-403
▁This	-404
cond	-405
ax	-406
▁when	-407
stem	-408
▁off	-409
▁pos	-410
ress	-411
▁sign	-412
ile	-413
▁co	-414
▁after	-415
▁show	-416
▁supp	-417
▁Se	-418
▁incre	-419
ause	-420
ince	-421
▁elect	-422
▁var	-423
ween	-424
und	-425
▁second	-426
▁between	-427
▁%	-428
▁ser	-429
aw	-430
▁system	-431
ung	-432
▁dr	-433
itt	-434
▁qu	-435
ility	-436
formation	-437
▁under	-438
▁det	-439
ident	-440
▁fin	-441
▁str	-442
ener	-443
▁compan	-444
▁said	-445
ik	-446
▁att	-447
▁ref	-448
enc	-449
▁ed	-450
▁their	-451
ack	-452
▁result	-453
▁pe	-454
▁Korean	-455
rol	-456
▁process	-457
▁ob	-458
▁partic	-459
▁6	-460
iver	-461
ia	-462
▁mem	-463
ict	-464
▁perform	-465
▁oper	-466
anc	-467
ution	-468
▁information	-469
▁they	-470
▁pol	-471
av	-472
ake	-473
one	-474
▁dec	-475
▁ind	-476
▁all	-477
aly	-478
ning	-479
▁high	-480
▁about	-481
▁sur	-482
▁if	-483
ren	-484
▁over	-485
▁des	-486
▁loc	-487
vernment	-488
oint	-489
hed	-490
ob	-491
▁case	-492
reat	-493
dition	-494
ool	-495
ized	-496
▁present	-497
ove	-498
▁?	-499
▁gener	-500
ep	-501
▁differe	-502
▁educ	-503
▁char	-504
roup	-505
ular	-506
ower	-507
▁mod	-508
▁conf	-509
▁cr	-510
ople	-511
ade	-512
▁col	-513
ural	-514
▁ins	-515
▁control	-516
hen	-517
red	-518
▁tax	-519
▁dire	-520
▁pers	-521
ound	-522
ike	-523
▁shall	-524
ail	-525
chool	-526
▁study	-527
▁according	-528
▁device	-529
▁used	-530
velop	-531
▁cor	-532
▁10	-533
▁analy	-534
ics	-535
ata	-536
tern	-537
▁tw	-538
air	-539
▁up	-540
▁only	-541
▁effect	-542
▁spec	-543
▁people	-544
ates	-545
▁each	-546
pon	-547
rov	-548
ange	-549
yeong	-550
ae	-551
▁its	-552
▁val	-553
lement	-554
▁7	-555
▁unit	-556
▁201	-557
▁no	-558
ish	-559
▁There	-560
▁because	-561
ron	-562
▁term	-563
ected	-564
▁rece	-565
▁data	-566
▁invest	-567
▁num	-568
▁ass	-569
▁/	-570
ook	-571
▁group	-572
▁his	-573
▁cur	-574
▁gu	-575
hod	-576
▁new	-577
▁est	-578
▁develop	-579
olog	-580
ublic	-581
sib	-582
ds	-583
gan	-584
abl	-585
▁school	-586
▁two	-587
uring	-588
iew	-589
▁ph	-590
▁ac	-591
▁into	-592
▁fact	-593
▁med	-594
ite	-595
▁method	-596
▁emb	-597
very	-598
▁head	-599
uct	-600
ection	-601
▁dep	-602
▁Kim	-603
ient	-604
▁day	-605
▁government	-606
yp	-607
▁should	-608
ided	-609
inal	-610
▁8	-611
▁exper	-612
rop	-613
ble	-614
▁ent	-615
iss	-616
▁education	-617
▁gr	-618
now	-619
ple	-620
omm	-621
▁person	-622
▁had	-623
ri	-624
ered	-625
ock	-626
▁exam	-627
▁fol	-628
ink	-629
ases	-630
▁level	-631
▁disc	-632
tain	-633
▁due	-634
ov	-635
▁number	-636
ry	-637
▁St	-638
▁support	-639
ood	-640
▁requ	-641
ency	-642
▁bus	-643
ough	-644
▁mark	-645
iment	-646
▁sm	-647
rib	-648
get	-649
row	-650
ization	-651
▁fe	-652
▁like	-653
xt	-654
▁embod	-655
stit	-656
gr	-657
▁using	-658
▁law	-659
iness	-660
▁based	-661
▁public	-662
ayer	-663
▁where	-664
▁related	-665
▁pur	-666
▁11	-667
ize	-668
▁soc	-669
▁Gyeong	-670
ise	-671
▁bl	-672
▁various	-673
▁right	-674
▁use	-675
▁inf	-676
▁FI	-677
sis	-678
▁follow	-679
fore	-680
inistr	-681
▁them	-682
put	-683
▁mon	-684
ients	-685
dustr	-686
conom	-687
▁If	-688
ures	-689
ract	-690
▁main	-691
▁mat	-692
▁12	-693
ild	-694
▁FIG	-695
icle	-696
▁need	-697
▁9	-698
▁count	-699
▁Acc	-700
▁report	-701
icult	-702
▁di	-703
▁meas	-704
pect	-705
▁know	-706
▁V	-707
▁including	-708
hip	-709
▁same	-710
▁local	-711
▁prev	-712
ared	-713
▁min	-714
osed	-715
oy	-716
blem	-717
te	-718
▁include	-719
ality	-720
▁According	-721
▁problem	-722
▁We	-723
▁Un	-724
ments	-725
▁my	-726
▁class	-727
ined	-728
▁op	-729
▁rate	-730
▁sol	-731
ices	-732
▁conc	-733
▁area	-734
ited	-735
▁car	-736
cept	-737
▁market	-738
rent	-739
gi	-740
ience	-741
ital	-742
nce	-743
▁conduct	-744
▁students	-745
▁cent	-746
▁aut	-747
▁point	-748
▁typ	-749
▁won	-750
▁necess	-751
uation	-752
▁activ	-753
▁patients	-754
▁rev	-755
▁addition	-756
▁particip	-757
▁lear	-758
▁econom	-759
▁order	-760
▁some	-761
iving	-762
▁business	-763
▁companies	-764
rap	-765
▁Ar	-766
▁100	-767
▁different	-768
illion	-769
▁product	-770
▁commun	-771
ety	-772
▁end	-773
orth	-774
▁consid	-775
▁displ	-776
ason	-777
▁layer	-778
ior	-779
agement	-780
▁fl	-781
▁organ	-782
▁respon	-783
▁def	-784
▁direct	-785
▁set	-786
▁When	-787
▁possib	-788
▁years	-789
ivers	-790
ix	-791
chn	-792
▁19	-793
ature	-794
oul	-795
▁industr	-796
round	-797
▁display	-798
▁import	-799
ally	-800
▁made	-801
▁embodiment	-802
▁invention	-803
▁rem	-804
▁fun	-805
▁lar	-806
ife	-807
▁resear	-808
▁offic	-809
▁200	-810
su	-811
▁Gyeonggi	-812
▁On	-813
▁necessary	-814
▁value	-815
ric	-816
▁charact	-817
ank	-818
ism	-819
▁0	-820
▁vis	-821
ines	-822
ll	-823
▁cap	-824
▁Seoul	-825
ina	-826
▁even	-827
▁power	-828
ts	-829
erg	-830
▁He	-831
▁being	-832
ily	-833
▁most	-834
oon	-835
▁Act	-836
▁select	-837
▁subject	-838
▁bu	-839
▁Prov	-840
▁analysis	-841
▁An	-842
▁plan	-843
▁many	-844
▁child	-845
▁How	-846
les	-847
▁any	-848
▁determ	-849
ever	-850
▁fil	-851
▁company	-852
ision	-853
▁results	-854
old	-855
▁operation	-856
▁signal	-857
▁mater	-858
ved	-859
par	-860
▁che	-861
ven	-862
inc	-863
▁signific	-864
erest	-865
▁redu	-866
other	-867
▁sim	-868
▁character	-869
▁establ	-870
▁would	-871
ful	-872
▁treat	-873
▁found	-874
▁current	-875
ically	-876
uch	-877
▁image	-878
bers	-879
ission	-880
por	-881
▁management	-882
▁material	-883
▁ve	-884
iod	-885
▁br	-886
▁techn	-887
▁difficult	-888
▁cre	-889
fer	-890
port	-891
ulation	-892
▁ext	-893
▁long	-894
▁sec	-895
alth	-896
▁hig	-897
▁13	-898
its	-899
ants	-900
▁interest	-901
▁Comm	-902
▁project	-903
▁play	-904
▁user	-905
ively	-906
▁North	-907
▁comple	-908
ty	-909
▁state	-910
ute	-911
tal	-912
▁chang	-913
▁month	-914
ord	-915
ness	-916
▁last	-917
▁lead	-918
▁polic	-919
▁conn	-920
ters	-921
▁art	-922
▁three	-923
▁well	-924
irc	-925
aking	-926
ived	-927
ouse	-928
▁sens	-929
ian	-930
oth	-931
▁function	-932
▁increase	-933
▁fac	-934
▁expl	-935
ancial	-936
▁good	-937
elf	-938
▁port	-939
crib	-940
▁during	-941
ting	-942
▁low	-943
▁her	-944
face	-945
▁Gu	-946
▁aff	-947
ified	-948
▁while	-949
▁vol	-950
eration	-951
▁period	-952
▁cult	-953
ted	-954
▁social	-955
▁lim	-956
ick	-957
▁occ	-958
▁significant	-959
io	-960
ology	-961
ication	-962
▁life	-963
▁Go	-964
▁these	-965
urn	-966
▁meet	-967
▁15	-968
▁contin	-969
▁Art	-970
irm	-971
led	-972
▁again	-973
▁investig	-974
▁change	-975
▁could	-976
iel	-977
ification	-978
ale	-979
▁hand	-980
ft	-981
▁your	-982
ug	-983
ured	-984
▁eval	-985
▁ear	-986
▁she	-987
▁way	-988
▁formed	-989
▁Con	-990
▁whether	-991
▁circ	-992
▁National	-993
▁bas	-994
▁et	-995
▁For	-996
▁pay	-997
▁research	-998
ional	-999
▁grow	-1000
▁official	-1001
ward	-1002
itive	-1003
▁prof	-1004
▁adm	-1005
▁development	-1006
▁treatment	-1007
▁think	-1008
▁prom	-1009
▁struct	-1010
wn	-1011
ives	-1012
▁real	-1013
ronic	-1014
▁vari	-1015
aining	-1016
▁del	-1017
▁However	-1018
▁view	-1019
iron	-1020
▁relations	-1021
ination	-1022
▁start	-1023
ability	-1024
ogn	-1025
ilities	-1026
ph	-1027
ittee	-1028
▁prot	-1029
▁light	-1030
▁leg	-1031
ks	-1032
▁without	-1033
▁make	-1034
ody	-1035
uss	-1036
ired	-1037
▁fam	-1038
ings	-1039
▁design	-1040
▁ann	-1041
▁special	-1042
ium	-1043
▁test	-1044
ivid	-1045
▁empl	-1046
raph	-1047
acher	-1048
▁reason	-1049
▁Al	-1050
▁important	-1051
atus	-1052
▁since	-1053
▁30	-1054
ished	-1055
app	-1056
▁sit	-1057
▁say	-1058
▁amount	-1059
▁ris	-1060
▁service	-1061
▁produ	-1062
▁dem	-1063
▁held	-1064
ering	-1065
▁total	-1066
omen	-1067
▁did	-1068
▁hum	-1069
▁before	-1070
way	-1071
▁00	-1072
ages	-1073
▁small	-1074
▁possible	-1075
▁open	-1076
▁tem	-1077
▁equ	-1078
▁ret	-1079
ene	-1080
atic	-1081
▁fore	-1082
ces	-1083
▁Lee	-1084
▁non	-1085
▁general	-1086
▁performance	-1087
iation	-1088
▁care	-1089
ather	-1090
▁large	-1091
▁model	-1092
viron	-1093
▁own	-1094
▁members	-1095
ind	-1096
▁cour	-1097
▁example	-1098
che	-1099
▁call	-1100
▁how	-1101
uction	-1102
ams	-1103
▁Re	-1104
▁adv	-1105
▁14	-1106
▁financial	-1107
▁cases	-1108
▁our	-1109
▁:	-1110
▁type	-1111
▁get	-1112
ually	-1113
rodu	-1114
▁take	-1115
ator	-1116
▁Jap	-1117
istics	-1118
▁jud	-1119
▁Japan	-1120
▁teacher	-1121
10	-1122
▁applic	-1123
▁distr	-1124
aj	-1125
vironment	-1126
▁compet	-1127
lied	-1128
▁wr	-1129
▁income	-1130
gest	-1131
▁Province	-1132
▁particular	-1133
▁par	-1134
ption	-1135
man	-1136
▁pass	-1137
▁express	-1138
▁transm	-1139
rove	-1140
own	-1141
▁expected	-1142
▁rele	-1143
▁stand	-1144
▁very	-1145
▁health	-1146
▁does	-1147
▁gl	-1148
▁direction	-1149
action	-1150
lear	-1151
▁higher	-1152
▁Article	-1153
▁surface	-1154
agn	-1155
▁progr	-1156
▁condition	-1157
▁increased	-1158
▁studies	-1159
▁provided	-1160
ys	-1161
▁Wh	-1162
imes	-1163
▁cell	-1164
▁Tr	-1165
▁mus	-1166
▁learning	-1167
▁above	-1168
ently	-1169
oung	-1170
▁proper	-1171
▁object	-1172
▁within	-1173
▁what	-1174
▁lower	-1175
▁analyz	-1176
▁see	-1177
ems	-1178
ense	-1179
▁000	-1180
▁economic	-1181
ending	-1182
ork	-1183
vices	-1184
▁confirm	-1185
▁fiel	-1186
arm	-1187
▁place	-1188
▁want	-1189
▁electro	-1190
▁cal	-1191
▁disp	-1192
▁po	-1193
▁following	-1194
resent	-1195
ner	-1196
▁At	-1197
▁cost	-1198
▁recogn	-1199
▁pop	-1200
ffic	-1201
▁occur	-1202
▁implement	-1203
▁electronic	-1204
day	-1205
▁means	-1206
vers	-1207
▁relationship	-1208
▁En	-1209
▁air	-1210
▁element	-1211
▁among	-1212
▁mult	-1213
ird	-1214
▁improve	-1215
▁job	-1216
▁industry	-1217
iversity	-1218
▁collect	-1219
▁hel	-1220
▁body	-1221
reen	-1222
▁policy	-1223
▁content	-1224
▁back	-1225
▁exist	-1226
▁neg	-1227
osp	-1228
▁water	-1229
▁input	-1230
abor	-1231
▁activities	-1232
ret	-1233
idents	-1234
▁introdu	-1235
oo	-1236
▁hy	-1237
ify	-1238
osition	-1239
▁bo	-1240
▁world	-1241
▁look	-1242
▁mean	-1243
▁position	-1244
▁etc	-1245
▁promot	-1246
iven	-1247
▁pred	-1248
▁environment	-1249
ra	-1250
▁quest	-1251
▁add	-1252
▁Je	-1253
▁Am	-1254
▁instit	-1255
20	-1256
▁four	-1257
▁don	-1258
ck	-1259
▁conducted	-1260
▁house	-1261
outh	-1262
de	-1263
▁opp	-1264
▁structure	-1265
▁just	-1266
read	-1267
▁help	-1268
▁underst	-1269
struction	-1270
▁intern	-1271
uture	-1272
cribed	-1273
▁China	-1274
urther	-1275
▁must	-1276
▁reported	-1277
▁inst	-1278
▁provide	-1279
als	-1280
▁side	-1281
mm	-1282
ey	-1283
▁member	-1284
nam	-1285
▁individ	-1286
ately	-1287
ros	-1288
▁shown	-1289
▁maj	-1290
▁store	-1291
pr	-1292
uit	-1293
▁Pres	-1294
▁caus	-1295
ues	-1296
▁discuss	-1297
▁performed	-1298
ries	-1299
erence	-1300
▁applied	-1301
▁here	-1302
ised	-1303
ju	-1304
▁Park	-1305
▁those	-1306
lf	-1307
▁every	-1308
▁ident	-1309
artment	-1310
▁children	-1311
ended	-1312
▁ill	-1313
less	-1314
ustr	-1315
anding	-1316
▁ant	-1317
olit	-1318
▁bel	-1319
▁region	-1320
▁purp	-1321
▁infl	-1322
▁standard	-1323
▁dom	-1324
▁Ass	-1325
▁cer	-1326
▁future	-1327
▁human	-1328
▁President	-1329
▁18	-1330
▁both	-1331
▁risk	-1332
iting	-1333
▁bro	-1334
▁veh	-1335
▁line	-1336
▁represent	-1337
▁communication	-1338
▁crit	-1339
▁press	-1340
hes	-1341
▁Part	-1342
▁individual	-1343
▁consum	-1344
▁price	-1345
ier	-1346
iqu	-1347
▁16	-1348
▁mov	-1349
▁administr	-1350
▁third	-1351
cer	-1352
▁flow	-1353
▁block	-1354
ath	-1355
▁dist	-1356
▁characteristics	-1357
▁next	-1358
▁team	-1359
▁major	-1360
▁experience	-1361
erc	-1362
▁Ne	-1363
▁calc	-1364
▁fre	-1365
▁portion	-1366
▁wee	-1367
inistry	-1368
▁”	-1369
ger	-1370
aving	-1371
▁request	-1372
▁film	-1373
ances	-1374
ateg	-1375
▁eas	-1376
▁national	-1377
▁products	-1378
ained	-1379
▁self	-1380
ope	-1381
▁showed	-1382
▁received	-1383
▁days	-1384
▁tar	-1385
▁post	-1386
▁event	-1387
▁decre	-1388
▁temper	-1389
▁dise	-1390
▁around	-1391
▁account	-1392
▁million	-1393
▁reflect	-1394
▁Sh	-1395
olitan	-1396
▁aud	-1397
not	-1398
▁separ	-1399
▁After	-1400
▁step	-1401
ged	-1402
ule	-1403
▁specific	-1404
omp	-1405
▁refer	-1406
ropolitan	-1407
▁countries	-1408
▁corpor	-1409
▁div	-1410
▁lo	-1411
iple	-1412
▁establish	-1413
upp	-1414
ists	-1415
arent	-1416
ister	-1417
▁now	-1418
nel	-1419
ival	-1420
▁old	-1421
▁situation	-1422
▁sk	-1423
▁sal	-1424
▁pract	-1425
▁pa	-1426
hem	-1427
▁country	-1428
▁compared	-1429
▁Pro	-1430
sec	-1431
▁field	-1432
▁Cent	-1433
▁another	-1434
▁beh	-1435
▁meeting	-1436
▁Ministry	-1437
omet	-1438
asing	-1439
▁That	-1440
▁pattern	-1441
▁fr	-1442
▁less	-1443
▁lot	-1444
▁buil	-1445
▁difference	-1446
▁included	-1447
▁saf	-1448
▁Ex	-1449
▁Met	-1450
▁output	-1451
▁foreign	-1452
ides	-1453
respon	-1454
▁terminal	-1455
▁share	-1456
▁De	-1457
▁dam	-1458
▁previous	-1459
ivate	-1460
ler	-1461
▁purpose	-1462
▁allow	-1463
▁words	-1464
▁exc	-1465
▁though	-1466
urance	-1467
▁announ	-1468
iety	-1469
verage	-1470
▁least	-1471
▁ra	-1472
▁corre	-1473
▁growth	-1474
▁much	-1475
▁women	-1476
ode	-1477
▁medical	-1478
▁correspon	-1479
▁contract	-1480
▁application	-1481
▁move	-1482
▁foc	-1483
▁technology	-1484
▁office	-1485
line	-1486
▁continu	-1487
▁center	-1488
riend	-1489
▁obtain	-1490
▁seen	-1491
▁cannot	-1492
▁tour	-1493
▁temperature	-1494
▁You	-1495
hold	-1496
▁hist	-1497
ustom	-1498
ral	-1499
▁police	-1500
▁sing	-1501
▁concer	-1502
ilar	-1503
though	-1504
erv	-1505
▁distrib	-1506
rd	-1507
▁food	-1508
work	-1509
ration	-1510
▁program	-1511
▁respect	-1512
▁Since	-1513
orts	-1514
▁size	-1515
▁mid	-1516
▁rights	-1517
▁17	-1518
itted	-1519
▁focus	-1520
▁check	-1521
▁City	-1522
▁config	-1523
▁illustr	-1524
▁imm	-1525
atory	-1526
wang	-1527
▁factors	-1528
ially	-1529
▁become	-1530
▁50	-1531
emb	-1532
▁effic	-1533
▁further	-1534
▁age	-1535
ulated	-1536
▁hour	-1537
▁heat	-1538
▁target	-1539
▁issu	-1540
▁down	-1541
hor	-1542
arch	-1543
▁evaluation	-1544
ling	-1545
▁plural	-1546
▁exec	-1547
▁against	-1548
▁net	-1549
▁av	-1550
ieve	-1551
▁Committee	-1552
▁home	-1553
▁apply	-1554
▁quality	-1555
▁considered	-1556
▁South	-1557
atively	-1558
osis	-1559
▁Do	-1560
urity	-1561
▁free	-1562
ief	-1563
ring	-1564
▁phot	-1565
▁interv	-1566
▁areas	-1567
iated	-1568
▁spe	-1569
▁positive	-1570
▁residents	-1571
▁fund	-1572
alk	-1573
▁princ	-1574
▁plurality	-1575
▁prop	-1576
▁adj	-1577
idence	-1578
▁ach	-1579
▁described	-1580
▁employ	-1581
▁facilities	-1582
▁hous	-1583
▁space	-1584
hib	-1585
uk	-1586
ource	-1587
▁receive	-1588
▁summ	-1589
▁family	-1590
ese	-1591
▁custom	-1592
ex	-1593
▁great	-1594
▁sl	-1595
▁party	-1596
▁ver	-1597
▁then	-1598
ape	-1599
ergy	-1600
▁memory	-1601
▁measure	-1602
▁coun	-1603
▁transfer	-1604
▁read	-1605
▁screen	-1606
ible	-1607
▁young	-1608
▁investment	-1609
ospital	-1610
▁electrode	-1611
▁top	-1612
▁having	-1613
hing	-1614
▁city	-1615
me	-1616
lease	-1617
▁arr	-1618
▁times	-1619
ension	-1620
▁shows	-1621
▁exch	-1622
▁25	-1623
akes	-1624
▁Party	-1625
atis	-1626
ached	-1627
▁prevent	-1628
▁Min	-1629
reng	-1630
▁comb	-1631
▁investigation	-1632
▁concept	-1633
▁selected	-1634
▁prep	-1635
acy	-1636
▁detail	-1637
iol	-1638
▁review	-1639
▁similar	-1640
inance	-1641
▁ful	-1642
▁sus	-1643
▁improv	-1644
▁streng	-1645
airman	-1646
▁average	-1647
utes	-1648
ten	-1649
▁er	-1650
▁groups	-1651
won	-1652
▁indic	-1653
▁short	-1654
▁coop	-1655
hol	-1656
▁private	-1657
▁21	-1658
▁vehicle	-1659
icon	-1660
ned	-1661
▁legal	-1662
izing	-1663
▁stage	-1664
▁him	-1665
eng	-1666
estic	-1667
▁past	-1668
▁rest	-1669
▁feel	-1670
▁sug	-1671
▁list	-1672
▁frequ	-1673
ceed	-1674
▁trad	-1675
▁assoc	-1676
▁labor	-1677
▁predict	-1678
ilit	-1679
▁working	-1680
▁making	-1681
▁sem	-1682
▁strong	-1683
pec	-1684
cil	-1685
▁changes	-1686
ains	-1687
▁confirmed	-1688
▁sent	-1689
▁hol	-1690
cent	-1691
▁US	-1692
ological	-1693
▁response	-1694
▁charge	-1695
▁friend	-1696
▁23	-1697
▁Therefore	-1698
▁teachers	-1699
airs	-1700
▁base	-1701
aratus	-1702
▁phys	-1703
▁apparatus	-1704
▁room	-1705
▁problems	-1706
here	-1707
▁win	-1708
▁former	-1709
▁regul	-1710
▁common	-1711
▁called	-1712
▁enter	-1713
amp	-1714
▁Cho	-1715
▁circuit	-1716
▁interp	-1717
ables	-1718
▁sensor	-1719
▁obs	-1720
▁demand	-1721
ump	-1722
▁insurance	-1723
gether	-1724
▁together	-1725
▁still	-1726
utions	-1727
▁Center	-1728
▁author	-1729
▁workers	-1730
▁40	-1731
▁110	-1732
▁grad	-1733
atisf	-1734
▁able	-1735
▁role	-1736
▁music	-1737
▁acqu	-1738
▁subs	-1739
▁Government	-1740
▁ask	-1741
▁24	-1742
▁To	-1743
vant	-1744
▁measures	-1745
▁viol	-1746
any	-1747
▁referred	-1748
▁established	-1749
ross	-1750
itor	-1751
▁Metropolitan	-1752
▁influ	-1753
▁el	-1754
▁basic	-1755
▁attention	-1756
▁stock	-1757
▁text	-1758
ane	-1759
den	-1760
▁connected	-1761
ront	-1762
leg	-1763
ivity	-1764
▁domestic	-1765
▁limit	-1766
▁includes	-1767
aring	-1768
au	-1769
▁rat	-1770
▁terms	-1771
▁left	-1772
▁opin	-1773
▁culture	-1774
▁week	-1775
▁supply	-1776
▁120	-1777
ternal	-1778
▁mot	-1779
▁University	-1780
▁Bus	-1781
▁meaning	-1782
ression	-1783
▁appear	-1784
ram	-1785
▁hard	-1786
▁profess	-1787
▁billion	-1788
▁suggest	-1789
▁early	-1790
duc	-1791
ets	-1792
▁required	-1793
udget	-1794
cheon	-1795
usion	-1796
▁volt	-1797
▁parent	-1798
▁sym	-1799
vernor	-1800
▁May	-1801
itiz	-1802
▁known	-1803
omes	-1804
embly	-1805
▁bank	-1806
▁estim	-1807
oid	-1808
dle	-1809
▁war	-1810
▁Dae	-1811
gu	-1812
▁big	-1813
▁deg	-1814
vey	-1815
▁Hy	-1816
▁book	-1817
▁sw	-1818
▁services	-1819
ograph	-1820
▁visit	-1821
▁sam	-1822
▁conditions	-1823
▁install	-1824
oor	-1825
▁stat	-1826
uty	-1827
▁question	-1828
aim	-1829
sue	-1830
ins	-1831
▁find	-1832
▁determined	-1833
▁rul	-1834
agraph	-1835
▁agree	-1836
▁active	-1837
fact	-1838
▁deb	-1839
▁Table	-1840
▁clear	-1841
▁mob	-1842
▁construction	-1843
epend	-1844
strate	-1845
▁return	-1846
▁satisf	-1847
▁manag	-1848
▁Although	-1849
▁Intern	-1850
iber	-1851
▁building	-1852
itud	-1853
▁contact	-1854
▁disease	-1855
▁22	-1856
▁Here	-1857
▁external	-1858
▁saying	-1859
fficient	-1860
ars	-1861
▁Gang	-1862
▁ho	-1863
elfare	-1864
▁super	-1865
til	-1866
▁diagn	-1867
▁norm	-1868
▁behav	-1869
▁energy	-1870
▁hospital	-1871
▁adjust	-1872
alf	-1873
▁bene	-1874
▁training	-1875
▁stor	-1876
▁key	-1877
▁evalu	-1878
ru	-1879
imum	-1880
▁come	-1881
▁inte	-1882
▁safety	-1883
▁budget	-1884
▁percent	-1885
▁media	-1886
▁Res	-1887
ential	-1888
▁production	-1889
▁mar	-1890
obal	-1891
uted	-1892
▁driving	-1893
▁increasing	-1894
ufact	-1895
▁voltage	-1896
▁pain	-1897
▁announced	-1898
▁pressure	-1899
ocr	-1900
▁ur	-1901
▁run	-1902
▁benef	-1903
▁concent	-1904
▁Ye	-1905
▁fail	-1906
ccess	-1907
▁Even	-1908
▁factor	-1909
▁maintain	-1910
oss	-1911
▁opt	-1912
▁emerg	-1913
ons	-1914
▁society	-1915
▁manufact	-1916
▁Moon	-1917
for	-1918
▁prosec	-1919
▁analyzed	-1920
▁proced	-1921
▁mor	-1922
▁five	-1923
▁vide	-1924
▁organiz	-1925
▁Educ	-1926
▁housing	-1927
ivil	-1928
▁substrate	-1929
▁polit	-1930
▁bat	-1931
▁status	-1932
▁until	-1933
▁First	-1934
▁developed	-1935
ulating	-1936
ising	-1937
▁score	-1938
▁seems	-1939
ony	-1940
istic	-1941
▁success	-1942
▁claim	-1943
itting	-1944
▁sales	-1945
▁happ	-1946
oney	-1947
▁Me	-1948
▁patient	-1949
▁judg	-1950
▁land	-1951
▁enc	-1952
▁reve	-1953
atural	-1954
ching	-1955
▁economy	-1956
▁cause	-1957
▁upp	-1958
▁front	-1959
ried	-1960
▁rad	-1961
oye	-1962
▁orig	-1963
uration	-1964
▁bur	-1965
▁Dong	-1966
struct	-1967
▁site	-1968
▁contents	-1969
▁existing	-1970
▁module	-1971
▁months	-1972
▁integr	-1973
▁ratio	-1974
inary	-1975
▁ste	-1976
▁upper	-1977
iments	-1978
▁cy	-1979
▁susp	-1980
▁president	-1981
▁men	-1982
▁chan	-1983
▁gas	-1984
land	-1985
▁Ad	-1986
wh	-1987
▁history	-1988
▁tre	-1989
▁disposed	-1990
ipt	-1991
ai	-1992
▁New	-1993
inafter	-1994
▁issue	-1995
▁cultural	-1996
▁prog	-1997
▁fall	-1998
ware	-1999
arding	-2000
▁rather	-2001
▁Jung	-2002
hemat	-2003
▁expens	-2004
▁source	-2005
ving	-2006
▁Education	-2007
▁Cour	-2008
▁action	-2009
▁best	-2010
▁bi	-2011
lation	-2012
cast	-2013
▁effects	-2014
▁hours	-2015
ne	-2016
▁decision	-2017
cing	-2018
incial	-2019
▁broad	-2020
▁expand	-2021
▁regard	-2022
aces	-2023
▁card	-2024
▁employe	-2025
▁responsib	-2026
▁sever	-2027
▁Japanese	-2028
▁property	-2029
▁Is	-2030
▁joint	-2031
▁pursu	-2032
▁single	-2033
▁payment	-2034
▁directly	-2035
iding	-2036
▁limited	-2037
▁Chines	-2038
side	-2039
▁Che	-2040
az	-2041
aster	-2042
▁Chinese	-2043
▁independ	-2044
▁path	-2045
▁citiz	-2046
▁educational	-2047
▁abs	-2048
▁going	-2049
▁recomm	-2050
▁weight	-2051
▁along	-2052
▁name	-2053
iminal	-2054
▁Court	-2055
ixed	-2056
▁ord	-2057
ably	-2058
▁global	-2059
ences	-2060
▁court	-2061
▁touch	-2062
let	-2063
▁diag	-2064
▁added	-2065
▁significantly	-2066
▁ap	-2067
▁changed	-2068
adem	-2069
ves	-2070
▁natural	-2071
ector	-2072
▁processor	-2073
angu	-2074
▁These	-2075
ropri	-2076
af	-2077
▁They	-2078
▁fire	-2079
▁corresponding	-2080
ocu	-2081
▁vir	-2082
▁determine	-2083
ators	-2084
▁half	-2085
ining	-2086
▁My	-2087
▁money	-2088
▁Eng	-2089
▁range	-2090
▁reference	-2091
▁shape	-2092
▁corporate	-2093
oice	-2094
▁reveal	-2095
▁put	-2096
▁behavior	-2097
ond	-2098
aken	-2099
ortun	-2100
▁Off	-2101
ledge	-2102
▁community	-2103
▁capital	-2104
▁schools	-2105
nd	-2106
edi	-2107
▁presented	-2108
▁employment	-2109
▁cred	-2110
▁sex	-2111
30	-2112
▁controller	-2113
▁appro	-2114
ash	-2115
▁officials	-2116
▁additional	-2117
▁materials	-2118
▁caused	-2119
stitution	-2120
▁processing	-2121
use	-2122
▁Jae	-2123
▁middle	-2124
etic	-2125
nov	-2126
▁United	-2127
▁why	-2128
olution	-2129
ready	-2130
▁mobile	-2131
▁What	-2132
▁give	-2133
▁Te	-2134
▁Ser	-2135
▁draw	-2136
▁subjects	-2137
▁committee	-2138
▁too	-2139
▁docu	-2140
▁bre	-2141
▁tren	-2142
▁contrib	-2143
▁subm	-2144
hy	-2145
▁network	-2146
▁game	-2147
▁clin	-2148
▁values	-2149
▁survey	-2150
▁resist	-2151
▁negative	-2152
▁points	-2153
cell	-2154
reme	-2155
▁eng	-2156
▁department	-2157
▁ide	-2158
ying	-2159
itional	-2160
▁Han	-2161
cher	-2162
▁strateg	-2163
▁cat	-2164
▁methods	-2165
▁affect	-2166
▁300	-2167
▁distribution	-2168
▁already	-2169
▁init	-2170
▁trial	-2171
▁achieve	-2172
▁channel	-2173
▁physical	-2174
▁located	-2175
co	-2176
▁experi	-2177
▁lit	-2178
▁complex	-2179
▁director	-2180
▁increases	-2181
▁illustrating	-2182
ources	-2183
▁mess	-2184
▁activity	-2185
▁Office	-2186
▁course	-2187
ends	-2188
▁security	-2189
▁theory	-2190
▁variables	-2191
ched	-2192
▁video	-2193
▁Accordingly	-2194
gen	-2195
▁langu	-2196
icles	-2197
▁matters	-2198
▁projects	-2199
▁gre	-2200
▁turn	-2201
▁beg	-2202
tery	-2203
▁Fig	-2204
ury	-2205
▁log	-2206
lish	-2207
▁let	-2208
▁international	-2209
▁expect	-2210
▁ability	-2211
▁sound	-2212
▁types	-2213
▁today	-2214
▁agreement	-2215
▁close	-2216
▁relatively	-2217
ilitary	-2218
▁require	-2219
▁certain	-2220
▁Among	-2221
▁exchange	-2222
aching	-2223
sel	-2224
ili	-2225
ulum	-2226
▁31	-2227
▁actual	-2228
▁given	-2229
▁living	-2230
▁knowledge	-2231
augh	-2232
▁connection	-2233
avel	-2234
of	-2235
▁conver	-2236
▁final	-2237
▁possibility	-2238
▁hot	-2239
▁Assembly	-2240
▁understand	-2241
▁principle	-2242
ises	-2243
▁took	-2244
▁several	-2245
urs	-2246
▁60	-2247
▁Gwang	-2248
▁institutions	-2249
▁ut	-2250
▁purch	-2251
▁damage	-2252
▁Governor	-2253
pective	-2254
▁citizens	-2255
ror	-2256
▁diagram	-2257
ison	-2258
ones	-2259
ples	-2260
▁compon	-2261
▁reduced	-2262
▁fem	-2263
▁z	-2264
▁near	-2265
▁decided	-2266
▁Minister	-2267
▁130	-2268
▁Ord	-2269
▁opening	-2270
▁relevant	-2271
▁personal	-2272
lder	-2273
oms	-2274
▁cells	-2275
▁popular	-2276
▁operating	-2277
▁Coun	-2278
▁By	-2279
▁paid	-2280
▁mathemat	-2281
▁curric	-2282
cement	-2283
▁cou	-2284
▁embodiments	-2285
▁blood	-2286
▁organization	-2287
▁recognized	-2288
▁poly	-2289
▁taking	-2290
cr	-2291
▁With	-2292
▁depending	-2293
▁likely	-2294
▁coll	-2295
book	-2296
▁outside	-2297
ging	-2298
▁obtained	-2299
▁scale	-2300
▁record	-2301
▁drug	-2302
▁learn	-2303
▁invol	-2304
▁needed	-2305
▁tas	-2306
▁complete	-2307
isions	-2308
▁attached	-2309
▁showing	-2310
▁introduced	-2311
lig	-2312
▁regulations	-2313
iconduct	-2314
▁student	-2315
▁section	-2316
char	-2317
▁appropri	-2318
▁Busan	-2319
▁cancer	-2320
▁receiving	-2321
iency	-2322
ames	-2323
▁rot	-2324
▁administrative	-2325
▁proport	-2326
▁divided	-2327
▁face	-2328
▁expenses	-2329
▁accept	-2330
▁representative	-2331
itude	-2332
uclear	-2333
san	-2334
▁follows	-2335
▁Ordinance	-2336
▁full	-2337
▁hereinafter	-2338
▁pan	-2339
estival	-2340
▁better	-2341
▁items	-2342
▁ll	-2343
osure	-2344
empt	-2345
▁explained	-2346
stant	-2347
▁Comp	-2348
▁cooperation	-2349
▁led	-2350
▁curriculum	-2351
▁language	-2352
▁26	-2353
rast	-2354
▁administration	-2355
▁prior	-2356
▁storage	-2357
▁semiconduct	-2358
ways	-2359
▁came	-2360
▁competition	-2361
sy	-2362
▁So	-2363
▁generated	-2364
▁No	-2365
▁trust	-2366
▁Sams	-2367
oll	-2368
▁27	-2369
▁es	-2370
▁comput	-2371
onom	-2372
▁speed	-2373
▁access	-2374
▁improvement	-2375
▁trade	-2376
▁measured	-2377
▁effective	-2378
▁elder	-2379
▁entr	-2380
▁il	-2381
▁academ	-2382
▁once	-2383
▁create	-2384
▁original	-2385
cy	-2386
▁loss	-2387
▁sense	-2388
▁consist	-2389
▁welfare	-2390
▁obser	-2391
▁participate	-2392
▁basis	-2393
▁impact	-2394
▁parents	-2395
▁attract	-2396
▁thought	-2397
▁vict	-2398
▁opportun	-2399
▁frequency	-2400
▁recent	-2401
▁generation	-2402
▁Co	-2403
icultural	-2404
ieved	-2405
▁States	-2406
ique	-2407
▁mic	-2408
▁Samsung	-2409
▁later	-2410
▁transport	-2411
mber	-2412
▁Please	-2413
▁military	-2414
▁implemented	-2415
stitute	-2416
▁variable	-2417
erson	-2418
▁normal	-2419
▁AA	-2420
▁wat	-2421
▁subsid	-2422
▁wire	-2423
▁institution	-2424
▁levels	-2425
phas	-2426
▁Dep	-2427
▁civil	-2428
▁industrial	-2429
pped	-2430
▁six	-2431
ume	-2432
▁appe	-2433
▁exerc	-2434
▁regular	-2435
▁needs	-2436
ously	-2437
▁Sec	-2438
enced	-2439
▁mode	-2440
▁associated	-2441
▁medium	-2442
▁metal	-2443
▁One	-2444
▁bar	-2445
▁somet	-2446
eep	-2447
▁Reg	-2448
ills	-2449
▁influence	-2450
▁degree	-2451
▁live	-2452
▁Pr	-2453
▁often	-2454
▁released	-2455
▁emot	-2456
▁policies	-2457
▁strengt	-2458
▁works	-2459
▁emphas	-2460
▁capac	-2461
▁criminal	-2462
▁link	-2463
▁smart	-2464
▁actively	-2465
▁Council	-2466
cle	-2467
▁Su	-2468
▁improved	-2469
▁respectively	-2470
▁death	-2471
▁reduce	-2472
ream	-2473
▁pot	-2474
je	-2475
▁elderly	-2476
▁la	-2477
▁others	-2478
pping	-2479
▁date	-2480
▁den	-2481
itis	-2482
▁color	-2483
▁news	-2484
ercial	-2485
▁index	-2486
▁discl	-2487
▁revealed	-2488
nces	-2489
▁consider	-2490
▁political	-2491
ox	-2492
▁reduction	-2493
▁quant	-2494
▁stress	-2495
▁dig	-2496
▁English	-2497
▁employees	-2498
ength	-2499
wan	-2500
une	-2501
▁dong	-2502
▁ox	-2503
▁province	-2504
▁expressed	-2505
▁paragraph	-2506
▁population	-2507
▁organizations	-2508
▁cover	-2509
▁mass	-2510
▁KR	-2511
▁recently	-2512
▁compens	-2513
▁prices	-2514
▁overall	-2515
astic	-2516
▁lack	-2517
▁repl	-2518
▁plans	-2519
ert	-2520
▁Chung	-2521
▁ground	-2522
▁became	-2523
▁participation	-2524
▁composition	-2525
els	-2526
hest	-2527
▁bor	-2528
▁board	-2529
▁location	-2530
iction	-2531
▁internal	-2532
▁exclud	-2533
ires	-2534
▁Man	-2535
▁hope	-2536
▁road	-2537
▁Pol	-2538
joy	-2539
▁semiconductor	-2540
▁therap	-2541
▁Germ	-2542
aker	-2543
seas	-2544
▁traditional	-2545
▁questions	-2546
▁movement	-2547
▁frame	-2548
▁innov	-2549
▁practice	-2550
ctor	-2551
▁appoint	-2552
ender	-2553
▁KRW	-2554
▁itself	-2555
▁dischar	-2556
sw	-2557
▁far	-2558
▁intention	-2559
▁costs	-2560
▁AAA	-2561
br	-2562
chan	-2563
▁Industr	-2564
▁hyd	-2565
▁issues	-2566
aced	-2567
▁enjoy	-2568
▁prefer	-2569
▁Rep	-2570
▁easy	-2571
▁provides	-2572
over	-2573
holders	-2574
▁defined	-2575
▁advant	-2576
iveness	-2577
oot	-2578
▁cam	-2579
▁broadcast	-2580
▁cut	-2581
▁rap	-2582
▁magn	-2583
▁participants	-2584
▁prob	-2585
▁prepar	-2586
lege	-2587
▁below	-2588
▁pen	-2589
▁consult	-2590
▁reality	-2591
▁28	-2592
anced	-2593
▁protection	-2594
▁liver	-2595
▁station	-2596
50	-2597
▁2015	-2598
▁virt	-2599
▁remov	-2600
▁answ	-2601
▁mention	-2602
cript	-2603
▁2018	-2604
▁park	-2605
▁devices	-2606
▁satisfaction	-2607
▁affairs	-2608
▁approv	-2609
▁central	-2610
▁critic	-2611
▁clinical	-2612
▁entire	-2613
▁nature	-2614
arant	-2615
▁exhib	-2616
abilities	-2617
▁spread	-2618
▁pursuant	-2619
▁protect	-2620
osing	-2621
▁criter	-2622
▁electric	-2623
▁credit	-2624
▁agency	-2625
▁compl	-2626
▁paper	-2627
amet	-2628
▁force	-2629
▁prosecution	-2630
▁message	-2631
▁song	-2632
▁deliver	-2633
▁started	-2634
pir	-2635
ocratic	-2636
▁things	-2637
▁Dem	-2638
▁cross	-2639
▁created	-2640
▁Jong	-2641
▁continue	-2642
▁overseas	-2643
▁Incheon	-2644
▁minutes	-2645
▁selection	-2646
▁cand	-2647
▁experiment	-2648
▁inside	-2649
▁governments	-2650
▁gate	-2651
▁guid	-2652
encies	-2653
▁Eu	-2654
ties	-2655
▁2016	-2656
ening	-2657
▁Mean	-2658
▁farm	-2659
▁expression	-2660
▁illeg	-2661
▁elementary	-2662
▁pack	-2663
isc	-2664
▁aspect	-2665
▁199	-2666
▁sample	-2667
▁delay	-2668
▁plate	-2669
▁rapid	-2670
▁burden	-2671
izes	-2672
while	-2673
▁assess	-2674
▁Cor	-2675
▁accident	-2676
▁server	-2677
▁highest	-2678
▁transmission	-2679
▁few	-2680
▁avoid	-2681
ground	-2682
▁concentration	-2683
▁pict	-2684
▁began	-2685
▁configuration	-2686
▁understanding	-2687
▁interview	-2688
itable	-2689
iet	-2690
ember	-2691
▁battery	-2692
▁Ind	-2693
▁appropriate	-2694
▁cere	-2695
▁panel	-2696
▁Spec	-2697
▁Le	-2698
▁deal	-2699
▁Hong	-2700
▁wind	-2701
▁Trump	-2702
▁conven	-2703
▁prepared	-2704
▁chairman	-2705
▁solution	-2706
aged	-2707
▁Assoc	-2708
imal	-2709
ittle	-2710
▁Shin	-2711
▁ship	-2712
▁talk	-2713
▁wage	-2714
CC	-2715
vere	-2716
▁completed	-2717
▁dram	-2718
▁restr	-2719
▁candid	-2720
▁progress	-2721
amm	-2722
▁camer	-2723
▁becomes	-2724
▁Choi	-2725
by	-2726
▁All	-2727
aily	-2728
▁toward	-2729
eric	-2730
▁wide	-2731
▁taken	-2732
▁Be	-2733
▁Meanwhile	-2734
▁tra	-2735
▁distance	-2736
ellig	-2737
▁flu	-2738
▁Chairman	-2739
▁2017	-2740
▁sector	-2741
▁sell	-2742
▁mount	-2743
▁autom	-2744
ulate	-2745
▁mainly	-2746
▁Through	-2747
▁conflic	-2748
▁autonom	-2749
▁insp	-2750
▁ang	-2751
▁soon	-2752
▁cle	-2753
come	-2754
▁pix	-2755
▁judgment	-2756
▁rates	-2757
▁vac	-2758
▁500	-2759
▁aim	-2760
▁Can	-2761
▁always	-2762
▁mechan	-2763
▁respond	-2764
▁carb	-2765
▁search	-2766
▁wa	-2767
▁calculated	-2768
▁Pl	-2769
ership	-2770
▁season	-2771
▁efficiency	-2772
avor	-2773
▁cool	-2774
▁went	-2775
▁max	-2776
▁Ag	-2777
▁away	-2778
ored	-2779
▁debt	-2780
▁programs	-2781
▁CE	-2782
▁victim	-2783
▁travel	-2784
▁district	-2785
▁decreased	-2786
▁sil	-2787
▁tourism	-2788
▁sympt	-2789
▁Ju	-2790
▁Institute	-2791
self	-2792
▁goal	-2793
▁little	-2794
hens	-2795
▁late	-2796
▁Association	-2797
▁observed	-2798
▁70	-2799
illed	-2800
▁tal	-2801
▁cert	-2802
▁story	-2803
▁evidence	-2804
▁execut	-2805
▁consumption	-2806
like	-2807
▁thick	-2808
▁university	-2809
itten	-2810
▁opinions	-2811
▁measurement	-2812
▁finding	-2813
▁profit	-2814
▁util	-2815
▁proportion	-2816
▁swit	-2817
▁researcher	-2818
▁vot	-2819
▁trend	-2820
▁asked	-2821
ns	-2822
▁argu	-2823
▁Service	-2824
▁differences	-2825
▁unf	-2826
▁professional	-2827
▁raised	-2828
▁accur	-2829
▁standards	-2830
na	-2831
▁easily	-2832
▁diab	-2833
▁insulating	-2834
▁fine	-2835
ses	-2836
▁Cult	-2837
▁Young	-2838
▁crime	-2839
▁female	-2840
▁150	-2841
▁mut	-2842
▁except	-2843
▁fourth	-2844
▁carried	-2845
▁procedure	-2846
▁cris	-2847
▁Distr	-2848
▁phen	-2849
▁estate	-2850
▁events	-2851
▁promote	-2852
▁pun	-2853
ott	-2854
▁keep	-2855
▁Sup	-2856
▁hold	-2857
▁resources	-2858
▁ess	-2859
▁Bl	-2860
▁visited	-2861
▁legis	-2862
▁correct	-2863
irth	-2864
actions	-2865
▁mother	-2866
▁Then	-2867
▁perspective	-2868
▁currently	-2869
▁Wor	-2870
▁parts	-2871
▁career	-2872
ula	-2873
▁Cons	-2874
ges	-2875
lex	-2876
▁moder	-2877
▁advance	-2878
▁multiple	-2879
rovers	-2880
▁Supreme	-2881
▁fixed	-2882
▁installed	-2883
▁detect	-2884
▁floor	-2885
▁core	-2886
▁decrease	-2887
▁crisis	-2888
▁experts	-2889
▁persons	-2890
▁host	-2891
▁categ	-2892
▁resistance	-2893
▁liter	-2894
▁classes	-2895
▁der	-2896
▁From	-2897
oming	-2898
▁School	-2899
▁efforts	-2900
▁extract	-2901
▁29	-2902
vention	-2903
▁Br	-2904
▁laun	-2905
▁regarding	-2906
▁begin	-2907
ordance	-2908
▁Some	-2909
▁providing	-2910
▁ult	-2911
ervation	-2912
▁greater	-2913
▁daily	-2914
▁mentioned	-2915
rope	-2916
aek	-2917
▁tool	-2918
▁regional	-2919
▁minimum	-2920
▁gap	-2921
▁simple	-2922
rogen	-2923
▁guarant	-2924
▁organic	-2925
▁pointed	-2926
▁provincial	-2927
▁funds	-2928
▁adver	-2929
▁secret	-2930
40	-2931
▁Americ	-2932
▁transmit	-2933
▁Pre	-2934
▁makes	-2935
ibility	-2936
▁facility	-2937
▁vill	-2938
▁manufacturing	-2939
▁gen	-2940
▁elements	-2941
atives	-2942
version	-2943
▁buy	-2944
▁March	-2945
▁Resear	-2946
▁compar	-2947
▁establishment	-2948
ensity	-2949
▁Europe	-2950
▁participated	-2951
mony	-2952
ban	-2953
rehens	-2954
yung	-2955
▁indu	-2956
▁college	-2957
▁volun	-2958
▁love	-2959
▁Fr	-2960
▁discussion	-2961
▁collected	-2962
▁prepare	-2963
▁jo	-2964
▁suff	-2965
▁audit	-2966
▁shareholders	-2967
▁night	-2968
▁academic	-2969
▁80	-2970
▁pub	-2971
▁Rec	-2972
▁liqu	-2973
▁wireless	-2974
rary	-2975
▁online	-2976
▁excell	-2977
ays	-2978
▁Yang	-2979
aff	-2980
ians	-2981
▁Form	-2982
▁accordance	-2983
anged	-2984
▁immedi	-2985
iring	-2986
▁operated	-2987
▁Commission	-2988
▁Pe	-2989
lier	-2990
▁bit	-2991
▁kind	-2992
▁attempt	-2993
▁mom	-2994
▁functions	-2995
▁Em	-2996
▁users	-2997
▁exercise	-2998
▁Yong	-2999
▁heart	-3000
pecially	-3001
▁32	-3002
▁written	-3003
▁advantage	-3004
▁prem	-3005
oses	-3006
▁controvers	-3007
▁lif	-3008
▁regions	-3009
▁opinion	-3010
▁District	-3011
▁surv	-3012
yl	-3013
▁election	-3014
▁inspection	-3015
▁looking	-3016
forcement	-3017
person	-3018
▁poor	-3019
▁ine	-3020
▁Figure	-3021
tical	-3022
ansion	-3023
▁reaction	-3024
▁anti	-3025
ruct	-3026
ester	-3027
▁table	-3028
ened	-3029
▁operate	-3030
▁Bec	-3031
gery	-3032
▁Internet	-3033
▁Of	-3034
▁World	-3035
yang	-3036
▁Song	-3037
▁separate	-3038
▁140	-3039
▁stored	-3040
▁parties	-3041
▁oblig	-3042
▁Jin	-3043
▁camera	-3044
idity	-3045
▁teaching	-3046
▁negot	-3047
▁sold	-3048
▁ruling	-3049
▁strength	-3050
▁Elect	-3051
▁intellig	-3052
▁considering	-3053
▁largest	-3054
▁And	-3055
▁dest	-3056
▁customers	-3057
▁digital	-3058
▁got	-3059
▁avail	-3060
▁please	-3061
▁interpret	-3062
▁length	-3063
aur	-3064
▁Or	-3065
▁recognition	-3066
▁International	-3067
▁tell	-3068
iability	-3069
▁collection	-3070
▁enh	-3071
▁alone	-3072
▁examination	-3073
aging	-3074
▁hole	-3075
▁univers	-3076
▁Fin	-3077
▁impl	-3078
▁matter	-3079
▁send	-3080
tic	-3081
▁volume	-3082
▁reform	-3083
▁ceremony	-3084
▁400	-3085
▁rank	-3086
▁equip	-3087
yeon	-3088
▁cho	-3089
▁grap	-3090
aint	-3091
▁emergency	-3092
inder	-3093
enior	-3094
ories	-3095
▁repe	-3096
▁produced	-3097
ma	-3098
▁proposed	-3099
▁expansion	-3100
▁ir	-3101
▁jobs	-3102
▁commercial	-3103
▁fair	-3104
▁Because	-3105
▁criteria	-3106
▁wid	-3107
ifying	-3108
▁pul	-3109
▁displayed	-3110
▁responsibility	-3111
▁dou	-3112
▁Group	-3113
▁promotion	-3114
▁arre	-3115
▁chem	-3116
▁red	-3117
▁While	-3118
oking	-3119
▁occurred	-3120
▁tom	-3121
urrent	-3122
▁phase	-3123
▁exceed	-3124
▁setting	-3125
▁leading	-3126
▁proceed	-3127
▁Com	-3128
▁yet	-3129
▁friends	-3130
ploy	-3131
▁treated	-3132
▁Cheong	-3133
▁independent	-3134
▁writing	-3135
▁comprehens	-3136
oh	-3137
sych	-3138
▁morning	-3139
▁clean	-3140
anch	-3141
▁bal	-3142
▁guide	-3143
▁diagnosis	-3144
▁goods	-3145
ificial	-3146
▁enterpr	-3147
▁statist	-3148
▁phenomen	-3149
yle	-3150
holds	-3151
▁wave	-3152
▁Chang	-3153
▁altern	-3154
▁210	-3155
▁connect	-3156
▁Cl	-3157
▁laws	-3158
▁mo	-3159
ball	-3160
▁Sp	-3161
▁Nam	-3162
▁estimated	-3163
cop	-3164
▁serious	-3165
▁equipment	-3166
▁filter	-3167
▁consideration	-3168
▁systems	-3169
bo	-3170
▁inj	-3171
▁circum	-3172
ault	-3173
▁therapy	-3174
▁thinking	-3175
bs	-3176
etes	-3177
▁Air	-3178
nal	-3179
▁series	-3180
▁ways	-3181
▁waste	-3182
▁enough	-3183
▁coupl	-3184
▁Research	-3185
▁compensation	-3186
▁address	-3187
▁bea	-3188
▁initial	-3189
▁Democratic	-3190
▁Ge	-3191
▁illegal	-3192
▁excellent	-3193
▁refers	-3194
▁classified	-3195
▁Kang	-3196
▁carbon	-3197
arily	-3198
▁interpre	-3199
▁potential	-3200
▁dance	-3201
▁camp	-3202
osite	-3203
▁benefits	-3204
▁conductive	-3205
▁trillion	-3206
▁grade	-3207
▁command	-3208
▁Where	-3209
▁nation	-3210
ications	-3211
▁symptoms	-3212
▁decl	-3213
▁evaluated	-3214
▁Med	-3215
▁princip	-3216
▁dim	-3217
▁prim	-3218
▁something	-3219
▁bon	-3220
thing	-3221
inated	-3222
▁occurs	-3223
ym	-3224
▁regulation	-3225
▁sexual	-3226
▁continued	-3227
▁whole	-3228
▁leader	-3229
▁division	-3230
▁surgery	-3231
▁Just	-3232
▁ax	-3233
▁oil	-3234
cular	-3235
▁Jeju	-3236
▁miss	-3237
▁solve	-3238
▁Adm	-3239
▁CEO	-3240
airperson	-3241
▁Asian	-3242
▁hep	-3243
ead	-3244
inate	-3245
fully	-3246
▁orient	-3247
▁strengthen	-3248
▁available	-3249
rence	-3250
rastruct	-3251
▁textbook	-3252
▁Each	-3253
▁Fe	-3254
▁flex	-3255
▁implementation	-3256
▁planning	-3257
mer	-3258
▁consumers	-3259
▁businesses	-3260
▁break	-3261
▁rent	-3262
▁diseases	-3263
▁Gwangju	-3264
go	-3265
▁brand	-3266
▁engine	-3267
▁excess	-3268
▁households	-3269
▁More	-3270
▁qual	-3271
atures	-3272
▁wall	-3273
▁Sc	-3274
▁environmental	-3275
▁lines	-3276
CT	-3277
▁severe	-3278
pite	-3279
iberation	-3280
▁Jeong	-3281
istered	-3282
ules	-3283
▁provisions	-3284
road	-3285
▁quick	-3286
▁Dec	-3287
ession	-3288
ift	-3289
▁authority	-3290
emed	-3291
ocal	-3292
▁dust	-3293
▁assets	-3294
▁restaur	-3295
▁tum	-3296
osal	-3297
▁ment	-3298
▁detailed	-3299
▁moving	-3300
▁lay	-3301
▁cooper	-3302
▁reasons	-3303
▁Ab	-3304
▁fat	-3305
▁voice	-3306
icip	-3307
ilies	-3308
▁drink	-3309
▁virtual	-3310
▁Health	-3311
▁Mayor	-3312
▁summit	-3313
▁suggested	-3314
used	-3315
▁deep	-3316
▁psych	-3317
▁strategy	-3318
▁detection	-3319
▁opportunity	-3320
▁Bank	-3321
▁didn	-3322
▁aware	-3323
▁starting	-3324
▁household	-3325
▁interface	-3326
▁Law	-3327
▁plat	-3328
▁fract	-3329
▁manager	-3330
▁introduction	-3331
▁task	-3332
▁June	-3333
rastructure	-3334
▁mathematics	-3335
▁sett	-3336
stitutional	-3337
▁purchase	-3338
▁exhibition	-3339
▁fast	-3340
▁integrated	-3341
▁stip	-3342
▁scope	-3343
▁ep	-3344
▁Apr	-3345
▁April	-3346
organ	-3347
▁done	-3348
▁generate	-3349
▁industries	-3350
▁lat	-3351
▁applying	-3352
▁emitting	-3353
▁percept	-3354
arters	-3355
▁fig	-3356
▁skills	-3357
▁tend	-3358
▁configured	-3359
oman	-3360
▁hyp	-3361
▁rise	-3362
▁takes	-3363
▁Sept	-3364
▁weeks	-3365
ton	-3366
▁cry	-3367
▁true	-3368
▁counter	-3369
aps	-3370
▁stop	-3371
▁Administr	-3372
▁acid	-3373
▁soft	-3374
▁harm	-3375
▁youth	-3376
reg	-3377
▁restrict	-3378
fort	-3379
▁recommend	-3380
lusion	-3381
▁Police	-3382
▁importance	-3383
▁90	-3384
endent	-3385
▁Based	-3386
▁constant	-3387
▁contain	-3388
rm	-3389
▁followed	-3390
▁thickness	-3391
stances	-3392
▁soo	-3393
▁Stud	-3394
▁practical	-3395
▁efficient	-3396
▁identified	-3397
▁players	-3398
▁pus	-3399
▁wear	-3400
▁highly	-3401
▁fel	-3402
▁duty	-3403
▁resident	-3404
ament	-3405
uel	-3406
▁secure	-3407
ords	-3408
▁nurs	-3409
▁prec	-3410
▁families	-3411
iate	-3412
▁match	-3413
ishment	-3414
▁Cont	-3415
▁Jan	-3416
▁Jang	-3417
▁might	-3418
ography	-3419
▁computer	-3420
▁analyze	-3421
back	-3422
▁2014	-3423
▁cities	-3424
▁resol	-3425
▁inject	-3426
▁ce	-3427
▁skin	-3428
hent	-3429
▁san	-3430
▁registr	-3431
▁ens	-3432
inger	-3433
▁Cr	-3434
▁Public	-3435
▁diabetes	-3436
vent	-3437
▁slow	-3438
▁attended	-3439
▁background	-3440
▁designated	-3441
▁35	-3442
ishing	-3443
▁sized	-3444
abled	-3445
▁phone	-3446
cription	-3447
igation	-3448
yo	-3449
ery	-3450
▁July	-3451
▁opposition	-3452
urch	-3453
▁36	-3454
▁Sang	-3455
▁walk	-3456
ats	-3457
▁Russ	-3458
▁correlation	-3459
▁monitor	-3460
▁birth	-3461
▁mind	-3462
▁attitude	-3463
▁tempor	-3464
▁really	-3465
▁33	-3466
▁intelligence	-3467
▁sho	-3468
▁lives	-3469
▁movie	-3470
▁transportation	-3471
▁liquid	-3472
▁authent	-3473
▁document	-3474
bol	-3475
▁complic	-3476
▁But	-3477
▁feed	-3478
▁bill	-3479
▁opened	-3480
sequ	-3481
ares	-3482
▁perm	-3483
▁sports	-3484
▁revised	-3485
▁capacity	-3486
tise	-3487
▁lect	-3488
▁Financial	-3489
▁Ph	-3490
▁entrust	-3491
▁pixel	-3492
ingu	-3493
iations	-3494
▁moment	-3495
▁Trans	-3496
▁delivery	-3497
▁documents	-3498
arter	-3499
▁House	-3500
▁chief	-3501
ha	-3502
▁squ	-3503
▁bott	-3504
▁assum	-3505
▁reading	-3506
▁stay	-3507
ameter	-3508
▁never	-3509
▁immediately	-3510
▁error	-3511
▁passed	-3512
▁eth	-3513
oph	-3514
▁depos	-3515
▁science	-3516
▁Soc	-3517
▁secondary	-3518
▁brok	-3519
uary	-3520
▁cop	-3521
▁actually	-3522
▁changing	-3523
▁heav	-3524
▁Seong	-3525
sang	-3526
ancy	-3527
▁Econom	-3528
▁approach	-3529
▁occup	-3530
▁photo	-3531
ches	-3532
secut	-3533
▁try	-3534
▁word	-3535
▁September	-3536
▁arrest	-3537
▁publ	-3538
▁solid	-3539
rical	-3540
▁Most	-3541
sible	-3542
icial	-3543
▁sle	-3544
▁adult	-3545
▁therm	-3546
▁ge	-3547
head	-3548
▁rob	-3549
▁modern	-3550
▁platform	-3551
overy	-3552
ifically	-3553
uge	-3554
▁fees	-3555
mosp	-3556
▁preced	-3557
▁component	-3558
▁artificial	-3559
ube	-3560
▁ago	-3561
▁overl	-3562
▁especially	-3563
ots	-3564
▁ded	-3565
▁agr	-3566
▁Liber	-3567
▁code	-3568
▁mach	-3569
▁creat	-3570
▁units	-3571
bor	-3572
▁Sung	-3573
▁defin	-3574
ference	-3575
▁execution	-3576
▁depth	-3577
▁failure	-3578
enue	-3579
▁carry	-3580
▁print	-3581
▁driver	-3582
▁customer	-3583
buk	-3584
▁ter	-3585
anger	-3586
▁atmosp	-3587
▁fans	-3588
▁urban	-3589
ipl	-3590
ober	-3591
▁loan	-3592
oad	-3593
most	-3594
▁dev	-3595
▁images	-3596
▁personnel	-3597
▁innovation	-3598
▁sequ	-3599
eterm	-3600
▁item	-3601
▁approval	-3602
hood	-3603
▁Seung	-3604
▁traffic	-3605
▁safe	-3606
▁properties	-3607
hn	-3608
▁senior	-3609
▁Aug	-3610
▁Gener	-3611
▁graph	-3612
▁festival	-3613
▁She	-3614
▁prevention	-3615
▁difficulties	-3616
OS	-3617
etition	-3618
▁transist	-3619
▁load	-3620
ext	-3621
▁council	-3622
ply	-3623
▁41	-3624
▁judged	-3625
▁picture	-3626
▁improving	-3627
▁Tax	-3628
▁suitable	-3629
▁hyper	-3630
▁controversy	-3631
▁gender	-3632
▁growing	-3633
▁context	-3634
▁Seo	-3635
▁refr	-3636
▁maximum	-3637
▁registration	-3638
▁Oct	-3639
lim	-3640
oma	-3641
urities	-3642
▁January	-3643
▁demon	-3644
▁multi	-3645
▁During	-3646
▁attend	-3647
▁Corpor	-3648
▁ball	-3649
▁fields	-3650
lus	-3651
▁weak	-3652
▁sufficient	-3653
▁played	-3654
▁transaction	-3655
▁assist	-3656
▁inner	-3657
▁taxes	-3658
▁band	-3659
▁appeared	-3660
▁Dece	-3661
▁tried	-3662
▁interests	-3663
▁sensing	-3664
▁accounting	-3665
onal	-3666
▁combination	-3667
▁Si	-3668
▁leave	-3669
▁sun	-3670
aft	-3671
▁December	-3672
▁equal	-3673
▁superv	-3674
▁creation	-3675
▁detected	-3676
▁via	-3677
aries	-3678
iger	-3679
▁conflict	-3680
▁involved	-3681
▁recommended	-3682
▁diss	-3683
▁discussed	-3684
▁supplement	-3685
▁Aff	-3686
▁pad	-3687
▁round	-3688
▁belong	-3689
▁directors	-3690
uck	-3691
▁sor	-3692
▁generally	-3693
ux	-3694
▁trip	-3695
▁manage	-3696
▁unique	-3697
▁performing	-3698
▁Sun	-3699
isition	-3700
ney	-3701
▁longer	-3702
▁optical	-3703
▁counsel	-3704
endit	-3705
selves	-3706
▁lost	-3707
▁angle	-3708
do	-3709
▁capt	-3710
▁holding	-3711
▁beam	-3712
▁vehicles	-3713
▁220	-3714
▁focused	-3715
▁Fore	-3716
▁issued	-3717
▁door	-3718
▁Department	-3719
etermined	-3720
▁Ji	-3721
▁file	-3722
▁scene	-3723
▁authorities	-3724
▁42	-3725
iary	-3726
▁export	-3727
▁Germany	-3728
▁Tae	-3729
▁forward	-3730
▁incident	-3731
▁commission	-3732
bit	-3733
▁usually	-3734
▁comprehensive	-3735
▁resolution	-3736
▁interpreted	-3737
ctions	-3738
▁divid	-3739
▁explan	-3740
vest	-3741
▁transmitted	-3742
▁expendit	-3743
▁predetermined	-3744
▁interpretation	-3745
▁clearly	-3746
▁Jeon	-3747
▁Trade	-3748
▁award	-3749
▁variety	-3750
▁seek	-3751
▁loans	-3752
▁disapp	-3753
quarters	-3754
▁composed	-3755
▁components	-3756
▁completely	-3757
▁firm	-3758
▁govern	-3759
iscal	-3760
▁concentr	-3761
▁bad	-3762
ivation	-3763
▁centered	-3764
▁hit	-3765
▁green	-3766
▁August	-3767
▁Current	-3768
▁achievement	-3769
▁association	-3770
▁hor	-3771
unding	-3772
▁phenomenon	-3773
▁reducing	-3774
▁Yoon	-3775
▁nuclear	-3776
▁causes	-3777
▁eat	-3778
▁Further	-3779
▁beginning	-3780
▁reflected	-3781
▁Provincial	-3782
▁micro	-3783
▁places	-3784
▁window	-3785
▁Refer	-3786
▁Management	-3787
▁gun	-3788
▁communic	-3789
▁Local	-3790
▁disclosure	-3791
▁mort	-3792
▁180	-3793
▁properly	-3794
▁favor	-3795
▁2019	-3796
▁Viet	-3797
▁published	-3798
▁expanded	-3799
velopment	-3800
▁interested	-3801
cel	-3802
chol	-3803
▁consumer	-3804
▁experiences	-3805
▁coe	-3806
▁staff	-3807
▁Vietnam	-3808
▁lawsu	-3809
▁Station	-3810
▁Next	-3811
▁arranged	-3812
▁built	-3813
▁guidel	-3814
▁stores	-3815
▁Referring	-3816
▁prescribed	-3817
▁TV	-3818
▁rules	-3819
▁acquisition	-3820
▁requirements	-3821
rant	-3822
▁agencies	-3823
▁sched	-3824
▁essential	-3825
70	-3826
▁pip	-3827
▁Affairs	-3828
▁details	-3829
▁discharge	-3830
▁thin	-3831
▁atmosphere	-3832
lev	-3833
▁October	-3834
▁Des	-3835
▁Dire	-3836
▁101	-3837
▁Many	-3838
▁designed	-3839
▁sharing	-3840
icy	-3841
ystem	-3842
▁Special	-3843
▁village	-3844
▁ri	-3845
▁male	-3846
▁stocks	-3847
▁limitations	-3848
▁State	-3849
NA	-3850
akers	-3851
▁feature	-3852
▁numbers	-3853
irl	-3854
tes	-3855
▁Hyun	-3856
more	-3857
rency	-3858
▁heating	-3859
▁nar	-3860
▁statement	-3861
▁woman	-3862
▁getting	-3863
▁tit	-3864
▁earlier	-3865
▁metropolitan	-3866
▁High	-3867
▁adop	-3868
▁article	-3869
▁reports	-3870
▁Sm	-3871
rier	-3872
▁rapidly	-3873
▁perception	-3874
▁Supp	-3875
▁inform	-3876
▁affected	-3877
▁Liberty	-3878
▁quickly	-3879
▁believe	-3880
▁controlling	-3881
heon	-3882
ancing	-3883
▁repeated	-3884
▁examine	-3885
ologies	-3886
▁officer	-3887
to	-3888
▁patterns	-3889
▁Techn	-3890
apt	-3891
▁fiscal	-3892
▁requires	-3893
▁mal	-3894
▁doll	-3895
▁black	-3896
dule	-3897
▁34	-3898
aught	-3899
▁sleep	-3900
▁instead	-3901
▁procedures	-3902
orb	-3903
▁excluded	-3904
▁51	-3905
▁rein	-3906
▁continuous	-3907
▁felt	-3908
ugg	-3909
▁gave	-3910
▁union	-3911
▁seven	-3912
▁turned	-3913
▁198	-3914
▁Ins	-3915
andom	-3916
▁2013	-3917
rim	-3918
▁track	-3919
▁developing	-3920
▁HCC	-3921
▁symbol	-3922
▁organized	-3923
▁II	-3924
care	-3925
▁accum	-3926
▁formation	-3927
▁box	-3928
▁allowed	-3929
▁experienced	-3930
uations	-3931
▁advanced	-3932
▁participating	-3933
▁session	-3934
itation	-3935
▁candidate	-3936
▁convenience	-3937
▁exem	-3938
▁sche	-3939
ocation	-3940
▁answer	-3941
▁schedule	-3942
▁motor	-3943
rees	-3944
▁survival	-3945
▁ke	-3946
amber	-3947
▁foot	-3948
▁centers	-3949
▁individuals	-3950
▁Mar	-3951
▁thing	-3952
▁primary	-3953
▁comes	-3954
▁emphasized	-3955
▁style	-3956
ague	-3957
▁rear	-3958
fere	-3959
▁fee	-3960
▁nan	-3961
▁attrib	-3962
▁father	-3963
alle	-3964
erior	-3965
light	-3966
▁universities	-3967
▁maintained	-3968
▁themselves	-3969
my	-3970
▁Festival	-3971
▁Agency	-3972
▁gradually	-3973
▁axis	-3974
▁investors	-3975
▁relation	-3976
▁identify	-3977
▁learners	-3978
▁annual	-3979
▁Gangwon	-3980
▁audience	-3981
▁emotional	-3982
yu	-3983
iance	-3984
dom	-3985
wa	-3986
▁CO	-3987
▁Labor	-3988
▁refriger	-3989
▁characteristic	-3990
eral	-3991
▁banks	-3992
ployment	-3993
▁era	-3994
▁charging	-3995
▁submit	-3996
▁160	-3997
▁Hyund	-3998
▁trying	-3999
▁Recently	-4000
▁predicted	-4001
sc	-4002
ronics	-4003
▁ten	-4004
▁controlled	-4005
▁motion	-4006
▁American	-4007
▁performances	-4008
▁Land	-4009
▁disabilities	-4010
▁mm	-4011
▁club	-4012
▁resin	-4013
▁Hyundai	-4014
phone	-4015
▁fix	-4016
▁Yeong	-4017
▁across	-4018
▁allows	-4019
▁Currently	-4020
▁enterprises	-4021
ithm	-4022
▁choice	-4023
▁inflamm	-4024
▁corporation	-4025
▁Im	-4026
▁45	-4027
▁stre	-4028
▁apart	-4029
▁thereof	-4030
apter	-4031
▁idea	-4032
▁combined	-4033
yes	-4034
ooth	-4035
▁whose	-4036
▁height	-4037
▁achieved	-4038
▁continuously	-4039
▁bound	-4040
▁older	-4041
▁Let	-4042
▁finger	-4043
▁poll	-4044
▁manner	-4045
▁markets	-4046
▁rain	-4047
▁impos	-4048
▁forming	-4049
▁coord	-4050
▁Kyung	-4051
▁disabled	-4052
▁correspond	-4053
▁node	-4054
▁compound	-4055
▁concerns	-4056
▁analyzing	-4057
▁almost	-4058
▁Industrial	-4059
▁tast	-4060
▁Now	-4061
▁authentication	-4062
uties	-4063
▁vent	-4064
orrow	-4065
▁slight	-4066
▁signals	-4067
▁Inf	-4068
▁worth	-4069
▁Due	-4070
▁PC	-4071
aves	-4072
▁cold	-4073
ensive	-4074
imate	-4075
▁parking	-4076
jin	-4077
atically	-4078
▁Feb	-4079
▁outer	-4080
▁plant	-4081
▁transp	-4082
▁reached	-4083
▁Gyeongsang	-4084
▁peace	-4085
▁hydrogen	-4086
▁fib	-4087
▁dism	-4088
▁rule	-4089
▁recon	-4090
▁provision	-4091
▁drama	-4092
▁prote	-4093
▁submitted	-4094
▁Fed	-4095
▁agent	-4096
▁stable	-4097
▁fuel	-4098
iday	-4099
▁hyun	-4100
▁rare	-4101
▁defect	-4102
▁expanding	-4103
▁bring	-4104
▁construct	-4105
▁jin	-4106
▁entered	-4107
▁Administration	-4108
AT	-4109
▁exposed	-4110
ners	-4111
▁supporting	-4112
▁wanted	-4113
▁Corporation	-4114
▁Nove	-4115
▁November	-4116
▁conference	-4117
urer	-4118
▁models	-4119
▁recognize	-4120
▁Dis	-4121
▁encour	-4122
reed	-4123
▁react	-4124
▁creating	-4125
▁meaningful	-4126
▁fluid	-4127
▁charges	-4128
▁separately	-4129
▁newly	-4130
▁owner	-4131
▁appears	-4132
▁pension	-4133
cribe	-4134
▁happy	-4135
▁drawing	-4136
▁Provided	-4137
▁recorded	-4138
▁supported	-4139
▁52	-4140
▁random	-4141
▁SM	-4142
▁chronic	-4143
lec	-4144
▁polymer	-4145
▁believed	-4146
▁demonstr	-4147
▁impossible	-4148
▁transactions	-4149
aughter	-4150
▁intervention	-4151
▁books	-4152
▁theater	-4153
▁measuring	-4154
▁transistor	-4155
▁ye	-4156
rist	-4157
icine	-4158
▁focusing	-4159
ruit	-4160
▁surro	-4161
▁release	-4162
▁Development	-4163
▁profits	-4164
▁responsible	-4165
▁duties	-4166
▁quarter	-4167
▁raising	-4168
▁although	-4169
po	-4170
▁friendly	-4171
▁AI	-4172
bu	-4173
▁hall	-4174
▁larger	-4175
cohol	-4176
▁violence	-4177
rad	-4178
▁sites	-4179
▁replace	-4180
▁schedul	-4181
▁Sub	-4182
▁lawm	-4183
▁Mr	-4184
▁sale	-4185
▁famous	-4186
▁Tw	-4187
▁vice	-4188
▁Gangnam	-4189
▁accidents	-4190
▁competit	-4191
▁particles	-4192
▁Daegu	-4193
▁si	-4194
▁hotel	-4195
▁width	-4196
▁accomp	-4197
▁cooling	-4198
▁mechanism	-4199
dr	-4200
▁doing	-4201
▁executive	-4202
▁dead	-4203
room	-4204
▁instruction	-4205
▁games	-4206
▁General	-4207
ero	-4208
▁gradu	-4209
▁professor	-4210
▁registered	-4211
rew	-4212
▁mas	-4213
▁revision	-4214
▁tumor	-4215
▁bottom	-4216
▁dimens	-4217
verse	-4218
tenance	-4219
▁disput	-4220
▁drugs	-4221
▁remark	-4222
▁appointed	-4223
▁introduce	-4224
pa	-4225
umn	-4226
▁Also	-4227
▁mixed	-4228
uting	-4229
▁Justice	-4230
olic	-4231
▁alternative	-4232
▁tourists	-4233
▁specialized	-4234
new	-4235
▁cogn	-4236
▁radi	-4237
ought	-4238
▁insu	-4239
▁sto	-4240
itative	-4241
▁Hwang	-4242
▁failed	-4243
▁sanctions	-4244
ote	-4245
estern	-4246
▁Yes	-4247
▁certific	-4248
▁double	-4249
▁containing	-4250
isory	-4251
▁attack	-4252
▁infection	-4253
▁assign	-4254
ither	-4255
▁ensure	-4256
▁saw	-4257
ulates	-4258
▁heard	-4259
▁aged	-4260
▁raise	-4261
gn	-4262
▁ultr	-4263
▁buff	-4264
▁recruit	-4265
▁probability	-4266
yong	-4267
▁pros	-4268
▁disaster	-4269
▁punishment	-4270
▁NA	-4271
▁closed	-4272
▁chip	-4273
inear	-4274
▁degrees	-4275
▁eyes	-4276
▁white	-4277
▁explain	-4278
oles	-4279
▁tasks	-4280
ruary	-4281
urning	-4282
▁February	-4283
▁uses	-4284
▁App	-4285
▁Def	-4286
▁hee	-4287
▁People	-4288
▁recovery	-4289
ulin	-4290
▁requested	-4291
▁investigated	-4292
▁Second	-4293
▁legisl	-4294
▁greatly	-4295
▁defense	-4296
▁stability	-4297
▁distributed	-4298
rupt	-4299
▁chall	-4300
▁magnetic	-4301
▁mis	-4302
▁equation	-4303
▁flexible	-4304
▁resource	-4305
▁fully	-4306
▁Consid	-4307
▁har	-4308
▁preparation	-4309
▁neigh	-4310
▁plays	-4311
utr	-4312
▁Thus	-4313
▁tiss	-4314
▁protr	-4315
▁God	-4316
▁ahead	-4317
▁criticism	-4318
ascular	-4319
▁balance	-4320
▁autonomous	-4321
▁eye	-4322
▁tim	-4323
▁visual	-4324
▁lawsuit	-4325
▁denuclear	-4326
▁successful	-4327
iful	-4328
▁2012	-4329
▁maintenance	-4330
▁judge	-4331
▁Culture	-4332
roph	-4333
▁rice	-4334
▁adhes	-4335
▁discussions	-4336
▁told	-4337
▁useful	-4338
▁train	-4339
▁Christ	-4340
▁solving	-4341
▁Director	-4342
▁wrong	-4343
oration	-4344
▁derived	-4345
yn	-4346
▁negotiations	-4347
▁behind	-4348
▁screening	-4349
ifier	-4350
▁assessment	-4351
▁investigate	-4352
▁Hall	-4353
▁cars	-4354
▁hands	-4355
mon	-4356
▁heavy	-4357
▁prosecut	-4358
▁features	-4359
▁agricultural	-4360
▁mathematical	-4361
▁mental	-4362
▁summer	-4363
▁remaining	-4364
oper	-4365
▁tests	-4366
▁monitoring	-4367
▁eight	-4368
▁actions	-4369
▁receives	-4370
▁surrounding	-4371
▁Prof	-4372
▁presence	-4373
▁coefficient	-4374
band	-4375
▁concerning	-4376
noon	-4377
hesis	-4378
▁Mark	-4379
▁Yoo	-4380
▁CT	-4381
iable	-4382
▁tomorrow	-4383
▁appearance	-4384
▁Welfare	-4385
▁hem	-4386
▁Exam	-4387
▁shap	-4388
▁conversion	-4389
▁depart	-4390
▁technologies	-4391
▁grant	-4392
▁benefit	-4393
▁supplied	-4394
oke	-4395
▁Int	-4396
▁afternoon	-4397
▁textbooks	-4398
know	-4399
▁hepat	-4400
▁discrim	-4401
▁identity	-4402
▁mi	-4403
▁2010	-4404
▁records	-4405
▁apartment	-4406
60	-4407
lies	-4408
▁alcohol	-4409
ogen	-4410
▁i	-4411
wide	-4412
▁moved	-4413
▁capable	-4414
▁Koreans	-4415
ees	-4416
▁victims	-4417
▁avoidance	-4418
▁operations	-4419
▁Won	-4420
▁regardless	-4421
▁38	-4422
aling	-4423
▁smoking	-4424
▁insufficient	-4425
▁Under	-4426
▁transferred	-4427
fect	-4428
▁chamber	-4429
▁Transport	-4430
▁expenditure	-4431
▁deliberation	-4432
▁adding	-4433
iers	-4434
▁convention	-4435
▁restaurant	-4436
▁Electronics	-4437
▁bond	-4438
gart	-4439
iles	-4440
▁sorry	-4441
▁Ul	-4442
iform	-4443
athy	-4444
▁conclud	-4445
▁170	-4446
▁histor	-4447
▁broadcasting	-4448
▁Saf	-4449
imately	-4450
▁antib	-4451
▁defend	-4452
▁King	-4453
▁logic	-4454
▁Support	-4455
be	-4456
yond	-4457
▁compr	-4458
▁filed	-4459
▁beyond	-4460
▁hon	-4461
▁exact	-4462
ori	-4463
alyst	-4464
▁cash	-4465
indergart	-4466
▁Security	-4467
▁Fund	-4468
▁unfair	-4469
▁adjusted	-4470
▁entrance	-4471
utiful	-4472
▁guidelines	-4473
▁goes	-4474
encing	-4475
holder	-4476
▁write	-4477
ops	-4478
▁cycle	-4479
▁scan	-4480
▁pregn	-4481
▁agreed	-4482
▁schol	-4483
▁gluc	-4484
▁hearing	-4485
▁examples	-4486
orter	-4487
▁consc	-4488
▁healthy	-4489
▁taxation	-4490
tion	-4491
▁310	-4492
▁inev	-4493
▁deemed	-4494
▁difficulty	-4495
▁Considering	-4496
▁Col	-4497
▁syn	-4498
iverse	-4499
▁build	-4500
▁doesn	-4501
▁freed	-4502
▁minim	-4503
▁Dr	-4504
▁adjustment	-4505
▁becoming	-4506
erve	-4507
▁nursing	-4508
▁chemical	-4509
▁glass	-4510
▁placed	-4511
▁European	-4512
▁inhib	-4513
▁cognitive	-4514
▁guarantee	-4515
▁u	-4516
▁ec	-4517
ield	-4518
▁technical	-4519
▁watch	-4520
▁removed	-4521
yr	-4522
▁empir	-4523
orption	-4524
▁interm	-4525
▁creative	-4526
▁vertical	-4527
▁regression	-4528
etary	-4529
isher	-4530
▁damages	-4531
▁shopping	-4532
ipped	-4533
▁depression	-4534
▁fell	-4535
▁contains	-4536
apping	-4537
▁bonds	-4538
▁decline	-4539
▁alg	-4540
▁evaluate	-4541
▁Tour	-4542
idge	-4543
▁theore	-4544
▁penal	-4545
▁coupled	-4546
▁fundament	-4547
asma	-4548
▁Mon	-4549
oscop	-4550
▁acts	-4551
▁amend	-4552
▁comparison	-4553
▁summar	-4554
▁layers	-4555
▁previously	-4556
itivity	-4557
lectric	-4558
▁circumstances	-4559
▁65	-4560
otion	-4561
▁remains	-4562
▁reasonable	-4563
▁Prime	-4564
▁Unlike	-4565
▁majority	-4566
▁43	-4567
aches	-4568
▁Island	-4569
▁enhance	-4570
▁examined	-4571
CO	-4572
▁Asia	-4573
▁spir	-4574
▁jur	-4575
oring	-4576
▁crimes	-4577
▁widely	-4578
▁Rev	-4579
▁findings	-4580
lying	-4581
riage	-4582
▁smooth	-4583
▁effectiveness	-4584
▁preparing	-4585
▁governor	-4586
▁Par	-4587
▁excessive	-4588
▁produce	-4589
▁secretary	-4590
dong	-4591
ipher	-4592
▁sides	-4593
▁premium	-4594
▁forms	-4595
▁switch	-4596
▁uniform	-4597
▁lens	-4598
▁37	-4599
ights	-4600
oding	-4601
▁definition	-4602
▁counseling	-4603
▁understood	-4604
▁classification	-4605
inally	-4606
▁Found	-4607
▁regarded	-4608
▁experimental	-4609
▁comfort	-4610
▁Bo	-4611
ming	-4612
▁coming	-4613
▁calculation	-4614
▁wel	-4615
▁reject	-4616
▁efficacy	-4617
▁determining	-4618
▁wife	-4619
unction	-4620
▁freedom	-4621
▁actor	-4622
▁notice	-4623
▁drop	-4624
▁unlike	-4625
▁Oh	-4626
▁Our	-4627
▁webs	-4628
▁Regarding	-4629
▁ampl	-4630
▁German	-4631
▁adapt	-4632
▁institutional	-4633
▁shar	-4634
▁resulting	-4635
uth	-4636
apers	-4637
▁Invest	-4638
▁branch	-4639
▁acquired	-4640
aser	-4641
▁map	-4642
▁Decree	-4643
liminary	-4644
▁sea	-4645
▁researchers	-4646
BS	-4647
▁Prom	-4648
▁Russia	-4649
▁pow	-4650
▁woo	-4651
▁tick	-4652
▁moral	-4653
▁foundation	-4654
chart	-4655
▁sect	-4656
▁giving	-4657
▁suspic	-4658
▁disposition	-4659
▁230	-4660
▁argued	-4661
▁distingu	-4662
▁flowchart	-4663
▁Furthermore	-4664
umb	-4665
▁scheduled	-4666
▁fill	-4667
aints	-4668
▁beautiful	-4669
▁urg	-4670
down	-4671
▁hom	-4672
▁reach	-4673
▁square	-4674
▁Profess	-4675
▁feedback	-4676
asion	-4677
▁Thank	-4678
▁instruct	-4679
▁600	-4680
▁unc	-4681
ellect	-4682
▁goals	-4683
▁learned	-4684
▁promoting	-4685
▁bone	-4686
▁player	-4687
▁volunt	-4688
standing	-4689
▁chairperson	-4690
▁2000	-4691
▁shared	-4692
▁forest	-4693
SS	-4694
▁gro	-4695
wards	-4696
▁Vice	-4697
▁humans	-4698
comes	-4699
insula	-4700
▁visiting	-4701
set	-4702
▁ple	-4703
▁plane	-4704
▁teams	-4705
▁Safety	-4706
▁significance	-4707
cin	-4708
▁Business	-4709
DM	-4710
jeon	-4711
▁died	-4712
ports	-4713
▁2011	-4714
▁psychological	-4715
▁bag	-4716
▁48	-4717
▁cele	-4718
ivered	-4719
▁volunte	-4720
▁electron	-4721
hern	-4722
▁literature	-4723
ran	-4724
▁mer	-4725
▁Commun	-4726
▁contrast	-4727
chain	-4728
▁arbit	-4729
▁Na	-4730
▁Jose	-4731
overed	-4732
tainment	-4733
▁constit	-4734
▁diagnosed	-4735
▁weather	-4736
▁BM	-4737
▁contribute	-4738
▁talks	-4739
orthern	-4740
▁revenue	-4741
▁kid	-4742
▁lic	-4743
▁smaller	-4744
▁delivered	-4745
▁awareness	-4746
▁clock	-4747
▁fan	-4748
irect	-4749
▁asset	-4750
▁preval	-4751
ED	-4752
▁grand	-4753
ressed	-4754
▁functional	-4755
▁presidential	-4756
▁statistically	-4757
▁mg	-4758
▁immun	-4759
▁slightly	-4760
▁Foundation	-4761
▁photograph	-4762
▁proposal	-4763
▁juris	-4764
▁figure	-4765
▁Science	-4766
▁relative	-4767
▁processes	-4768
▁perce	-4769
▁studied	-4770
izon	-4771
jong	-4772
▁Civil	-4773
▁exposure	-4774
pper	-4775
▁Sing	-4776
▁Technology	-4777
bum	-4778
tle	-4779
▁sure	-4780
ateral	-4781
roid	-4782
▁substant	-4783
▁continues	-4784
▁panc	-4785
▁assembly	-4786
▁rail	-4787
▁abuse	-4788
▁brief	-4789
▁simply	-4790
▁preliminary	-4791
ultane	-4792
▁objects	-4793
▁Are	-4794
▁anx	-4795
▁sentence	-4796
▁Not	-4797
ommod	-4798
▁synt	-4799
▁choose	-4800
▁aspects	-4801
paragraph	-4802
▁Super	-4803
▁Secret	-4804
▁guidance	-4805
▁serum	-4806
ynam	-4807
▁anim	-4808
▁stim	-4809
▁ordered	-4810
▁diameter	-4811
▁intends	-4812
▁falling	-4813
▁threat	-4814
▁existence	-4815
▁principles	-4816
▁55	-4817
▁settlement	-4818
▁Sa	-4819
▁Hum	-4820
plant	-4821
▁oriented	-4822
omy	-4823
draw	-4824
▁houses	-4825
alse	-4826
▁sud	-4827
▁merg	-4828
▁temporary	-4829
▁illustrated	-4830
orithm	-4831
▁sudden	-4832
amed	-4833
▁buffer	-4834
▁pipe	-4835
▁multicultural	-4836
▁Such	-4837
▁abroad	-4838
▁machine	-4839
▁judicial	-4840
▁buildings	-4841
aith	-4842
▁pil	-4843
▁software	-4844
▁jurisd	-4845
▁Defense	-4846
▁consists	-4847
▁Child	-4848
▁relig	-4849
▁retire	-4850
▁membr	-4851
▁biggest	-4852
▁suspected	-4853
▁opportunities	-4854
rome	-4855
▁2009	-4856
▁linked	-4857
ards	-4858
▁despite	-4859
▁ordinary	-4860
▁shares	-4861
▁Another	-4862
▁accommod	-4863
▁withdraw	-4864
AC	-4865
odes	-4866
othes	-4867
▁density	-4868
▁Il	-4869
▁Sam	-4870
▁situations	-4871
▁playing	-4872
▁son	-4873
ulations	-4874
▁Cultural	-4875
▁painting	-4876
▁competitiveness	-4877
▁photos	-4878
▁injection	-4879
▁112	-4880
▁extent	-4881
▁plasma	-4882
▁simultane	-4883
iter	-4884
ites	-4885
▁inher	-4886
oud	-4887
▁zone	-4888
▁launched	-4889
▁rotation	-4890
▁subparagraph	-4891
certain	-4892
▁protein	-4893
▁dial	-4894
▁samples	-4895
▁independence	-4896
cont	-4897
▁pit	-4898
▁visitors	-4899
▁legislation	-4900
11	-4901
▁East	-4902
▁44	-4903
▁warm	-4904
▁metab	-4905
▁shock	-4906
▁indirect	-4907
▁reliability	-4908
▁rental	-4909
▁leaders	-4910
▁consistent	-4911
▁correction	-4912
▁Aut	-4913
▁separated	-4914
acent	-4915
▁listed	-4916
▁lib	-4917
▁structural	-4918
▁Lot	-4919
▁theme	-4920
▁reviewed	-4921
▁Equ	-4922
▁noise	-4923
▁identification	-4924
▁seem	-4925
▁tendency	-4926
▁leadership	-4927
▁expectations	-4928
▁thus	-4929
▁employed	-4930
iors	-4931
▁closely	-4932
▁electrical	-4933
▁Us	-4934
▁vary	-4935
▁outcomes	-4936
▁headquarters	-4937
▁delayed	-4938
▁promoted	-4939
▁composite	-4940
iliary	-4941
▁arm	-4942
▁Promotion	-4943
▁algorithm	-4944
▁frequently	-4945
▁voc	-4946
▁Economic	-4947
▁concert	-4948
▁planned	-4949
▁Pen	-4950
▁fif	-4951
▁himself	-4952
▁interaction	-4953
des	-4954
▁Per	-4955
▁vib	-4956
▁vul	-4957
▁arts	-4958
▁elig	-4959
▁serve	-4960
▁dismiss	-4961
▁anything	-4962
▁om	-4963
▁exports	-4964
▁decreases	-4965
LD	-4966
▁202	-4967
▁worked	-4968
▁returned	-4969
ellectual	-4970
print	-4971
▁page	-4972
▁audio	-4973
▁priority	-4974
▁conclusion	-4975
oe	-4976
rec	-4977
▁kin	-4978
que	-4979
▁lung	-4980
▁corporations	-4981
▁Kong	-4982
▁note	-4983
▁coil	-4984
▁medicine	-4985
▁rating	-4986
▁jurisdiction	-4987
▁Gr	-4988
athe	-4989
▁caught	-4990
▁assault	-4991
▁Eun	-4992
cheong	-4993
▁causing	-4994
▁insulin	-4995
▁autonomy	-4996
▁establishing	-4997
▁suic	-4998
▁horizon	-4999
▁indicating	-5000
▁indicators	-5001
zz	-5002
▁sust	-5003
▁enact	-5004
▁extreme	-5005
▁chance	-5006
men	-5007
▁someone	-5008
▁peripher	-5009
▁nothing	-5010
▁paralle	-5011
▁church	-5012
▁glucose	-5013
▁39	-5014
▁cardi	-5015
ruption	-5016
▁linear	-5017
▁agg	-5018
▁says	-5019
ressive	-5020
▁kindergart	-5021
▁consultation	-5022
▁Wa	-5023
aration	-5024
▁acting	-5025
▁Environment	-5026
▁monthly	-5027
▁mel	-5028
▁applications	-5029
rh	-5030
▁songs	-5031
▁personality	-5032
isure	-5033
▁aging	-5034
▁revital	-5035
▁particularly	-5036
▁x	-5037
▁Mot	-5038
▁acquire	-5039
▁obligation	-5040
▁FIGS	-5041
▁gold	-5042
▁dynam	-5043
▁incidence	-5044
▁transform	-5045
▁Information	-5046
NS	-5047
icit	-5048
▁Foreign	-5049
▁century	-5050
▁statistics	-5051
stru	-5052
rought	-5053
▁faith	-5054
▁managed	-5055
▁separation	-5056
▁Ac	-5057
anges	-5058
▁consent	-5059
▁tourist	-5060
IS	-5061
orters	-5062
▁warrant	-5063
▁ju	-5064
▁die	-5065
▁ever	-5066
▁website	-5067
▁minister	-5068
▁mortality	-5069
otic	-5070
ooking	-5071
▁infrastructure	-5072
▁Joseon	-5073
▁reorgan	-5074
▁signed	-5075
▁Industry	-5076
▁muscle	-5077
▁discount	-5078
▁Mat	-5079
▁thermal	-5080
▁overcome	-5081
▁Pat	-5082
▁Organ	-5083
▁dream	-5084
▁appeal	-5085
▁petition	-5086
▁organizational	-5087
▁Last	-5088
EC	-5089
▁winter	-5090
▁competency	-5091
▁Son	-5092
▁girl	-5093
▁leak	-5094
▁oxide	-5095
▁elastic	-5096
▁throughout	-5097
▁edge	-5098
ocy	-5099
▁vulner	-5100
▁complications	-5101
▁coff	-5102
▁effectively	-5103
iliar	-5104
▁anten	-5105
▁gather	-5106
▁states	-5107
▁brain	-5108
▁master	-5109
▁entering	-5110
▁parallel	-5111
point	-5112
▁boy	-5113
▁polar	-5114
▁conducting	-5115
▁Finance	-5116
hab	-5117
▁IT	-5118
▁roll	-5119
▁ads	-5120
▁bul	-5121
▁reporting	-5122
norm	-5123
lusive	-5124
▁prohib	-5125
▁Social	-5126
▁articles	-5127
▁dimensional	-5128
ios	-5129
wise	-5130
▁scient	-5131
▁advertise	-5132
iversary	-5133
▁Central	-5134
▁intermedi	-5135
oly	-5136
olute	-5137
▁acute	-5138
▁valid	-5139
▁marriage	-5140
▁technique	-5141
ears	-5142
▁violation	-5143
ores	-5144
▁fost	-5145
▁false	-5146
▁75	-5147
erted	-5148
▁transparent	-5149
etr	-5150
ygen	-5151
unk	-5152
▁accounts	-5153
▁ban	-5154
irable	-5155
▁CS	-5156
▁stab	-5157
▁category	-5158
▁empirical	-5159
▁strategies	-5160
▁Lim	-5161
▁320	-5162
▁Cup	-5163
▁ion	-5164
▁Jeoll	-5165
▁111	-5166
▁gift	-5167
▁jour	-5168
▁cryst	-5169
▁Ahn	-5170
▁amb	-5171
▁Lotte	-5172
▁extended	-5173
rix	-5174
▁esc	-5175
▁album	-5176
▁selling	-5177
▁relationships	-5178
▁Day	-5179
▁drain	-5180
▁voting	-5181
operative	-5182
▁accepted	-5183
▁operator	-5184
▁Ear	-5185
▁Austr	-5186
▁criticized	-5187
bal	-5188
aign	-5189
▁viewed	-5190
▁admission	-5191
▁blockchain	-5192
▁fiber	-5193
▁verification	-5194
▁DM	-5195
▁abol	-5196
▁transplant	-5197
▁Enforcement	-5198
▁His	-5199
▁Sim	-5200
▁twice	-5201
▁secured	-5202
▁currency	-5203
▁emission	-5204
ndrome	-5205
▁taste	-5206
▁either	-5207
▁productivity	-5208
rote	-5209
▁peak	-5210
▁Finally	-5211
▁artists	-5212
▁reception	-5213
▁characters	-5214
▁candidates	-5215
raud	-5216
▁concern	-5217
▁absolute	-5218
▁410	-5219
▁Var	-5220
▁leads	-5221
▁scholars	-5222
▁Professor	-5223
BC	-5224
eding	-5225
▁Other	-5226
resents	-5227
▁membrane	-5228
▁Secretary	-5229
▁Ha	-5230
▁250	-5231
▁abnorm	-5232
▁adults	-5233
met	-5234
▁Food	-5235
▁finance	-5236
eline	-5237
▁recip	-5238
▁neighbor	-5239
▁register	-5240
▁uncertain	-5241
eech	-5242
▁scen	-5243
▁drive	-5244
▁approx	-5245
▁represents	-5246
▁installation	-5247
▁incent	-5248
▁instru	-5249
ush	-5250
hel	-5251
▁huge	-5252
▁sheet	-5253
▁leisure	-5254
▁thres	-5255
▁lecture	-5256
▁deterior	-5257
▁Baek	-5258
▁celebr	-5259
▁anxiety	-5260
▁marketing	-5261
▁litigation	-5262
vious	-5263
▁scores	-5264
▁assumed	-5265
▁selecting	-5266
▁occurrence	-5267
AR	-5268
▁narrow	-5269
▁drinking	-5270
▁laser	-5271
▁tissue	-5272
esterday	-5273
▁musical	-5274
▁validity	-5275
▁bin	-5276
▁York	-5277
▁communicate	-5278
urt	-5279
▁53	-5280
▁spot	-5281
usband	-5282
▁couldn	-5283
▁forced	-5284
▁finally	-5285
▁employee	-5286
▁contracts	-5287
ographic	-5288
▁statistical	-5289
Es	-5290
▁gast	-5291
▁quite	-5292
urb	-5293
▁owners	-5294
▁actors	-5295
▁grades	-5296
▁affects	-5297
▁running	-5298
▁Republic	-5299
▁specified	-5300
▁feeling	-5301
▁accompan	-5302
resh	-5303
gical	-5304
▁spirit	-5305
▁adjacent	-5306
▁effort	-5307
▁oxygen	-5308
▁confidence	-5309
ah	-5310
▁Why	-5311
▁manip	-5312
▁sou	-5313
▁minor	-5314
▁kn	-5315
▁Brit	-5316
▁earn	-5317
▁Chief	-5318
▁injury	-5319
▁HB	-5320
esity	-5321
▁gain	-5322
▁mist	-5323
▁stated	-5324
▁everyone	-5325
imb	-5326
wor	-5327
▁pick	-5328
▁inspect	-5329
▁historical	-5330
▁residential	-5331
▁commissioned	-5332
▁conventional	-5333
asp	-5334
advant	-5335
▁letter	-5336
▁Agr	-5337
▁daughter	-5338
▁anniversary	-5339
uls	-5340
▁prediction	-5341
▁characterized	-5342
udd	-5343
▁War	-5344
▁stead	-5345
▁eating	-5346
▁coating	-5347
AS	-5348
lia	-5349
▁AS	-5350
ilos	-5351
▁Blue	-5352
▁crack	-5353
▁extra	-5354
▁Hospital	-5355
▁Represent	-5356
▁dependent	-5357
▁disadvant	-5358
▁retirement	-5359
▁upd	-5360
▁remain	-5361
▁emotions	-5362
onald	-5363
▁conscious	-5364
▁prevalence	-5365
▁reflection	-5366
ji	-5367
▁pie	-5368
▁tank	-5369
ao	-5370
▁ideas	-5371
arb	-5372
▁mail	-5373
▁robot	-5374
▁spring	-5375
▁partial	-5376
▁Human	-5377
▁lowest	-5378
▁paying	-5379
▁stages	-5380
▁husband	-5381
▁electrodes	-5382
▁mask	-5383
▁agend	-5384
▁121	-5385
acter	-5386
▁fraud	-5387
▁nit	-5388
▁Union	-5389
▁Pyeong	-5390
▁trading	-5391
asty	-5392
▁alle	-5393
▁flight	-5394
▁excluding	-5395
▁sung	-5396
▁danger	-5397
▁speech	-5398
▁topic	-5399
gence	-5400
hening	-5401
▁borrow	-5402
▁appointment	-5403
▁aimed	-5404
▁legislative	-5405
▁vit	-5406
iques	-5407
▁title	-5408
ometric	-5409
▁Altern	-5410
▁rising	-5411
▁fifth	-5412
▁intensity	-5413
▁determination	-5414
PS	-5415
▁lawy	-5416
▁fight	-5417
apy	-5418
▁stack	-5419
▁coffee	-5420
▁Looking	-5421
▁62	-5422
▁heads	-5423
▁extend	-5424
▁syndrome	-5425
▁Singap	-5426
▁worker	-5427
▁brother	-5428
▁consecut	-5429
▁desirable	-5430
▁fundamental	-5431
▁intellectual	-5432
TC	-5433
▁mac	-5434
jeong	-5435
▁Four	-5436
▁schem	-5437
▁securities	-5438
▁implications	-5439
▁matrix	-5440
▁deposit	-5441
▁Singapore	-5442
▁Insurance	-5443
▁shareholder	-5444
▁gest	-5445
▁explanation	-5446
▁standing	-5447
▁filled	-5448
▁objective	-5449
▁bed	-5450
▁certificate	-5451
▁sensitivity	-5452
▁taxp	-5453
▁suggests	-5454
▁tube	-5455
▁entrusted	-5456
▁structures	-5457
▁2008	-5458
▁hair	-5459
▁minute	-5460
▁posted	-5461
▁wors	-5462
liament	-5463
▁adoles	-5464
▁convers	-5465
▁unification	-5466
▁Infrastructure	-5467
▁dog	-5468
▁Year	-5469
▁limits	-5470
▁adhesive	-5471
▁yesterday	-5472
▁popularity	-5473
▁transition	-5474
▁les	-5475
▁Head	-5476
▁hwan	-5477
▁recur	-5478
▁launch	-5479
▁imag	-5480
▁thor	-5481
▁Sports	-5482
▁street	-5483
▁Chapter	-5484
▁conserv	-5485
▁approved	-5486
▁row	-5487
▁valve	-5488
▁emerged	-5489
dens	-5490
▁Comple	-5491
▁investigating	-5492
ste	-5493
▁Tai	-5494
▁lab	-5495
▁spect	-5496
▁steps	-5497
▁concepts	-5498
▁ownership	-5499
▁completion	-5500
▁EU	-5501
▁campaign	-5502
atur	-5503
▁ones	-5504
▁pancreat	-5505
▁extension	-5506
▁generating	-5507
▁Ki	-5508
▁truth	-5509
▁plastic	-5510
intendent	-5511
▁amendment	-5512
▁102	-5513
▁PD	-5514
▁hospitals	-5515
▁defendant	-5516
▁techniques	-5517
▁peripheral	-5518
▁entry	-5519
▁critical	-5520
▁sometimes	-5521
▁threshold	-5522
▁Conf	-5523
▁judges	-5524
▁strict	-5525
▁fingerprint	-5526
▁Austral	-5527
▁mounted	-5528
▁95	-5529
works	-5530
▁claims	-5531
▁refund	-5532
urations	-5533
▁Hye	-5534
▁Fair	-5535
▁distin	-5536
▁outcome	-5537
▁strengthening	-5538
▁dys	-5539
▁induced	-5540
▁accurate	-5541
amin	-5542
▁Suwon	-5543
▁earth	-5544
▁philos	-5545
ded	-5546
▁54	-5547
oser	-5548
▁hab	-5549
▁star	-5550
▁antenna	-5551
▁intended	-5552
▁describ	-5553
▁discharged	-5554
time	-5555
▁Women	-5556
▁obesity	-5557
▁opposite	-5558
▁61	-5559
vered	-5560
▁incon	-5561
▁button	-5562
▁particle	-5563
▁presentation	-5564
▁liability	-5565
▁notify	-5566
otherapy	-5567
▁brought	-5568
▁intake	-5569
▁regulatory	-5570
▁blue	-5571
▁Inter	-5572
athered	-5573
▁timing	-5574
▁decisions	-5575
▁Taiwan	-5576
▁arrange	-5577
▁rational	-5578
▁Mus	-5579
▁imaging	-5580
▁processed	-5581
▁Chungcheong	-5582
▁airport	-5583
adium	-5584
▁Despite	-5585
▁checked	-5586
▁walking	-5587
▁surgical	-5588
▁enforcement	-5589
▁Over	-5590
▁hear	-5591
▁served	-5592
▁stressed	-5593
amb	-5594
▁films	-5595
▁reson	-5596
▁stabil	-5597
▁silicon	-5598
▁waiting	-5599
▁gathered	-5600
▁purposes	-5601
▁announcement	-5602
▁swe	-5603
▁imposed	-5604
▁notification	-5605
▁myeon	-5606
▁beauty	-5607
▁constitutional	-5608
osph	-5609
odies	-5610
▁removal	-5611
▁connecting	-5612
ocol	-5613
▁catalyst	-5614
▁Specifically	-5615
iced	-5616
▁ICT	-5617
▁web	-5618
▁Project	-5619
▁suicide	-5620
▁watching	-5621
▁49	-5622
ostic	-5623
▁numer	-5624
▁views	-5625
▁exempl	-5626
▁holiday	-5627
▁infring	-5628
▁Alternatively	-5629
▁intr	-5630
▁Count	-5631
▁array	-5632
▁preferred	-5633
▁colon	-5634
▁willing	-5635
▁innovative	-5636
▁reflecting	-5637
▁smartphone	-5638
▁Chairperson	-5639
haust	-5640
▁configurations	-5641
▁fer	-5642
▁renal	-5643
▁expert	-5644
▁calculate	-5645
▁animal	-5646
▁decide	-5647
▁covered	-5648
▁Gun	-5649
▁perceived	-5650
▁subsidies	-5651
▁entertainment	-5652
▁Budd	-5653
▁isol	-5654
▁passing	-5655
▁winning	-5656
DP	-5657
cl	-5658
▁clothes	-5659
▁concerned	-5660
▁crow	-5661
▁math	-5662
▁menu	-5663
▁claimed	-5664
▁suspect	-5665
▁determines	-5666
▁46	-5667
▁Donald	-5668
▁Various	-5669
▁eligible	-5670
▁percentage	-5671
oral	-5672
▁72	-5673
▁suit	-5674
▁nearby	-5675
▁Medical	-5676
▁Western	-5677
▁justice	-5678
▁positions	-5679
door	-5680
▁Yeon	-5681
iences	-5682
▁tools	-5683
▁wages	-5684
▁talent	-5685
entially	-5686
▁Da	-5687
▁marg	-5688
▁Hee	-5689
▁sum	-5690
▁Market	-5691
▁exhaust	-5692
▁preventing	-5693
▁suc	-5694
▁born	-5695
▁nine	-5696
▁renew	-5697
▁agenda	-5698
▁diverse	-5699
enge	-5700
▁compare	-5701
▁grasp	-5702
▁cooperative	-5703
RS	-5704
▁ice	-5705
▁surpr	-5706
▁damaged	-5707
▁switching	-5708
▁container	-5709
▁discrimination	-5710
▁signs	-5711
▁limitation	-5712
li	-5713
▁Net	-5714
seong	-5715
▁estimation	-5716
▁mechanical	-5717
▁47	-5718
arian	-5719
▁taxi	-5720
aintiff	-5721
▁underw	-5722
▁ring	-5723
▁stra	-5724
▁Prosecut	-5725
▁flat	-5726
icated	-5727
iculture	-5728
▁facts	-5729
▁volat	-5730
▁horizontal	-5731
▁intermediate	-5732
icity	-5733
▁Plan	-5734
▁belie	-5735
▁donation	-5736
▁realized	-5737
▁Only	-5738
▁elev	-5739
▁Peninsula	-5740
▁ign	-5741
▁River	-5742
▁papers	-5743
▁Moreover	-5744
▁strongly	-5745
▁Offic	-5746
▁France	-5747
▁comparing	-5748
▁2007	-5749
▁spat	-5750
▁directions	-5751
▁electricity	-5752
▁manufactured	-5753
▁LG	-5754
▁radio	-5755
▁maintaining	-5756
▁concentrated	-5757
▁simultaneously	-5758
eed	-5759
what	-5760
▁fit	-5761
▁por	-5762
▁prison	-5763
▁specifically	-5764
RA	-5765
▁ID	-5766
▁straight	-5767
▁vulnerable	-5768
▁somewhat	-5769
▁sensitive	-5770
▁permission	-5771
▁Work	-5772
▁elim	-5773
▁yeon	-5774
▁route	-5775
▁elected	-5776
▁prol	-5777
omer	-5778
▁gives	-5779
inations	-5780
▁Criminal	-5781
▁electroly	-5782
irrh	-5783
apped	-5784
lated	-5785
anging	-5786
▁duration	-5787
▁finished	-5788
▁consecutive	-5789
▁restrictions	-5790
ferent	-5791
▁guard	-5792
▁inconven	-5793
▁extracted	-5794
▁everything	-5795
▁Bas	-5796
▁Company	-5797
▁elections	-5798
▁700	-5799
itage	-5800
▁estimate	-5801
▁Hu	-5802
▁perfect	-5803
▁channels	-5804
▁Sw	-5805
▁prize	-5806
▁sources	-5807
▁pictures	-5808
▁Str	-5809
▁spl	-5810
▁version	-5811
▁71	-5812
▁240	-5813
▁bab	-5814
▁nutr	-5815
▁deleg	-5816
ocracy	-5817
▁drawn	-5818
▁provid	-5819
▁thoughts	-5820
▁suffering	-5821
elong	-5822
faces	-5823
▁incor	-5824
▁looks	-5825
▁arrested	-5826
▁studying	-5827
▁activated	-5828
▁aims	-5829
▁absence	-5830
going	-5831
iating	-5832
itance	-5833
▁coach	-5834
▁curve	-5835
▁je	-5836
▁IP	-5837
▁dose	-5838
ipping	-5839
▁looked	-5840
▁strugg	-5841
▁meetings	-5842
▁positioned	-5843
▁stopped	-5844
▁cm	-5845
▁mutual	-5846
▁dollars	-5847
▁reinfor	-5848
▁succeed	-5849
▁converted	-5850
▁prosecutor	-5851
▁subjective	-5852
▁id	-5853
▁Her	-5854
▁seok	-5855
▁tree	-5856
▁managers	-5857
▁convenient	-5858
▁integration	-5859
▁AP	-5860
power	-5861
▁exists	-5862
▁hosted	-5863
▁fracture	-5864
▁naturally	-5865
▁inflammatory	-5866
val	-5867
▁vess	-5868
▁wish	-5869
▁wants	-5870
olf	-5871
rep	-5872
ype	-5873
▁generator	-5874
▁Commercial	-5875
▁column	-5876
▁deliber	-5877
▁largely	-5878
▁sensors	-5879
ke	-5880
ull	-5881
▁Del	-5882
unicip	-5883
▁remove	-5884
omatic	-5885
▁vacation	-5886
ymph	-5887
▁cirrh	-5888
▁verify	-5889
▁terror	-5890
▁concluded	-5891
▁contribution	-5892
▁Complex	-5893
rosis	-5894
▁realize	-5895
▁collabor	-5896
▁satisfied	-5897
where	-5898
▁forces	-5899
▁factory	-5900
mmet	-5901
▁pharm	-5902
▁Compared	-5903
▁abnormal	-5904
apor	-5905
▁hop	-5906
▁Mount	-5907
ameters	-5908
▁explaining	-5909
▁lip	-5910
▁1000	-5911
▁hypot	-5912
▁courses	-5913
▁package	-5914
▁KT	-5915
unch	-5916
▁Iran	-5917
▁upon	-5918
▁steel	-5919
▁tariff	-5920
▁Tourism	-5921
oom	-5922
▁Inst	-5923
▁trig	-5924
▁apprec	-5925
han	-5926
▁Hw	-5927
▁cos	-5928
▁seat	-5929
▁shaped	-5930
▁protest	-5931
▁confirmation	-5932
icular	-5933
▁transmitting	-5934
▁diet	-5935
▁stories	-5936
▁responses	-5937
▁outdoor	-5938
DA	-5939
▁honor	-5940
▁unable	-5941
▁attempted	-5942
▁falls	-5943
▁plaintiff	-5944
▁raw	-5945
▁seg	-5946
acing	-5947
▁Kwon	-5948
▁urgent	-5949
▁Daejeon	-5950
▁disclosed	-5951
▁sectional	-5952
▁IC	-5953
▁nom	-5954
▁arch	-5955
▁clar	-5956
▁resc	-5957
▁Pyong	-5958
sequently	-5959
▁eventually	-5960
▁doub	-5961
▁trends	-5962
▁warning	-5963
mp	-5964
▁lik	-5965
▁solar	-5966
▁contained	-5967
▁prescribe	-5968
▁calculating	-5969
ada	-5970
▁ok	-5971
▁bio	-5972
▁mir	-5973
▁desired	-5974
▁relates	-5975
▁argument	-5976
▁principal	-5977
▁repair	-5978
▁quantum	-5979
▁performs	-5980
▁Gl	-5981
rete	-5982
▁bid	-5983
▁fresh	-5984
▁incur	-5985
▁inserted	-5986
▁nationwide	-5987
▁Jud	-5988
▁Mal	-5989
▁aid	-5990
enger	-5991
▁adolesc	-5992
▁err	-5993
▁optim	-5994
dominal	-5995
▁observ	-5996
▁plants	-5997
▁grounds	-5998
▁parliament	-5999
▁interesting	-6000
▁capabilities	-6001
▁Bu	-6002
▁inqu	-6003
▁patent	-6004
▁recess	-6005
▁comment	-6006
▁dispute	-6007
AN	-6008
▁orders	-6009
▁workpl	-6010
ilitation	-6011
▁Wave	-6012
▁ing	-6013
▁wait	-6014
▁leaving	-6015
▁accurately	-6016
▁systematic	-6017
▁Hereinafter	-6018
▁trave	-6019
▁speaker	-6020
▁CD	-6021
▁lock	-6022
▁risks	-6023
▁suspension	-6024
raft	-6025
▁offices	-6026
▁join	-6027
asures	-6028
▁System	-6029
▁absorb	-6030
▁stipulates	-6031
ilding	-6032
▁rural	-6033
▁bright	-6034
▁farmers	-6035
▁supports	-6036
▁indicator	-6037
▁SMEs	-6038
▁Federation	-6039
cho	-6040
▁SK	-6041
▁hip	-6042
▁Exper	-6043
▁asking	-6044
ho	-6045
▁meant	-6046
▁formal	-6047
▁contest	-6048
▁coupling	-6049
aven	-6050
▁priv	-6051
▁entity	-6052
▁handle	-6053
▁indoor	-6054
▁collecting	-6055
inter	-6056
naire	-6057
▁Both	-6058
▁interval	-6059
▁sequence	-6060
▁commit	-6061
▁joined	-6062
cles	-6063
▁ends	-6064
▁unem	-6065
▁shoot	-6066
▁debate	-6067
▁option	-6068
▁conv	-6069
coming	-6070
▁adopted	-6071
▁ended	-6072
▁usage	-6073
▁recommendation	-6074
▁facing	-6075
erce	-6076
board	-6077
active	-6078
▁suffered	-6079
▁recruitment	-6080
▁mol	-6081
▁sustain	-6082
asure	-6083
▁fixing	-6084
▁viewers	-6085
▁executives	-6086
att	-6087
ensus	-6088
amic	-6089
thern	-6090
▁Vill	-6091
▁accompanied	-6092
▁competitive	-6093
celer	-6094
rench	-6095
▁anyone	-6096
▁depend	-6097
▁animals	-6098
▁resolve	-6099
▁Mod	-6100
▁Life	-6101
▁breat	-6102
▁domain	-6103
▁infect	-6104
achment	-6105
ray	-6106
▁Port	-6107
okes	-6108
▁Chun	-6109
▁Like	-6110
▁mand	-6111
ashion	-6112
▁deputy	-6113
▁Att	-6114
▁flo	-6115
▁reprodu	-6116
▁expertise	-6117
▁partially	-6118
▁radiation	-6119
▁killed	-6120
▁barrier	-6121
▁operators	-6122
▁represented	-6123
iled	-6124
▁pump	-6125
▁clust	-6126
▁equity	-6127
mic	-6128
▁190	-6129
yroid	-6130
▁Myung	-6131
▁county	-6132
▁recurrence	-6133
▁jun	-6134
▁groove	-6135
▁accused	-6136
▁accuracy	-6137
▁preferable	-6138
▁protective	-6139
▁questionnaire	-6140
▁122	-6141
▁Don	-6142
▁Two	-6143
▁fab	-6144
▁sik	-6145
▁Every	-6146
▁wrote	-6147
▁equival	-6148
▁fishing	-6149
▁learner	-6150
▁controls	-6151
chi	-6152
ico	-6153
▁sac	-6154
iling	-6155
obile	-6156
lowing	-6157
▁cancell	-6158
▁necessity	-6159
▁dat	-6160
▁unre	-6161
itudes	-6162
▁kinds	-6163
uxiliary	-6164
▁mountain	-6165
ley	-6166
ups	-6167
emia	-6168
▁library	-6169
yc	-6170
▁DC	-6171
ogue	-6172
▁800	-6173
▁zero	-6174
▁speak	-6175
▁theoretical	-6176
hode	-6177
▁optimal	-6178
▁indicates	-6179
▁recording	-6180
▁Employment	-6181
▁kept	-6182
▁bought	-6183
▁stipulated	-6184
▁Woo	-6185
▁alloc	-6186
▁neglig	-6187
▁passage	-6188
▁emerging	-6189
habilitation	-6190
▁Jun	-6191
▁dipl	-6192
▁hydro	-6193
entions	-6194
▁63	-6195
hetic	-6196
▁charged	-6197
▁missing	-6198
▁spatial	-6199
▁cleaning	-6200
▁securing	-6201
▁efficiently	-6202
mark	-6203
▁Hae	-6204
▁sectors	-6205
▁wearing	-6206
▁auxiliary	-6207
▁vibration	-6208
▁memor	-6209
▁Hot	-6210
▁driven	-6211
lementary	-6212
▁Exp	-6213
▁prox	-6214
▁doctor	-6215
▁blocking	-6216
▁feelings	-6217
▁categories	-6218
lymp	-6219
▁oral	-6220
▁tens	-6221
▁immig	-6222
▁wavel	-6223
▁specim	-6224
mentia	-6225
▁crypt	-6226
▁thorough	-6227
phones	-6228
▁Olymp	-6229
▁Small	-6230
▁exemplary	-6231
▁expensive	-6232
▁64	-6233
▁tu	-6234
▁push	-6235
▁French	-6236
▁representatives	-6237
▁CP	-6238
▁Pal	-6239
▁meal	-6240
▁resid	-6241
▁Airport	-6242
▁hepatic	-6243
▁Pyongyang	-6244
▁wavelength	-6245
▁differently	-6246
▁replacement	-6247
omb	-6248
eces	-6249
▁owned	-6250
▁pixels	-6251
▁Particip	-6252
▁corresponds	-6253
▁ble	-6254
paper	-6255
▁Start	-6256
▁multip	-6257
▁forecast	-6258
▁reflects	-6259
▁happiness	-6260
▁hoon	-6261
iciary	-6262
▁sn	-6263
cul	-6264
ureau	-6265
ivic	-6266
▁arg	-6267
house	-6268
▁wiring	-6269
▁dynamic	-6270
▁penalty	-6271
▁vocational	-6272
▁Sur	-6273
stance	-6274
ynasty	-6275
▁Ulsan	-6276
▁named	-6277
▁foreigners	-6278
▁parameters	-6279
▁summarized	-6280
ze	-6281
rene	-6282
ading	-6283
▁lymph	-6284
▁else	-6285
unicipal	-6286
▁executed	-6287
▁novel	-6288
▁solvent	-6289
▁illustrates	-6290
▁2020	-6291
cinoma	-6292
▁license	-6293
▁pi	-6294
▁Unt	-6295
▁pair	-6296
▁ranked	-6297
ilt	-6298
▁ingred	-6299
▁mission	-6300
▁politics	-6301
▁trials	-6302
▁printed	-6303
▁contrary	-6304
TS	-6305
▁remote	-6306
▁cathode	-6307
▁younger	-6308
▁northern	-6309
▁refrigerant	-6310
▁pm	-6311
▁singer	-6312
▁preferably	-6313
▁Move	-6314
▁Until	-6315
▁surve	-6316
▁Div	-6317
▁icon	-6318
▁belief	-6319
▁exchanges	-6320
▁observation	-6321
umin	-6322
asis	-6323
▁Pan	-6324
▁fluct	-6325
▁mouth	-6326
▁mostly	-6327
▁affil	-6328
▁offer	-6329
▁intens	-6330
mia	-6331
▁197	-6332
▁proof	-6333
▁Deputy	-6334
▁officers	-6335
▁131	-6336
▁Mid	-6337
itors	-6338
▁League	-6339
▁lawmakers	-6340
▁SP	-6341
▁Yu	-6342
ishes	-6343
▁Cheon	-6344
▁lived	-6345
▁pulse	-6346
▁stream	-6347
▁formula	-6348
▁420	-6349
▁rich	-6350
▁agents	-6351
▁indicated	-6352
emor	-6353
▁SNS	-6354
▁dividing	-6355
▁caf	-6356
▁typical	-6357
▁semester	-6358
▁manufacturer	-6359
▁Jo	-6360
▁dry	-6361
▁reportedly	-6362
▁introducing	-6363
▁57	-6364
▁vote	-6365
issions	-6366
▁meters	-6367
▁modified	-6368
▁73	-6369
isted	-6370
▁Face	-6371
▁pret	-6372
▁Before	-6373
▁frequent	-6374
▁creativity	-6375
▁revolution	-6376
▁mix	-6377
▁rose	-6378
▁replaced	-6379
▁destination	-6380
▁restaurants	-6381
▁accumulated	-6382
ogene	-6383
▁Indones	-6384
▁approximately	-6385
▁superintendent	-6386
▁Prot	-6387
illing	-6388
▁seemed	-6389
▁complaints	-6390
the	-6391
▁330	-6392
▁Tod	-6393
▁listen	-6394
▁ranking	-6395
▁commonly	-6396
▁abdominal	-6397
itime	-6398
▁anal	-6399
▁merger	-6400
IC	-6401
iplinary	-6402
▁Village	-6403
▁respondents	-6404
▁oxid	-6405
▁weap	-6406
▁movies	-6407
▁cooperate	-6408
TA	-6409
agon	-6410
▁Third	-6411
▁holes	-6412
▁shaft	-6413
▁RF	-6414
▁fish	-6415
▁coast	-6416
▁maxim	-6417
▁Rights	-6418
▁Fol	-6419
▁din	-6420
▁carrier	-6421
▁assigned	-6422
▁checking	-6423
▁resolved	-6424
▁activation	-6425
▁anc	-6426
elling	-6427
ilateral	-6428
▁superior	-6429
▁convergence	-6430
▁HC	-6431
apse	-6432
▁remarks	-6433
▁85	-6434
▁trees	-6435
▁utilization	-6436
▁56	-6437
▁About	-6438
▁seats	-6439
rically	-6440
▁perman	-6441
▁influenced	-6442
ulf	-6443
▁58	-6444
▁calls	-6445
▁desire	-6446
▁married	-6447
▁pollution	-6448
▁motivation	-6449
▁Ok	-6450
▁Any	-6451
▁resign	-6452
▁receipt	-6453
▁trustee	-6454
▁upl	-6455
ifies	-6456
▁Rather	-6457
▁lith	-6458
▁roads	-6459
▁dramas	-6460
▁reservation	-6461
TE	-6462
▁Soo	-6463
▁cloud	-6464
osystem	-6465
▁baseline	-6466
▁ped	-6467
▁religious	-6468
▁volunteer	-6469
▁anode	-6470
▁acceler	-6471
▁remember	-6472
▁adjusting	-6473
▁attending	-6474
ij	-6475
ctors	-6476
▁dark	-6477
▁root	-6478
▁progn	-6479
▁Movement	-6480
▁classroom	-6481
▁tae	-6482
▁British	-6483
▁description	-6484
▁consciousness	-6485
ials	-6486
▁errors	-6487
▁origin	-6488
▁cooking	-6489
▁automatically	-6490
▁CR	-6491
▁waves	-6492
opsy	-6493
▁guest	-6494
▁advert	-6495
▁hypert	-6496
▁philosop	-6497
▁conservative	-6498
asters	-6499
▁moist	-6500
▁familiar	-6501
▁Rel	-6502
ampions	-6503
▁hye	-6504
▁cast	-6505
▁seal	-6506
▁snow	-6507
▁calling	-6508
▁Representative	-6509
▁Policy	-6510
▁freely	-6511
▁attracting	-6512
▁dispat	-6513
▁demands	-6514
▁surfaces	-6515
▁foods	-6516
▁figures	-6517
▁mold	-6518
▁metabolic	-6519
pected	-6520
▁alleg	-6521
▁BB	-6522
▁gif	-6523
▁busy	-6524
▁Fam	-6525
▁town	-6526
▁Today	-6527
▁broke	-6528
▁earnest	-6529
▁obligations	-6530
▁Constitutional	-6531
▁lov	-6532
▁email	-6533
▁worried	-6534
▁consensus	-6535
sh	-6536
▁scr	-6537
avity	-6538
▁departments	-6539
▁Constitution	-6540
▁spent	-6541
▁acknow	-6542
▁insert	-6543
aem	-6544
▁chain	-6545
▁unless	-6546
▁quantity	-6547
▁cirrhosis	-6548
▁colors	-6549
▁destro	-6550
▁dementia	-6551
▁sentenced	-6552
▁proportional	-6553
pass	-6554
▁DNA	-6555
omfort	-6556
▁names	-6557
▁Services	-6558
▁parameter	-6559
▁affiliated	-6560
▁successfully	-6561
▁Oper	-6562
▁moves	-6563
▁spaces	-6564
▁vector	-6565
▁59	-6566
▁Byung	-6567
▁enrol	-6568
▁helps	-6569
▁interl	-6570
▁Cap	-6571
▁dum	-6572
▁fed	-6573
▁AC	-6574
▁Fire	-6575
▁Mong	-6576
itively	-6577
▁solved	-6578
▁targets	-6579
▁capacitor	-6580
▁eco	-6581
▁fear	-6582
visory	-6583
▁infringe	-6584
▁conversation	-6585
▁kg	-6586
▁sets	-6587
▁differ	-6588
▁voluntary	-6589
▁jung	-6590
▁County	-6591
▁fabric	-6592
▁median	-6593
▁incurred	-6594
▁generates	-6595
▁rect	-6596
▁chart	-6597
▁helpful	-6598
▁datab	-6599
▁noted	-6600
▁venture	-6601
▁subscrib	-6602
12	-6603
▁Mex	-6604
▁shut	-6605
▁Sejong	-6606
▁farming	-6607
▁involve	-6608
▁indicate	-6609
▁Geum	-6610
▁arrived	-6611
▁wood	-6612
▁Enter	-6613
▁phosph	-6614
▁soccer	-6615
▁mag	-6616
▁pure	-6617
▁subt	-6618
▁Division	-6619
▁neut	-6620
▁fashion	-6621
▁recover	-6622
▁minimize	-6623
ifications	-6624
▁repeatedly	-6625
▁electrically	-6626
▁carrying	-6627
▁pregnancy	-6628
RI	-6629
ido	-6630
▁RA	-6631
▁Rules	-6632
▁apartments	-6633
▁independently	-6634
▁burn	-6635
▁computing	-6636
▁electrolyte	-6637
heast	-6638
▁rooms	-6639
▁spend	-6640
▁stake	-6641
▁island	-6642
▁refuge	-6643
ferential	-6644
▁Es	-6645
▁mur	-6646
▁ecosystem	-6647
▁hepatitis	-6648
▁adolescents	-6649
▁conflicts	-6650
hyth	-6651
▁tor	-6652
▁neck	-6653
▁ticket	-6654
▁attempts	-6655
▁deduction	-6656
▁tradition	-6657
▁contributed	-6658
▁rehabilitation	-6659
idden	-6660
▁2006	-6661
▁Code	-6662
▁America	-6663
▁suspended	-6664
▁TB	-6665
▁civic	-6666
▁presents	-6667
▁residence	-6668
ecess	-6669
itect	-6670
▁ster	-6671
▁easier	-6672
▁videos	-6673
▁happened	-6674
▁representing	-6675
▁Peace	-6676
▁CH	-6677
inant	-6678
ivest	-6679
▁iron	-6680
▁shot	-6681
▁repay	-6682
▁myself	-6683
▁receiver	-6684
▁simpl	-6685
▁challenge	-6686
irae	-6687
▁virus	-6688
▁corruption	-6689
▁mL	-6690
▁border	-6691
▁managing	-6692
▁complaint	-6693
▁framework	-6694
▁transmits	-6695
▁governance	-6696
IN	-6697
ius	-6698
word	-6699
▁emp	-6700
▁alleged	-6701
▁directed	-6702
▁lawmaker	-6703
eter	-6704
neum	-6705
oded	-6706
▁Inc	-6707
▁wit	-6708
▁Academ	-6709
▁dispers	-6710
▁Facebook	-6711
▁allowing	-6712
▁compress	-6713
▁enterprise	-6714
ued	-6715
uum	-6716
▁PE	-6717
osen	-6718
after	-6719
▁dele	-6720
▁exclusive	-6721
▁inevitable	-6722
eum	-6723
uous	-6724
▁flag	-6725
▁gets	-6726
▁yong	-6727
▁Teacher	-6728
▁matching	-6729
▁hypothesis	-6730
▁Tur	-6731
▁admin	-6732
angible	-6733
ivestock	-6734
▁substances	-6735
▁Ste	-6736
agers	-6737
▁Seok	-6738
icians	-6739
▁blind	-6740
▁Church	-6741
▁wonder	-6742
▁implementing	-6743
▁losses	-6744
▁belonging	-6745
▁certification	-6746
ino	-6747
lyce	-6748
inite	-6749
▁Pop	-6750
▁reserv	-6751
icken	-6752
▁strengthened	-6753
▁99	-6754
▁fulf	-6755
▁encry	-6756
▁however	-6757
▁Arts	-6758
▁thereby	-6759
▁carefully	-6760
▁equivalent	-6761
▁UK	-6762
▁Kak	-6763
▁Bang	-6764
▁chest	-6765
▁metast	-6766
▁monetary	-6767
▁attitudes	-6768
▁interviews	-6769
SC	-6770
oscopic	-6771
▁consulting	-6772
▁constructed	-6773
urse	-6774
▁Society	-6775
▁issuance	-6776
▁payments	-6777
▁allocation	-6778
▁Bra	-6779
ologic	-6780
▁supervision	-6781
nes	-6782
▁Est	-6783
▁West	-6784
▁obst	-6785
▁inquir	-6786
▁admitted	-6787
▁equipped	-6788
▁68	-6789
xture	-6790
▁shift	-6791
▁profile	-6792
▁continuing	-6793
▁progression	-6794
ude	-6795
ental	-6796
▁Never	-6797
▁respir	-6798
▁vacuum	-6799
▁lithium	-6800
▁targeting	-6801
▁considerable	-6802
load	-6803
▁Roh	-6804
▁2005	-6805
▁Equation	-6806
▁Organization	-6807
lines	-6808
▁baby	-6809
▁applies	-6810
▁exemption	-6811
▁PM	-6812
asound	-6813
▁portions	-6814
▁responded	-6815
▁quantitative	-6816
▁inequ	-6817
▁combust	-6818
▁underwent	-6819
▁discovered	-6820
▁cancellation	-6821
acer	-6822
▁runs	-6823
▁cance	-6824
▁client	-6825
▁journal	-6826
▁assessed	-6827
▁incorpor	-6828
▁Australia	-6829
▁requirement	-6830
▁Af	-6831
ocur	-6832
part	-6833
▁careful	-6834
▁gesture	-6835
PD	-6836
▁artist	-6837
▁spending	-6838
▁scientific	-6839
ellow	-6840
▁Line	-6841
▁vacc	-6842
sequent	-6843
▁pieces	-6844
▁relief	-6845
▁photographing	-6846
▁PA	-6847
▁chol	-6848
▁bacter	-6849
▁scored	-6850
▁protocol	-6851
▁disability	-6852
▁subway	-6853
▁verified	-6854
▁nm	-6855
grad	-6856
▁reb	-6857
▁Dynasty	-6858
ommun	-6859
undred	-6860
▁exempt	-6861
▁Students	-6862
hyl	-6863
▁Gim	-6864
▁kil	-6865
▁perp	-6866
▁seiz	-6867
▁mayor	-6868
▁decomp	-6869
▁82	-6870
▁bow	-6871
▁Stat	-6872
▁Youth	-6873
▁pushed	-6874
▁delic	-6875
▁firms	-6876
reprene	-6877
▁categor	-6878
▁talking	-6879
▁Mountain	-6880
▁stations	-6881
▁committed	-6882
▁ath	-6883
▁diagnostic	-6884
▁cook	-6885
▁feas	-6886
▁liber	-6887
▁producing	-6888
▁67	-6889
▁dow	-6890
stream	-6891
theless	-6892
▁salary	-6893
▁collective	-6894
lor	-6895
▁mig	-6896
▁Russian	-6897
▁lowered	-6898
▁comments	-6899
▁steadily	-6900
▁AD	-6901
▁pin	-6902
▁merch	-6903
▁closing	-6904
▁bankrupt	-6905
▁negligence	-6906
▁SE	-6907
▁boost	-6908
▁divers	-6909
▁powder	-6910
▁investments	-6911
aceut	-6912
▁cart	-6913
▁crystal	-6914
▁utilize	-6915
▁literacy	-6916
▁Construction	-6917
▁tele	-6918
▁Hotel	-6919
▁substance	-6920
▁ray	-6921
▁concrete	-6922
▁lighting	-6923
▁golf	-6924
▁practices	-6925
▁constitution	-6926
▁rig	-6927
itory	-6928
▁starts	-6929
▁adverse	-6930
▁lifelong	-6931
▁demonstrated	-6932
ID	-6933
osan	-6934
▁empt	-6935
▁Heung	-6936
▁tight	-6937
▁deviation	-6938
▁expressions	-6939
ship	-6940
▁neu	-6941
▁Muse	-6942
▁auto	-6943
▁Games	-6944
▁India	-6945
▁White	-6946
▁pilot	-6947
▁couple	-6948
▁helped	-6949
atization	-6950
▁portable	-6951
▁Revolution	-6952
▁democratic	-6953
▁ultrasound	-6954
ari	-6955
▁Mi	-6956
▁downt	-6957
▁blocks	-6958
▁sending	-6959
▁involving	-6960
▁solutions	-6961
▁guaranteed	-6962
▁151	-6963
▁flood	-6964
▁breast	-6965
▁engineering	-6966
▁oste	-6967
▁Museum	-6968
▁invested	-6969
▁Convention	-6970
▁196	-6971
▁Middle	-6972
▁regime	-6973
▁baseball	-6974
equ	-6975
▁CN	-6976
▁sharp	-6977
▁harass	-6978
lecommun	-6979
aren	-6980
▁coal	-6981
▁duct	-6982
▁weekend	-6983
▁conductivity	-6984
arr	-6985
▁subc	-6986
ousand	-6987
▁spaced	-6988
▁bleeding	-6989
▁instrument	-6990
inity	-6991
▁venue	-6992
▁regret	-6993
▁sister	-6994
▁weaken	-6995
▁boundary	-6996
▁displays	-6997
▁Securities	-6998
eth	-6999
hae	-7000
▁Citiz	-7001
▁latest	-7002
▁database	-7003
▁reporters	-7004
▁sentiment	-7005
abin	-7006
▁GDP	-7007
▁Sea	-7008
▁dro	-7009
aneous	-7010
▁pneum	-7011
▁begins	-7012
▁seeing	-7013
▁jointly	-7014
▁criterion	-7015
▁lose	-7016
▁roles	-7017
▁facilit	-7018
▁insulation	-7019
rants	-7020
mented	-7021
retion	-7022
▁worry	-7023
▁museum	-7024
▁printing	-7025
▁childcare	-7026
▁inflammation	-7027
▁510	-7028
▁News	-7029
▁cancel	-7030
▁dinner	-7031
▁seeking	-7032
▁assistance	-7033
▁substantially	-7034
▁HBV	-7035
▁1990	-7036
▁wheel	-7037
▁decent	-7038
▁lectures	-7039
▁inequality	-7040
▁arrangement	-7041
▁Nevertheless	-7042
ster	-7043
▁Step	-7044
▁format	-7045
▁engaged	-7046
▁putting	-7047
▁Children	-7048
▁counties	-7049
▁suddenly	-7050
▁adaptation	-7051
▁customized	-7052
▁subsidiary	-7053
ema	-7054
▁Buddh	-7055
▁arise	-7056
▁intensive	-7057
▁qualitative	-7058
▁piece	-7059
OC	-7060
▁Pa	-7061
▁cyl	-7062
andon	-7063
ovascular	-7064
▁captured	-7065
oyang	-7066
▁poss	-7067
▁viewing	-7068
▁remained	-7069
▁bias	-7070
ulator	-7071
▁lunch	-7072
▁Koreas	-7073
▁testing	-7074
▁gene	-7075
orders	-7076
▁distort	-7077
▁hundred	-7078
cers	-7079
▁Data	-7080
iaries	-7081
▁Motor	-7082
▁prove	-7083
▁Canada	-7084
▁constantly	-7085
▁declaration	-7086
▁ups	-7087
▁Those	-7088
▁inevit	-7089
▁kidney	-7090
aceutical	-7091
▁Agricultural	-7092
GF	-7093
▁preset	-7094
▁seizure	-7095
▁democracy	-7096
▁Prosecutors	-7097
yeo	-7098
▁VR	-7099
▁homes	-7100
▁induce	-7101
▁cutting	-7102
▁accounted	-7103
▁transplantation	-7104
mar	-7105
▁nice	-7106
▁neglect	-7107
▁circular	-7108
▁dangerous	-7109
ky	-7110
▁Energy	-7111
▁detecting	-7112
aved	-7113
▁Did	-7114
▁affili	-7115
▁condens	-7116
▁DA	-7117
arden	-7118
▁dummy	-7119
▁enable	-7120
▁handed	-7121
▁visible	-7122
▁cryptocur	-7123
▁DP	-7124
iang	-7125
▁ben	-7126
▁prime	-7127
▁explore	-7128
▁dialogue	-7129
▁IL	-7130
ales	-7131
▁sacr	-7132
▁constr	-7133
▁vision	-7134
▁reverse	-7135
▁disposal	-7136
▁exchanger	-7137
▁Ho	-7138
▁mole	-7139
isters	-7140
▁teach	-7141
▁immune	-7142
▁mounting	-7143
▁expressing	-7144
icted	-7145
organic	-7146
▁unknow	-7147
▁answered	-7148
▁requests	-7149
▁purchased	-7150
▁ca	-7151
ogle	-7152
uits	-7153
▁king	-7154
▁counterme	-7155
▁spreading	-7156
▁66	-7157
▁81	-7158
▁bron	-7159
▁mart	-7160
▁sampl	-7161
▁convey	-7162
▁faster	-7163
▁wastes	-7164
▁mixture	-7165
▁operates	-7166
chron	-7167
▁dealing	-7168
▁mothers	-7169
▁Investment	-7170
▁BBB	-7171
▁string	-7172
▁expects	-7173
▁rejected	-7174
▁pancreatic	-7175
▁UN	-7176
▁vo	-7177
monary	-7178
▁Could	-7179
▁spons	-7180
▁advice	-7181
▁overlap	-7182
▁incentives	-7183
▁designation	-7184
▁closer	-7185
▁mirror	-7186
▁obtaining	-7187
▁05	-7188
ritis	-7189
▁Google	-7190
▁automatic	-7191
▁inorganic	-7192
▁livestock	-7193
ato	-7194
bre	-7195
uri	-7196
erved	-7197
▁uncon	-7198
▁Mongol	-7199
▁lawyer	-7200
▁manpower	-7201
▁listening	-7202
▁permanent	-7203
▁answers	-7204
▁confident	-7205
▁districts	-7206
▁describing	-7207
▁inheritance	-7208
▁IV	-7209
▁SS	-7210
roscop	-7211
▁encourage	-7212
▁stro	-7213
▁teen	-7214
▁Power	-7215
▁veget	-7216
▁biopsy	-7217
▁advertising	-7218
▁od	-7219
▁ace	-7220
ivals	-7221
▁epis	-7222
estinal	-7223
▁foster	-7224
▁statements	-7225
uff	-7226
▁Fil	-7227
▁ast	-7228
▁quot	-7229
▁Kakao	-7230
▁immers	-7231
▁strike	-7232
▁victory	-7233
▁biometric	-7234
▁Bar	-7235
engers	-7236
▁broken	-7237
▁volatility	-7238
mun	-7239
▁shop	-7240
▁chosen	-7241
▁climate	-7242
▁depends	-7243
▁Christian	-7244
▁infringement	-7245
ps	-7246
atin	-7247
itter	-7248
oxide	-7249
▁thyroid	-7250
▁witness	-7251
▁explains	-7252
▁removing	-7253
▁gains	-7254
▁analog	-7255
▁debtor	-7256
▁conceptual	-7257
▁inevitably	-7258
▁Car	-7259
asant	-7260
▁Care	-7261
▁thousand	-7262
▁mandatory	-7263
▁referring	-7264
▁acceptance	-7265
▁evaluating	-7266
▁preference	-7267
▁lots	-7268
▁mill	-7269
▁capture	-7270
▁convert	-7271
▁focuses	-7272
▁throw	-7273
ignment	-7274
▁retros	-7275
isheries	-7276
▁Economy	-7277
▁sharply	-7278
▁fibrosis	-7279
▁shipping	-7280
▁smartphones	-7281
▁ME	-7282
order	-7283
▁incl	-7284
▁save	-7285
▁passes	-7286
▁bending	-7287
▁Examples	-7288
▁organize	-7289
▁resection	-7290
▁treatments	-7291
▁fo	-7292
hoon	-7293
lets	-7294
▁Sum	-7295
▁mall	-7296
▁lease	-7297
▁marked	-7298
▁soldiers	-7299
▁passenger	-7300
▁reactions	-7301
▁AR	-7302
ades	-7303
▁uns	-7304
▁Bare	-7305
inates	-7306
▁universal	-7307
zil	-7308
▁eg	-7309
▁114	-7310
▁drunk	-7311
▁rescue	-7312
▁networks	-7313
▁suspicion	-7314
asury	-7315
riers	-7316
▁fier	-7317
▁ships	-7318
▁handling	-7319
▁advantages	-7320
ket	-7321
▁applicants	-7322
▁coordinate	-7323
▁Ant	-7324
▁moisture	-7325
▁subsequent	-7326
aze	-7327
▁ran	-7328
▁Geun	-7329
▁Using	-7330
▁sixth	-7331
▁entreprene	-7332
▁philosophy	-7333
▁92	-7334
izer	-7335
▁Class	-7336
▁beings	-7337
▁happen	-7338
▁holder	-7339
▁injured	-7340
▁Patients	-7341
▁exceeded	-7342
▁parliamentary	-7343
▁turning	-7344
▁deadline	-7345
▁equality	-7346
▁copper	-7347
▁abandon	-7348
▁protrusion	-7349
ef	-7350
▁grown	-7351
▁inver	-7352
▁stone	-7353
▁Goyang	-7354
▁bonding	-7355
▁attracted	-7356
▁84	-7357
▁350	-7358
▁tro	-7359
▁Three	-7360
▁rhyth	-7361
▁Control	-7362
▁regener	-7363
▁carcinoma	-7364
▁newspaper	-7365
▁83	-7366
onia	-7367
▁Family	-7368
▁momentum	-7369
▁outstanding	-7370
▁differential	-7371
FC	-7372
▁Red	-7373
▁Satur	-7374
▁towards	-7375
▁taxpayer	-7376
ien	-7377
▁ende	-7378
▁thank	-7379
▁Former	-7380
▁behaviors	-7381
pat	-7382
seo	-7383
unm	-7384
▁74	-7385
utic	-7386
▁customs	-7387
▁notified	-7388
▁comparative	-7389
hwa	-7390
▁EC	-7391
▁tun	-7392
▁Turk	-7393
▁enth	-7394
▁peer	-7395
▁Theater	-7396
▁returns	-7397
▁reporter	-7398
▁specimen	-7399
▁commitment	-7400
LT	-7401
ache	-7402
igen	-7403
iner	-7404
▁Addition	-7405
▁interior	-7406
▁graduates	-7407
▁inflation	-7408
▁protected	-7409
▁adsorption	-7410
▁Hak	-7411
▁Hol	-7412
▁Shim	-7413
▁Saturday	-7414
▁pregnant	-7415
▁ultrason	-7416
▁professors	-7417
▁disadvantage	-7418
▁briefing	-7419
▁movements	-7420
▁restricted	-7421
▁orientation	-7422
gy	-7423
▁91	-7424
▁tox	-7425
allyu	-7426
▁Soon	-7427
▁impr	-7428
▁Grand	-7429
▁tumors	-7430
▁ingredients	-7431
▁transformation	-7432
oyal	-7433
▁132	-7434
▁Road	-7435
▁unknown	-7436
▁respiratory	-7437
▁Headquarters	-7438
▁disciplinary	-7439
ny	-7440
▁NAF	-7441
▁Your	-7442
▁shif	-7443
▁nurses	-7444
▁recyc	-7445
▁Brazil	-7446
▁positively	-7447
▁ease	-7448
▁trou	-7449
▁legit	-7450
▁etching	-7451
▁architect	-7452
▁favorable	-7453
▁strategic	-7454
▁experiments	-7455
▁unemployment	-7456
fl	-7457
▁CC	-7458
▁fever	-7459
▁stars	-7460
▁visits	-7461
▁molecular	-7462
▁sufficiently	-7463
▁subparagraphs	-7464
▁eun	-7465
eared	-7466
▁challeng	-7467
▁manipulation	-7468
ayers	-7469
▁bills	-7470
▁Malays	-7471
▁explos	-7472
▁serves	-7473
▁subord	-7474
▁Ur	-7475
▁sad	-7476
▁inval	-7477
▁stick	-7478
▁stronger	-7479
acle	-7480
arity	-7481
▁Team	-7482
▁outlet	-7483
▁disappear	-7484
▁additionally	-7485
chang	-7486
▁airc	-7487
▁Stand	-7488
ulative	-7489
▁heated	-7490
▁hidden	-7491
▁latter	-7492
▁allegations	-7493
▁technological	-7494
oder	-7495
▁Joon	-7496
oscopy	-7497
▁toler	-7498
▁define	-7499
▁malign	-7500
cks	-7501
▁Once	-7502
▁thanks	-7503
▁investigations	-7504
▁Mult	-7505
▁chat	-7506
▁flows	-7507
▁franch	-7508
▁powerful	-7509
▁cardiovascular	-7510
▁San	-7511
▁cas	-7512
▁dop	-7513
▁dealt	-7514
▁seconds	-7515
▁BMI	-7516
itual	-7517
▁empty	-7518
▁relax	-7519
▁Protection	-7520
▁violations	-7521
usi	-7522
▁cyt	-7523
▁distinct	-7524
▁internet	-7525
▁uncertainty	-7526
▁administered	-7527
▁76	-7528
▁rib	-7529
▁ske	-7530
nings	-7531
▁YouT	-7532
▁nearly	-7533
▁signing	-7534
▁dielectric	-7535
▁competencies	-7536
▁78	-7537
▁MC	-7538
▁mit	-7539
using	-7540
▁Real	-7541
▁dece	-7542
▁Innov	-7543
▁believes	-7544
▁workplace	-7545
isor	-7546
▁dil	-7547
▁dual	-7548
▁sand	-7549
▁decreasing	-7550
▁telecommun	-7551
▁hypertension	-7552
▁nav	-7553
apsed	-7554
▁symp	-7555
ilk	-7556
▁BL	-7557
ivar	-7558
stic	-7559
water	-7560
▁heter	-7561
▁bridge	-7562
▁chicken	-7563
▁kindergartens	-7564
ECD	-7565
▁label	-7566
▁granted	-7567
▁subsidy	-7568
▁canceled	-7569
▁municipal	-7570
▁du	-7571
▁OECD	-7572
▁bear	-7573
▁beat	-7574
▁adequ	-7575
▁intra	-7576
▁varies	-7577
▁compuls	-7578
▁options	-7579
▁endeavor	-7580
▁diversity	-7581
min	-7582
▁okay	-7583
▁cards	-7584
▁theat	-7585
▁infants	-7586
▁tension	-7587
▁Imp	-7588
▁pig	-7589
▁shr	-7590
acket	-7591
▁fierce	-7592
▁destroy	-7593
▁segment	-7594
▁messages	-7595
▁synchron	-7596
▁financing	-7597
▁bankruptcy	-7598
▁kindergarten	-7599
eor	-7600
▁sear	-7601
▁Frame	-7602
▁earned	-7603
▁declared	-7604
▁discover	-7605
▁favorite	-7606
▁fest	-7607
▁Afric	-7608
▁genetic	-7609
▁reflective	-7610
▁123	-7611
▁unex	-7612
change	-7613
▁meantime	-7614
▁affecting	-7615
▁absorption	-7616
▁reorganization	-7617
▁115	-7618
▁Post	-7619
▁topics	-7620
▁enacted	-7621
▁aircraft	-7622
▁antibody	-7623
▁highlight	-7624
▁precedent	-7625
▁traveling	-7626
▁simulation	-7627
▁hospitalization	-7628
aemun	-7629
▁pool	-7630
▁sulf	-7631
regular	-7632
▁defects	-7633
▁passive	-7634
▁communities	-7635
▁meat	-7636
▁worse	-7637
▁decentral	-7638
▁purchasing	-7639
ES	-7640
flow	-7641
▁enthusi	-7642
▁presenting	-7643
▁refrigerator	-7644
AM	-7645
LC	-7646
olid	-7647
▁Tem	-7648
under	-7649
▁landsc	-7650
▁Strateg	-7651
▁emotion	-7652
▁reviews	-7653
▁residual	-7654
▁southern	-7655
▁disappeared	-7656
wr	-7657
▁Board	-7658
▁parad	-7659
▁escape	-7660
▁enjoyed	-7661
▁unclear	-7662
▁emphasizes	-7663
iot	-7664
▁104	-7665
▁LED	-7666
▁lux	-7667
▁meta	-7668
▁Green	-7669
▁ruled	-7670
▁Fourth	-7671
▁gained	-7672
▁portal	-7673
▁interference	-7674
▁Fl	-7675
▁IS	-7676
▁Ko	-7677
▁430	-7678
▁Leg	-7679
▁pal	-7680
uminum	-7681
▁ethics	-7682
▁earthqu	-7683
▁creditor	-7684
▁examining	-7685
▁compliance	-7686
aret	-7687
▁Cong	-7688
▁murder	-7689
▁disputes	-7690
▁supplies	-7691
▁achievements	-7692
▁Joo	-7693
▁und	-7694
isting	-7695
▁draft	-7696
▁Similar	-7697
▁detector	-7698
▁speaking	-7699
▁combustion	-7700
▁cryptocurrency	-7701
▁69	-7702
▁tired	-7703
hemical	-7704
▁Friday	-7705
▁circle	-7706
▁comply	-7707
▁suffer	-7708
▁Example	-7709
▁acknowled	-7710
▁withdrawal	-7711
▁comfortable	-7712
▁Tok	-7713
▁gear	-7714
▁announce	-7715
▁officially	-7716
eness	-7717
▁jump	-7718
▁dedicated	-7719
▁logistics	-7720
▁partition	-7721
▁utilizing	-7722
▁ST	-7723
▁105	-7724
▁Self	-7725
▁Music	-7726
▁NAFLD	-7727
▁recept	-7728
▁consisting	-7729
▁accommodation	-7730
▁enl	-7731
▁liberal	-7732
▁extremely	-7733
▁preceding	-7734
▁passengers	-7735
gl	-7736
ulus	-7737
▁vel	-7738
▁wed	-7739
▁defe	-7740
▁molec	-7741
▁auditor	-7742
▁evening	-7743
▁nitrogen	-7744
▁Op	-7745
taek	-7746
▁Gal	-7747
▁sav	-7748
▁restruct	-7749
▁irregular	-7750
yun	-7751
neung	-7752
▁wook	-7753
▁irrad	-7754
▁species	-7755
▁graduate	-7756
▁Especially	-7757
▁Thereafter	-7758
▁prospective	-7759
med	-7760
uent	-7761
aired	-7762
▁loop	-7763
▁originally	-7764
▁900	-7765
▁buses	-7766
▁wealth	-7767
▁partner	-7768
▁Previous	-7769
▁utilized	-7770
▁discretion	-7771
DS	-7772
gers	-7773
▁III	-7774
▁Yun	-7775
▁coh	-7776
▁kit	-7777
▁atom	-7778
▁stem	-7779
▁abstr	-7780
▁cable	-7781
▁cited	-7782
▁causal	-7783
▁therape	-7784
▁exception	-7785
▁distinguish	-7786
▁194	-7787
▁salt	-7788
▁valu	-7789
metics	-7790
unmirae	-7791
▁everyday	-7792
▁Indonesia	-7793
▁institute	-7794
▁520	-7795
▁blow	-7796
▁blocked	-7797
▁serving	-7798
ampionship	-7799
▁Framework	-7800
▁combining	-7801
▁inconvenience	-7802
wol	-7803
▁Ui	-7804
▁cig	-7805
ilipp	-7806
▁Hist	-7807
▁alloy	-7808
▁Philipp	-7809
▁cluster	-7810
▁artistic	-7811
▁hardware	-7812
▁behavioral	-7813
▁willingness	-7814
ole	-7815
gage	-7816
▁113	-7817
▁lesions	-7818
▁watched	-7819
▁welding	-7820
▁Articles	-7821
com	-7822
wha	-7823
▁Aud	-7824
▁Was	-7825
▁alt	-7826
▁pet	-7827
▁Sund	-7828
contin	-7829
▁Depending	-7830
▁conditioner	-7831
▁sustainable	-7832
▁ET	-7833
inces	-7834
▁1980	-7835
▁Consum	-7836
▁denied	-7837
▁finish	-7838
▁triang	-7839
▁offered	-7840
▁temporarily	-7841
▁arth	-7842
▁swim	-7843
▁steam	-7844
▁athlet	-7845
▁passion	-7846
▁aluminum	-7847
▁revitalize	-7848
▁amid	-7849
▁pled	-7850
▁retr	-7851
lection	-7852
reement	-7853
▁deeply	-7854
▁advertisement	-7855
▁77	-7856
▁knew	-7857
▁wild	-7858
▁resulted	-7859
▁shooting	-7860
▁race	-7861
▁Mexico	-7862
▁creates	-7863
▁substit	-7864
▁fairness	-7865
eorological	-7866
▁tow	-7867
▁bath	-7868
▁sang	-7869
▁meals	-7870
▁penetr	-7871
▁recall	-7872
▁exactly	-7873
▁outputs	-7874
▁classical	-7875
▁feasibility	-7876
▁Big	-7877
▁Pri	-7878
▁Vol	-7879
▁pra	-7880
▁stir	-7881
▁Cheonan	-7882
▁College	-7883
▁thereto	-7884
▁diabetic	-7885
▁magnitude	-7886
▁regulated	-7887
▁Supervisory	-7888
▁tail	-7889
▁begun	-7890
▁Monday	-7891
▁execute	-7892
▁Independ	-7893
▁confusion	-7894
▁returning	-7895
ont	-7896
▁CI	-7897
▁nerv	-7898
▁Global	-7899
▁omitted	-7900
▁complicated	-7901
▁involvement	-7902
AP	-7903
▁Cre	-7904
▁gall	-7905
▁theories	-7906
▁ordinance	-7907
▁interlayer	-7908
verty	-7909
▁folk	-7910
▁magnet	-7911
▁poverty	-7912
iological	-7913
▁insertion	-7914
▁unp	-7915
▁Hous	-7916
▁bodies	-7917
▁impose	-7918
▁binding	-7919
▁cigaret	-7920
▁helping	-7921
▁balanced	-7922
▁creditors	-7923
▁temperatures	-7924
▁103	-7925
▁142	-7926
▁tracking	-7927
▁Gyeongnam	-7928
▁exclusion	-7929
▁resonance	-7930
▁attachment	-7931
▁frag	-7932
▁Award	-7933
▁transl	-7934
▁tickets	-7935
oelectric	-7936
▁surround	-7937
jo	-7938
aju	-7939
▁cum	-7940
▁Sever	-7941
▁contem	-7942
▁marine	-7943
▁scenar	-7944
▁Pyeongtaek	-7945
▁therapeutic	-7946
▁CM	-7947
▁Whe	-7948
eting	-7949
▁ideal	-7950
▁premise	-7951
asm	-7952
▁87	-7953
▁Out	-7954
▁pill	-7955
▁refract	-7956
▁proceeds	-7957
▁competent	-7958
ils	-7959
▁OL	-7960
▁OS	-7961
ador	-7962
▁125	-7963
▁Water	-7964
▁defic	-7965
▁diode	-7966
▁exceeds	-7967
birth	-7968
▁yield	-7969
▁Hallyu	-7970
▁batter	-7971
▁Instead	-7972
▁harmony	-7973
▁steering	-7974
▁designate	-7975
▁circulation	-7976
▁negotiation	-7977
rect	-7978
▁Sin	-7979
▁mes	-7980
▁phr	-7981
▁Sohn	-7982
▁rhythm	-7983
▁citizen	-7984
▁taxable	-7985
▁compressor	-7986
▁representation	-7987
▁96	-7988
▁195	-7989
▁Spe	-7990
▁mice	-7991
▁cloth	-7992
▁pursue	-7993
▁precise	-7994
▁viewpoint	-7995
▁Bel	-7996
▁unn	-7997
▁loved	-7998
▁spokes	-7999
▁dropped	-8000
▁mistake	-8001
▁demanded	-8002
ara	-8003
▁ES	-8004
gang	-8005
essed	-8006
▁kyung	-8007
▁retail	-8008
▁contrad	-8009
▁drivers	-8010
▁comprised	-8011
▁festivals	-8012
▁Vietnamese	-8013
▁restriction	-8014
▁141	-8015
▁cup	-8016
andal	-8017
▁juven	-8018
▁stance	-8019
▁Studies	-8020
▁memories	-8021
▁specification	-8022
▁Administrative	-8023
▁systematically	-8024
istent	-8025
▁rough	-8026
▁usual	-8027
▁flowing	-8028
▁automobile	-8029
vir	-8030
▁Wed	-8031
▁filt	-8032
inking	-8033
ersonal	-8034
▁evapor	-8035
▁harmon	-8036
▁invent	-8037
▁harmful	-8038
▁coverage	-8039
▁donations	-8040
▁objection	-8041
▁Unification	-8042
▁advertisements	-8043
hma	-8044
izz	-8045
▁Rule	-8046
▁whom	-8047
▁shops	-8048
▁dollar	-8049
▁collapse	-8050
▁greatest	-8051
▁consisted	-8052
▁instructors	-8053
rog	-8054
▁SL	-8055
▁Yi	-8056
▁aest	-8057
▁decor	-8058
▁manual	-8059
▁investor	-8060
illa	-8061
▁unus	-8062
▁proved	-8063
▁yellow	-8064
▁invited	-8065
▁realistic	-8066
▁terminals	-8067
▁prosecutors	-8068
▁Cal	-8069
▁tip	-8070
idays	-8071
▁leakage	-8072
▁applicant	-8073
▁provinces	-8074
▁diplomatic	-8075
▁YouTube	-8076
▁vitamin	-8077
▁Bareunmirae	-8078
▁advantageous	-8079
▁CV	-8080
▁Inde	-8081
▁narr	-8082
ployed	-8083
▁persu	-8084
▁Myeong	-8085
▁voices	-8086
▁Capital	-8087
▁inquiry	-8088
▁summary	-8089
▁fractures	-8090
bok	-8091
off	-8092
▁ton	-8093
▁furn	-8094
▁cosmetics	-8095
▁occurring	-8096
▁prognosis	-8097
▁chemotherapy	-8098
▁differentiated	-8099
hors	-8100
▁HCV	-8101
▁semi	-8102
▁haven	-8103
▁north	-8104
▁poison	-8105
▁Community	-8106
▁experiencing	-8107
esis	-8108
▁sick	-8109
▁terr	-8110
▁spray	-8111
agnetic	-8112
▁Engine	-8113
▁logical	-8114
▁compression	-8115
▁voluntarily	-8116
ucle	-8117
▁hur	-8118
▁rock	-8119
no	-8120
aug	-8121
▁Bong	-8122
▁Good	-8123
bercul	-8124
▁interact	-8125
▁disorders	-8126
▁therefore	-8127
▁idol	-8128
▁lowering	-8129
▁sampling	-8130
▁smoothly	-8131
▁whenever	-8132
▁complexes	-8133
▁prescription	-8134
aptic	-8135
▁drew	-8136
tically	-8137
▁villages	-8138
▁allowance	-8139
asive	-8140
▁Arab	-8141
▁feels	-8142
▁corner	-8143
▁lifest	-8144
▁expense	-8145
▁breaking	-8146
▁assistant	-8147
▁immediate	-8148
▁mediation	-8149
▁progressive	-8150
▁88	-8151
ompl	-8152
▁Joh	-8153
▁Academy	-8154
▁amounts	-8155
▁ethical	-8156
▁enrolled	-8157
celeration	-8158
▁79	-8159
▁98	-8160
▁brib	-8161
▁weakness	-8162
▁explanatory	-8163
PA	-8164
▁260	-8165
▁Pomp	-8166
terior	-8167
▁imped	-8168
▁hiring	-8169
▁flowers	-8170
▁imprison	-8171
rais	-8172
▁211	-8173
▁inn	-8174
▁turb	-8175
▁Prior	-8176
▁sidew	-8177
▁scenes	-8178
▁Housing	-8179
▁chapter	-8180
▁systemic	-8181
▁controversial	-8182
FA	-8183
RT	-8184
▁Di	-8185
▁rum	-8186
ourse	-8187
▁Camp	-8188
▁bicy	-8189
▁brands	-8190
▁Citizens	-8191
▁preservation	-8192
RC	-8193
▁HD	-8194
▁harassment	-8195
sa	-8196
▁SC	-8197
▁Ham	-8198
▁KOS	-8199
▁Ryu	-8200
▁wound	-8201
ilation	-8202
▁arrive	-8203
▁dismissed	-8204
▁compulsory	-8205
▁joy	-8206
▁sky	-8207
pyeong	-8208
yright	-8209
▁Nowon	-8210
▁ready	-8211
▁reward	-8212
▁corrected	-8213
▁enhancing	-8214
▁prevented	-8215
▁repayment	-8216
▁deposition	-8217
▁citizenship	-8218
▁restoration	-8219
▁Subsequently	-8220
▁instructions	-8221
▁IR	-8222
umed	-8223
ograp	-8224
▁Film	-8225
▁transf	-8226
▁typhoon	-8227
▁electrom	-8228
▁violated	-8229
▁Following	-8230
▁agriculture	-8231
rams	-8232
otype	-8233
▁Love	-8234
▁hurt	-8235
icious	-8236
▁ministry	-8237
▁recovered	-8238
▁Mem	-8239
▁dried	-8240
▁invalid	-8241
▁describe	-8242
▁subscribers	-8243
▁restructuring	-8244
▁reconstruction	-8245
▁SW	-8246
▁Girl	-8247
▁Stre	-8248
▁serv	-8249
▁tons	-8250
▁river	-8251
▁battle	-8252
▁modules	-8253
▁imported	-8254
▁budgetary	-8255
▁Elementary	-8256
PI	-8257
▁93	-8258
▁TH	-8259
▁2004	-8260
ieving	-8261
▁Jeolla	-8262
▁asthma	-8263
▁accompl	-8264
▁diffusion	-8265
▁sequentially	-8266
ui	-8267
▁copy	-8268
▁heritage	-8269
▁numerous	-8270
▁publicly	-8271
▁applicable	-8272
▁approaches	-8273
▁transmitter	-8274
▁aw	-8275
ohang	-8276
▁Decl	-8277
undant	-8278
▁chose	-8279
▁saving	-8280
▁belongs	-8281
▁holidays	-8282
▁extraction	-8283
▁laboratory	-8284
▁predicting	-8285
▁supplementary	-8286
▁nor	-8287
▁Gold	-8288
▁chul	-8289
essions	-8290
▁AM	-8291
heung	-8292
▁Free	-8293
▁south	-8294
▁Except	-8295
▁bigger	-8296
▁inflow	-8297
▁revers	-8298
▁taught	-8299
▁imports	-8300
▁synthes	-8301
▁Olympics	-8302
▁Seongnam	-8303
▁disorder	-8304
avy	-8305
ysis	-8306
▁610	-8307
▁Pay	-8308
▁biom	-8309
▁mild	-8310
▁inlet	-8311
▁sweet	-8312
▁singing	-8313
▁fighting	-8314
▁locations	-8315
▁Innovation	-8316
▁overlapping	-8317
▁qualification	-8318
eo	-8319
▁enz	-8320
▁faced	-8321
▁sugar	-8322
▁veloc	-8323
▁curved	-8324
ecessary	-8325
▁reviewing	-8326
▁imposition	-8327
▁protecting	-8328
▁unexpected	-8329
▁foun	-8330
▁holds	-8331
▁Pohang	-8332
▁aggreg	-8333
▁heater	-8334
▁judging	-8335
▁underlying	-8336
orn	-8337
▁sew	-8338
▁cohort	-8339
function	-8340
▁generations	-8341
▁distinguished	-8342
▁RO	-8343
▁BTS	-8344
enses	-8345
▁wasn	-8346
▁pulmonary	-8347
▁instructor	-8348
▁deterioration	-8349
▁PT	-8350
▁450	-8351
▁alk	-8352
▁joon	-8353
▁Smart	-8354
▁Would	-8355
▁tested	-8356
▁update	-8357
▁implant	-8358
▁annually	-8359
▁Paragraph	-8360
▁signature	-8361
▁mechanisms	-8362
▁neighboring	-8363
plus	-8364
▁seed	-8365
▁spin	-8366
▁skill	-8367
ittance	-8368
▁reduces	-8369
▁whereas	-8370
▁basically	-8371
▁otherwise	-8372
▁scholarship	-8373
▁Bae	-8374
▁flower	-8375
building	-8376
▁doctors	-8377
▁dimension	-8378
▁Declaration	-8379
▁Bio	-8380
icate	-8381
uries	-8382
▁vers	-8383
▁ceramic	-8384
▁weapons	-8385
▁analyzes	-8386
▁dividend	-8387
▁allocated	-8388
▁childbirth	-8389
oi	-8390
▁dL	-8391
▁chair	-8392
▁illness	-8393
▁commerce	-8394
▁definite	-8395
▁offering	-8396
▁abilities	-8397
▁Dan	-8398
▁Amid	-8399
▁excav	-8400
▁commemor	-8401
▁induction	-8402
▁compensate	-8403
cope	-8404
▁Cha	-8405
▁isn	-8406
▁initi	-8407
▁letters	-8408
▁pursued	-8409
▁economics	-8410
▁succeeded	-8411
▁UI	-8412
▁270	-8413
atell	-8414
▁bits	-8415
▁horm	-8416
▁gaining	-8417
▁birthday	-8418
▁certified	-8419
▁confirming	-8420
▁elasticity	-8421
▁Star	-8422
▁Tokyo	-8423
▁symmet	-8424
berculosis	-8425
▁delicious	-8426
▁teenagers	-8427
PG	-8428
orney	-8429
▁macro	-8430
▁suppress	-8431
▁discontin	-8432
▁measurements	-8433
▁Meteorological	-8434
▁countermeasures	-8435
got	-8436
rum	-8437
▁01	-8438
istan	-8439
▁extr	-8440
▁Compar	-8441
▁authors	-8442
▁tariffs	-8443
▁longitud	-8444
▁entrepreneurs	-8445
sid	-8446
▁inters	-8447
olism	-8448
▁Treat	-8449
▁buying	-8450
▁mixing	-8451
▁banking	-8452
▁pushing	-8453
▁settled	-8454
▁utility	-8455
▁Exchange	-8456
▁promised	-8457
yal	-8458
▁nod	-8459
eless	-8460
olved	-8461
▁coex	-8462
▁wake	-8463
▁fruit	-8464
utation	-8465
▁prompt	-8466
▁Gangneung	-8467
▁biological	-8468
▁recognizing	-8469
son	-8470
▁beer	-8471
▁Given	-8472
▁screw	-8473
▁slope	-8474
▁upward	-8475
▁funding	-8476
▁savings	-8477
▁Strategy	-8478
▁cultures	-8479
▁explicit	-8480
▁extending	-8481
▁pneumonia	-8482
▁suggesting	-8483
▁expectation	-8484
▁pharmaceutical	-8485
iant	-8486
inqu	-8487
▁Mer	-8488
▁2002	-8489
▁converter	-8490
▁Gor	-8491
▁hub	-8492
▁faces	-8493
▁manif	-8494
▁Thanks	-8495
▁broker	-8496
▁silver	-8497
▁Whether	-8498
▁premiums	-8499
uate	-8500
▁Basic	-8501
▁inaug	-8502
▁turns	-8503
▁refere	-8504
▁Workers	-8505
▁awarded	-8506
▁subscription	-8507
ogl	-8508
osity	-8509
▁fines	-8510
assador	-8511
▁sought	-8512
▁writer	-8513
▁extingu	-8514
▁prolong	-8515
▁worldwide	-8516
▁Ob	-8517
uggish	-8518
▁nodes	-8519
appropri	-8520
▁Command	-8521
▁federal	-8522
▁statutes	-8523
ager	-8524
▁Bre	-8525
▁jae	-8526
▁sen	-8527
ancer	-8528
▁rout	-8529
ailand	-8530
▁Senior	-8531
▁offset	-8532
▁stroke	-8533
▁Stadium	-8534
▁Thailand	-8535
▁sluggish	-8536
▁childhood	-8537
▁differentiation	-8538
het	-8539
opl	-8540
▁SD	-8541
brid	-8542
▁rub	-8543
▁Ansan	-8544
▁Changwon	-8545
▁severity	-8546
▁Job	-8547
inent	-8548
▁Kwang	-8549
▁branc	-8550
▁phones	-8551
▁rarely	-8552
▁wedding	-8553
▁Operation	-8554
AD	-8555
words	-8556
▁expir	-8557
▁deduct	-8558
▁maturity	-8559
▁moderate	-8560
▁probably	-8561
▁yourself	-8562
▁audiences	-8563
▁isolation	-8564
▁deliberate	-8565
▁ha	-8566
▁Review	-8567
▁safely	-8568
ortunately	-8569
▁violating	-8570
▁precedents	-8571
eem	-8572
useok	-8573
▁grew	-8574
▁writ	-8575
abinet	-8576
▁enlar	-8577
▁forum	-8578
▁daycare	-8579
▁symbols	-8580
▁recognizes	-8581
▁89	-8582
▁Io	-8583
▁tag	-8584
▁bent	-8585
▁fails	-8586
▁valuable	-8587
▁disasters	-8588
▁schematic	-8589
▁affiliates	-8590
vol	-8591
▁Lear	-8592
ometry	-8593
porary	-8594
▁Street	-8595
▁strange	-8596
▁floating	-8597
▁franchise	-8598
bl	-8599
unt	-8600
▁Non	-8601
▁mobil	-8602
▁vessel	-8603
▁matches	-8604
▁publish	-8605
▁scandal	-8606
▁Northern	-8607
▁provider	-8608
▁demonstration	-8609
▁86	-8610
▁sup	-8611
ausal	-8612
▁unst	-8613
herent	-8614
▁enfor	-8615
▁neural	-8616
▁sevent	-8617
▁enhanced	-8618
▁Disc	-8619
▁losing	-8620
▁protrud	-8621
▁stacked	-8622
▁elevated	-8623
▁injected	-8624
▁consistently	-8625
▁collaboration	-8626
▁soil	-8627
nesday	-8628
▁Apple	-8629
▁disag	-8630
▁fault	-8631
▁thesis	-8632
▁reactor	-8633
▁washing	-8634
▁informed	-8635
▁Wednesday	-8636
▁deposited	-8637
▁succession	-8638
▁irr	-8639
▁discip	-8640
▁pitcher	-8641
▁Regional	-8642
▁genre	-8643
▁royal	-8644
▁Bureau	-8645
▁coated	-8646
▁enters	-8647
▁downward	-8648
▁reaching	-8649
▁identifying	-8650
▁individually	-8651
iral	-8652
▁Mart	-8653
▁fort	-8654
arency	-8655
▁deriv	-8656
▁Sunday	-8657
▁gifted	-8658
▁Chuseok	-8659
▁posture	-8660
▁governed	-8661
▁infinite	-8662
▁targeted	-8663
▁velocity	-8664
▁providers	-8665
▁membership	-8666
▁predictive	-8667
MS	-8668
och	-8669
▁NS	-8670
orph	-8671
ijing	-8672
ansori	-8673
▁esteem	-8674
▁habits	-8675
ivariate	-8676
▁neutral	-8677
▁exceeding	-8678
▁signaling	-8679
▁respective	-8680
▁Philippines	-8681
igm	-8682
oxy	-8683
igue	-8684
omas	-8685
▁106	-8686
▁IoT	-8687
▁Jes	-8688
icing	-8689
▁army	-8690
▁drag	-8691
▁debut	-8692
▁ultra	-8693
opausal	-8694
▁Medium	-8695
▁artery	-8696
▁clinic	-8697
▁league	-8698
▁margin	-8699
▁winner	-8700
▁deficit	-8701
ern	-8702
▁CCT	-8703
▁Nak	-8704
▁egg	-8705
▁ions	-8706
▁onto	-8707
▁lesion	-8708
ertility	-8709
▁Yongsan	-8710
▁rotating	-8711
▁unnecessary	-8712
▁LT	-8713
▁SU	-8714
▁Paju	-8715
▁bags	-8716
▁farms	-8717
▁nucle	-8718
▁oppon	-8719
▁allerg	-8720
▁luxury	-8721
▁Speaker	-8722
▁delinqu	-8723
▁connector	-8724
▁ultrasonic	-8725
▁ki	-8726
rium	-8727
▁Home	-8728
▁Hwase	-8729
▁cargo	-8730
ierarch	-8731
▁leaves	-8732
▁Beijing	-8733
▁vessels	-8734
▁Planning	-8735
▁colonial	-8736
▁amplifier	-8737
▁Engineering	-8738
▁acceleration	-8739
ama	-8740
▁Li	-8741
andis	-8742
▁Along	-8743
▁ancient	-8744
operation	-8745
▁limiting	-8746
▁reliable	-8747
▁accompany	-8748
▁requiring	-8749
▁attributes	-8750
▁participant	-8751
ET	-8752
▁throm	-8753
▁Confuc	-8754
▁Marine	-8755
▁Prefer	-8756
▁upload	-8757
▁massive	-8758
▁Congress	-8759
▁abstract	-8760
▁phenomena	-8761
▁terrorism	-8762
▁indirectly	-8763
rel	-8764
▁MO	-8765
▁340	-8766
▁Tot	-8767
▁2003	-8768
▁fatty	-8769
▁Motors	-8770
inistries	-8771
▁downtown	-8772
▁allowances	-8773
▁thoroughly	-8774
▁tomography	-8775
▁longitudinal	-8776
▁pH	-8777
just	-8778
▁sat	-8779
▁adip	-8780
▁walls	-8781
▁ritual	-8782
▁talked	-8783
▁refused	-8784
▁hundreds	-8785
▁searched	-8786
▁gathering	-8787
▁incentive	-8788
▁seriously	-8789
▁subsidize	-8790
▁cumulative	-8791
▁developmental	-8792
▁LC	-8793
▁haptic	-8794
▁shapes	-8795
▁Several	-8796
woo	-8797
▁Lt	-8798
asan	-8799
rolog	-8800
▁checks	-8801
▁routes	-8802
▁Pension	-8803
▁microph	-8804
▁pleasant	-8805
▁ministries	-8806
uce	-8807
▁Lib	-8808
reams	-8809
▁Gwan	-8810
▁evac	-8811
▁reply	-8812
▁unusual	-8813
▁operational	-8814
▁transformed	-8815
▁Ga	-8816
▁360	-8817
▁tub	-8818
▁fake	-8819
▁shoes	-8820
ielding	-8821
▁coding	-8822
▁planar	-8823
▁knowing	-8824
▁mutatis	-8825
▁analyses	-8826
▁paintings	-8827
▁concentrations	-8828
▁IM	-8829
uses	-8830
▁crew	-8831
▁smoke	-8832
▁engage	-8833
▁packet	-8834
▁differs	-8835
▁mutandis	-8836
▁CCTV	-8837
▁milk	-8838
econom	-8839
▁Urban	-8840
▁proven	-8841
▁enables	-8842
▁discussing	-8843
▁dispatched	-8844
▁realization	-8845
IT	-8846
enty	-8847
enary	-8848
▁Have	-8849
▁Yeou	-8850
▁fold	-8851
▁kick	-8852
▁tourn	-8853
▁shorter	-8854
▁Buddhist	-8855
▁compartment	-8856
▁regeneration	-8857
irt	-8858
▁94	-8859
▁feet	-8860
▁lane	-8861
▁lies	-8862
astern	-8863
▁Proper	-8864
▁dishes	-8865
contract	-8866
▁anticip	-8867
▁opposed	-8868
▁ov	-8869
zzle	-8870
▁FTA	-8871
▁fled	-8872
▁probe	-8873
▁behalf	-8874
▁fibers	-8875
outheast	-8876
▁Private	-8877
▁fulfill	-8878
▁privacy	-8879
▁prospect	-8880
▁swimming	-8881
▁Gyeongbuk	-8882
▁attendance	-8883
▁necessarily	-8884
▁polarization	-8885
ga	-8886
mas	-8887
nis	-8888
▁PL	-8889
▁lob	-8890
ocard	-8891
▁Will	-8892
▁Jesus	-8893
▁Spain	-8894
▁colle	-8895
▁meets	-8896
▁socio	-8897
nership	-8898
▁Temple	-8899
▁physics	-8900
▁sections	-8901
▁capability	-8902
▁CK	-8903
▁MS	-8904
▁Test	-8905
▁epid	-8906
▁roof	-8907
▁meter	-8908
inating	-8909
▁default	-8910
▁deceased	-8911
▁humidity	-8912
▁initially	-8913
▁merchants	-8914
▁accumulation	-8915
▁Sch	-8916
▁2001	-8917
▁gastric	-8918
▁unified	-8919
▁athletes	-8920
▁supplying	-8921
▁transparency	-8922
ibly	-8923
▁lam	-8924
rared	-8925
▁easing	-8926
▁raises	-8927
▁bearing	-8928
▁defining	-8929
▁disclose	-8930
▁hierarch	-8931
▁interven	-8932
▁sessions	-8933
▁guarantees	-8934
▁Competition	-8935
▁Regulations	-8936
▁PO	-8937
▁Mun	-8938
▁guess	-8939
▁zones	-8940
▁arises	-8941
▁empathy	-8942
▁Participants	-8943
▁Mic	-8944
▁eup	-8945
▁grid	-8946
tering	-8947
▁deals	-8948
▁firef	-8949
▁Washing	-8950
▁healing	-8951
▁minority	-8952
▁mortgage	-8953
▁lifestyle	-8954
▁renewable	-8955
▁institutes	-8956
▁certificates	-8957
pe	-8958
oong	-8959
▁124	-8960
▁han	-8961
▁tea	-8962
vance	-8963
▁arter	-8964
▁surge	-8965
▁Forest	-8966
▁pretty	-8967
▁Hwaseong	-8968
▁normally	-8969
▁displaying	-8970
▁negatively	-8971
▁prohibited	-8972
born	-8973
▁sin	-8974
opoly	-8975
▁Nong	-8976
▁hike	-8977
▁loyal	-8978
▁Design	-8979
▁consequ	-8980
▁donated	-8981
▁founded	-8982
▁obvious	-8983
▁offline	-8984
▁treating	-8985
▁intervals	-8986
▁af	-8987
hematic	-8988
▁hybrid	-8989
▁essence	-8990
▁discovery	-8991
hene	-8992
▁152	-8993
▁aer	-8994
▁haz	-8995
aming	-8996
▁crowd	-8997
▁dress	-8998
▁Compan	-8999
▁Pompeo	-9000
▁Yeouido	-9001
▁singers	-9002
▁Malaysia	-9003
▁landscape	-9004
▁earthquake	-9005
▁dysfunction	-9006
▁fluctuations	-9007
berg	-9008
rial	-9009
▁Ltd	-9010
ortic	-9011
▁Happ	-9012
▁nanop	-9013
▁veter	-9014
▁garden	-9015
▁Autonom	-9016
▁dietary	-9017
▁formulate	-9018
▁suspicions	-9019
▁neighborhood	-9020
▁BC	-9021
▁Hb	-9022
▁lev	-9023
▁Seon	-9024
▁moon	-9025
▁atoms	-9026
▁catch	-9027
▁illum	-9028
ruction	-9029
▁scheme	-9030
▁abolished	-9031
▁attributed	-9032
▁dies	-9033
▁stom	-9034
▁unve	-9035
▁actress	-9036
▁standardized	-9037
ping	-9038
▁Yeo	-9039
▁rom	-9040
▁wins	-9041
▁keeping	-9042
▁western	-9043
▁improves	-9044
▁infrared	-9045
aza	-9046
▁97	-9047
▁AF	-9048
▁GS	-9049
▁Ig	-9050
onym	-9051
rown	-9052
▁Map	-9053
▁cyber	-9054
illance	-9055
▁punished	-9056
▁vascular	-9057
▁collision	-9058
▁estimates	-9059
▁requesting	-9060
▁KB	-9061
▁PS	-9062
anam	-9063
▁135	-9064
▁Hon	-9065
▁Mor	-9066
▁pel	-9067
▁habit	-9068
▁Concer	-9069
▁gastro	-9070
▁cameras	-9071
▁Teachers	-9072
▁uncomfort	-9073
tr	-9074
pted	-9075
▁191	-9076
atric	-9077
▁dign	-9078
▁irre	-9079
▁drying	-9080
▁Federal	-9081
▁observe	-9082
▁Military	-9083
▁football	-9084
▁infected	-9085
▁misunder	-9086
▁resistant	-9087
▁instruments	-9088
▁proceedings	-9089
▁translation	-9090
▁tuberculosis	-9091
▁postoperative	-9092
▁DS	-9093
▁HR	-9094
enues	-9095
▁deaths	-9096
▁satell	-9097
▁episode	-9098
▁shoulder	-9099
▁nutrition	-9100
▁intentions	-9101
▁profitability	-9102
ita	-9103
▁SV	-9104
▁TS	-9105
▁VI	-9106
▁mood	-9107
▁touc	-9108
lihood	-9109
▁perme	-9110
▁vital	-9111
▁stadium	-9112
▁storing	-9113
▁emphasis	-9114
▁unstable	-9115
▁Prevention	-9116
▁subsidiaries	-9117
▁ja	-9118
▁COPD	-9119
▁Hanwha	-9120
▁Experts	-9121
▁Matters	-9122
▁disturb	-9123
▁staying	-9124
▁modeling	-9125
▁retrospective	-9126
km	-9127
axy	-9128
▁133	-9129
▁Exc	-9130
ymmet	-9131
▁Model	-9132
▁argue	-9133
▁booth	-9134
▁norms	-9135
▁detects	-9136
▁fatigue	-9137
▁covering	-9138
▁attribute	-9139
▁conductor	-9140
▁Industries	-9141
▁Washington	-9142
▁accordingly	-9143
bed	-9144
cean	-9145
▁530	-9146
▁stret	-9147
▁adsorb	-9148
▁dioxide	-9149
▁handled	-9150
▁Companies	-9151
▁investigative	-9152
▁Show	-9153
▁conj	-9154
▁Actor	-9155
▁Their	-9156
versely	-9157
▁Account	-9158
▁surveys	-9159
▁Intellig	-9160
▁taxpayers	-9161
▁medication	-9162
▁underground	-9163
conn	-9164
▁Har	-9165
▁Its	-9166
▁rid	-9167
ocytes	-9168
▁Seocho	-9169
▁Yongin	-9170
▁basket	-9171
▁restore	-9172
▁arbitrary	-9173
▁arguments	-9174
▁copyright	-9175
▁equations	-9176
▁beneficial	-9177
▁destruction	-9178
▁uncomfortable	-9179
enz	-9180
ugh	-9181
▁IN	-9182
ucks	-9183
▁Above	-9184
▁sounds	-9185
▁maritime	-9186
nic	-9187
pro	-9188
▁IB	-9189
▁na	-9190
▁cope	-9191
▁gone	-9192
▁poet	-9193
▁unions	-9194
▁bracket	-9195
▁linking	-9196
▁Heritage	-9197
▁factories	-9198
▁synthesis	-9199
▁entrustment	-9200
▁LD	-9201
▁NO	-9202
bors	-9203
▁Lead	-9204
▁appl	-9205
▁Earth	-9206
▁coron	-9207
cellular	-9208
▁declined	-9209
▁governing	-9210
▁appropriately	-9211
▁KO	-9212
agues	-9213
▁Town	-9214
▁tact	-9215
▁fewer	-9216
ignific	-9217
▁calcium	-9218
▁deleted	-9219
▁acquiring	-9220
▁attraction	-9221
▁ru	-9222
▁Custom	-9223
▁kilomet	-9224
▁bacteria	-9225
▁decoding	-9226
▁agreements	-9227
▁DR	-9228
unct	-9229
▁212	-9230
▁meth	-9231
▁outl	-9232
▁pray	-9233
ivated	-9234
▁Broad	-9235
▁Proced	-9236
▁molding	-9237
▁plenary	-9238
▁reserve	-9239
▁surpass	-9240
▁Starting	-9241
▁subcontract	-9242
ham	-9243
▁La	-9244
▁Card	-9245
▁tech	-9246
inances	-9247
▁sincere	-9248
▁electrons	-9249
▁healthcare	-9250
▁metastasis	-9251
▁Cooperation	-9252
▁Independence	-9253
▁Gyeongsangnam	-9254
eli	-9255
▁SO	-9256
enders	-9257
▁Polit	-9258
▁snack	-9259
▁slowly	-9260
▁accessibility	-9261
hw	-9262
hal	-9263
istry	-9264
▁cheol	-9265
▁strik	-9266
▁sidewall	-9267
▁startups	-9268
▁recycling	-9269
▁collateral	-9270
▁correlated	-9271
▁Agriculture	-9272
▁subordinate	-9273
▁AT	-9274
▁119	-9275
▁ink	-9276
▁Amaz	-9277
acific	-9278
▁powers	-9279
▁railway	-9280
▁sitting	-9281
▁talents	-9282
▁deposits	-9283
▁earnings	-9284
▁supposed	-9285
▁variance	-9286
▁Preferably	-9287
▁selectively	-9288
oir	-9289
ilib	-9290
▁Mad	-9291
oster	-9292
▁gross	-9293
▁tends	-9294
▁worksh	-9295
▁emitted	-9296
▁trouble	-9297
▁confront	-9298
▁ideology	-9299
▁Jeollanam	-9300
▁narrative	-9301
▁appreciate	-9302
▁ecological	-9303
▁expiration	-9304
MA	-9305
▁Sy	-9306
▁Hua	-9307
▁Maj	-9308
▁Mok	-9309
▁wet	-9310
▁Army	-9311
▁Rest	-9312
▁Swed	-9313
▁votes	-9314
▁needle	-9315
▁stomach	-9316
▁humanities	-9317
▁Additionally	-9318
wei	-9319
▁TF	-9320
worth	-9321
▁ride	-9322
▁solo	-9323
▁sook	-9324
ulatory	-9325
▁lawyers	-9326
▁periods	-9327
▁sealing	-9328
▁mobility	-9329
▁cultivate	-9330
▁aggressive	-9331
▁infections	-9332
▁imagination	-9333
▁substantial	-9334
▁expenditures	-9335
▁increasingly	-9336
sts	-9337
▁DB	-9338
rian	-9339
ersons	-9340
▁buyer	-9341
ibution	-9342
▁apolog	-9343
▁marginal	-9344
▁remarkable	-9345
emn	-9346
uan	-9347
▁MP	-9348
▁SI	-9349
▁Joint	-9350
▁rises	-9351
ometown	-9352
▁buried	-9353
▁abundant	-9354
▁dependence	-9355
▁responding	-9356
MP	-9357
mit	-9358
haps	-9359
alysis	-9360
▁magaz	-9361
▁rally	-9362
▁arbitr	-9363
▁intense	-9364
▁inclined	-9365
▁Residents	-9366
▁batteries	-9367
▁computers	-9368
▁Presidential	-9369
▁comprehensively	-9370
▁Ni	-9371
oids	-9372
▁fet	-9373
▁vein	-9374
▁allev	-9375
lusions	-9376
▁spouse	-9377
▁nervous	-9378
▁seventh	-9379
▁branches	-9380
▁wearable	-9381
ignificant	-9382
▁prolonged	-9383
▁demographic	-9384
▁distinction	-9385
lin	-9386
atch	-9387
raid	-9388
▁MRI	-9389
antic	-9390
▁actu	-9391
▁hygi	-9392
iffere	-9393
▁afraid	-9394
▁robots	-9395
▁circles	-9396
▁claiming	-9397
▁spectrum	-9398
▁Attention	-9399
▁god	-9400
▁Past	-9401
▁chrom	-9402
▁Lastly	-9403
▁coexist	-9404
▁radical	-9405
▁pursuing	-9406
▁competence	-9407
▁intangible	-9408
ica	-9409
▁HP	-9410
ails	-9411
▁1970	-9412
▁clubs	-9413
▁derive	-9414
▁arrears	-9415
▁filling	-9416
▁descript	-9417
▁Ja	-9418
▁Det	-9419
rooms	-9420
▁Future	-9421
▁forget	-9422
▁dismissal	-9423
▁spokesman	-9424
▁specificity	-9425
▁reinforcement	-9426
▁qualifications	-9427
unar	-9428
▁193	-9429
▁Tong	-9430
esides	-9431
▁ambig	-9432
▁Bridge	-9433
▁awards	-9434
▁encaps	-9435
▁fallen	-9436
▁clarify	-9437
▁conform	-9438
▁oxidation	-9439
▁microphone	-9440
▁undergoing	-9441
▁partnership	-9442
▁imprisonment	-9443
▁surveillance	-9444
▁Bi	-9445
ectomy	-9446
manned	-9447
queous	-9448
▁semin	-9449
▁split	-9450
▁tears	-9451
▁Huawei	-9452
economic	-9453
▁Property	-9454
▁insisted	-9455
▁Christmas	-9456
▁impedance	-9457
▁620	-9458
▁cafe	-9459
▁plug	-9460
▁Black	-9461
▁stood	-9462
▁joining	-9463
▁invasion	-9464
▁shielding	-9465
▁converting	-9466
▁installing	-9467
osals	-9468
▁dreams	-9469
▁Gangseo	-9470
▁Student	-9471
▁graphene	-9472
▁collapsed	-9473
▁disappoint	-9474
▁infectious	-9475
▁flexibility	-9476
▁interactions	-9477
hi	-9478
edy	-9479
▁HbA	-9480
▁Trad	-9481
▁charm	-9482
▁sizes	-9483
▁insurer	-9484
▁treasury	-9485
▁breathing	-9486
▁dimensions	-9487
▁estimating	-9488
▁inappropri	-9489
21	-9490
gel	-9491
▁Tre	-9492
▁overw	-9493
▁quiet	-9494
▁urged	-9495
▁troops	-9496
▁unreason	-9497
▁Fisheries	-9498
▁abolition	-9499
▁tournament	-9500
▁arbitration	-9501
▁instability	-9502
osin	-9503
▁Sen	-9504
▁Drug	-9505
▁calm	-9506
▁marks	-9507
hibition	-9508
▁martial	-9509
▁satisfy	-9510
▁symptom	-9511
▁Building	-9512
▁constraints	-9513
▁methodology	-9514
zer	-9515
▁LS	-9516
requ	-9517
▁hun	-9518
▁joo	-9519
ocket	-9520
▁Saud	-9521
▁boat	-9522
raisal	-9523
▁nerve	-9524
▁torque	-9525
▁funeral	-9526
▁issuing	-9527
▁scenario	-9528
▁contradict	-9529
▁ultimately	-9530
▁intelligent	-9531
▁reconstruct	-9532
▁Intelligence	-9533
▁electromagnetic	-9534
cut	-9535
▁POS	-9536
▁knee	-9537
weight	-9538
▁congr	-9539
▁paths	-9540
▁recru	-9541
▁stere	-9542
▁clause	-9543
▁porous	-9544
▁compete	-9545
▁filming	-9546
▁lateral	-9547
▁refugees	-9548
▁crackdown	-9549
▁recession	-9550
▁sentences	-9551
▁variation	-9552
▁unl	-9553
▁epit	-9554
▁pull	-9555
chestr	-9556
▁files	-9557
▁patch	-9558
▁fusion	-9559
▁happens	-9560
▁reveals	-9561
▁Cheongju	-9562
vironments	-9563
▁inherited	-9564
▁facilitate	-9565
▁graduation	-9566
▁occupation	-9567
▁inspections	-9568
▁publication	-9569
ezz	-9570
▁Ke	-9571
erred	-9572
redit	-9573
▁acet	-9574
friend	-9575
▁anger	-9576
▁strain	-9577
▁Express	-9578
▁aqueous	-9579
▁matched	-9580
▁fraction	-9581
▁regularly	-9582
▁manufacturers	-9583
▁NC	-9584
▁Uz	-9585
rate	-9586
imacy	-9587
inery	-9588
▁Gree	-9589
▁west	-9590
ighter	-9591
▁worst	-9592
▁embezz	-9593
▁Disaster	-9594
▁overwhel	-9595
▁perceptions	-9596
▁resignation	-9597
irds	-9598
▁Fac	-9599
▁nano	-9600
▁Forum	-9601
▁autumn	-9602
▁buyers	-9603
▁precip	-9604
▁Pacific	-9605
▁servants	-9606
▁Officials	-9607
▁promising	-9608
▁delegation	-9609
▁encryption	-9610
▁constituting	-9611
▁EL	-9612
atile	-9613
odium	-9614
▁Hang	-9615
▁Inte	-9616
▁exit	-9617
▁divor	-9618
▁phrase	-9619
▁promise	-9620
▁tissues	-9621
▁hometown	-9622
▁heterogene	-9623
▁Squ	-9624
▁OLED	-9625
▁advis	-9626
▁induc	-9627
ilibrium	-9628
▁femoral	-9629
▁schemat	-9630
▁Maritime	-9631
▁advisory	-9632
▁memorial	-9633
▁religion	-9634
▁recipients	-9635
bek	-9636
▁CL	-9637
▁Chan	-9638
ittees	-9639
lycemia	-9640
▁briefly	-9641
▁undergo	-9642
▁unmanned	-9643
▁fostering	-9644
jud	-9645
gent	-9646
▁crop	-9647
ucheon	-9648
▁Uzbek	-9649
▁medal	-9650
▁Amazon	-9651
▁cavity	-9652
▁Earlier	-9653
▁ratings	-9654
▁manifest	-9655
▁parental	-9656
▁upcoming	-9657
▁rejection	-9658
▁Kook	-9659
iology	-9660
▁Integr	-9661
▁seniors	-9662
▁suction	-9663
▁completing	-9664
▁impression	-9665
▁coordination	-9666
aph	-9667
▁LN	-9668
geuk	-9669
jang	-9670
zing	-9671
ulent	-9672
iotics	-9673
▁traum	-9674
▁dignity	-9675
▁theorem	-9676
▁choosing	-9677
▁clothing	-9678
▁illegally	-9679
▁FC	-9680
▁Mac	-9681
▁gil	-9682
▁bile	-9683
▁cake	-9684
▁dish	-9685
▁keen	-9686
▁alarm	-9687
▁filing	-9688
▁equally	-9689
▁muscles	-9690
▁dominant	-9691
▁penalties	-9692
▁livelihood	-9693
▁contributing	-9694
▁TD	-9695
chen	-9696
itus	-9697
otyp	-9698
ulpt	-9699
▁Kia	-9700
amine	-9701
▁rede	-9702
▁Dream	-9703
▁shell	-9704
▁contam	-9705
▁pedest	-9706
▁comprom	-9707
▁morality	-9708
▁abandoned	-9709
▁considers	-9710
▁environments	-9711
▁810	-9712
▁kyu	-9713
yrics	-9714
▁Paris	-9715
▁knows	-9716
ighters	-9717
▁ranging	-9718
▁subcomm	-9719
▁adhesion	-9720
▁unlikely	-9721
▁Confucian	-9722
▁immigrants	-9723
▁exploration	-9724
▁RE	-9725
▁gut	-9726
imony	-9727
▁aden	-9728
▁Saudi	-9729
▁Valle	-9730
▁smell	-9731
▁discourse	-9732
▁contributions	-9733
▁Gong	-9734
▁pron	-9735
▁Thurs	-9736
▁risen	-9737
acement	-9738
▁Goryeo	-9739
▁Turkey	-9740
▁retain	-9741
▁seller	-9742
▁listing	-9743
▁destroyed	-9744
▁conclusions	-9745
▁instructional	-9746
chon	-9747
▁bub	-9748
▁fro	-9749
▁Does	-9750
▁dogs	-9751
▁kill	-9752
▁urine	-9753
▁induct	-9754
▁prolif	-9755
▁transistors	-9756
▁Environmental	-9757
cm	-9758
ta	-9759
umes	-9760
▁221	-9761
▁hal	-9762
▁centr	-9763
▁vapor	-9764
▁streets	-9765
▁Chungnam	-9766
▁indication	-9767
▁supervisory	-9768
▁occupational	-9769
ki	-9770
eek	-9771
isms	-9772
oven	-9773
▁440	-9774
eling	-9775
▁pace	-9776
▁girls	-9777
▁pride	-9778
▁bureau	-9779
▁fellow	-9780
▁incumb	-9781
▁Thursday	-9782
▁enjoying	-9783
▁literary	-9784
▁Southeast	-9785
▁bilateral	-9786
▁molecules	-9787
▁proposals	-9788
▁virtually	-9789
▁mathematic	-9790
▁preferential	-9791
▁Communication	-9792
▁Imm	-9793
▁desc	-9794
helial	-9795
▁Galaxy	-9796
▁lyrics	-9797
▁curious	-9798
▁violate	-9799
▁Commerce	-9800
▁Training	-9801
▁encoding	-9802
▁fixation	-9803
▁universe	-9804
▁attractive	-9805
▁inappropriate	-9806
fol	-9807
inge	-9808
rows	-9809
▁Moo	-9810
▁kim	-9811
ermat	-9812
▁bere	-9813
uality	-9814
▁Somet	-9815
▁Survey	-9816
▁auction	-9817
▁dismant	-9818
▁evasion	-9819
▁guideline	-9820
▁structured	-9821
▁Gi	-9822
osun	-9823
▁Koo	-9824
▁Wang	-9825
▁belt	-9826
▁boss	-9827
▁Dance	-9828
▁Major	-9829
▁Valley	-9830
▁spacer	-9831
▁circuits	-9832
▁inherent	-9833
▁emphasize	-9834
▁neighbors	-9835
▁searching	-9836
▁encouraged	-9837
▁supplemented	-9838
▁Mo	-9839
anes	-9840
gram	-9841
▁Gum	-9842
▁Char	-9843
▁Deok	-9844
▁geun	-9845
arbage	-9846
iosity	-9847
▁Italy	-9848
▁onset	-9849
▁offers	-9850
▁plates	-9851
▁thromb	-9852
▁England	-9853
▁beliefs	-9854
▁struggle	-9855
▁exchanged	-9856
▁schematically	-9857
ona	-9858
▁nurt	-9859
▁deems	-9860
▁humid	-9861
▁tract	-9862
▁ending	-9863
▁missed	-9864
icularly	-9865
▁airline	-9866
▁choices	-9867
▁reaches	-9868
▁surplus	-9869
▁updated	-9870
▁strictly	-9871
▁judiciary	-9872
▁languages	-9873
▁selective	-9874
▁challenges	-9875
▁struggling	-9876
▁Deliberation	-9877
chem	-9878
▁Book	-9879
▁desk	-9880
▁mini	-9881
▁fluor	-9882
▁stamp	-9883
▁pollut	-9884
▁tunnel	-9885
▁Overall	-9886
▁exempted	-9887
▁scanning	-9888
▁Standards	-9889
▁LA	-9890
ighth	-9891
▁erad	-9892
▁sole	-9893
▁myung	-9894
▁Songpa	-9895
▁broadc	-9896
▁courts	-9897
▁radius	-9898
▁stands	-9899
▁herself	-9900
▁propose	-9901
▁rectang	-9902
▁combines	-9903
▁aesthetic	-9904
▁describes	-9905
▁exhibitions	-9906
IA	-9907
bra	-9908
rot	-9909
zen	-9910
▁CF	-9911
▁KE	-9912
coin	-9913
page	-9914
▁Bit	-9915
▁Nex	-9916
▁Sal	-9917
actory	-9918
aekwon	-9919
▁reimb	-9920
▁bronch	-9921
▁native	-9922
▁inverter	-9923
▁maximize	-9924
▁randomly	-9925
▁organizing	-9926
aid	-9927
▁SB	-9928
adow	-9929
▁Sor	-9930
▁tap	-9931
▁Store	-9932
▁killing	-9933
▁offense	-9934
▁download	-9935
▁honorary	-9936
▁inducing	-9937
▁incumbent	-9938
▁equilibrium	-9939
▁problematic	-9940
▁justification	-9941
▁PR	-9942
▁Eul	-9943
▁aug	-9944
▁sed	-9945
▁tok	-9946
break	-9947
▁Chae	-9948
▁Crit	-9949
▁acou	-9950
▁orth	-9951
▁reun	-9952
▁Sewol	-9953
▁coinc	-9954
▁colored	-9955
▁exclude	-9956
▁Interest	-9957
▁academia	-9958
▁consumed	-9959
▁isolated	-9960
▁accompanying	-9961
▁circumferential	-9962
IV	-9963
ND	-9964
▁FF	-9965
▁TA	-9966
onic	-9967
▁Ban	-9968
▁Ilbo	-9969
▁ages	-9970
▁marker	-9971
roscopic	-9972
▁officio	-9973
▁Learning	-9974
▁cylinder	-9975
▁produces	-9976
▁addiction	-9977
▁photograp	-9978
▁reinforcing	-9979
iano	-9980
▁wal	-9981
▁Open	-9982
▁Hanoi	-9983
patient	-9984
raction	-9985
▁Establ	-9986
▁script	-9987
▁burdens	-9988
▁machines	-9989
▁resistor	-9990
▁centering	-9991
▁protruding	-9992
▁revitalization	-9993
▁recommendations	-9994
▁synchronization	-9995
▁tone	-9996
▁winds	-9997
▁Income	-9998
▁Singer	-9999
▁impair	-10000
▁trained	-10001
▁friendship	-10002
▁reputation	-10003
▁communications	-10004
ech	-10005
osa	-10006
▁KBS	-10007
▁east	-10008
▁nood	-10009
▁fires	-10010
▁divide	-10011
▁guided	-10012
▁steady	-10013
▁academy	-10014
▁impaired	-10015
▁opponent	-10016
▁enactment	-10017
▁integrity	-10018
▁recipient	-10019
▁telephone	-10020
▁categorized	-10021
▁termination	-10022
▁associations	-10023
▁Gyeongsangbuk	-10024
rs	-10025
ilty	-10026
▁Kum	-10027
alysts	-10028
▁genes	-10029
aekwondo	-10030
▁bicycle	-10031
▁garbage	-10032
▁loyalty	-10033
▁tuition	-10034
▁attorney	-10035
intestinal	-10036
▁achieving	-10037
▁compounds	-10038
▁curiosity	-10039
▁assumption	-10040
▁volunteers	-10041
▁constituent	-10042
▁RS	-10043
▁ah	-10044
▁USA	-10045
▁piez	-10046
▁Rural	-10047
▁fisher	-10048
▁nonvol	-10049
▁cardiac	-10050
▁scoring	-10051
▁Consumer	-10052
▁Mongolia	-10053
▁civilian	-10054
▁oriental	-10055
▁shortage	-10056
▁NH	-10057
aman	-10058
▁710	-10059
▁asc	-10060
▁rod	-10061
inine	-10062
▁mere	-10063
▁lipid	-10064
▁proud	-10065
▁Branch	-10066
▁Chosun	-10067
▁infilt	-10068
▁missile	-10069
▁paradigm	-10070
▁accepting	-10071
▁nonvolatile	-10072
aded	-10073
ician	-10074
▁1997	-10075
▁John	-10076
▁cereb	-10077
itarian	-10078
▁precious	-10079
▁purchases	-10080
▁complained	-10081
▁inhibitors	-10082
▁coordinates	-10083
▁PP	-10084
oglob	-10085
▁rays	-10086
ocking	-10087
▁Girls	-10088
▁gramm	-10089
▁viral	-10090
amiliar	-10091
▁Enterpr	-10092
▁congest	-10093
▁lacking	-10094
▁rebound	-10095
▁diagrams	-10096
▁entirely	-10097
▁Val	-10098
▁hack	-10099
▁blank	-10100
▁chlor	-10101
▁kimchi	-10102
▁designs	-10103
▁evaporator	-10104
▁beneficiary	-10105
▁conservation	-10106
▁consultations	-10107
iest	-10108
▁lum	-10109
▁org	-10110
▁doubt	-10111
▁Jongno	-10112
▁casual	-10113
▁Members	-10114
▁acquaint	-10115
▁nanopart	-10116
▁socially	-10117
▁cholester	-10118
▁poisoning	-10119
▁alternatives	-10120
▁CA	-10121
imet	-10122
▁aro	-10123
▁dur	-10124
▁parks	-10125
▁desper	-10126
▁forgot	-10127
▁startup	-10128
valuation	-10129
▁restored	-10130
▁collector	-10131
▁producers	-10132
▁stipulate	-10133
▁terminated	-10134
▁cultivation	-10135
▁144	-10136
▁Ent	-10137
ether	-10138
ioned	-10139
▁smok	-10140
daemun	-10141
▁conce	-10142
▁Africa	-10143
▁frames	-10144
▁reader	-10145
▁Twitter	-10146
▁juvenile	-10147
▁peninsula	-10148
▁manufacture	-10149
▁obstruction	-10150
▁Particularly	-10151
anol	-10152
▁Dom	-10153
▁Gap	-10154
azing	-10155
▁hung	-10156
▁cheap	-10157
▁sided	-10158
vereign	-10159
▁assume	-10160
▁hearts	-10161
▁keywords	-10162
▁departure	-10163
▁reasoning	-10164
▁sovereign	-10165
orus	-10166
seud	-10167
▁hwa	-10168
▁anest	-10169
▁nozzle	-10170
▁sewage	-10171
▁Bucheon	-10172
▁Product	-10173
▁couples	-10174
▁gravity	-10175
▁perpetr	-10176
▁bereaved	-10177
▁receptor	-10178
▁Procedure	-10179
▁legitimate	-10180
▁improvements	-10181
arc	-10182
▁BP	-10183
▁108	-10184
mother	-10185
▁Hyung	-10186
▁Which	-10187
▁relay	-10188
▁Author	-10189
▁stayed	-10190
▁conclude	-10191
▁producer	-10192
▁surveyed	-10193
▁waveform	-10194
▁platforms	-10195
▁unfamiliar	-10196
▁nutritional	-10197
nas	-10198
▁Ka	-10199
▁Os	-10200
inct	-10201
▁Hyo	-10202
group	-10203
insic	-10204
orous	-10205
▁conve	-10206
▁innoc	-10207
▁guests	-10208
▁asymmet	-10209
▁texture	-10210
▁geometry	-10211
▁detention	-10212
▁investing	-10213
▁discipline	-10214
▁physically	-10215
▁unreasonable	-10216
bi	-10217
▁FA	-10218
▁km	-10219
abul	-10220
▁Clin	-10221
▁coin	-10222
worthy	-10223
▁embed	-10224
▁Jeonju	-10225
▁Square	-10226
▁citing	-10227
▁covers	-10228
▁dissip	-10229
▁temple	-10230
pectives	-10231
▁Shinhan	-10232
▁instant	-10233
▁acoustic	-10234
▁mediating	-10235
BI	-10236
asts	-10237
▁Typ	-10238
▁Who	-10239
▁antiv	-10240
▁bench	-10241
▁donor	-10242
▁guilty	-10243
▁priced	-10244
▁sculpt	-10245
▁Section	-10246
▁anywhere	-10247
▁underway	-10248
▁constitute	-10249
▁influencing	-10250
fall	-10251
▁gir	-10252
▁muc	-10253
▁obese	-10254
▁saved	-10255
▁smile	-10256
lycemic	-10257
▁angles	-10258
ogenesis	-10259
▁examines	-10260
▁finances	-10261
▁demanding	-10262
▁hospitalized	-10263
obic	-10264
▁sty	-10265
▁boom	-10266
▁proc	-10267
▁insol	-10268
▁afford	-10269
▁copies	-10270
▁finals	-10271
▁attacks	-10272
▁decoder	-10273
▁pending	-10274
▁obstacle	-10275
▁outbreak	-10276
▁revenues	-10277
▁navigation	-10278
▁contemporary	-10279
ette	-10280
▁thr	-10281
▁1998	-10282
▁Great	-10283
▁swing	-10284
▁Doosan	-10285
▁bullet	-10286
ifferent	-10287
▁Statist	-10288
▁excited	-10289
▁harvest	-10290
▁routine	-10291
▁injuries	-10292
▁presumed	-10293
▁boyfriend	-10294
▁satellite	-10295
▁inauguration	-10296
▁pancreatitis	-10297
▁piezoelectric	-10298
▁IF	-10299
▁vs	-10300
▁Buk	-10301
▁Ext	-10302
ophil	-10303
echeon	-10304
▁Prize	-10305
▁climb	-10306
▁codes	-10307
▁rotor	-10308
▁liable	-10309
▁majors	-10310
▁settle	-10311
▁stepped	-10312
▁consolid	-10313
▁shipment	-10314
▁slowdown	-10315
▁liberation	-10316
TO	-10317
▁bak	-10318
ouses	-10319
▁Mapo	-10320
▁gaze	-10321
▁drone	-10322
▁flash	-10323
▁solub	-10324
▁fasting	-10325
ocellular	-10326
▁sleeping	-10327
▁perspectives	-10328
isp	-10329
occ	-10330
▁Ma	-10331
▁Mc	-10332
▁lie	-10333
▁Cand	-10334
▁soup	-10335
▁Guard	-10336
▁honest	-10337
▁incons	-10338
▁congrat	-10339
▁evident	-10340
▁computed	-10341
▁crystall	-10342
▁drainage	-10343
▁unveiled	-10344
▁emissions	-10345
▁relocation	-10346
▁emphasizing	-10347
▁provisional	-10348
▁Investigation	-10349
▁134	-10350
▁dye	-10351
▁gly	-10352
▁boil	-10353
▁lamp	-10354
▁nick	-10355
▁afore	-10356
▁cream	-10357
▁notes	-10358
▁sight	-10359
▁ongoing	-10360
mentioned	-10361
▁activate	-10362
▁coronary	-10363
▁Agreement	-10364
▁Similarly	-10365
▁DL	-10366
▁Ti	-10367
link	-10368
iture	-10369
▁Tues	-10370
▁cerv	-10371
▁pork	-10372
▁tent	-10373
▁medic	-10374
▁encoun	-10375
▁organs	-10376
▁Perform	-10377
▁readers	-10378
▁identical	-10379
▁Exhibition	-10380
▁solidarity	-10381
▁vegetables	-10382
▁professionalism	-10383
hai	-10384
▁PV	-10385
avir	-10386
▁pads	-10387
▁reset	-10388
▁truck	-10389
ensions	-10390
▁revise	-10391
▁Yeongde	-10392
▁legally	-10393
▁violent	-10394
▁Analysts	-10395
▁Resources	-10396
▁discomfort	-10397
▁objectives	-10398
▁cholesterol	-10399
▁hepatocellular	-10400
osu	-10401
▁Hell	-10402
▁ware	-10403
▁Study	-10404
▁angry	-10405
▁bread	-10406
▁grows	-10407
▁Byeong	-10408
▁Tuesday	-10409
▁selects	-10410
▁prohibition	-10411
fe	-10412
▁pou	-10413
▁Force	-10414
▁toile	-10415
▁Indian	-10416
▁inferior	-10417
▁permitted	-10418
▁probation	-10419
▁publicity	-10420
▁surprised	-10421
▁thousands	-10422
▁preventive	-10423
▁displacement	-10424
mu	-10425
▁GM	-10426
stan	-10427
opathy	-10428
▁aspir	-10429
▁calib	-10430
▁eosin	-10431
ogenous	-10432
▁infant	-10433
▁treaty	-10434
▁coeffic	-10435
▁develops	-10436
▁malignant	-10437
▁discharging	-10438
▁enhancement	-10439
▁coefficients	-10440
▁116	-10441
▁ren	-10442
▁legs	-10443
arents	-10444
▁compat	-10445
▁facial	-10446
▁permit	-10447
▁Kookmin	-10448
▁anymore	-10449
▁password	-10450
▁theaters	-10451
▁neglected	-10452
▁revealing	-10453
▁ordinances	-10454
▁consistency	-10455
▁stabilization	-10456
Hz	-10457
pm	-10458
stig	-10459
▁Put	-10460
▁dupl	-10461
▁intu	-10462
▁adopt	-10463
▁imper	-10464
abulary	-10465
▁Gwanak	-10466
▁Panmun	-10467
▁lights	-10468
▁propag	-10469
▁sensed	-10470
lication	-10471
▁insured	-10472
▁placebo	-10473
▁homogene	-10474
▁preserve	-10475
▁pressing	-10476
hak	-10477
idel	-10478
pple	-10479
wood	-10480
▁Adv	-10481
▁gym	-10482
ogram	-10483
▁angi	-10484
▁arms	-10485
▁barg	-10486
▁libr	-10487
letion	-10488
▁Times	-10489
▁teeth	-10490
lfriend	-10491
▁epidem	-10492
▁pledge	-10493
▁wooden	-10494
chemical	-10495
▁Library	-10496
▁dividends	-10497
▁Conference	-10498
▁colleagues	-10499
▁randomized	-10500
▁attractions	-10501
▁observations	-10502
▁transferring	-10503
RD	-10504
bles	-10505
adder	-10506
lands	-10507
papers	-10508
▁chips	-10509
▁incom	-10510
▁mouse	-10511
▁secre	-10512
▁melody	-10513
▁uplink	-10514
▁refugee	-10515
▁liquidity	-10516
▁deformation	-10517
dang	-10518
▁720	-10519
▁TAC	-10520
▁Shang	-10521
▁stagn	-10522
chestra	-10523
▁breath	-10524
▁curing	-10525
▁implies	-10526
▁encouraging	-10527
▁Wi	-10528
▁wt	-10529
idal	-10530
ylene	-10531
▁hate	-10532
▁stiff	-10533
▁History	-10534
▁initiated	-10535
▁packaging	-10536
▁separator	-10537
▁typically	-10538
▁faithfully	-10539
▁stimulation	-10540
▁Sol	-10541
▁env	-10542
arbon	-10543
ondon	-10544
▁Ship	-10545
▁pays	-10546
▁wing	-10547
▁stops	-10548
▁trench	-10549
▁loading	-10550
▁turbine	-10551
astically	-10552
▁promotes	-10553
▁arthritis	-10554
▁Evaluation	-10555
▁distribute	-10556
▁Rad	-10557
▁luck	-10558
▁Judge	-10559
▁horse	-10560
▁winners	-10561
fficiency	-10562
▁friction	-10563
▁offender	-10564
▁aforementioned	-10565
▁semiconductors	-10566
ips	-10567
▁Vis	-10568
▁pyo	-10569
ffect	-10570
▁slot	-10571
etween	-10572
▁ferry	-10573
▁laugh	-10574
▁binder	-10575
▁editing	-10576
▁economies	-10577
▁Statistical	-10578
xit	-10579
▁Mu	-10580
▁ul	-10581
fast	-10582
▁Sil	-10583
ingly	-10584
letal	-10585
▁Mike	-10586
▁buck	-10587
ocheon	-10588
▁Naver	-10589
▁debts	-10590
▁London	-10591
ursement	-10592
▁antiviral	-10593
▁worsening	-10594
▁compressed	-10595
▁identifier	-10596
▁embezzlement	-10597
atal	-10598
uria	-10599
▁192	-10600
▁Emb	-10601
enery	-10602
▁pelv	-10603
▁Election	-10604
▁regulate	-10605
▁maintains	-10606
▁surprising	-10607
RNA	-10608
rem	-10609
uts	-10610
▁El	-10611
▁MT	-10612
▁py	-10613
ride	-10614
▁Dam	-10615
▁MBC	-10616
▁VAT	-10617
▁cruc	-10618
▁shel	-10619
▁aired	-10620
▁wafer	-10621
▁wired	-10622
ensitive	-10623
▁plating	-10624
▁alliance	-10625
▁primarily	-10626
▁realizing	-10627
gyo	-10628
▁Ed	-10629
▁301	-10630
▁Jak	-10631
igned	-10632
▁1100	-10633
▁Paul	-10634
▁cond	-10635
▁craf	-10636
▁Audit	-10637
▁Event	-10638
attered	-10639
▁hazard	-10640
▁rubber	-10641
▁solder	-10642
▁Olympic	-10643
▁kitchen	-10644
▁classify	-10645
▁terrorist	-10646
▁transfers	-10647
▁girlfriend	-10648
▁stakeholders	-10649
▁circumference	-10650
box	-10651
▁SA	-10652
gypt	-10653
outs	-10654
▁Know	-10655
ushing	-10656
▁pseud	-10657
▁tells	-10658
▁fledged	-10659
▁hygiene	-10660
▁portfol	-10661
uneration	-10662
▁actuator	-10663
ocated	-10664
▁Egypt	-10665
▁Emerg	-10666
▁pitch	-10667
▁texts	-10668
▁Brexit	-10669
▁metals	-10670
▁Namyang	-10671
▁tensile	-10672
▁connects	-10673
▁guardian	-10674
▁quarters	-10675
▁preserved	-10676
▁introduces	-10677
▁vocabulary	-10678
eal	-10679
hang	-10680
▁Eth	-10681
esong	-10682
▁beach	-10683
amation	-10684
▁amended	-10685
▁perpend	-10686
▁prestig	-10687
▁sexually	-10688
▁fertility	-10689
▁insignificant	-10690
▁professionals	-10691
EA	-10692
▁03	-10693
▁EM	-10694
▁630	-10695
▁Sou	-10696
idate	-10697
▁Club	-10698
▁sort	-10699
▁wider	-10700
▁degrad	-10701
▁manages	-10702
▁Gwangjin	-10703
▁contacts	-10704
▁inhibitor	-10705
▁prominent	-10706
▁tolerance	-10707
HO	-10708
▁TR	-10709
aper	-10710
▁143	-10711
▁280	-10712
▁Dise	-10713
▁Five	-10714
▁wine	-10715
arrass	-10716
▁Again	-10717
▁remin	-10718
fection	-10719
▁static	-10720
▁studio	-10721
▁waters	-10722
▁hitting	-10723
ciliation	-10724
▁apparent	-10725
▁comprise	-10726
▁Sometimes	-10727
▁recruited	-10728
▁endoscopic	-10729
▁illegality	-10730
▁kilometers	-10731
▁complication	-10732
▁hired	-10733
▁spicy	-10734
▁spots	-10735
▁Period	-10736
▁cooled	-10737
▁arrival	-10738
▁engines	-10739
▁linkage	-10740
▁exhibited	-10741
▁expresses	-10742
▁dispersion	-10743
▁confrontation	-10744
dae	-10745
▁Gw	-10746
lers	-10747
▁FSS	-10748
▁FTC	-10749
acheon	-10750
▁minds	-10751
▁editor	-10752
▁osteop	-10753
▁bidding	-10754
▁criminals	-10755
▁psychology	-10756
▁Comparative	-10757
▁vaccination	-10758
▁architecture	-10759
hin	-10760
▁Cu	-10761
▁iP	-10762
▁401	-10763
▁hotels	-10764
▁cervical	-10765
▁subgroup	-10766
▁violates	-10767
▁Uzbekistan	-10768
▁impressive	-10769
▁substitute	-10770
▁consequences	-10771
▁disadvantages	-10772
DI	-10773
rid	-10774
▁CJ	-10775
▁dot	-10776
▁Time	-10777
▁impe	-10778
ogenic	-10779
▁POSCO	-10780
elihood	-10781
▁assemb	-10782
▁digest	-10783
▁weapon	-10784
▁workshop	-10785
▁embarrass	-10786
▁ventilation	-10787
een	-10788
gok	-10789
▁PF	-10790
term	-10791
imity	-10792
▁none	-10793
▁hypog	-10794
▁brokerage	-10795
▁developer	-10796
▁sponsored	-10797
▁metabolism	-10798
▁rotational	-10799
apar	-10800
▁145	-10801
▁161	-10802
▁Ber	-10803
▁Dav	-10804
▁Ren	-10805
▁fly	-10806
▁Foot	-10807
▁Upon	-10808
ortion	-10809
▁Liver	-10810
▁quart	-10811
▁showc	-10812
▁cylind	-10813
▁tablet	-10814
▁ovarian	-10815
▁survive	-10816
▁conducts	-10817
▁appearing	-10818
▁machinery	-10819
▁complement	-10820
▁demonstrate	-10821
rain	-10822
ulty	-10823
▁222	-10824
▁Cur	-10825
▁NAS	-10826
▁lod	-10827
▁worn	-10828
▁Stock	-10829
▁adren	-10830
▁Sweden	-10831
▁capita	-10832
▁defeat	-10833
▁indemn	-10834
▁leaked	-10835
▁arising	-10836
▁feeding	-10837
▁extraord	-10838
▁lawsuits	-10839
▁mistakes	-10840
▁pleasure	-10841
yme	-10842
emark	-10843
▁blade	-10844
▁hoped	-10845
▁imbal	-10846
▁Awards	-10847
▁junior	-10848
▁weekly	-10849
▁Natural	-10850
▁Persons	-10851
▁decades	-10852
▁existed	-10853
▁extends	-10854
▁opposing	-10855
▁explosion	-10856
▁noteworthy	-10857
▁personally	-10858
roc	-10859
▁Bal	-10860
oided	-10861
▁emit	-10862
▁subd	-10863
urches	-10864
▁boxes	-10865
▁Unions	-10866
▁joints	-10867
▁visually	-10868
▁exercised	-10869
▁likelihood	-10870
▁counterpart	-10871
▁intentional	-10872
▁interventions	-10873
▁PU	-10874
▁Wr	-10875
pool	-10876
▁Gen	-10877
▁Tom	-10878
▁Rail	-10879
▁hire	-10880
ifiers	-10881
▁congl	-10882
ifiable	-10883
▁Gender	-10884
▁Summit	-10885
▁anonym	-10886
▁dental	-10887
▁loaded	-10888
▁sodium	-10889
ortheast	-10890
▁colorful	-10891
▁comprises	-10892
▁malicious	-10893
▁evaluations	-10894
▁Entertainment	-10895
▁Establishment	-10896
▁encapsulation	-10897
BL	-10898
▁UV	-10899
arta	-10900
oves	-10901
▁Doo	-10902
▁SBS	-10903
▁fle	-10904
field	-10905
maker	-10906
▁quad	-10907
▁graft	-10908
▁seeks	-10909
▁spont	-10910
▁tries	-10911
▁bonded	-10912
▁frustr	-10913
▁Jeonnam	-10914
▁avoided	-10915
▁volatile	-10916
▁celebrate	-10917
▁eliminate	-10918
hum	-10919
▁Abe	-10920
▁Gumi	-10921
▁Pass	-10922
▁Term	-10923
▁hero	-10924
▁medi	-10925
▁unav	-10926
illary	-10927
▁Memor	-10928
▁riding	-10929
▁graphic	-10930
▁hormone	-10931
▁massage	-10932
▁Chemical	-10933
▁conglomer	-10934
▁evolution	-10935
▁strengths	-10936
▁Previously	-10937
▁integrally	-10938
▁vertically	-10939
▁suggestions	-10940
▁remuneration	-10941
asy	-10942
ropy	-10943
▁hob	-10944
▁une	-10945
acerb	-10946
rophy	-10947
▁Init	-10948
▁depr	-10949
▁jeong	-10950
▁maker	-10951
▁trail	-10952
▁Buddha	-10953
▁deform	-10954
▁verbal	-10955
▁prosper	-10956
▁barriers	-10957
▁embedded	-10958
▁incomple	-10959
▁interfere	-10960
▁reservoir	-10961
▁approached	-10962
▁boundaries	-10963
▁contributes	-10964
oto	-10965
▁Farm	-10966
▁escap	-10967
etitive	-10968
▁Reform	-10969
▁header	-10970
▁involves	-10971
▁proximal	-10972
▁exercising	-10973
▁sentencing	-10974
▁appreciation	-10975
▁destinations	-10976
▁perpendicular	-10977
agen	-10978
iece	-10979
ipts	-10980
play	-10981
▁Eui	-10982
erity	-10983
▁evil	-10984
▁heir	-10985
▁tower	-10986
pection	-10987
▁argues	-10988
▁commod	-10989
▁prejud	-10990
▁sphere	-10991
▁Network	-10992
▁specify	-10993
▁Gangdong	-10994
▁allergic	-10995
▁millions	-10996
▁partners	-10997
▁surprise	-10998
▁procedural	-10999
▁workplaces	-11000
▁substituted	-11001
▁Ap	-11002
▁HF	-11003
▁WL	-11004
afen	-11005
▁Kaz	-11006
▁THA	-11007
hyeon	-11008
▁Span	-11009
▁exag	-11010
▁seop	-11011
▁exams	-11012
▁grain	-11013
▁helic	-11014
▁spark	-11015
▁Asiana	-11016
▁lesson	-11017
▁licens	-11018
▁exacerb	-11019
▁founder	-11020
▁immunos	-11021
▁weakened	-11022
▁affection	-11023
▁designing	-11024
▁emergence	-11025
▁furniture	-11026
▁parenting	-11027
▁progressed	-11028
▁politicians	-11029
ER	-11030
▁TC	-11031
▁SVR	-11032
▁Anti	-11033
▁cuts	-11034
▁gases	-11035
uncture	-11036
▁inputs	-11037
▁talented	-11038
▁supporters	-11039
with	-11040
▁001	-11041
▁suk	-11042
▁tab	-11043
ented	-11044
▁2022	-11045
▁Guro	-11046
oseong	-11047
▁fried	-11048
▁posts	-11049
▁mapping	-11050
▁pansori	-11051
▁Mathemat	-11052
▁dramatic	-11053
▁urgently	-11054
▁assaulted	-11055
▁summarizes	-11056
▁modification	-11057
▁extraordinary	-11058
pha	-11059
oted	-11060
▁ate	-11061
▁mesh	-11062
▁Heavy	-11063
▁greet	-11064
▁hopes	-11065
▁nurse	-11066
▁sauce	-11067
▁distal	-11068
▁invoice	-11069
▁exploded	-11070
▁switched	-11071
▁obligated	-11072
▁relevance	-11073
▁Prosecutor	-11074
▁initiative	-11075
▁overcoming	-11076
▁paragraphs	-11077
▁championship	-11078
ows	-11079
uli	-11080
▁UA	-11081
bing	-11082
opic	-11083
▁gyu	-11084
etime	-11085
gered	-11086
▁jong	-11087
▁kids	-11088
ometer	-11089
▁cheer	-11090
▁gifts	-11091
▁regim	-11092
▁tooth	-11093
▁banned	-11094
▁synergy	-11095
▁immunity	-11096
▁alignment	-11097
▁augmented	-11098
▁intrinsic	-11099
▁Statistics	-11100
▁complexity	-11101
▁outpatient	-11102
▁refractive	-11103
assy	-11104
▁cycl	-11105
▁glad	-11106
osable	-11107
▁netiz	-11108
▁locals	-11109
▁Individ	-11110
▁markers	-11111
▁bringing	-11112
▁carriers	-11113
▁newspapers	-11114
▁translated	-11115
▁reorganized	-11116
ipe	-11117
▁203	-11118
▁Lab	-11119
▁gel	-11120
▁nec	-11121
tally	-11122
▁Cath	-11123
▁Hope	-11124
▁Okay	-11125
▁mine	-11126
afenib	-11127
▁toxic	-11128
duction	-11129
▁decade	-11130
▁ethnic	-11131
▁helicop	-11132
▁homepage	-11133
▁animation	-11134
▁competing	-11135
▁antibodies	-11136
▁overwhelming	-11137
Ag	-11138
MC	-11139
fr	-11140
gak	-11141
isk	-11142
▁AL	-11143
irty	-11144
▁Ret	-11145
opath	-11146
uated	-11147
▁adhe	-11148
▁sees	-11149
▁yeol	-11150
▁modes	-11151
▁patri	-11152
▁finite	-11153
▁drawings	-11154
▁meanings	-11155
▁Treatment	-11156
▁finalized	-11157
▁propensity	-11158
▁concentrate	-11159
▁grandmother	-11160
▁synthesized	-11161
▁proliferation	-11162
80	-11163
▁126	-11164
▁Wan	-11165
▁ank	-11166
▁hes	-11167
itate	-11168
▁CSAT	-11169
▁Dang	-11170
▁Jour	-11171
▁disk	-11172
▁epoxy	-11173
▁Budget	-11174
▁caring	-11175
▁intent	-11176
▁redistr	-11177
▁seminar	-11178
▁writers	-11179
▁adequate	-11180
▁inclusive	-11181
▁eliminated	-11182
▁questioned	-11183
▁confidential	-11184
▁subcommittee	-11185
US	-11186
xid	-11187
▁GL	-11188
▁Ky	-11189
▁TP	-11190
arsh	-11191
ider	-11192
umab	-11193
▁yen	-11194
hesia	-11195
▁1995	-11196
▁dorm	-11197
▁fare	-11198
▁neph	-11199
▁bowel	-11200
▁liked	-11201
urement	-11202
▁Herein	-11203
▁binary	-11204
▁Spanish	-11205
▁defines	-11206
▁filters	-11207
▁minimal	-11208
▁therein	-11209
▁Shanghai	-11210
▁invasive	-11211
▁Broadcast	-11212
▁dominated	-11213
▁publishing	-11214
▁reinforced	-11215
▁antibiotics	-11216
bur	-11217
▁TE	-11218
usal	-11219
▁hat	-11220
▁nob	-11221
reens	-11222
▁1960	-11223
▁visc	-11224
▁Liter	-11225
▁Lunar	-11226
▁pages	-11227
levision	-11228
▁grammar	-11229
▁preview	-11230
▁shortly	-11231
▁commence	-11232
▁mutation	-11233
▁overlook	-11234
▁Corporate	-11235
▁immersion	-11236
▁shipbuilding	-11237
▁communicating	-11238
▁li	-11239
▁Corp	-11240
▁curv	-11241
obiles	-11242
▁booked	-11243
▁depict	-11244
▁makeup	-11245
▁punish	-11246
▁Britain	-11247
▁Process	-11248
▁divorce	-11249
▁patents	-11250
▁trigger	-11251
▁lifetime	-11252
▁osteopor	-11253
▁prevents	-11254
▁proceeded	-11255
▁scattered	-11256
▁immigration	-11257
▁questionable	-11258
▁SG	-11259
▁136	-11260
▁550	-11261
▁CKD	-11262
▁spr	-11263
isive	-11264
▁clos	-11265
▁hang	-11266
▁Right	-11267
▁shout	-11268
▁Anyang	-11269
▁Hanjin	-11270
▁roller	-11271
▁varied	-11272
▁pharmac	-11273
▁mediated	-11274
regulation	-11275
▁breakfast	-11276
▁uniformly	-11277
▁Chungcheongnam	-11278
NO	-11279
urd	-11280
▁TN	-11281
asia	-11282
ashed	-11283
▁Isra	-11284
▁enem	-11285
▁tang	-11286
▁Block	-11287
▁Gimpo	-11288
▁Silla	-11289
▁Govern	-11290
▁ancest	-11291
▁repeat	-11292
▁senses	-11293
▁traded	-11294
▁albumin	-11295
▁antigen	-11296
▁adoption	-11297
▁determin	-11298
▁recurrent	-11299
▁speculation	-11300
ady	-11301
▁CG	-11302
utor	-11303
▁153	-11304
▁Ann	-11305
▁Chi	-11306
▁Isl	-11307
▁hik	-11308
▁tur	-11309
▁Long	-11310
▁outs	-11311
▁soph	-11312
▁Hello	-11313
▁hollow	-11314
▁laughter	-11315
▁voltages	-11316
ologically	-11317
▁capturing	-11318
▁delegated	-11319
▁Individual	-11320
▁Yeongdeung	-11321
▁basketball	-11322
▁compromise	-11323
▁mainstream	-11324
▁programming	-11325
awn	-11326
▁Heo	-11327
▁Tra	-11328
▁soy	-11329
▁acup	-11330
▁knot	-11331
▁laid	-11332
▁opens	-11333
▁Living	-11334
▁Pastor	-11335
▁cycles	-11336
▁diesel	-11337
▁harder	-11338
▁pastor	-11339
▁chances	-11340
▁occasion	-11341
▁trademark	-11342
▁algorithms	-11343
▁cigarettes	-11344
▁incomplete	-11345
▁influences	-11346
▁playground	-11347
▁consultative	-11348
▁economically	-11349
ask	-11350
icul	-11351
oric	-11352
▁fav	-11353
acles	-11354
scill	-11355
▁grat	-11356
▁dense	-11357
▁waist	-11358
through	-11359
▁Credit	-11360
▁shadow	-11361
▁biliary	-11362
▁Gyeongju	-11363
▁auditors	-11364
▁explored	-11365
▁magazine	-11366
▁turnover	-11367
▁exercises	-11368
▁numerical	-11369
▁Australian	-11370
▁assignment	-11371
▁submission	-11372
▁circulating	-11373
▁acknowledged	-11374
▁02	-11375
▁IU	-11376
edia	-11377
▁107	-11378
▁Lif	-11379
▁arom	-11380
▁kyun	-11381
▁resil	-11382
▁trips	-11383
▁coupon	-11384
▁stones	-11385
▁lending	-11386
▁ordering	-11387
▁abnormalities	-11388
akh	-11389
▁Up	-11390
enia	-11391
▁232	-11392
▁ram	-11393
▁Play	-11394
▁trib	-11395
▁males	-11396
▁drinks	-11397
▁oscill	-11398
▁ripple	-11399
▁sulfur	-11400
▁wishes	-11401
▁Eastern	-11402
▁Jakarta	-11403
▁apology	-11404
▁cheering	-11405
▁filtering	-11406
▁testimony	-11407
▁congestion	-11408
▁complementary	-11409
ana	-11410
unc	-11411
ovir	-11412
▁231	-11413
gebra	-11414
table	-11415
▁Prem	-11416
ileged	-11417
▁incub	-11418
▁lying	-11419
▁Person	-11420
▁resume	-11421
▁rotate	-11422
▁rumors	-11423
▁closure	-11424
▁crowded	-11425
▁Emergency	-11426
▁appraisal	-11427
▁greenhouse	-11428
▁advancement	-11429
▁automobiles	-11430
▁reproduction	-11431
▁gi	-11432
clic	-11433
eeper	-11434
▁Bund	-11435
▁cosm	-11436
▁fant	-11437
ateful	-11438
▁frozen	-11439
▁panels	-11440
▁underm	-11441
lusively	-11442
▁combine	-11443
▁outlook	-11444
▁proteins	-11445
▁severely	-11446
▁simultaneous	-11447
▁nanoparticles	-11448
amun	-11449
▁311	-11450
▁1200	-11451
▁Game	-11452
▁Seod	-11453
▁asks	-11454
▁neur	-11455
▁plus	-11456
▁wash	-11457
▁fired	-11458
▁multim	-11459
▁titled	-11460
▁neither	-11461
▁stating	-11462
▁Official	-11463
▁railroad	-11464
ographical	-11465
▁dissatisf	-11466
▁relatives	-11467
▁repeating	-11468
▁Inspection	-11469
▁fraudulent	-11470
KI	-11471
opt	-11472
uly	-11473
roll	-11474
▁CHB	-11475
emble	-11476
▁scar	-11477
▁Coast	-11478
▁cytok	-11479
▁latch	-11480
▁oneself	-11481
▁praised	-11482
▁worship	-11483
▁entities	-11484
▁extensive	-11485
▁stabilize	-11486
▁Conversely	-11487
▁projection	-11488
▁prestigious	-11489
IP	-11490
IST	-11491
awa	-11492
urea	-11493
agram	-11494
▁gamb	-11495
▁tall	-11496
enture	-11497
▁Jinju	-11498
▁Winter	-11499
▁hydrox	-11500
▁Program	-11501
▁painful	-11502
▁scenery	-11503
▁Football	-11504
▁supplier	-11505
▁bargaining	-11506
▁distortion	-11507
▁profession	-11508
▁cylindrical	-11509
▁purification	-11510
GFR	-11511
▁171	-11512
chers	-11513
▁Mich	-11514
▁Phys	-11515
▁tort	-11516
▁Yeosu	-11517
▁fruits	-11518
▁thinks	-11519
▁Uijeong	-11520
▁relieve	-11521
▁triangle	-11522
▁alcoholic	-11523
▁contacted	-11524
▁libraries	-11525
▁musicians	-11526
▁precision	-11527
▁proximity	-11528
▁explicitly	-11529
▁Traditional	-11530
▁intersection	-11531
ini	-11532
▁Ve	-11533
erge	-11534
rait	-11535
▁ker	-11536
▁esoph	-11537
izations	-11538
▁heavily	-11539
▁explanations	-11540
▁possibilities	-11541
alian	-11542
▁Thai	-11543
▁beef	-11544
▁plot	-11545
▁Daily	-11546
▁alter	-11547
▁hydra	-11548
▁serial	-11549
ensation	-11550
ferences	-11551
▁Burning	-11552
▁Meeting	-11553
▁approve	-11554
▁bribery	-11555
▁precurs	-11556
▁rotated	-11557
▁touched	-11558
ochemical	-11559
▁pointing	-11560
▁subjected	-11561
▁promotional	-11562
▁Yeongdeungpo	-11563
PC	-11564
▁Fort	-11565
▁pour	-11566
▁Cheol	-11567
▁Micro	-11568
▁Plaza	-11569
▁hemat	-11570
▁polym	-11571
▁Leader	-11572
▁dissem	-11573
▁floors	-11574
▁herein	-11575
▁Jeonbuk	-11576
▁lifting	-11577
▁airlines	-11578
▁curvature	-11579
▁practiced	-11580
▁filtration	-11581
▁impairment	-11582
▁unemployed	-11583
mal	-11584
▁MD	-11585
▁Bay	-11586
▁Pur	-11587
piece	-11588
▁Wall	-11589
▁ward	-11590
▁paste	-11591
▁bottle	-11592
▁enzyme	-11593
▁evenly	-11594
▁Contest	-11595
▁caution	-11596
▁confisc	-11597
▁suspend	-11598
▁churches	-11599
▁crossing	-11600
▁diagnose	-11601
▁judgments	-11602
▁ministers	-11603
▁synthetic	-11604
▁interposed	-11605
▁interpersonal	-11606
gae	-11607
▁GT	-11608
heum	-11609
xual	-11610
▁155	-11611
adequ	-11612
oline	-11613
proof	-11614
▁caut	-11615
▁tied	-11616
liances	-11617
▁attach	-11618
▁Journal	-11619
▁locking	-11620
▁keyboard	-11621
▁Political	-11622
▁Uijeongbu	-11623
▁practically	-11624
▁fundamentally	-11625
ja	-11626
▁BA	-11627
▁CB	-11628
▁Amb	-11629
▁taxed	-11630
▁vocal	-11631
oglobin	-11632
ricular	-11633
▁Daewoo	-11634
▁diplom	-11635
▁intend	-11636
▁resort	-11637
▁ceiling	-11638
▁dancing	-11639
▁telling	-11640
▁farmland	-11641
▁occupied	-11642
▁borrowing	-11643
▁finishing	-11644
▁secretion	-11645
▁intestinal	-11646
▁Transportation	-11647
GB	-11648
atar	-11649
ulic	-11650
utch	-11651
▁162	-11652
asses	-11653
▁1999	-11654
▁Base	-11655
▁Myan	-11656
▁Type	-11657
▁chae	-11658
▁Later	-11659
▁Schol	-11660
▁truly	-11661
ellitus	-11662
ogether	-11663
▁patrol	-11664
▁concave	-11665
▁disrupt	-11666
▁dispatch	-11667
▁migration	-11668
▁releasing	-11669
▁competitors	-11670
▁Championship	-11671
▁incorporated	-11672
▁photosensitive	-11673
OD	-11674
▁Yon	-11675
▁Hana	-11676
▁tape	-11677
myeong	-11678
▁Media	-11679
▁essay	-11680
▁piano	-11681
▁retro	-11682
▁tough	-11683
▁Respon	-11684
▁encomp	-11685
▁indict	-11686
▁statue	-11687
ologists	-11688
▁Nations	-11689
▁amazing	-11690
▁domains	-11691
▁exhibit	-11692
▁Autonomy	-11693
▁employer	-11694
▁ultimate	-11695
▁mutations	-11696
lip	-11697
▁HM	-11698
▁ICO	-11699
ocyte	-11700
▁Main	-11701
▁bars	-11702
▁fing	-11703
▁unity	-11704
▁decides	-11705
▁faculty	-11706
▁lessons	-11707
▁movable	-11708
▁decisive	-11709
▁dissolved	-11710
▁mountains	-11711
▁optimized	-11712
▁petitions	-11713
▁appliances	-11714
▁brightness	-11715
▁deficiency	-11716
▁disposable	-11717
▁immunosupp	-11718
▁surrounded	-11719
▁examinations	-11720
abuk	-11721
grav	-11722
rine	-11723
ocked	-11724
▁Woor	-11725
▁apps	-11726
▁Panel	-11727
▁overe	-11728
▁lifted	-11729
▁radial	-11730
▁trauma	-11731
endation	-11732
incerity	-11733
▁biomark	-11734
▁lodging	-11735
▁welcome	-11736
▁Airlines	-11737
▁arterial	-11738
▁mellitus	-11739
▁cigarette	-11740
▁portfolio	-11741
▁irradiation	-11742
▁competitions	-11743
▁implementations	-11744
enn	-11745
▁eu	-11746
▁213	-11747
▁540	-11748
▁Sho	-11749
ioxid	-11750
▁lift	-11751
▁Happy	-11752
▁Tower	-11753
▁alien	-11754
▁bands	-11755
▁brake	-11756
roscope	-11757
▁Perhaps	-11758
▁adrenal	-11759
▁algebra	-11760
▁hydroph	-11761
▁keyword	-11762
▁screens	-11763
▁Memorial	-11764
▁enlarged	-11765
▁pensions	-11766
▁imbalance	-11767
▁comprising	-11768
▁persistent	-11769
oz	-11770
jom	-11771
▁Ca	-11772
▁Ev	-11773
▁Dig	-11774
state	-11775
▁Exec	-11776
▁Hyeon	-11777
▁Langu	-11778
ologist	-11779
▁maternal	-11780
▁ambiguous	-11781
▁commander	-11782
▁distorted	-11783
▁initiation	-11784
▁repetitive	-11785
▁consignment	-11786
▁decomposition	-11787
eds	-11788
hee	-11789
▁AV	-11790
▁Use	-11791
dered	-11792
▁Cell	-11793
▁Chul	-11794
▁TACE	-11795
▁hyuk	-11796
orship	-11797
ivating	-11798
▁Indeed	-11799
▁eighth	-11800
▁picked	-11801
▁ratios	-11802
▁Myanmar	-11803
▁forests	-11804
▁normative	-11805
▁replacing	-11806
▁admissions	-11807
▁suspicious	-11808
▁highlighted	-11809
▁threatening	-11810
▁intentionally	-11811
TT	-11812
▁AB	-11813
▁Ri	-11814
ushed	-11815
▁bare	-11816
▁soul	-11817
▁alive	-11818
▁ammon	-11819
▁forth	-11820
▁remod	-11821
▁advised	-11822
▁possess	-11823
inational	-11824
▁Panmunjom	-11825
▁amplitude	-11826
▁attaching	-11827
▁derivative	-11828
▁similarity	-11829
▁rectangular	-11830
aka	-11831
anda	-11832
ands	-11833
▁ASE	-11834
inator	-11835
luding	-11836
▁Index	-11837
▁KOSPI	-11838
▁careg	-11839
▁fatal	-11840
▁straw	-11841
▁layout	-11842
▁ledger	-11843
▁wholes	-11844
▁Improve	-11845
▁edition	-11846
▁noodles	-11847
▁posting	-11848
▁steroid	-11849
▁Language	-11850
▁avoiding	-11851
▁humanity	-11852
▁integral	-11853
▁weighted	-11854
▁Authority	-11855
▁entertain	-11856
▁placement	-11857
▁celebrities	-11858
▁photographs	-11859
▁populations	-11860
▁Communications	-11861
▁redistribution	-11862
ulg	-11863
▁ml	-11864
aste	-11865
▁175	-11866
isite	-11867
▁cort	-11868
▁enorm	-11869
▁retal	-11870
▁spine	-11871
▁pocket	-11872
▁warned	-11873
▁washed	-11874
▁Kingdom	-11875
▁expands	-11876
▁unavoid	-11877
▁Everyone	-11878
▁confused	-11879
▁instance	-11880
▁touching	-11881
▁Afterwards	-11882
▁conflicting	-11883
▁SN	-11884
acon	-11885
pert	-11886
▁PCB	-11887
▁Six	-11888
▁bump	-11889
▁pept	-11890
▁sput	-11891
elsius	-11892
inseng	-11893
▁Light	-11894
▁headed	-11895
▁ranges	-11896
▁inadequ	-11897
▁prerequ	-11898
▁analysts	-11899
▁anterior	-11900
▁dialysis	-11901
▁hydraulic	-11902
▁resolving	-11903
▁sincerity	-11904
▁quantities	-11905
▁Broadcasting	-11906
ya	-11907
arn	-11908
▁ji	-11909
list	-11910
urry	-11911
▁312	-11912
▁Bol	-11913
▁Nan	-11914
▁Sem	-11915
▁lag	-11916
liers	-11917
▁Acts	-11918
▁Area	-11919
▁cher	-11920
utable	-11921
▁Regard	-11922
▁virtue	-11923
▁Kaesong	-11924
▁ignored	-11925
▁Analysis	-11926
▁antioxid	-11927
▁borrowed	-11928
▁bulletin	-11929
▁catching	-11930
▁inclusion	-11931
ura	-11932
▁EB	-11933
▁OP	-11934
▁TI	-11935
otox	-11936
▁Unf	-11937
▁Live	-11938
▁bold	-11939
▁boys	-11940
▁ports	-11941
▁breaks	-11942
▁menstr	-11943
▁Bitcoin	-11944
▁Without	-11945
▁females	-11946
▁inverse	-11947
▁outflow	-11948
▁rewards	-11949
itatively	-11950
▁Electric	-11951
▁designer	-11952
▁faithful	-11953
▁executing	-11954
▁graduated	-11955
▁Electronic	-11956
▁conditioning	-11957
▁distributing	-11958
▁photographed	-11959
▁ER	-11960
adays	-11961
grade	-11962
▁foam	-11963
▁hits	-11964
▁inhal	-11965
▁Argent	-11966
▁emerge	-11967
▁flying	-11968
▁Nuclear	-11969
▁crucial	-11970
▁preempt	-11971
▁Creative	-11972
▁endoscopy	-11973
▁qualified	-11974
▁suppressed	-11975
▁acupuncture	-11976
▁deteriorated	-11977
▁multivariate	-11978
ann	-11979
asc	-11980
▁ML	-11981
acco	-11982
eing	-11983
▁End	-11984
uters	-11985
▁eggs	-11986
▁leap	-11987
▁acids	-11988
▁doors	-11989
▁infar	-11990
▁overt	-11991
▁rigid	-11992
▁stent	-11993
▁token	-11994
▁Confed	-11995
▁correl	-11996
▁merely	-11997
▁multil	-11998
▁Jinping	-11999
▁windows	-12000
▁predicts	-12001
▁incidents	-12002
▁retention	-12003
▁Regardless	-12004
▁comparable	-12005
▁pollutants	-12006
▁exceptional	-12007
▁excessively	-12008
▁exclusively	-12009
▁informatization	-12010
▁04	-12011
▁Kw	-12012
▁SR	-12013
view	-12014
wave	-12015
▁dict	-12016
▁gang	-12017
▁alkal	-12018
▁pipes	-12019
▁reapp	-12020
▁reign	-12021
▁Report	-12022
▁mining	-12023
▁tenant	-12024
▁ethanol	-12025
▁Chungbuk	-12026
▁inferred	-12027
▁Dongdaemun	-12028
▁Expressway	-12029
▁separating	-12030
▁classifying	-12031
▁impeachment	-12032
▁osteoporosis	-12033
ads	-12034
▁Id	-12035
▁PH	-12036
ympt	-12037
▁Den	-12038
▁nam	-12039
▁wis	-12040
▁1994	-12041
▁deny	-12042
▁odds	-12043
▁vibr	-12044
ulsion	-12045
▁Early	-12046
▁Woori	-12047
▁admit	-12048
▁neutr	-12049
▁Palace	-12050
▁Should	-12051
▁golden	-12052
▁robust	-12053
▁stably	-12054
▁tended	-12055
▁Chamber	-12056
▁Disease	-12057
▁pursuit	-12058
▁grateful	-12059
▁openings	-12060
▁Democracy	-12061
▁benchmark	-12062
▁offenders	-12063
▁suppliers	-12064
▁triggered	-12065
▁liabilities	-12066
▁preferences	-12067
▁constructing	-12068
▁conveniently	-12069
aked	-12070
▁COV	-12071
▁Gye	-12072
pread	-12073
▁Viol	-12074
▁bomb	-12075
▁cler	-12076
▁Belgi	-12077
funding	-12078
aturated	-12079
▁Actress	-12080
▁Iranian	-12081
▁landing	-12082
▁nations	-12083
▁shifted	-12084
▁Catholic	-12085
▁Southern	-12086
▁bathroom	-12087
▁exciting	-12088
▁decorated	-12089
▁Integrated	-12090
ocratization	-12091
▁calibration	-12092
▁suppression	-12093
▁unavoidable	-12094
▁EV	-12095
▁NFC	-12096
▁Spr	-12097
▁Suk	-12098
▁iPh	-12099
iforn	-12100
▁Case	-12101
▁dump	-12102
ropathy	-12103
▁Golden	-12104
▁Officer	-12105
▁captain	-12106
▁seekers	-12107
▁Californ	-12108
▁Equality	-12109
▁cellular	-12110
▁reinforce	-12111
▁supervise	-12112
▁combinations	-12113
▁commencement	-12114
ima	-12115
jak	-12116
oda	-12117
ione	-12118
umns	-12119
anium	-12120
itone	-12121
▁Lake	-12122
▁lact	-12123
iously	-12124
uating	-12125
▁recre	-12126
▁subdiv	-12127
▁Celsius	-12128
▁suscept	-12129
▁aviation	-12130
▁backward	-12131
▁educated	-12132
▁acceptable	-12133
▁durability	-12134
▁enthusiasm	-12135
▁possession	-12136
▁standpoint	-12137
▁television	-12138
▁usefulness	-12139
jae	-12140
▁Cy	-12141
body	-12142
▁128	-12143
▁loud	-12144
anyang	-12145
opause	-12146
▁Bible	-12147
▁accus	-12148
▁likes	-12149
▁wires	-12150
▁thread	-12151
▁timely	-12152
▁Formula	-12153
▁Markets	-12154
▁soundness	-12155
▁California	-12156
▁simplified	-12157
▁approaching	-12158
aque	-12159
▁BMW	-12160
▁foil	-12161
▁slit	-12162
▁atten	-12163
▁proxy	-12164
▁fairly	-12165
▁surviv	-12166
▁cheaper	-12167
▁indices	-12168
▁replied	-12169
▁scholar	-12170
▁underpr	-12171
▁Personal	-12172
▁peaceful	-12173
▁Candidate	-12174
▁territory	-12175
▁verifying	-12176
▁sovereignty	-12177
▁interpreting	-12178
▁differentiate	-12179
kg	-12180
▁Sk	-12181
bang	-12182
▁Hwa	-12183
▁Ref	-12184
▁USD	-12185
▁Wol	-12186
frame	-12187
stein	-12188
▁adap	-12189
ochond	-12190
utures	-12191
▁Pharm	-12192
▁alert	-12193
▁assay	-12194
▁hinge	-12195
▁wides	-12196
▁Comput	-12197
▁Kazakh	-12198
▁hardly	-12199
▁nights	-12200
▁tastes	-12201
ivileged	-12202
▁blowing	-12203
▁heading	-12204
▁journey	-12205
▁postpon	-12206
▁Domestic	-12207
▁deployed	-12208
▁vitality	-12209
▁Instagram	-12210
▁bacterial	-12211
▁launching	-12212
▁similarly	-12213
▁legitimacy	-12214
nO	-12215
hyd	-12216
ris	-12217
▁Geo	-12218
▁Pang	-12219
▁trem	-12220
▁COVID	-12221
▁crops	-12222
▁brings	-12223
▁summon	-12224
▁youths	-12225
▁Pocheon	-12226
▁casting	-12227
▁graders	-12228
▁Existing	-12229
▁passport	-12230
▁reactive	-12231
▁screened	-12232
▁speakers	-12233
▁stopping	-12234
▁tailored	-12235
▁Ambassador	-12236
▁anesthesia	-12237
▁widespread	-12238
▁Educational	-12239
ids	-12240
▁arc	-12241
▁cru	-12242
▁Bill	-12243
▁Swit	-12244
lywood	-12245
otypes	-12246
▁ASEAN	-12247
▁Incre	-12248
▁malls	-12249
holding	-12250
▁breach	-12251
▁extrem	-12252
arantine	-12253
▁appeals	-12254
▁statute	-12255
▁urinary	-12256
▁absorbed	-12257
▁weekends	-12258
▁suitability	-12259
▁sustainability	-12260
▁underprivileged	-12261
MO	-12262
ago	-12263
▁ven	-12264
aires	-12265
oresc	-12266
▁Sook	-12267
▁nose	-12268
abetes	-12269
astics	-12270
igraph	-12271
olymer	-12272
▁Joong	-12273
▁keeps	-12274
▁aggrav	-12275
▁biased	-12276
▁dermat	-12277
▁glance	-12278
▁consign	-12279
▁encrypted	-12280
▁fisheries	-12281
▁eosinophil	-12282
▁prognostic	-12283
▁recruiting	-12284
▁breakthrough	-12285
▁infiltration	-12286
15	-12287
asi	-12288
arer	-12289
deok	-12290
hydr	-12291
▁vas	-12292
utive	-12293
▁tert	-12294
roduct	-12295
▁Bloom	-12296
▁borne	-12297
▁cathe	-12298
▁click	-12299
▁cough	-12300
▁pores	-12301
▁handwr	-12302
▁themes	-12303
utrition	-12304
▁entropy	-12305
▁worries	-12306
▁counting	-12307
▁intraven	-12308
▁lecturer	-12309
▁symbolic	-12310
▁toxicity	-12311
▁Municipal	-12312
▁apologize	-12313
▁prejudice	-12314
▁creatinine	-12315
▁Confederation	-12316
▁multinational	-12317
▁transmittance	-12318
iny	-12319
aled	-12320
stand	-12321
idemia	-12322
▁KOSDA	-12323
▁midst	-12324
▁abused	-12325
▁bypass	-12326
▁excite	-12327
▁genres	-12328
▁locked	-12329
▁refuse	-12330
▁angular	-12331
▁columns	-12332
▁marking	-12333
▁skilled	-12334
▁reserves	-12335
▁fastening	-12336
▁practicing	-12337
withstanding	-12338
▁Fi	-12339
▁TG	-12340
avil	-12341
opol	-12342
▁820	-12343
▁nut	-12344
▁1996	-12345
▁hide	-12346
▁myth	-12347
▁scat	-12348
▁Legis	-12349
▁fibro	-12350
▁merit	-12351
incheon	-12352
▁multic	-12353
▁traces	-12354
▁traject	-12355
▁Lifelong	-12356
▁reversed	-12357
▁minimized	-12358
▁corrective	-12359
▁delivering	-12360
▁everywhere	-12361
▁remittance	-12362
▁crowdfunding	-12363
▁discretionary	-12364
▁participatory	-12365
▁Representatives	-12366
▁321	-12367
▁Had	-12368
▁cha	-12369
iotic	-12370
▁vivid	-12371
essment	-12372
▁Friend	-12373
▁burned	-12374
▁wouldn	-12375
essation	-12376
▁Gwanghw	-12377
▁cabinet	-12378
▁descend	-12379
▁desires	-12380
▁presupp	-12381
▁seasons	-12382
▁assuming	-12383
▁converts	-12384
▁stiffness	-12385
▁Accounting	-12386
▁committees	-12387
▁excavation	-12388
▁prosperity	-12389
▁challenging	-12390
▁constitutes	-12391
DD	-12392
leep	-12393
▁Men	-12394
ifact	-12395
▁Best	-12396
▁beom	-12397
▁bowl	-12398
▁glyc	-12399
▁yuan	-12400
father	-12401
▁Mokpo	-12402
▁doped	-12403
▁thumb	-12404
▁verte	-12405
▁dating	-12406
▁jumped	-12407
▁perfor	-12408
▁snacks	-12409
iciaries	-12410
▁Parents	-12411
▁distant	-12412
▁Suncheon	-12413
▁enforced	-12414
▁repetition	-12415
IL	-12416
uity	-12417
zone	-12418
▁Bea	-12419
acial	-12420
place	-12421
▁Room	-12422
▁drum	-12423
▁visa	-12424
atosis	-12425
iatric	-12426
odynam	-12427
tenham	-12428
▁acted	-12429
▁digit	-12430
▁disin	-12431
▁grass	-12432
▁links	-12433
▁petro	-12434
▁strip	-12435
ateness	-12436
▁Display	-12437
▁imagine	-12438
▁slowing	-12439
mentation	-12440
▁Disabled	-12441
▁Treasury	-12442
▁exhibits	-12443
▁exterior	-12444
▁imposing	-12445
▁Tottenham	-12446
▁cessation	-12447
▁satisfies	-12448
▁successor	-12449
▁travelers	-12450
▁casualties	-12451
▁infarction	-12452
▁periodically	-12453
13	-12454
sen	-12455
▁Po	-12456
omic	-12457
▁302	-12458
▁370	-12459
▁Arch	-12460
▁tomb	-12461
earing	-12462
usions	-12463
▁Asset	-12464
▁Ssang	-12465
▁sells	-12466
▁levied	-12467
▁wisdom	-12468
▁courage	-12469
▁myocard	-12470
▁postmen	-12471
▁pressed	-12472
▁settings	-12473
▁Namyangju	-12474
▁Experience	-12475
▁ambassador	-12476
▁dissipation	-12477
▁sacrificial	-12478
▁conversations	-12479
aya	-12480
nea	-12481
ouds	-12482
▁910	-12483
▁Pet	-12484
▁WHO	-12485
▁hed	-12486
▁lig	-12487
▁van	-12488
▁blog	-12489
▁dawn	-12490
▁merc	-12491
▁quit	-12492
▁African	-12493
▁Cabinet	-12494
▁weights	-12495
orescence	-12496
▁deciding	-12497
▁enormous	-12498
▁periodic	-12499
▁protrude	-12500
▁certainly	-12501
▁viscosity	-12502
▁Regulation	-12503
▁continuity	-12504
▁developers	-12505
▁irrational	-12506
▁reconstructed	-12507
▁irregularities	-12508
▁TO	-12509
▁204	-12510
▁MERS	-12511
▁Pung	-12512
▁anch	-12513
▁cong	-12514
▁sink	-12515
▁lands	-12516
▁interc	-12517
▁poster	-12518
▁induces	-12519
▁nitride	-12520
▁packing	-12521
▁hardness	-12522
▁perceive	-12523
▁Different	-12524
▁correctly	-12525
▁justified	-12526
▁definitely	-12527
▁performers	-12528
▁resilience	-12529
▁threatened	-12530
▁calculations	-12531
Ps	-12532
lu	-12533
pan	-12534
▁oh	-12535
▁750	-12536
▁Tor	-12537
itary	-12538
plate	-12539
▁shed	-12540
ptions	-12541
▁renow	-12542
▁makers	-12543
▁Traffic	-12544
▁persist	-12545
rovascular	-12546
▁Seodaemun	-12547
▁microorgan	-12548
▁empirically	-12549
▁specializing	-12550
▁BS	-12551
ocar	-12552
hyang	-12553
▁enzym	-12554
▁erase	-12555
▁rainy	-12556
imeters	-12557
olation	-12558
▁inning	-12559
▁retired	-12560
▁unconsc	-12561
▁downlink	-12562
▁freezing	-12563
▁sunlight	-12564
▁Taekwondo	-12565
▁happening	-12566
▁philosoph	-12567
▁precursor	-12568
▁Kindergart	-12569
▁capacitance	-12570
▁optimization	-12571
▁preoperative	-12572
OL	-12573
due	-12574
gye	-12575
ipp	-12576
inyl	-12577
▁163	-12578
▁Gil	-12579
▁LNG	-12580
▁Log	-12581
leges	-12582
▁grip	-12583
▁lean	-12584
▁poem	-12585
naires	-12586
▁Canad	-12587
▁Taxes	-12588
▁ocean	-12589
▁absent	-12590
▁bubble	-12591
▁campus	-12592
▁Reuters	-12593
▁coastal	-12594
▁strings	-12595
▁unfavor	-12596
▁deducted	-12597
▁filtered	-12598
▁monopoly	-12599
▁renowned	-12600
▁obstacles	-12601
▁supervisor	-12602
▁Cooperative	-12603
▁intensively	-12604
▁procurement	-12605
▁attributable	-12606
▁determinants	-12607
▁globalization	-12608
▁reconciliation	-12609
EV	-12610
▁NM	-12611
▁vi	-12612
▁117	-12613
▁Bon	-12614
▁vag	-12615
eller	-12616
▁bell	-12617
▁null	-12618
eeping	-12619
▁birds	-12620
▁cured	-12621
▁landf	-12622
▁opera	-12623
▁plain	-12624
herical	-12625
ounding	-12626
▁poured	-12627
▁seized	-12628
▁Subject	-12629
▁daytime	-12630
▁renewal	-12631
▁sliding	-12632
▁Cheongdo	-12633
▁veterans	-12634
▁valuation	-12635
▁warehouse	-12636
▁subsidized	-12637
▁frequencies	-12638
▁polymerization	-12639
king	-12640
stry	-12641
▁Hep	-12642
▁Ten	-12643
ageal	-12644
▁Talk	-12645
▁hasn	-12646
▁rely	-12647
angers	-12648
charge	-12649
▁Pract	-12650
▁spoke	-12651
▁wrist	-12652
▁cement	-12653
▁curves	-12654
▁dances	-12655
▁hinder	-12656
▁poetry	-12657
▁rivers	-12658
▁tables	-12659
▁Digital	-12660
▁Usually	-12661
▁eastern	-12662
▁gateway	-12663
▁hypothes	-12664
▁mentally	-12665
▁purifier	-12666
▁trainees	-12667
▁absorbing	-12668
▁fractions	-12669
▁menopause	-12670
▁perfectly	-12671
▁weakening	-12672
▁hemoglobin	-12673
▁Improvement	-12674
▁accommodate	-12675
▁credibility	-12676
▁considerably	-12677
▁beneficiaries	-12678
aut	-12679
oked	-12680
▁Pil	-12681
▁TDF	-12682
force	-12683
▁1010	-12684
▁butt	-12685
▁flux	-12686
▁coins	-12687
emption	-12688
▁Forces	-12689
▁herbal	-12690
▁mature	-12691
▁reluct	-12692
▁integer	-12693
▁nodules	-12694
▁gambling	-12695
▁logistic	-12696
▁mutually	-12697
▁addressed	-12698
▁exploring	-12699
▁geometric	-12700
▁specialty	-12701
▁specimens	-12702
▁excellence	-12703
▁compensated	-12704
▁postmenopausal	-12705
90	-12706
gun	-12707
ptic	-12708
▁Dok	-12709
▁Low	-12710
▁Noh	-12711
▁Ter	-12712
▁Win	-12713
▁eld	-12714
▁Orig	-12715
▁bund	-12716
▁Press	-12717
▁burst	-12718
▁clamp	-12719
▁lapar	-12720
imation	-12721
roscopy	-12722
▁Gimhae	-12723
▁Though	-12724
▁aiming	-12725
▁potato	-12726
▁viewer	-12727
rogation	-12728
▁Counter	-12729
▁smokers	-12730
▁abortion	-12731
▁uploaded	-12732
▁observing	-12733
▁concurrent	-12734
▁neutrality	-12735
▁noticeable	-12736
▁documentary	-12737
▁eligibility	-12738
▁meaningless	-12739
▁nationality	-12740
▁multiplication	-12741
acc	-12742
▁HS	-12743
angi	-12744
cies	-12745
▁154	-12746
▁Emp	-12747
▁Hyp	-12748
▁Rob	-12749
▁apt	-12750
ifice	-12751
ument	-12752
▁Take	-12753
▁seaf	-12754
▁slud	-12755
▁unch	-12756
etting	-12757
▁Night	-12758
▁Master	-12759
▁dispar	-12760
▁shower	-12761
▁failing	-12762
▁outlets	-12763
▁threats	-12764
▁colleges	-12765
▁complain	-12766
▁defectors	-12767
▁elevation	-12768
▁Indonesian	-12769
▁evacuation	-12770
▁Gwanghwamun	-12771
▁objectively	-12772
▁vic	-12773
▁aren	-12774
▁fist	-12775
abling	-12776
▁Roman	-12777
▁Space	-12778
▁harsh	-12779
▁hyung	-12780
▁lacks	-12781
▁Pangyo	-12782
▁funded	-12783
▁guides	-12784
▁iPhone	-12785
▁inland	-12786
▁pillar	-12787
electric	-12788
▁fitness	-12789
▁pathway	-12790
▁shouldn	-12791
▁spreads	-12792
rological	-12793
▁playback	-12794
▁tangible	-12795
▁encounter	-12796
▁luminance	-12797
▁minimizing	-12798
▁diversified	-12799
▁deregulation	-12800
ba	-12801
imm	-12802
▁Ep	-12803
▁ow	-12804
▁Nob	-12805
▁Sok	-12806
▁bol	-12807
▁nin	-12808
▁chef	-12809
▁cute	-12810
▁pose	-12811
ancies	-12812
atever	-12813
formin	-12814
▁finds	-12815
▁manus	-12816
agonist	-12817
▁absurd	-12818
▁drones	-12819
▁pulled	-12820
▁discard	-12821
▁placing	-12822
▁Lawmaker	-12823
▁catheter	-12824
▁informal	-12825
▁netizens	-12826
▁stimulus	-12827
▁Northeast	-12828
▁alleviate	-12829
▁Assessment	-12830
▁exceptions	-12831
▁excitement	-12832
▁questioning	-12833
▁hierarchical	-12834
TV	-12835
usp	-12836
▁UE	-12837
axis	-12838
oons	-12839
▁127	-12840
▁Boy	-12841
▁Bro	-12842
▁Mel	-12843
▁hex	-12844
▁rim	-12845
lecom	-12846
▁Well	-12847
▁adds	-12848
▁grav	-12849
intech	-12850
▁bases	-12851
▁flame	-12852
▁shame	-12853
▁shield	-12854
▁enabled	-12855
▁Clinical	-12856
▁Shopping	-12857
▁showcase	-12858
▁Relations	-12859
▁offensive	-12860
▁Eventually	-12861
▁wastewater	-12862
▁delinquency	-12863
▁influential	-12864
▁appropriateness	-12865
agic	-12866
▁172	-12867
▁ALT	-12868
▁RNA	-12869
lycer	-12870
vency	-12871
▁aver	-12872
▁bird	-12873
▁pine	-12874
▁sten	-12875
ounced	-12876
▁pairs	-12877
▁postp	-12878
▁silic	-12879
▁sport	-12880
ialysis	-12881
▁Gunsan	-12882
▁feared	-12883
▁reforms	-12884
▁shipped	-12885
▁tonight	-12886
▁temporal	-12887
▁appliance	-12888
▁schedules	-12889
▁quarantine	-12890
▁electronics	-12891
▁enthusiastic	-12892
▁PI	-12893
eper	-12894
orrh	-12895
▁Dob	-12896
▁Huh	-12897
asvir	-12898
elled	-12899
front	-12900
ields	-12901
right	-12902
▁Gall	-12903
▁Lord	-12904
▁pole	-12905
itated	-12906
▁advoc	-12907
▁axial	-12908
▁edges	-12909
▁focal	-12910
versible	-12911
▁camping	-12912
▁dispose	-12913
▁encount	-12914
▁glasses	-12915
▁shaking	-12916
▁beverage	-12917
▁stepping	-12918
▁Mathematics	-12919
▁arbitrarily	-12920
▁Compensation	-12921
HD	-12922
▁Gy	-12923
▁GPS	-12924
▁MAC	-12925
dings	-12926
▁Fact	-12927
▁ties	-12928
iential	-12929
▁microb	-12930
▁microw	-12931
▁sludge	-12932
▁Italian	-12933
▁aligned	-12934
▁burning	-12935
▁guiding	-12936
▁Standard	-12937
▁overtime	-12938
▁chemicals	-12939
▁mitochond	-12940
▁amendments	-12941
▁calculates	-12942
▁invitation	-12943
▁definitions	-12944
▁encountered	-12945
▁interactive	-12946
▁firefighters	-12947
▁Superintendent	-12948
▁specifications	-12949
hou	-12950
uet	-12951
▁ae	-12952
erts	-12953
gung	-12954
▁Key	-12955
▁ash	-12956
iolet	-12957
lysis	-12958
▁SPSS	-12959
▁bulk	-12960
▁gran	-12961
▁rush	-12962
▁ceram	-12963
▁boiler	-12964
▁advances	-12965
▁commands	-12966
▁indicted	-12967
▁prescrib	-12968
▁reserved	-12969
▁Mongolian	-12970
▁electoral	-12971
▁incorrect	-12972
▁reforming	-12973
▁regulates	-12974
▁spotlight	-12975
▁wholesale	-12976
▁microscope	-12977
▁multilayer	-12978
▁originated	-12979
▁antioxidant	-12980
▁businessmen	-12981
▁drastically	-12982
▁ideological	-12983
▁questionnaires	-12984
ami	-12985
hep	-12986
ito	-12987
▁ED	-12988
agog	-12989
olar	-12990
usan	-12991
▁470	-12992
▁Age	-12993
▁Top	-12994
▁Grad	-12995
▁chun	-12996
▁disl	-12997
▁feat	-12998
▁Sorry	-12999
▁diver	-13000
▁slump	-13001
▁stain	-13002
▁vague	-13003
ighting	-13004
▁filler	-13005
▁myster	-13006
▁Turkish	-13007
▁romance	-13008
▁servers	-13009
▁weekday	-13010
▁Likewise	-13011
▁audition	-13012
▁genotype	-13013
▁omission	-13014
▁copolymer	-13015
▁dispersed	-13016
▁forgotten	-13017
▁medicines	-13018
▁respected	-13019
▁Facilities	-13020
▁unfavorable	-13021
▁inconsistent	-13022
14	-13023
LR	-13024
▁PG	-13025
▁Ta	-13026
anta	-13027
▁PET	-13028
▁sar	-13029
▁sof	-13030
▁2030	-13031
▁Flow	-13032
▁puts	-13033
▁Cross	-13034
▁apopt	-13035
▁suits	-13036
avilion	-13037
hepatic	-13038
telling	-13039
▁crafts	-13040
▁relate	-13041
▁grasping	-13042
▁sacrific	-13043
▁seasonal	-13044
▁sympathy	-13045
▁chemistry	-13046
▁declining	-13047
▁scientists	-13048
▁disagreement	-13049
▁commemorative	-13050
▁physiological	-13051
UT	-13052
agl	-13053
gia	-13054
▁730	-13055
▁830	-13056
▁CNT	-13057
▁Lar	-13058
▁Kwak	-13059
▁fits	-13060
▁flip	-13061
▁gent	-13062
▁oven	-13063
▁Trust	-13064
▁draws	-13065
▁elong	-13066
▁fairy	-13067
▁rated	-13068
ception	-13069
▁aerial	-13070
▁affirm	-13071
▁arithm	-13072
▁comorb	-13073
▁deeper	-13074
▁motive	-13075
orescent	-13076
▁Anseong	-13077
▁compass	-13078
▁fingers	-13079
▁downturn	-13080
▁heatwave	-13081
▁postpone	-13082
▁gratitude	-13083
▁intervene	-13084
▁occupancy	-13085
▁precisely	-13086
▁ingredient	-13087
▁conditional	-13088
LA	-13089
dan	-13090
lla	-13091
unte	-13092
well	-13093
▁290	-13094
▁Bok	-13095
▁Nov	-13096
▁Web	-13097
ailed	-13098
heric	-13099
mates	-13100
otive	-13101
▁Aren	-13102
▁Nams	-13103
▁Unit	-13104
▁glob	-13105
▁Produ	-13106
▁beams	-13107
▁rheum	-13108
▁Israel	-13109
▁calend	-13110
▁delete	-13111
▁incomp	-13112
▁silent	-13113
▁immersed	-13114
▁subtract	-13115
▁symmetry	-13116
▁guardians	-13117
▁inventory	-13118
▁postponed	-13119
▁experiential	-13120
NT	-13121
TM	-13122
bong	-13123
drop	-13124
enez	-13125
nity	-13126
▁214	-13127
▁511	-13128
▁gon	-13129
▁hash	-13130
▁leuk	-13131
dering	-13132
▁const	-13133
▁rotat	-13134
▁trick	-13135
umption	-13136
zerland	-13137
▁cruise	-13138
▁pelvic	-13139
▁hemorrh	-13140
▁marital	-13141
▁artifact	-13142
▁terminate	-13143
▁Republican	-13144
▁modulation	-13145
▁Switzerland	-13146
▁dramatically	-13147
top	-13148
▁OR	-13149
idth	-13150
▁Nor	-13151
esium	-13152
stone	-13153
throp	-13154
▁Hand	-13155
▁leaf	-13156
▁crude	-13157
▁occas	-13158
rencies	-13159
▁enroll	-13160
▁methyl	-13161
▁rotary	-13162
▁tender	-13163
▁Manager	-13164
▁anytime	-13165
▁critics	-13166
▁doubled	-13167
▁mineral	-13168
▁Taiwanese	-13169
▁breakdown	-13170
▁deepening	-13171
▁contractor	-13172
▁extracting	-13173
▁unilateral	-13174
▁perpetrator	-13175
▁photography	-13176
▁inconvenient	-13177
EF	-13178
ms	-13179
uds	-13180
▁GO	-13181
▁MB	-13182
race	-13183
▁IgG	-13184
▁lid	-13185
iates	-13186
shore	-13187
▁maps	-13188
▁Veter	-13189
▁edema	-13190
▁nanot	-13191
▁Arabia	-13192
▁underg	-13193
▁Siheung	-13194
▁Volunte	-13195
▁ascites	-13196
▁closest	-13197
▁diction	-13198
▁gasoline	-13199
▁glycemic	-13200
▁penetrate	-13201
▁prevalent	-13202
▁somewhere	-13203
▁conjunction	-13204
▁diffraction	-13205
▁negotiating	-13206
▁predictions	-13207
▁illumination	-13208
▁revitalizing	-13209
ado	-13210
hea	-13211
ocl	-13212
▁118	-13213
▁BMD	-13214
▁Sov	-13215
segae	-13216
▁Ange	-13217
▁Asan	-13218
▁Miss	-13219
▁cyst	-13220
▁slog	-13221
▁vast	-13222
ocrine	-13223
rotein	-13224
▁Plant	-13225
▁Still	-13226
▁occupy	-13227
▁Guarant	-13228
▁besides	-13229
▁endomet	-13230
▁notable	-13231
▁sensory	-13232
criptions	-13233
▁Advisory	-13234
▁Measures	-13235
▁impurity	-13236
▁promptly	-13237
▁Shinsegae	-13238
▁Yangcheon	-13239
▁collusion	-13240
▁mechanics	-13241
▁streaming	-13242
▁inadequate	-13243
▁indictment	-13244
▁myocardial	-13245
▁proposition	-13246
▁06	-13247
eous	-13248
peror	-13249
▁Yeah	-13250
▁acry	-13251
▁rows	-13252
▁ranks	-13253
▁firmly	-13254
▁molded	-13255
▁Bundang	-13256
▁Consult	-13257
▁Dongjak	-13258
▁budgets	-13259
▁clients	-13260
▁rankings	-13261
▁Americans	-13262
▁Jeollabuk	-13263
▁employers	-13264
▁Kazakhstan	-13265
▁authorized	-13266
▁08	-13267
math	-13268
▁Sar	-13269
undae	-13270
▁rupt	-13271
▁wise	-13272
▁explo	-13273
▁quota	-13274
conduct	-13275
▁Techno	-13276
▁benign	-13277
▁praise	-13278
▁rememb	-13279
▁shaman	-13280
▁Islamic	-13281
▁forever	-13282
▁interim	-13283
▁preserv	-13284
▁rolling	-13285
▁vaccine	-13286
▁adsorbent	-13287
▁unchanged	-13288
▁withdrawn	-13289
▁multimedia	-13290
▁reproduced	-13291
▁supplementation	-13292
mi	-13293
ella	-13294
yeol	-13295
▁Isn	-13296
▁oct	-13297
ethyl	-13298
restr	-13299
ridge	-13300
width	-13301
▁Call	-13302
▁Hank	-13303
▁guys	-13304
▁pore	-13305
ealand	-13306
levant	-13307
▁Modern	-13308
▁corros	-13309
▁sheets	-13310
▁shrink	-13311
▁toilet	-13312
▁walked	-13313
▁Concert	-13314
▁Working	-13315
▁flipped	-13316
▁interle	-13317
▁proving	-13318
▁compares	-13319
▁protests	-13320
▁smallest	-13321
▁tertiary	-13322
▁Bloomberg	-13323
▁accumulate	-13324
▁automation	-13325
▁retrospect	-13326
▁connections	-13327
▁Kindergarten	-13328
▁Notwithstanding	-13329
16	-13330
As	-13331
▁Av	-13332
▁GP	-13333
▁MA	-13334
reas	-13335
zens	-13336
▁205	-13337
▁CVD	-13338
▁Mir	-13339
▁PCR	-13340
▁til	-13341
▁tob	-13342
▁Phil	-13343
▁grab	-13344
alytic	-13345
erting	-13346
▁Venez	-13347
▁armed	-13348
▁entit	-13349
▁grace	-13350
▁honey	-13351
▁menus	-13352
▁tours	-13353
▁unpre	-13354
▁Nether	-13355
▁flavor	-13356
▁slowed	-13357
▁cancers	-13358
▁flights	-13359
▁secrets	-13360
▁textile	-13361
▁basement	-13362
▁concerts	-13363
▁listened	-13364
▁aggregate	-13365
▁surpassed	-13366
▁variously	-13367
▁proceeding	-13368
▁computational	-13369
▁07	-13370
isan	-13371
neys	-13372
▁650	-13373
▁Ang	-13374
▁SLE	-13375
▁1992	-13376
▁keys	-13377
▁vest	-13378
isible	-13379
▁ankle	-13380
▁stuff	-13381
▁trace	-13382
oresist	-13383
▁Berlin	-13384
▁hyperg	-13385
▁insect	-13386
▁spinal	-13387
▁voters	-13388
▁ginseng	-13389
▁longest	-13390
▁relaxed	-13391
▁acquires	-13392
▁brothers	-13393
▁cautious	-13394
▁cerebral	-13395
▁residing	-13396
▁suspects	-13397
▁aftermath	-13398
▁asymmetry	-13399
▁Comprehens	-13400
▁contacting	-13401
▁correcting	-13402
▁variability	-13403
▁normalization	-13404
Cs	-13405
azz	-13406
hers	-13407
otes	-13408
quet	-13409
▁411	-13410
▁cust	-13411
▁pist	-13412
▁alley	-13413
▁cache	-13414
▁denom	-13415
▁masks	-13416
▁mitig	-13417
lerosis	-13418
▁Soviet	-13419
▁Yangju	-13420
▁boards	-13421
restrial	-13422
vernight	-13423
▁Seungri	-13424
▁chaebol	-13425
▁credits	-13426
▁episodes	-13427
▁featured	-13428
▁greeting	-13429
▁obstruct	-13430
▁Hollywood	-13431
▁absolutely	-13432
▁trajectory	-13433
▁descriptive	-13434
▁HO	-13435
▁OH	-13436
▁gh	-13437
ocks	-13438
omed	-13439
ulas	-13440
▁Cer	-13441
▁Mom	-13442
utory	-13443
▁Bent	-13444
▁Wood	-13445
author	-13446
▁Short	-13447
▁eased	-13448
▁hyeon	-13449
▁rains	-13450
▁Conver	-13451
▁Dobong	-13452
▁Garden	-13453
▁audits	-13454
▁chocol	-13455
▁sealed	-13456
▁terrib	-13457
▁triple	-13458
▁Liberal	-13459
▁degener	-13460
▁newslet	-13461
▁nominal	-13462
▁priorit	-13463
▁tobacco	-13464
structure	-13465
▁Chuncheon	-13466
▁desperate	-13467
▁featuring	-13468
▁posterior	-13469
▁assumptions	-13470
▁integrating	-13471
▁intravenous	-13472
▁permeability	-13473
▁Unfortunately	-13474
▁philosophical	-13475
▁socioeconomic	-13476
osc	-13477
▁460	-13478
▁Eff	-13479
allic	-13480
▁1950	-13481
▁MetS	-13482
▁gray	-13483
▁hind	-13484
▁arrow	-13485
▁halls	-13486
▁plung	-13487
▁rival	-13488
bration	-13489
▁latent	-13490
cedented	-13491
etration	-13492
▁educate	-13493
▁soluble	-13494
▁Medicine	-13495
▁Venezuel	-13496
▁extracts	-13497
▁founding	-13498
▁necrosis	-13499
▁proposes	-13500
▁Councilor	-13501
▁coalition	-13502
▁condenser	-13503
▁interrupt	-13504
▁accessible	-13505
▁containers	-13506
▁overlooked	-13507
▁contraction	-13508
▁liquidation	-13509
▁correspondent	-13510
▁09	-13511
▁RC	-13512
▁251	-13513
▁KBO	-13514
▁Num	-13515
▁ell	-13516
▁vig	-13517
▁NASH	-13518
▁Coach	-13519
▁Mexic	-13520
▁hurry	-13521
▁hosting	-13522
▁melting	-13523
▁warming	-13524
▁coaching	-13525
▁staining	-13526
▁Argentina	-13527
▁bandwidth	-13528
▁explosive	-13529
▁missionary	-13530
▁theatrical	-13531
▁criticizing	-13532
▁incorporation	-13533
▁unprecedented	-13534
apl	-13535
▁Er	-13536
▁HA	-13537
▁MV	-13538
▁NF	-13539
▁PB	-13540
fish	-13541
jung	-13542
▁ETR	-13543
▁SEM	-13544
▁guk	-13545
▁2021	-13546
▁David	-13547
▁loses	-13548
▁graphs	-13549
▁intest	-13550
▁merged	-13551
▁modify	-13552
▁Discuss	-13553
▁footage	-13554
▁rotates	-13555
▁shelter	-13556
isticated	-13557
lipidemia	-13558
▁embodied	-13559
▁enabling	-13560
▁subframe	-13561
▁uniforms	-13562
▁defective	-13563
▁directing	-13564
▁undergone	-13565
▁arithmetic	-13566
▁reimbursement	-13567
NC	-13568
ano	-13569
▁MR	-13570
▁CSR	-13571
▁Hoe	-13572
▁SME	-13573
enter	-13574
ospel	-13575
rowth	-13576
uking	-13577
▁Manc	-13578
▁seon	-13579
hester	-13580
olving	-13581
▁Bluet	-13582
▁brown	-13583
▁paint	-13584
▁quasi	-13585
▁threw	-13586
▁convex	-13587
▁subtit	-13588
illation	-13589
▁Content	-13590
▁methane	-13591
unciation	-13592
▁Gapyeong	-13593
▁gestures	-13594
▁junction	-13595
▁recycled	-13596
▁shutdown	-13597
▁Bluetooth	-13598
▁metformin	-13599
▁prospects	-13600
▁sorafenib	-13601
▁Collection	-13602
▁Generation	-13603
▁deductions	-13604
▁diagnosing	-13605
▁Netherlands	-13606
▁Performance	-13607
▁uncertainties	-13608
▁democratization	-13609
sei	-13610
▁fu	-13611
▁215	-13612
▁AFP	-13613
▁SOC	-13614
▁bum	-13615
▁dysp	-13616
▁idle	-13617
▁iris	-13618
▁jury	-13619
partum	-13620
▁Princ	-13621
▁clerk	-13622
▁magic	-13623
▁metad	-13624
▁renov	-13625
▁slide	-13626
▁storm	-13627
▁taxis	-13628
▁wrink	-13629
▁Assist	-13630
▁Icheon	-13631
▁Songdo	-13632
▁guards	-13633
▁invite	-13634
▁prayer	-13635
▁unfold	-13636
▁Premier	-13637
▁coolant	-13638
authorized	-13639
▁Guarantee	-13640
▁evaluates	-13641
▁interconn	-13642
▁contracted	-13643
▁saturation	-13644
▁accelerated	-13645
▁establishes	-13646
▁spontaneous	-13647
▁prerequisite	-13648
22	-13649
Hg	-13650
ek	-13651
▁SF	-13652
▁ga	-13653
▁109	-13654
▁165	-13655
▁Bat	-13656
▁HIV	-13657
▁hook	-13658
▁memo	-13659
▁James	-13660
▁lever	-13661
aviolet	-13662
▁Spring	-13663
▁versus	-13664
justment	-13665
▁ammonia	-13666
▁sympath	-13667
▁molecule	-13668
▁inspected	-13669
▁overnight	-13670
▁workforce	-13671
▁pedestrian	-13672
▁acknowledge	-13673
▁complaining	-13674
▁degradation	-13675
▁dissolution	-13676
▁contamination	-13677
abb	-13678
▁DD	-13679
▁Ro	-13680
irts	-13681
phal	-13682
▁164	-13683
▁640	-13684
▁920	-13685
▁Dod	-13686
▁Occ	-13687
▁Ver	-13688
▁Hans	-13689
▁Site	-13690
▁monk	-13691
▁olig	-13692
redict	-13693
▁Kumho	-13694
▁Legal	-13695
▁enemy	-13696
▁expon	-13697
▁Mobile	-13698
▁atomic	-13699
▁remind	-13700
▁Goseong	-13701
▁Sharing	-13702
▁tactile	-13703
▁ceramics	-13704
▁dynamics	-13705
▁expecting	-13706
▁nominated	-13707
▁predecess	-13708
ferentially	-13709
▁auditorium	-13710
▁clinically	-13711
▁inclination	-13712
▁penetration	-13713
▁fluorescence	-13714
17	-13715
isa	-13716
▁Lo	-13717
▁Mg	-13718
uest	-13719
▁Mil	-13720
▁Mob	-13721
▁Rem	-13722
▁encl	-13723
▁morb	-13724
▁yoon	-13725
▁stuck	-13726
▁elabor	-13727
▁hydroc	-13728
▁traged	-13729
▁counted	-13730
▁macroph	-13731
▁permits	-13732
▁Interior	-13733
▁Judicial	-13734
▁exported	-13735
▁exhausted	-13736
▁shortened	-13737
▁Manchester	-13738
▁subscriber	-13739
▁essentially	-13740
▁pu	-13741
hyup	-13742
izza	-13743
▁850	-13744
▁Gas	-13745
▁Gut	-13746
▁Hig	-13747
▁Hyd	-13748
▁Sand	-13749
▁latt	-13750
▁mock	-13751
▁mush	-13752
▁bears	-13753
▁chore	-13754
▁demol	-13755
▁sweat	-13756
▁theft	-13757
▁Ethics	-13758
▁grants	-13759
▁multid	-13760
▁nickel	-13761
▁seated	-13762
▁painted	-13763
itionally	-13764
▁fragment	-13765
▁reciproc	-13766
▁defensive	-13767
▁reluctant	-13768
▁statutory	-13769
▁Additional	-13770
▁inhibition	-13771
▁anticipated	-13772
▁commemorate	-13773
▁specialists	-13774
▁hypoglycemia	-13775
▁preparations	-13776
▁Comprehensive	-13777
TP	-13778
hu	-13779
▁bok	-13780
▁vow	-13781
▁Cert	-13782
▁Expl	-13783
▁clip	-13784
ailing	-13785
▁bones	-13786
▁deact	-13787
▁fetus	-13788
▁inert	-13789
▁hiding	-13790
▁packed	-13791
▁trucks	-13792
▁advisor	-13793
▁capping	-13794
▁highway	-13795
itational	-13796
▁attracts	-13797
▁reversal	-13798
▁Seongdong	-13799
▁Corruption	-13800
▁mysterious	-13801
▁remodeling	-13802
▁Examination	-13803
▁acknowledging	-13804
▁conglomerates	-13805
▁planarization	-13806
▁mathematicians	-13807
▁FD	-13808
enza	-13809
itic	-13810
name	-13811
▁137	-13812
▁412	-13813
▁HPV	-13814
▁Sure	-13815
▁fate	-13816
▁twin	-13817
▁Nexen	-13818
▁balls	-13819
▁brush	-13820
▁relat	-13821
▁Method	-13822
▁babies	-13823
▁coping	-13824
▁Druking	-13825
▁Efforts	-13826
▁abolish	-13827
▁motives	-13828
▁rescued	-13829
▁tenants	-13830
▁Buddhism	-13831
▁Canadian	-13832
▁congress	-13833
ocarcinoma	-13834
▁inquiries	-13835
▁predictor	-13836
▁outputting	-13837
▁submitting	-13838
▁medications	-13839
▁terrestrial	-13840
▁accommodated	-13841
▁storytelling	-13842
▁sophisticated	-13843
itar	-13844
ryst	-13845
▁Los	-13846
omial	-13847
roupe	-13848
▁1110	-13849
▁1991	-13850
▁Wind	-13851
▁chap	-13852
▁lapt	-13853
nasium	-13854
▁monit	-13855
▁peers	-13856
▁barrel	-13857
▁bookst	-13858
▁nomine	-13859
▁substr	-13860
▁undert	-13861
oplastic	-13862
odialysis	-13863
▁graphite	-13864
▁infinity	-13865
▁cytokines	-13866
▁intuition	-13867
▁protested	-13868
▁sacrifice	-13869
▁sequences	-13870
▁remembered	-13871
▁alternately	-13872
▁regrettable	-13873
▁EN	-13874
▁FS	-13875
▁Old	-13876
▁Hung	-13877
▁anat	-13878
▁gard	-13879
▁rape	-13880
▁uter	-13881
▁bloss	-13882
▁laund	-13883
▁weigh	-13884
ropical	-13885
▁Within	-13886
▁carcin	-13887
▁overhe	-13888
▁holders	-13889
▁outline	-13890
▁overdue	-13891
▁regimen	-13892
▁renewed	-13893
▁appealed	-13894
▁defeated	-13895
▁ensuring	-13896
▁homeless	-13897
▁pancreas	-13898
▁portrait	-13899
▁revising	-13900
▁Counterme	-13901
▁confessed	-13902
▁corrosion	-13903
▁Literature	-13904
▁variations	-13905
▁derivatives	-13906
▁eradication	-13907
▁generalized	-13908
▁intensified	-13909
▁unauthorized	-13910
▁precipitation	-13911
▁diversification	-13912
▁retrospectively	-13913
ka	-13914
nae	-13915
otr	-13916
▁Et	-13917
atri	-13918
qual	-13919
▁SUV	-13920
▁TNF	-13921
▁Norm	-13922
▁Seog	-13923
▁taek	-13924
ermost	-13925
lessly	-13926
▁pione	-13927
iciency	-13928
▁Direct	-13929
▁advent	-13930
▁doping	-13931
▁heaven	-13932
▁kernel	-13933
▁quoted	-13934
▁Besides	-13935
▁folding	-13936
▁monomer	-13937
▁outward	-13938
▁privile	-13939
▁calendar	-13940
▁clusters	-13941
▁entitled	-13942
▁Gwangyang	-13943
▁automated	-13944
▁monitored	-13945
▁spiritual	-13946
▁accelerate	-13947
▁metastatic	-13948
▁networking	-13949
▁normalized	-13950
▁Fortunately	-13951
▁grandfather	-13952
▁satisfactory	-13953
▁collaborative	-13954
▁heterogeneity	-13955
▁investigators	-13956
▁redevelopment	-13957
yth	-13958
▁Ce	-13959
▁FO	-13960
geum	-13961
paid	-13962
▁322	-13963
▁402	-13964
▁CRP	-13965
▁umb	-13966
night	-13967
▁lone	-13968
▁Beach	-13969
▁Franc	-13970
▁Osaka	-13971
▁Staff	-13972
▁Steel	-13973
▁shake	-13974
▁Contin	-13975
▁steril	-13976
▁Angeles	-13977
▁Problem	-13978
▁cleaner	-13979
▁encoded	-13980
▁grooves	-13981
▁midterm	-13982
▁monopol	-13983
istically	-13984
▁allocate	-13985
▁granting	-13986
▁pathways	-13987
▁romantic	-13988
▁worsened	-13989
▁amplified	-13990
▁inducement	-13991
▁postpartum	-13992
▁atmospheric	-13993
▁comfortably	-13994
▁Consequently	-13995
va	-13996
▁OF	-13997
▁182	-13998
▁189	-13999
▁CPU	-14000
otton	-14001
▁Camb	-14002
▁ramp	-14003
rocess	-14004
▁Corps	-14005
▁Seven	-14006
▁Solid	-14007
▁escal	-14008
▁hobby	-14009
▁shear	-14010
▁woong	-14011
igraphy	-14012
▁Stream	-14013
▁bronze	-14014
▁physic	-14015
▁Changes	-14016
▁careers	-14017
▁centrif	-14018
▁fishery	-14019
▁Diabetes	-14020
▁metadata	-14021
▁persuade	-14022
▁premature	-14023
▁projected	-14024
▁spherical	-14025
▁broadcasts	-14026
▁defamation	-14027
▁waterproof	-14028
▁ultraviolet	-14029
▁electrochemical	-14030
GO	-14031
▁q	-14032
crim	-14033
lete	-14034
nori	-14035
seon	-14036
yeom	-14037
▁Bup	-14038
▁Gov	-14039
▁Kyu	-14040
▁Syd	-14041
▁lon	-14042
ariat	-14043
ivism	-14044
ureth	-14045
▁1988	-14046
▁Hill	-14047
▁boot	-14048
▁recl	-14049
▁Mater	-14050
▁Maybe	-14051
▁Rober	-14052
▁revis	-14053
▁Anyone	-14054
▁Muslim	-14055
▁airway	-14056
▁filmed	-14057
▁palace	-14058
irection	-14059
▁Between	-14060
▁enzymes	-14061
▁vacancy	-14062
▁affective	-14063
▁impressed	-14064
▁therapies	-14065
▁antibiotic	-14066
▁fabricated	-14067
▁insolvency	-14068
▁revocation	-14069
▁celebration	-14070
▁accountability	-14071
BA	-14072
▁Mt	-14073
elve	-14074
▁146	-14075
▁159	-14076
▁Hel	-14077
▁bae	-14078
▁wan	-14079
static	-14080
▁Autom	-14081
▁Greek	-14082
▁craft	-14083
iculous	-14084
▁Sydney	-14085
▁denial	-14086
▁drives	-14087
▁oppose	-14088
▁solely	-14089
sibility	-14090
▁Critics	-14091
▁layered	-14092
▁noticed	-14093
▁peptide	-14094
▁varying	-14095
▁Resident	-14096
▁shifting	-14097
▁companion	-14098
▁juveniles	-14099
▁resonator	-14100
▁wonderful	-14101
▁internally	-14102
▁newsletter	-14103
▁relaxation	-14104
▁substrates	-14105
▁broadcaster	-14106
▁geographical	-14107
▁acquaintances	-14108
▁considerations	-14109
▁Ik	-14110
ders	-14111
regn	-14112
▁242	-14113
▁Sky	-14114
▁gar	-14115
▁upt	-14116
otomy	-14117
rated	-14118
utors	-14119
▁coag	-14120
▁gaps	-14121
▁tong	-14122
▁tray	-14123
▁cabin	-14124
▁doses	-14125
▁poems	-14126
▁stall	-14127
▁Cambod	-14128
▁Subsid	-14129
▁pyeong	-14130
▁Centers	-14131
▁abscess	-14132
▁insight	-14133
▁adequacy	-14134
▁disagree	-14135
▁historic	-14136
▁Generally	-14137
▁affiliate	-14138
▁helicopter	-14139
▁relational	-14140
▁suggestion	-14141
▁journalists	-14142
▁collectively	-14143
▁governmental	-14144
▁hemodialysis	-14145
▁humanitarian	-14146
▁implantation	-14147
▁investigator	-14148
▁heterogeneous	-14149
▁presentations	-14150
▁preferentially	-14151
imp	-14152
irs	-14153
sil	-14154
▁GH	-14155
▁TM	-14156
▁Vl	-14157
▁223	-14158
▁Run	-14159
▁cad	-14160
uming	-14161
▁adul	-14162
▁Honam	-14163
▁Total	-14164
▁cheon	-14165
▁seong	-14166
▁Yonsei	-14167
▁booths	-14168
▁noting	-14169
▁escaped	-14170
▁refusal	-14171
▁stopper	-14172
▁Academic	-14173
▁comorbid	-14174
▁distrust	-14175
▁inductor	-14176
▁innocent	-14177
▁reliance	-14178
▁relieved	-14179
▁resigned	-14180
▁segments	-14181
▁skeletal	-14182
▁swelling	-14183
▁Orchestra	-14184
▁chocolate	-14185
▁clearance	-14186
▁fluctuation	-14187
▁Participation	-14188
▁authorization	-14189
▁dissatisfaction	-14190
zed	-14191
▁EG	-14192
▁Sl	-14193
▁206	-14194
▁Deb	-14195
▁Fif	-14196
▁See	-14197
▁rae	-14198
▁Saem	-14199
▁Vict	-14200
▁cure	-14201
▁ears	-14202
▁nonl	-14203
▁Ocean	-14204
▁spare	-14205
▁strat	-14206
▁Baekje	-14207
▁Senate	-14208
▁doubts	-14209
▁relics	-14210
▁depicts	-14211
▁lattice	-14212
▁pressur	-14213
▁standby	-14214
▁collects	-14215
▁packages	-14216
▁warnings	-14217
▁Champions	-14218
▁integrate	-14219
▁strongest	-14220
▁survivors	-14221
▁witnesses	-14222
▁exchanging	-14223
▁impurities	-14224
▁scheduling	-14225
▁disturbance	-14226
▁homogeneous	-14227
▁authenticity	-14228
▁surroundings	-14229
ss	-14230
agi	-14231
uis	-14232
▁225	-14233
▁gau	-14234
▁tie	-14235
axial	-14236
otrop	-14237
rance	-14238
▁beta	-14239
▁lump	-14240
▁wore	-14241
hetics	-14242
▁Story	-14243
▁ische	-14244
▁morph	-14245
▁radar	-14246
▁Having	-14247
▁liquor	-14248
▁transc	-14249
▁vacant	-14250
ediatric	-14251
▁Mexican	-14252
▁compact	-14253
▁hacking	-14254
▁locally	-14255
▁pottery	-14256
▁Actually	-14257
▁Bupyeong	-14258
▁Contract	-14259
▁Overseas	-14260
▁warrants	-14261
▁addresses	-14262
▁discounts	-14263
▁sincerely	-14264
▁sustained	-14265
▁phosphorus	-14266
▁directional	-14267
▁discovering	-14268
▁withholding	-14269
▁availability	-14270
IF	-14271
azy	-14272
▁KA	-14273
thal	-14274
▁139	-14275
▁Cam	-14276
▁Seol	-14277
▁bail	-14278
▁beds	-14279
▁porn	-14280
▁alpha	-14281
▁Spokes	-14282
▁donate	-14283
▁expose	-14284
▁Embassy	-14285
▁beating	-14286
▁dressed	-14287
▁seating	-14288
▁composer	-14289
▁cosmetic	-14290
▁delivers	-14291
▁homework	-14292
▁implicit	-14293
▁condensed	-14294
▁designers	-14295
▁inspector	-14296
▁enrollment	-14297
▁cultivating	-14298
▁broadcasters	-14299
▁cooperatives	-14300
▁discontinued	-14301
guk	-14302
▁DV	-14303
▁GA	-14304
flix	-14305
oden	-14306
ueen	-14307
▁Cop	-14308
▁dae	-14309
▁1993	-14310
▁Cost	-14311
▁Kwan	-14312
▁cann	-14313
▁exped	-14314
▁holog	-14315
▁realm	-14316
mission	-14317
▁Newton	-14318
▁cooked	-14319
▁fought	-14320
▁rooted	-14321
▁scroll	-14322
oprotein	-14323
▁devoted	-14324
▁furnace	-14325
▁leaking	-14326
▁pedagog	-14327
▁pillars	-14328
▁transce	-14329
▁ignition	-14330
▁interfer	-14331
▁rainfall	-14332
▁intersect	-14333
▁steatosis	-14334
▁Enterprise	-14335
▁dictionary	-14336
▁recovering	-14337
▁substitution	-14338
▁LV	-14339
▁Ra	-14340
leum	-14341
▁870	-14342
▁Bor	-14343
▁Ice	-14344
▁Circ	-14345
▁Prop	-14346
▁Week	-14347
▁bios	-14348
andong	-14349
[...]
