<unk>	0
<s>	0
</s>	0
▁_	-0
th	-1
in	-2
the	-3
on	-4
re	-5
an	-6
at	-7
er	-8
en	-9
▁_.	-10
▁_,	-11
or	-12
ed	-13
is	-14
al	-15
of	-16
ion	-17
es	-18
as	-19
ing	-20
it	-21
to	-22
ic	-23
ar	-24
and	-25
ro	-26
ent	-27
st	-28
ct	-29
le	-30
ou	-31
he	-32
ation	-33
be	-34
se	-35
ch	-36
de	-37
ve	-38
om	-39
▁_"	-40
for	-41
il	-42
ce	-43
con	-44
su	-45
im	-46
▁_-	-47
ay	-48
The	-49
ly	-50
ol	-51
pro	-52
un	-53
ig	-54
that	-55
lo	-56
ter	-57
ment	-58
id	-59
are	-60
am	-61
ad	-62
ex	-63
ir	-64
com	-65
ge	-66
per	-67
res	-68
ur	-69
▁_1	-70
tr	-71
ver	-72
us	-73
wh	-74
ut	-75
we	-76
wi	-77
ab	-78
pe	-79
em	-80
no	-81
ul	-82
▁_'	-83
if	-84
po	-85
with	-86
ore	-87
pl	-88
ac	-89
was	-90
ap	-91
act	-92
ate	-93
sh	-94
ity	-95
ess	-96
te	-97
In	-98
by	-99
▁_2	-100
may	-101
ive	-102
du	-103
ud	-104
ill	-105
ne	-106
est	-107
ong	-108
ies	-109
ial	-110
iv	-111
me	-112
od	-113
art	-114
fe	-115
so	-116
por	-117
ts	-118
ain	-119
oun	-120
inc	-121
igh	-122
form	-123
all	-124
ther	-125
qu	-126
age	-127
mo	-128
ha	-129
ag	-130
ers	-131
dis	-132
ure	-133
um	-134
ated	-135
not	-136
ice	-137
ke	-138
ction	-139
ld	-140
iz	-141
ye	-142
rom	-143
ord	-144
ant	-145
ren	-146
str	-147
can	-148
ple	-149
from	-150
port	-151
this	-152
ib	-153
end	-154
out	-155
pr	-156
ie	-157
pre	-158
co	-159
has	-160
pres	-161
▁_)	-162
▁_(	-163
ow	-164
will	-165
our	-166
cont	-167
ang	-168
ition	-169
ical	-170
ance	-171
up	-172
Kore	-173
ans	-174
have	-175
ase	-176
pos	-177
ip	-178
ich	-179
ach	-180
ents	-181
gh	-182
part	-183
ist	-184
ous	-185
which	-186
low	-187
go	-188
▁_3	-189
one	-190
ary	-191
fir	-192
red	-193
man	-194
ll	-195
ma	-196
af	-197
lect	-198
ign	-199
tim	-200
comp	-201
were	-202
cess	-203
It	-204
min	-205
stud	-206
ta	-207
00	-208
wor	-209
ide	-210
his	-211
und	-212
use	-213
cl	-214
ard	-215
cr	-216
ty	-217
able	-218
do	-219
rel	-220
first	-221
ens	-222
cord	-223
sy	-224
who	-225
incl	-226
ef	-227
di	-228
prov	-229
ting	-230
ould	-231
you	-232
ca	-233
op	-234
ence	-235
ult	-236
other	-237
but	-238
int	-239
cur	-240
ugh	-241
inv	-242
spe	-243
je	-244
ev	-245
fic	-246
cial	-247
sa	-248
gr	-249
reg	-250
ight	-251
year	-252
comm	-253
ast	-254
there	-255
ho	-256
ass	-257
ine	-258
emb	-259
king	-260
▁_4	-261
ations	-262
gro	-263
time	-264
cond	-265
ame	-266
sub	-267
ace	-268
li	-269
ser	-270
cording	-271
ions	-272
dif	-273
gen	-274
rough	-275
ob	-276
high	-277
▁_5	-278
vice	-279
sul	-280
cre	-281
loc	-282
As	-283
ific	-284
ind	-285
than	-286
ased	-287
also	-288
ating	-289
Korea	-290
over	-291
been	-292
duct	-293
bet	-294
ject	-295
aw	-296
ust	-297
such	-298
ious	-299
ational	-300
▁_20	-301
ative	-302
bo	-303
ors	-304
cent	-305
after	-306
ied	-307
more	-308
through	-309
Se	-310
inter	-311
ish	-312
mat	-313
pat	-314
pol	-315
ual	-316
rent	-317
uc	-318
its	-319
trans	-320
present	-321
work	-322
sur	-323
med	-324
oper	-325
ory	-326
ub	-327
ue	-328
sp	-329
ities	-330
old	-331
fect	-332
ree	-333
ced	-334
used	-335
cy	-336
ome	-337
coun	-338
stem	-339
ound	-340
sign	-341
dr	-342
formation	-343
sup	-344
cho	-345
ok	-346
ile	-347
pt	-348
ention	-349
whe	-350
This	-351
when	-352
par	-353
incre	-354
show	-355
var	-356
fr	-357
▁_%	-358
ince	-359
system	-360
Ch	-361
includ	-362
ween	-363
between	-364
compan	-365
fact	-366
second	-367
fin	-368
ident	-369
cause	-370
ility	-371
said	-372
day	-373
char	-374
ber	-375
lic	-376
resul	-377
gu	-378
ted	-379
mar	-380
▁_6	-381
play	-382
process	-383
partic	-384
et	-385
oc	-386
sion	-387
they	-388
their	-389
elect	-390
under	-391
Korean	-392
information	-393
des	-394
ning	-395
ref	-396
el	-397
aly	-398
val	-399
ution	-400
air	-401
wo	-402
ia	-403
now	-404
sis	-405
contro	-406
og	-407
perform	-408
stru	-409
about	-410
ized	-411
cor	-412
educ	-413
mon	-414
ack	-415
col	-416
gener	-417
nment	-418
add	-419
lear	-420
vel	-421
tal	-422
case	-423
peri	-424
arch	-425
pers	-426
ural	-427
att	-428
diffe	-429
ung	-430
requ	-431
dire	-432
ext	-433
▁_?	-434
ular	-435
pect	-436
ople	-437
only	-438
each	-439
study	-440
hy	-441
pon	-442
vis	-443
chan	-444
termin	-445
analy	-446
put	-447
chool	-448
reat	-449
istr	-450
ild	-451
ata	-452
ates	-453
gover	-454
device	-455
cons	-456
▁_10	-457
come	-458
according	-459
velo	-460
effect	-461
ics	-462
people	-463
tax	-464
vie	-465
yeong	-466
che	-467
new	-468
ces	-469
shall	-470
group	-471
velop	-472
data	-473
cer	-474
head	-475
Wh	-476
rece	-477
Th	-478
person	-479
because	-480
▁_7	-481
like	-482
pub	-483
num	-484
respon	-485
main	-486
invest	-487
▁_201	-488
using	-489
sib	-490
won	-491
▁_/	-492
mit	-493
ude	-494
pati	-495
inte	-496
very	-497
two	-498
tain	-499
school	-500
Pro	-501
tern	-502
lay	-503
into	-504
meth	-505
fore	-506
develop	-507
ble	-508
tic	-509
unit	-510
tion	-511
Kim	-512
my	-513
gan	-514
ided	-515
abl	-516
olog	-517
get	-518
▁_8	-519
method	-520
education	-521
government	-522
ite	-523
view	-524
should	-525
rest	-526
He	-527
ae	-528
own	-529
bus	-530
ship	-531
av	-532
public	-533
ater	-534
ak	-535
memb	-536
way	-537
ire	-538
exam	-539
stand	-540
ments	-541
ci	-542
vers	-543
had	-544
uring	-545
level	-546
fl	-547
emp	-548
number	-549
ough	-550
br	-551
appl	-552
pur	-553
exp	-554
ms	-555
related	-556
ases	-557
sel	-558
iment	-559
due	-560
some	-561
iness	-562
stit	-563
based	-564
where	-565
embod	-566
sto	-567
ful	-568
various	-569
support	-570
fol	-571
Com	-572
search	-573
ally	-574
law	-575
ep	-576
ize	-577
▁_12	-578
If	-579
FI	-580
ization	-581
mis	-582
set	-583
wer	-584
plan	-585
Gyeong	-586
bu	-587
ese	-588
ks	-589
conom	-590
Ac	-591
ra	-592
ication	-593
including	-594
know	-595
meas	-596
ures	-597
▁_11	-598
car	-599
Un	-600
fer	-601
ven	-602
need	-603
position	-604
FIG	-605
same	-606
follow	-607
ved	-608
▁_9	-609
dustr	-610
operation	-611
order	-612
rence	-613
ared	-614
electr	-615
her	-616
them	-617
io	-618
We	-619
activ	-620
local	-621
area	-622
hold	-623
lar	-624
pa	-625
ix	-626
proble	-627
There	-628
class	-629
sum	-630
According	-631
ket	-632
possib	-633
sol	-634
ily	-635
leg	-636
conduct	-637
control	-638
patients	-639
cus	-640
ital	-641
determin	-642
rate	-643
gi	-644
include	-645
any	-646
cal	-647
organ	-648
au	-649
struct	-650
prev	-651
ters	-652
students	-653
necess	-654
long	-655
econom	-656
direct	-657
point	-658
illion	-659
agement	-660
most	-661
particip	-662
ph	-663
business	-664
Ar	-665
ise	-666
report	-667
commun	-668
while	-669
change	-670
ited	-671
chn	-672
app	-673
St	-674
different	-675
ices	-676
product	-677
many	-678
del	-679
▁_100	-680
ason	-681
face	-682
chang	-683
sm	-684
line	-685
layer	-686
uation	-687
addition	-688
vir	-689
ability	-690
ink	-691
offic	-692
companies	-693
ict	-694
sing	-695
power	-696
years	-697
When	-698
oul	-699
invention	-700
lif	-701
ency	-702
cept	-703
expect	-704
research	-705
iving	-706
fil	-707
sed	-708
ior	-709
embodiment	-710
ele	-711
fun	-712
ality	-713
necessary	-714
Ho	-715
made	-716
ving	-717
▁_200	-718
import	-719
dep	-720
even	-721
off	-722
alth	-723
acter	-724
display	-725
mer	-726
ature	-727
ear	-728
Seoul	-729
just	-730
▁_19	-731
industr	-732
ck	-733
lim	-734
cell	-735
countr	-736
Min	-737
analysis	-738
self	-739
Gyeonggi	-740
clo	-741
tract	-742
cap	-743
results	-744
company	-745
Nor	-746
ivers	-747
techn	-748
▁_0	-749
child	-750
light	-751
For	-752
conf	-753
vol	-754
nor	-755
teach	-756
treat	-757
management	-758
current	-759
ove	-760
Prov	-761
value	-762
sim	-763
ran	-764
subject	-765
Act	-766
ient	-767
ablish	-768
dec	-769
pay	-770
signific	-771
result	-772
sens	-773
being	-774
Le	-775
trib	-776
redu	-777
image	-778
character	-779
conne	-780
signal	-781
posed	-782
tee	-783
month	-784
uch	-785
ian	-786
diffic	-787
comple	-788
found	-789
contin	-790
spec	-791
user	-792
interest	-793
function	-794
An	-795
less	-796
polic	-797
fac	-798
Chin	-799
would	-800
state	-801
last	-802
ically	-803
establish	-804
ann	-805
▁_13	-806
North	-807
cut	-808
enter	-809
jo	-810
ness	-811
well	-812
ouse	-813
period	-814
market	-815
ten	-816
formed	-817
ade	-818
ings	-819
cir	-820
here	-821
ism	-822
erial	-823
Re	-824
could	-825
polit	-826
ively	-827
though	-828
cult	-829
ived	-830
project	-831
issu	-832
ancial	-833
ot	-834
emplo	-835
ified	-836
good	-837
sem	-838
place	-839
possible	-840
led	-841
increase	-842
material	-843
ulation	-844
lead	-845
gn	-846
ose	-847
your	-848
life	-849
cour	-850
side	-851
during	-852
three	-853
ner	-854
significant	-855
care	-856
right	-857
experi	-858
social	-859
relation	-860
cu	-861
ives	-862
ield	-863
ute	-864
onic	-865
tur	-866
▁_15	-867
these	-868
fam	-869
pet	-870
prof	-871
without	-872
test	-873
again	-874
ology	-875
ification	-876
grow	-877
aph	-878
call	-879
sure	-880
she	-881
wever	-882
special	-883
sit	-884
reason	-885
treatment	-886
total	-887
national	-888
depend	-889
difficult	-890
investig	-891
hand	-892
fo	-893
read	-894
Gu	-895
gy	-896
region	-897
say	-898
take	-899
reco	-900
lected	-901
Con	-902
produ	-903
les	-904
National	-905
make	-906
whether	-907
official	-908
eval	-909
back	-910
ages	-911
ivid	-912
appe	-913
agr	-914
ider	-915
real	-916
since	-917
respond	-918
ministr	-919
gram	-920
ured	-921
important	-922
problem	-923
On	-924
wr	-925
ision	-926
development	-927
start	-928
eng	-929
non	-930
itive	-931
▁_30	-932
tem	-933
portion	-934
However	-935
gest	-936
then	-937
type	-938
service	-939
De	-940
▁_00	-941
design	-942
stat	-943
bas	-944
amoun	-945
equ	-946
expected	-947
ilities	-948
ris	-949
did	-950
cted	-951
general	-952
plain	-953
ired	-954
serv	-955
ss	-956
small	-957
jud	-958
held	-959
sc	-960
hum	-961
10	-962
open	-963
word	-964
plement	-965
large	-966
lower	-967
resident	-968
nam	-969
before	-970
ail	-971
onment	-972
ium	-973
net	-974
performance	-975
pass	-976
Al	-977
inal	-978
mal	-979
ants	-980
Lee	-981
crib	-982
does	-983
omen	-984
water	-985
field	-986
model	-987
financial	-988
Artic	-989
economic	-990
condition	-991
particular	-992
how	-993
istics	-994
apan	-995
bod	-996
Japan	-997
prove	-998
land	-999
road	-1000
provided	-1001
vironment	-1002
ress	-1003
amount	-1004
Province	-1005
soci	-1006
iate	-1007
studies	-1008
learning	-1009
ju	-1010
sal	-1011
pare	-1012
program	-1013
dom	-1014
hel	-1015
ator	-1016
oung	-1017
ward	-1018
house	-1019
what	-1020
strate	-1021
example	-1022
▁_14	-1023
cases	-1024
members	-1025
Af	-1026
higher	-1027
arr	-1028
ick	-1029
ark	-1030
Article	-1031
health	-1032
pose	-1033
expres	-1034
Gover	-1035
intro	-1036
increased	-1037
▁_000	-1038
surface	-1039
ense	-1040
adv	-1041
ights	-1042
electronic	-1043
ird	-1044
see	-1045
pop	-1046
within	-1047
rele	-1048
ng	-1049
ned	-1050
direction	-1051
above	-1052
introdu	-1053
flu	-1054
iety	-1055
don	-1056
analyz	-1057
ination	-1058
income	-1059
Mo	-1060
ry	-1061
prote	-1062
mission	-1063
ug	-1064
occur	-1065
action	-1066
promo	-1067
proper	-1068
want	-1069
effic	-1070
content	-1071
mus	-1072
mor	-1073
ems	-1074
tar	-1075
mult	-1076
term	-1077
electro	-1078
At	-1079
book	-1080
centr	-1081
activities	-1082
den	-1083
confir	-1084
body	-1085
member	-1086
industry	-1087
Je	-1088
means	-1089
exist	-1090
ividual	-1091
crim	-1092
structure	-1093
mean	-1094
policy	-1095
abor	-1096
help	-1097
improve	-1098
conducted	-1099
among	-1100
input	-1101
maj	-1102
recogn	-1103
following	-1104
ban	-1105
team	-1106
world	-1107
ended	-1108
quest	-1109
think	-1110
great	-1111
fair	-1112
job	-1113
four	-1114
continu	-1115
individual	-1116
wa	-1117
thing	-1118
urther	-1119
iversity	-1120
pho	-1121
aud	-1122
cost	-1123
lock	-1124
down	-1125
discus	-1126
inst	-1127
environment	-1128
must	-1129
struction	-1130
appro	-1131
vari	-1132
implement	-1133
instit	-1134
aim	-1135
provide	-1136
als	-1137
compet	-1138
standard	-1139
idents	-1140
exper	-1141
shown	-1142
aining	-1143
mee	-1144
bal	-1145
ply	-1146
consider	-1147
outh	-1148
lection	-1149
etc	-1150
share	-1151
reported	-1152
ustr	-1153
mem	-1154
major	-1155
Of	-1156
find	-1157
iven	-1158
uture	-1159
acc	-1160
ener	-1161
ports	-1162
ify	-1163
met	-1164
ort	-1165
days	-1166
next	-1167
cribed	-1168
communication	-1169
cing	-1170
those	-1171
object	-1172
relationship	-1173
tra	-1174
istry	-1175
children	-1176
20	-1177
flow	-1178
third	-1179
applied	-1180
President	-1181
ines	-1182
move	-1183
▁_18	-1184
lit	-1185
both	-1186
China	-1187
represent	-1188
row	-1189
la	-1190
eas	-1191
step	-1192
legal	-1193
characteristics	-1194
controll	-1195
request	-1196
vi	-1197
iting	-1198
ask	-1199
ath	-1200
oo	-1201
crit	-1202
meeting	-1203
performed	-1204
ctor	-1205
room	-1206
future	-1207
million	-1208
determined	-1209
wee	-1210
Park	-1211
scre	-1212
ched	-1213
price	-1214
After	-1215
let	-1216
Part	-1217
ension	-1218
dise	-1219
Ministry	-1220
received	-1221
ier	-1222
words	-1223
consum	-1224
san	-1225
employ	-1226
Ex	-1227
tail	-1228
ption	-1229
around	-1230
cle	-1231
iber	-1232
ference	-1233
ged	-1234
products	-1235
build	-1236
cul	-1237
ith	-1238
mod	-1239
hic	-1240
refer	-1241
experience	-1242
Tr	-1243
nel	-1244
separ	-1245
risk	-1246
asing	-1247
decre	-1248
human	-1249
ger	-1250
▁_16	-1251
every	-1252
temper	-1253
times	-1254
top	-1255
priv	-1256
accoun	-1257
administr	-1258
iend	-1259
foc	-1260
politan	-1261
understand	-1262
div	-1263
vehic	-1264
announ	-1265
included	-1266
ropolitan	-1267
charge	-1268
ides	-1269
corpor	-1270
ually	-1271
another	-1272
specific	-1273
growth	-1274
pract	-1275
verage	-1276
previous	-1277
countries	-1278
spect	-1279
vo	-1280
showed	-1281
mic	-1282
safe	-1283
correspond	-1284
dam	-1285
technology	-1286
came	-1287
allow	-1288
aring	-1289
dete	-1290
ival	-1291
ister	-1292
commit	-1293
situation	-1294
regard	-1295
event	-1296
iple	-1297
friend	-1298
food	-1299
Sh	-1300
phy	-1301
center	-1302
post	-1303
tom	-1304
der	-1305
sk	-1306
bon	-1307
lot	-1308
mand	-1309
recent	-1310
difference	-1311
atic	-1312
tour	-1313
dro	-1314
rights	-1315
That	-1316
space	-1317
pattern	-1318
fund	-1319
You	-1320
surance	-1321
thor	-1322
compared	-1323
office	-1324
sec	-1325
purpose	-1326
bur	-1327
obtain	-1328
quality	-1329
explain	-1330
home	-1331
far	-1332
output	-1333
look	-1334
defin	-1335
country	-1336
temperature	-1337
active	-1338
element	-1339
respect	-1340
much	-1341
ves	-1342
screen	-1343
distrib	-1344
contract	-1345
foreign	-1346
▁_50	-1347
bl	-1348
paren	-1349
application	-1350
sat	-1351
ential	-1352
medical	-1353
mid	-1354
regul	-1355
ric	-1356
sor	-1357
ief	-1358
size	-1359
config	-1360
young	-1361
illustr	-1362
Since	-1363
become	-1364
ben	-1365
kes	-1366
ste	-1367
labor	-1368
ists	-1369
seen	-1370
expand	-1371
further	-1372
rd	-1373
ways	-1374
ource	-1375
police	-1376
City	-1377
wang	-1378
soc	-1379
bel	-1380
least	-1381
called	-1382
film	-1383
women	-1384
base	-1385
city	-1386
ilar	-1387
princ	-1388
▁_25	-1389
hist	-1390
South	-1391
idence	-1392
terminal	-1393
Cho	-1394
ible	-1395
family	-1396
changes	-1397
Ne	-1398
hib	-1399
party	-1400
cannot	-1401
memory	-1402
US	-1403
ances	-1404
idered	-1405
pan	-1406
private	-1407
considered	-1408
against	-1409
positive	-1410
comb	-1411
ground	-1412
inance	-1413
partment	-1414
ax	-1415
free	-1416
improv	-1417
factors	-1418
To	-1419
trad	-1420
▁_17	-1421
known	-1422
ieve	-1423
investment	-1424
mob	-1425
til	-1426
reng	-1427
shows	-1428
exe	-1429
areas	-1430
circu	-1431
bre	-1432
plural	-1433
grad	-1434
clear	-1435
selected	-1436
apply	-1437
receive	-1438
ues	-1439
graph	-1440
streng	-1441
prevent	-1442
ilit	-1443
Commit	-1444
average	-1445
sym	-1446
associ	-1447
described	-1448
hous	-1449
sug	-1450
spital	-1451
block	-1452
heat	-1453
concer	-1454
measures	-1455
aut	-1456
izing	-1457
key	-1458
▁_21	-1459
Committee	-1460
residents	-1461
insul	-1462
photo	-1463
gether	-1464
making	-1465
ping	-1466
stage	-1467
sensor	-1468
detail	-1469
plurality	-1470
Su	-1471
suf	-1472
check	-1473
appear	-1474
cil	-1475
fare	-1476
Met	-1477
turn	-1478
having	-1479
transfer	-1480
facilities	-1481
icon	-1482
cheon	-1483
pred	-1484
similar	-1485
construction	-1486
So	-1487
acy	-1488
ped	-1489
comes	-1490
atively	-1491
measure	-1492
secur	-1493
Theref	-1494
ending	-1495
Therefore	-1496
working	-1497
investigation	-1498
feel	-1499
utes	-1500
electrode	-1501
groups	-1502
together	-1503
men	-1504
role	-1505
former	-1506
evaluation	-1507
sent	-1508
review	-1509
sco	-1510
vey	-1511
lish	-1512
semb	-1513
rat	-1514
satis	-1515
ceed	-1516
transmit	-1517
tation	-1518
section	-1519
cam	-1520
early	-1521
list	-1522
ples	-1523
indic	-1524
▁_120	-1525
opin	-1526
circuit	-1527
neg	-1528
music	-1529
suc	-1530
issue	-1531
billion	-1532
Pr	-1533
acqu	-1534
Party	-1535
estic	-1536
ession	-1537
teachers	-1538
ash	-1539
pain	-1540
range	-1541
ather	-1542
frequ	-1543
ave	-1544
limit	-1545
attention	-1546
path	-1547
calcul	-1548
atory	-1549
ternal	-1550
insurance	-1551
ft	-1552
site	-1553
Do	-1554
big	-1555
▁_24	-1556
atus	-1557
hour	-1558
past	-1559
▁_23	-1560
benef	-1561
affect	-1562
University	-1563
ached	-1564
ately	-1565
ime	-1566
visit	-1567
conver	-1568
includes	-1569
conditions	-1570
vehicle	-1571
got	-1572
aged	-1573
demand	-1574
sam	-1575
sembly	-1576
him	-1577
rad	-1578
agree	-1579
Center	-1580
response	-1581
increasing	-1582
author	-1583
ses	-1584
typ	-1585
draw	-1586
strong	-1587
established	-1588
phys	-1589
problems	-1590
iqu	-1591
tle	-1592
force	-1593
suggest	-1594
ined	-1595
appar	-1596
utions	-1597
apparatus	-1598
basic	-1599
supply	-1600
confirmed	-1601
estim	-1602
Hy	-1603
workers	-1604
employment	-1605
text	-1606
still	-1607
certain	-1608
meaning	-1609
connected	-1610
▁_22	-1611
▁_40	-1612
week	-1613
services	-1614
log	-1615
diag	-1616
usion	-1617
saying	-1618
media	-1619
May	-1620
gas	-1621
Table	-1622
Me	-1623
influ	-1624
hal	-1625
viol	-1626
ratio	-1627
society	-1628
external	-1629
Government	-1630
domestic	-1631
Metropolitan	-1632
ont	-1633
hard	-1634
iver	-1635
payment	-1636
wel	-1637
ging	-1638
itor	-1639
culture	-1640
da	-1641
Bus	-1642
emo	-1643
mone	-1644
pris	-1645
diagno	-1646
ological	-1647
announced	-1648
imum	-1649
install	-1650
Although	-1651
directly	-1652
try	-1653
emer	-1654
ivity	-1655
bud	-1656
claim	-1657
required	-1658
run	-1659
atural	-1660
factor	-1661
existing	-1662
referred	-1663
dist	-1664
concept	-1665
training	-1666
pursu	-1667
Dae	-1668
short	-1669
contact	-1670
disease	-1671
rul	-1672
plac	-1673
volt	-1674
evalu	-1675
ene	-1676
left	-1677
glo	-1678
dong	-1679
question	-1680
war	-1681
▁_110	-1682
Am	-1683
cit	-1684
ape	-1685
record	-1686
patient	-1687
pot	-1688
Even	-1689
adjust	-1690
bi	-1691
ins	-1692
stor	-1693
ideo	-1694
rais	-1695
substrate	-1696
cation	-1697
ank	-1698
excl	-1699
going	-1700
ox	-1701
deg	-1702
mun	-1703
safety	-1704
changed	-1705
hospital	-1706
Gang	-1707
decision	-1708
Be	-1709
interpre	-1710
production	-1711
ivil	-1712
video	-1713
contents	-1714
beha	-1715
committee	-1716
gency	-1717
upper	-1718
located	-1719
ints	-1720
Here	-1721
def	-1722
tre	-1723
ready	-1724
ctions	-1725
happ	-1726
sever	-1727
energy	-1728
source	-1729
kind	-1730
ables	-1731
touch	-1732
analyzed	-1733
ications	-1734
Dong	-1735
status	-1736
ump	-1737
hair	-1738
sales	-1739
ufact	-1740
developed	-1741
Edu	-1742
too	-1743
close	-1744
natural	-1745
uration	-1746
gl	-1747
card	-1748
chair	-1749
Ye	-1750
subs	-1751
tary	-1752
common	-1753
ultural	-1754
educational	-1755
entr	-1756
sung	-1757
budget	-1758
cultural	-1759
ton	-1760
Moon	-1761
network	-1762
household	-1763
Sam	-1764
iding	-1765
terms	-1766
prog	-1767
percent	-1768
manufact	-1769
ross	-1770
seems	-1771
uses	-1772
voltage	-1773
suit	-1774
inary	-1775
until	-1776
err	-1777
proced	-1778
president	-1779
maintain	-1780
Ad	-1781
lines	-1782
months	-1783
weight	-1784
outs	-1785
incial	-1786
mobile	-1787
processor	-1788
best	-1789
fairs	-1790
iments	-1791
Chinese	-1792
ching	-1793
nal	-1794
driving	-1795
organiz	-1796
fix	-1797
contain	-1798
fail	-1799
front	-1800
agraph	-1801
course	-1802
success	-1803
Jung	-1804
dule	-1805
survey	-1806
fall	-1807
five	-1808
target	-1809
orig	-1810
Japanese	-1811
corresponding	-1812
istic	-1813
employe	-1814
housing	-1815
location	-1816
pointed	-1817
quar	-1818
rather	-1819
vation	-1820
Coun	-1821
atter	-1822
tical	-1823
actions	-1824
Che	-1825
ges	-1826
name	-1827
wide	-1828
expens	-1829
themat	-1830
era	-1831
yung	-1832
iation	-1833
Cour	-1834
irst	-1835
pressure	-1836
Han	-1837
bit	-1838
reve	-1839
ried	-1840
guide	-1841
Education	-1842
Co	-1843
bor	-1844
liver	-1845
connection	-1846
aging	-1847
sound	-1848
resist	-1849
disposed	-1850
module	-1851
economy	-1852
history	-1853
schools	-1854
responsib	-1855
AA	-1856
Jae	-1857
clin	-1858
half	-1859
ience	-1860
dle	-1861
ken	-1862
recomm	-1863
stitution	-1864
New	-1865
board	-1866
normal	-1867
appropr	-1868
itional	-1869
concentr	-1870
Off	-1871
angu	-1872
scal	-1873
Court	-1874
sw	-1875
ably	-1876
First	-1877
values	-1878
determine	-1879
tru	-1880
final	-1881
types	-1882
integr	-1883
teacher	-1884
served	-1885
revis	-1886
independ	-1887
remo	-1888
already	-1889
hol	-1890
remain	-1891
tren	-1892
citiz	-1893
phone	-1894
building	-1895
inking	-1896
select	-1897
several	-1898
fire	-1899
sen	-1900
ends	-1901
init	-1902
added	-1903
activity	-1904
aster	-1905
inafter	-1906
game	-1907
vior	-1908
Among	-1909
broad	-1910
limited	-1911
No	-1912
mess	-1913
personal	-1914
property	-1915
30	-1916
deb	-1917
flo	-1918
imp	-1919
ret	-1920
global	-1921
likely	-1922
single	-1923
points	-1924
ties	-1925
En	-1926
beg	-1927
went	-1928
super	-1929
execut	-1930
Fig	-1931
Office	-1932
vention	-1933
poly	-1934
ledge	-1935
relev	-1936
ources	-1937
corporate	-1938
Eng	-1939
fort	-1940
behavior	-1941
additional	-1942
distribution	-1943
writ	-1944
These	-1945
money	-1946
trial	-1947
capital	-1948
contrib	-1949
Ser	-1950
cou	-1951
har	-1952
regular	-1953
why	-1954
along	-1955
channel	-1956
introduced	-1957
Is	-1958
joint	-1959
security	-1960
agreement	-1961
paragraph	-1962
illustrating	-1963
shape	-1964
advant	-1965
caused	-1966
theory	-1967
effects	-1968
later	-1969
today	-1970
organization	-1971
What	-1972
ences	-1973
iency	-1974
achieve	-1975
ilitary	-1976
processing	-1977
They	-1978
fully	-1979
conven	-1980
reflect	-1981
secut	-1982
coming	-1983
subjects	-1984
operating	-1985
resol	-1986
give	-1987
langu	-1988
▁_300	-1989
controller	-1990
store	-1991
faction	-1992
complex	-1993
win	-1994
officials	-1995
ule	-1996
United	-1997
regulations	-1998
significantly	-1999
mathemat	-2000
projects	-2001
ibr	-2002
loss	-2003
round	-2004
Assembly	-2005
possibility	-2006
CC	-2007
reveal	-2008
Minister	-2009
corre	-2010
gment	-2011
metal	-2012
ane	-2013
ators	-2014
lease	-2015
sions	-2016
appropriate	-2017
docu	-2018
methods	-2019
reference	-2020
paid	-2021
ream	-2022
agram	-2023
require	-2024
spective	-2025
increases	-2026
vic	-2027
crip	-2028
mediate	-2029
iconduct	-2030
▁_31	-2031
taking	-2032
director	-2033
materials	-2034
dy	-2035
With	-2036
cred	-2037
ones	-2038
sequ	-2039
itude	-2040
score	-2041
outside	-2042
complete	-2043
presented	-2044
Ord	-2045
fem	-2046
scale	-2047
collect	-2048
divided	-2049
cas	-2050
eld	-2051
central	-2052
lig	-2053
oid	-2054
purch	-2055
actual	-2056
compon	-2057
damage	-2058
Governor	-2059
relevant	-2060
department	-2061
ale	-2062
six	-2063
learn	-2064
CE	-2065
sex	-2066
Gwang	-2067
cells	-2068
prior	-2069
decided	-2070
community	-2071
recognized	-2072
mag	-2073
exer	-2074
invol	-2075
consist	-2076
welfare	-2077
knowledge	-2078
uro	-2079
near	-2080
▁_26	-2081
exchange	-2082
embodiments	-2083
semiconduct	-2084
rit	-2085
mark	-2086
court	-2087
student	-2088
efficient	-2089
associated	-2090
ai	-2091
date	-2092
iction	-2093
matters	-2094
showing	-2095
policies	-2096
competition	-2097
tor	-2098
ered	-2099
hours	-2100
physical	-2101
uary	-2102
▁_60	-2103
composition	-2104
took	-2105
vices	-2106
Ordinance	-2107
transport	-2108
satisfaction	-2109
dia	-2110
dig	-2111
pto	-2112
middle	-2113
pecial	-2114
reduced	-2115
sharehold	-2116
Accordingly	-2117
uted	-2118
cancer	-2119
military	-2120
generated	-2121
cooperation	-2122
trend	-2123
trust	-2124
continuous	-2125
population	-2126
representative	-2127
rap	-2128
inde	-2129
frame	-2130
access	-2131
receiving	-2132
acade	-2133
electric	-2134
obtained	-2135
oking	-2136
sched	-2137
cience	-2138
levels	-2139
institutions	-2140
ake	-2141
ball	-2142
ulum	-2143
cover	-2144
return	-2145
Chair	-2146
ently	-2147
pared	-2148
speed	-2149
uclear	-2150
proportion	-2151
live	-2152
▁_130	-2153
submit	-2154
travel	-2155
thought	-2156
depending	-2157
explained	-2158
AAA	-2159
death	-2160
principle	-2161
pen	-2162
syn	-2163
band	-2164
trade	-2165
reduce	-2166
intention	-2167
Reg	-2168
ars	-2169
drug	-2170
mode	-2171
basis	-2172
civil	-2173
pread	-2174
works	-2175
issues	-2176
smo	-2177
custom	-2178
living	-2179
negative	-2180
relatively	-2181
blo	-2182
given	-2183
effective	-2184
py	-2185
diagram	-2186
estival	-2187
icultural	-2188
international	-2189
Pol	-2190
better	-2191
riculum	-2192
measured	-2193
color	-2194
stock	-2195
mother	-2196
station	-2197
Wor	-2198
Busan	-2199
items	-2200
language	-2201
bro	-2202
susp	-2203
Inter	-2204
yeon	-2205
elder	-2206
ering	-2207
opening	-2208
popular	-2209
administration	-2210
apy	-2211
wan	-2212
portun	-2213
expenses	-2214
improved	-2215
joy	-2216
bond	-2217
cand	-2218
needs	-2219
States	-2220
continue	-2221
variable	-2222
once	-2223
verse	-2224
commer	-2225
needed	-2226
rences	-2227
opportun	-2228
practice	-2229
stitute	-2230
storage	-2231
tell	-2232
▁_27	-2233
ength	-2234
exerc	-2235
often	-2236
employees	-2237
frequency	-2238
na	-2239
plant	-2240
protection	-2241
participate	-2242
Man	-2243
fill	-2244
stant	-2245
ission	-2246
political	-2247
generation	-2248
Bo	-2249
improvement	-2250
respectively	-2251
administrative	-2252
paper	-2253
smart	-2254
bot	-2255
onom	-2256
Samsung	-2257
follows	-2258
cies	-2259
shop	-2260
inspe	-2261
emphas	-2262
leader	-2263
account	-2264
defined	-2265
provides	-2266
curriculum	-2267
institution	-2268
isions	-2269
hereinafter	-2270
Fin	-2271
door	-2272
song	-2273
influence	-2274
One	-2275
full	-2276
inno	-2277
plans	-2278
sense	-2279
elderly	-2280
parents	-2281
selection	-2282
ri	-2283
dut	-2284
stop	-2285
famil	-2286
semiconductor	-2287
ron	-2288
ique	-2289
lack	-2290
quant	-2291
actively	-2292
traditional	-2293
participation	-2294
sil	-2295
wind	-2296
ensive	-2297
Ger	-2298
others	-2299
prices	-2300
attached	-2301
KR	-2302
ush	-2303
wat	-2304
easy	-2305
ieved	-2306
implemented	-2307
ury	-2308
ender	-2309
batter	-2310
medium	-2311
hibition	-2312
efficiency	-2313
iet	-2314
hope	-2315
buy	-2316
max	-2317
circ	-2318
mber	-2319
questions	-2320
understanding	-2321
vent	-2322
blood	-2323
manag	-2324
assess	-2325
impact	-2326
cry	-2327
mony	-2328
approv	-2329
variables	-2330
plate	-2331
consul	-2332
create	-2333
degree	-2334
accept	-2335
overall	-2336
abilities	-2337
astic	-2338
Please	-2339
entire	-2340
prepar	-2341
suffic	-2342
My	-2343
decl	-2344
ming	-2345
wage	-2346
Chung	-2347
message	-2348
recently	-2349
elementary	-2350
spread	-2351
pict	-2352
became	-2353
▁_2018	-2354
English	-2355
province	-2356
uk	-2357
operate	-2358
KRW	-2359
cel	-2360
gor	-2361
ons	-2362
auto	-2363
capac	-2364
things	-2365
Council	-2366
minutes	-2367
▁_28	-2368
compl	-2369
enced	-2370
attract	-2371
emit	-2372
lege	-2373
mass	-2374
panel	-2375
press	-2376
criter	-2377
mention	-2378
participants	-2379
organizations	-2380
tw	-2381
Cor	-2382
concl	-2383
itself	-2384
si	-2385
seas	-2386
sell	-2387
equip	-2388
ished	-2389
candid	-2390
criminal	-2391
profession	-2392
jin	-2393
tro	-2394
Shin	-2395
gate	-2396
Trump	-2397
below	-2398
aspect	-2399
critic	-2400
observed	-2401
industrial	-2402
Go	-2403
always	-2404
Industr	-2405
highest	-2406
mix	-2407
yang	-2408
delay	-2409
subsid	-2410
expression	-2411
liqu	-2412
custo	-2413
overseas	-2414
released	-2415
revealed	-2416
configuration	-2417
cert	-2418
micro	-2419
TV	-2420
Te	-2421
Jong	-2422
argu	-2423
moun	-2424
sample	-2425
created	-2426
internal	-2427
iary	-2428
meet	-2429
burden	-2430
Incheon	-2431
movement	-2432
nd	-2433
index	-2434
▁_2016	-2435
solution	-2436
ded	-2437
books	-2438
accident	-2439
citizens	-2440
50	-2441
Ju	-2442
sets	-2443
rates	-2444
story	-2445
compens	-2446
devices	-2447
clinical	-2448
experiment	-2449
governments	-2450
CO	-2451
dram	-2452
fish	-2453
artic	-2454
restr	-2455
tered	-2456
ns	-2457
Mar	-2458
tas	-2459
anch	-2460
ester	-2461
secre	-2462
mainly	-2463
pursuant	-2464
secution	-2465
expressed	-2466
sufficient	-2467
nur	-2468
reed	-2469
iveness	-2470
CT	-2471
load	-2472
apart	-2473
began	-2474
enjoy	-2475
liter	-2476
advantage	-2477
Mean	-2478
uter	-2479
forts	-2480
server	-2481
soon	-2482
rapid	-2483
taken	-2484
commercial	-2485
mechan	-2486
becomes	-2487
reality	-2488
functions	-2489
tric	-2490
little	-2491
prosecution	-2492
By	-2493
uded	-2494
table	-2495
agency	-2496
opinions	-2497
izes	-2498
toward	-2499
pression	-2500
rup	-2501
mental	-2502
ker	-2503
away	-2504
late	-2505
link	-2506
anced	-2507
multiple	-2508
perspective	-2509
cere	-2510
goal	-2511
ume	-2512
kets	-2513
accur	-2514
cratic	-2515
Meanwhile	-2516
bank	-2517
cate	-2518
Young	-2519
moder	-2520
cup	-2521
usu	-2522
phen	-2523
simple	-2524
judgment	-2525
completed	-2526
cat	-2527
tel	-2528
wal	-2529
▁_199	-2530
disclo	-2531
prefer	-2532
▁_2015	-2533
affairs	-2534
organic	-2535
reduction	-2536
transmission	-2537
isl	-2538
virt	-2539
chairman	-2540
evidence	-2541
programs	-2542
calculated	-2543
ires	-2544
asked	-2545
lives	-2546
School	-2547
nature	-2548
sector	-2549
turned	-2550
Service	-2551
resources	-2552
raised	-2553
autonom	-2554
experts	-2555
All	-2556
hydro	-2557
Associ	-2558
differences	-2559
ring	-2560
break	-2561
credit	-2562
victim	-2563
Jun	-2564
Some	-2565
▁_2017	-2566
minimum	-2567
written	-2568
ames	-2569
poor	-2570
preh	-2571
costs	-2572
cture	-2573
career	-2574
inside	-2575
installed	-2576
university	-2577
consumption	-2578
concentration	-2579
ills	-2580
indu	-2581
util	-2582
begin	-2583
iring	-2584
owner	-2585
Choi	-2586
cool	-2587
deal	-2588
alone	-2589
parts	-2590
fourth	-2591
started	-2592
decreased	-2593
provincial	-2594
itch	-2595
crime	-2596
▁_500	-2597
compar	-2598
excell	-2599
motion	-2600
profit	-2601
battery	-2602
efforts	-2603
protect	-2604
appeared	-2605
az	-2606
irth	-2607
conflic	-2608
promote	-2609
Chairman	-2610
inspection	-2611
hor	-2612
Song	-2613
core	-2614
negot	-2615
▁_150	-2616
female	-2617
procedure	-2618
standards	-2619
Nam	-2620
fine	-2621
ixel	-2622
weak	-2623
fixed	-2624
preme	-2625
Through	-2626
carried	-2627
extract	-2628
original	-2629
Institute	-2630
collected	-2631
regulation	-2632
classes	-2633
promotion	-2634
regarding	-2635
Association	-2636
chol	-2637
laun	-2638
pixel	-2639
diabet	-2640
except	-2641
please	-2642
eration	-2643
discussion	-2644
sl	-2645
aft	-2646
ians	-2647
birth	-2648
interview	-2649
amp	-2650
ode	-2651
aran	-2652
love	-2653
greater	-2654
mentioned	-2655
resistance	-2656
Hong	-2657
gain	-2658
Distr	-2659
confirm	-2660
prepare	-2661
systems	-2662
surv	-2663
daily	-2664
floor	-2665
ially	-2666
inner	-2667
prepared	-2668
March	-2669
essor	-2670
match	-2671
digital	-2672
looking	-2673
setting	-2674
regional	-2675
Air	-2676
Jin	-2677
psy	-2678
vill	-2679
distance	-2680
produced	-2681
potential	-2682
collection	-2683
rev	-2684
keep	-2685
mical	-2686
oblig	-2687
reless	-2688
college	-2689
participated	-2690
hole	-2691
detect	-2692
ulture	-2693
benefits	-2694
shareholders	-2695
Demo	-2696
From	-2697
Yong	-2698
ipul	-2699
avoid	-2700
users	-2701
ensity	-2702
approach	-2703
providing	-2704
Pe	-2705
sof	-2706
Then	-2707
abol	-2708
prob	-2709
heart	-2710
sized	-2711
events	-2712
season	-2713
Supreme	-2714
ked	-2715
wall	-2716
▁_80	-2717
cross	-2718
liquid	-2719
persons	-2720
strength	-2721
emergency	-2722
mut	-2723
wid	-2724
cris	-2725
night	-2726
academic	-2727
progress	-2728
prim	-2729
▁_29	-2730
estate	-2731
opinion	-2732
wireless	-2733
Mayor	-2734
Figure	-2735
Intern	-2736
camera	-2737
easily	-2738
fle	-2739
volun	-2740
orient	-2741
volume	-2742
visited	-2743
OS	-2744
gap	-2745
funds	-2746
legisl	-2747
elements	-2748
exercise	-2749
separate	-2750
immediate	-2751
measurement	-2752
NA	-2753
kers	-2754
▁_140	-2755
sympto	-2756
compreh	-2757
currently	-2758
Med	-2759
cast	-2760
send	-2761
▁_70	-2762
thick	-2763
ansion	-2764
advance	-2765
tourism	-2766
District	-2767
consideration	-2768
dou	-2769
ster	-2770
tool	-2771
Chang	-2772
grade	-2773
univers	-2774
cordance	-2775
customers	-2776
cto	-2777
oon	-2778
Rese	-2779
coupl	-2780
suppl	-2781
length	-2782
estimated	-2783
evaluated	-2784
CEO	-2785
bol	-2786
Euro	-2787
empt	-2788
infr	-2789
vert	-2790
▁_32	-2791
aking	-2792
meric	-2793
waste	-2794
morning	-2795
accordance	-2796
International	-2797
fee	-2798
phas	-2799
ening	-2800
stored	-2801
Research	-2802
decrease	-2803
consumers	-2804
Gro	-2805
igence	-2806
proposed	-2807
os	-2808
avor	-2809
altern	-2810
occurred	-2811
diagnosis	-2812
examination	-2813
few	-2814
infl	-2815
carbon	-2816
intell	-2817
Fr	-2818
Can	-2819
ients	-2820
crisis	-2821
guaran	-2822
expansion	-2823
professional	-2824
manufacturing	-2825
sun	-2826
aphy	-2827
focus	-2828
hepat	-2829
exceed	-2830
Gwangju	-2831
fat	-2832
pul	-2833
pun	-2834
aware	-2835
online	-2836
regions	-2837
changing	-2838
excellent	-2839
strengthen	-2840
considering	-2841
convenience	-2842
environmental	-2843
bar	-2844
yet	-2845
Yang	-2846
Group	-2847
multi	-2848
fection	-2849
treated	-2850
phenomen	-2851
hes	-2852
iff	-2853
loy	-2854
vere	-2855
forms	-2856
voice	-2857
Americ	-2858
ruling	-2859
largest	-2860
ceremony	-2861
planning	-2862
40	-2863
DM	-2864
cru	-2865
squ	-2866
tes	-2867
atives	-2868
connect	-2869
forming	-2870
computer	-2871
criteria	-2872
teaching	-2873
classified	-2874
hn	-2875
Res	-2876
trict	-2877
Europe	-2878
Health	-2879
series	-2880
ibility	-2881
symptoms	-2882
uss	-2883
acid	-2884
While	-2885
avail	-2886
cular	-2887
matter	-2888
parties	-2889
Commission	-2890
laws	-2891
refr	-2892
sang	-2893
chain	-2894
▁_210	-2895
enough	-2896
complain	-2897
operated	-2898
equipment	-2899
Pub	-2900
ago	-2901
gre	-2902
soo	-2903
Asian	-2904
World	-2905
beaut	-2906
refers	-2907
mom	-2908
mind	-2909
makes	-2910
quick	-2911
passed	-2912
facility	-2913
displayed	-2914
insulating	-2915
Jan	-2916
Each	-2917
ifying	-2918
tempor	-2919
publish	-2920
establishment	-2921
valid	-2922
nation	-2923
predic	-2924
purchase	-2925
How	-2926
ays	-2927
anti	-2928
plat	-2929
skin	-2930
goods	-2931
movie	-2932
reach	-2933
counter	-2934
emotion	-2935
diseases	-2936
independent	-2937
Ge	-2938
anim	-2939
gery	-2940
phase	-2941
scope	-2942
writing	-2943
Administr	-2944
authority	-2945
stitutional	-2946
Tra	-2947
icip	-2948
pack	-2949
posit	-2950
psych	-2951
vered	-2952
summit	-2953
jection	-2954
recommend	-2955
fel	-2956
qual	-2957
ining	-2958
highly	-2959
reaction	-2960
continued	-2961
lap	-2962
Most	-2963
atures	-2964
circum	-2965
preced	-2966
leading	-2967
district	-2968
Or	-2969
wave	-2970
brand	-2971
clean	-2972
▁_400	-2973
command	-2974
election	-2975
recognition	-2976
Just	-2977
proceed	-2978
responsibility	-2979
Tae	-2980
enh	-2981
ike	-2982
oil	-2983
tum	-2984
mach	-2985
rand	-2986
ificial	-2987
Internet	-2988
families	-2989
suitable	-2990
relations	-2991
transportation	-2992
AI	-2993
roll	-2994
bound	-2995
solve	-2996
prises	-2997
Because	-2998
cription	-2999
emitting	-3000
introduction	-3001
beam	-3002
host	-3003
ling	-3004
repe	-3005
placed	-3006
secure	-3007
friends	-3008
predict	-3009
statist	-3010
therapy	-3011
available	-3012
businesses	-3013
mp	-3014
aur	-3015
hab	-3016
ison	-3017
Jeong	-3018
really	-3019
players	-3020
constant	-3021
irl	-3022
July	-3023
Kang	-3024
Russ	-3025
done	-3026
iated	-3027
Public	-3028
ression	-3029
provisions	-3030
Cur	-3031
ero	-3032
ened	-3033
tend	-3034
speak	-3035
engine	-3036
stipul	-3037
configured	-3038
yl	-3039
Law	-3040
She	-3041
web	-3042
hood	-3043
lier	-3044
audit	-3045
ember	-3046
opened	-3047
propos	-3048
clearly	-3049
strategy	-3050
thinking	-3051
trillion	-3052
importance	-3053
opportunity	-3054
Fe	-3055
alle	-3056
dust	-3057
urch	-3058
urban	-3059
stable	-3060
customer	-3061
interface	-3062
identified	-3063
More	-3064
didn	-3065
rise	-3066
Where	-3067
astru	-3068
whole	-3069
science	-3070
detailed	-3071
Democratic	-3072
compensation	-3073
takes	-3074
curren	-3075
January	-3076
analyze	-3077
reasons	-3078
rot	-3079
spac	-3080
angle	-3081
dance	-3082
places	-3083
generate	-3084
Sa	-3085
But	-3086
inj	-3087
yle	-3088
Sept	-3089
rain	-3090
Based	-3091
hyper	-3092
never	-3093
print	-3094
seven	-3095
fields	-3096
correct	-3097
deliber	-3098
initial	-3099
maximum	-3100
suggested	-3101
tit	-3102
Sang	-3103
news	-3104
▁_33	-3105
graphy	-3106
manager	-3107
monitor	-3108
serious	-3109
essential	-3110
something	-3111
dim	-3112
iar	-3113
pie	-3114
flex	-3115
jobs	-3116
chief	-3117
might	-3118
reser	-3119
Cheong	-3120
aneous	-3121
standing	-3122
personnel	-3123
ift	-3124
utr	-3125
itis	-3126
encies	-3127
images	-3128
address	-3129
attended	-3130
interests	-3131
istration	-3132
conductive	-3133
aff	-3134
box	-3135
ney	-3136
bers	-3137
inger	-3138
youth	-3139
occurs	-3140
Pl	-3141
fa	-3142
Aug	-3143
drop	-3144
feed	-3145
heav	-3146
Seong	-3147
occup	-3148
modern	-3149
posite	-3150
surgery	-3151
document	-3152
households	-3153
CD	-3154
ats	-3155
code	-3156
deep	-3157
Secur	-3158
taxes	-3159
train	-3160
assets	-3161
branch	-3162
filter	-3163
attitude	-3164
charging	-3165
Financial	-3166
accounting	-3167
exhibition	-3168
CS	-3169
debt	-3170
award	-3171
thickness	-3172
spr	-3173
bill	-3174
hind	-3175
pair	-3176
Elect	-3177
weeks	-3178
severe	-3179
illegal	-3180
picture	-3181
starting	-3182
ME	-3183
seem	-3184
immun	-3185
sphere	-3186
chemical	-3187
followed	-3188
components	-3189
stay	-3190
true	-3191
chart	-3192
driver	-3193
stress	-3194
astructure	-3195
Apr	-3196
Dis	-3197
Ref	-3198
cks	-3199
hit	-3200
ilt	-3201
Bank	-3202
Jang	-3203
Jeju	-3204
▁_35	-3205
▁_41	-3206
ressed	-3207
council	-3208
percept	-3209
applying	-3210
Sun	-3211
fig	-3212
uge	-3213
Stud	-3214
ancy	-3215
oman	-3216
push	-3217
▁_42	-3218
April	-3219
abled	-3220
loans	-3221
solid	-3222
sexual	-3223
supervis	-3224
improving	-3225
And	-3226
adop	-3227
onal	-3228
sold	-3229
leave	-3230
targe	-3231
Corpor	-3232
background	-3233
correlation	-3234
mathematics	-3235
slow	-3236
affic	-3237
optim	-3238
worth	-3239
excess	-3240
longer	-3241
▁_2014	-3242
reading	-3243
involved	-3244
quarters	-3245
September	-3246
practical	-3247
ond	-3248
ood	-3249
Sung	-3250
matic	-3251
versy	-3252
Police	-3253
skills	-3254
thesis	-3255
virtual	-3256
actually	-3257
division	-3258
organized	-3259
intelligence	-3260
Ro	-3261
Seo	-3262
▁__	-3263
duty	-3264
fast	-3265
pite	-3266
anged	-3267
demon	-3268
tried	-3269
promis	-3270
entrust	-3271
session	-3272
AS	-3273
ery	-3274
Trade	-3275
contr	-3276
cution	-3277
Further	-3278
usually	-3279
festival	-3280
petition	-3281
presents	-3282
immediately	-3283
Ap	-3284
Jo	-3285
xim	-3286
High	-3287
ulty	-3288
explo	-3289
uting	-3290
cities	-3291
candidate	-3292
bed	-3293
buk	-3294
uel	-3295
vac	-3296
August	-3297
parent	-3298
focused	-3299
thentic	-3300
particles	-3301
combination	-3302
Cl	-3303
mot	-3304
son	-3305
reli	-3306
ordin	-3307
tingu	-3308
belong	-3309
sports	-3310
prevention	-3311
registration	-3312
predetermined	-3313
Sy	-3314
ey	-3315
Des	-3316
eth	-3317
map	-3318
deli	-3319
fees	-3320
trip	-3321
▁_36	-3322
sumed	-3323
moving	-3324
played	-3325
heating	-3326
variety	-3327
authentic	-3328
industries	-3329
integrated	-3330
PC	-3331
Trans	-3332
netic	-3333
scene	-3334
restaur	-3335
approval	-3336
beginning	-3337
generally	-3338
limitations	-3339
Si	-3340
erg	-3341
via	-3342
iger	-3343
ocal	-3344
explan	-3345
casting	-3346
composed	-3347
pecially	-3348
opposition	-3349
reasonable	-3350
metropolitan	-3351
Ji	-3352
fans	-3353
Liber	-3354
equal	-3355
charges	-3356
rapidly	-3357
stances	-3358
creation	-3359
expanded	-3360
appointed	-3361
especially	-3362
controlling	-3363
June	-3364
rees	-3365
task	-3366
width	-3367
igation	-3368
istered	-3369
execution	-3370
secondary	-3371
submitted	-3372
Management	-3373
interested	-3374
performing	-3375
phenomenon	-3376
mm	-3377
Jeon	-3378
House	-3379
actor	-3380
carry	-3381
cycle	-3382
gender	-3383
negoti	-3384
senior	-3385
Germany	-3386
growing	-3387
quarter	-3388
sensing	-3389
capacity	-3390
diabetes	-3391
ifically	-3392
designated	-3393
SS	-3394
ube	-3395
amin	-3396
depth	-3397
endit	-3398
venue	-3399
▁_101	-3400
During	-3401
judged	-3402
counsel	-3403
examine	-3404
failure	-3405
forward	-3406
incident	-3407
artificial	-3408
achievement	-3409
atmo	-3410
impl	-3411
thin	-3412
▁_90	-3413
error	-3414
export	-3415
unique	-3416
schedule	-3417
ky	-3418
dol	-3419
Octo	-3420
inser	-3421
units	-3422
attend	-3423
parame	-3424
October	-3425
appears	-3426
construct	-3427
forcement	-3428
individuals	-3429
implementation	-3430
Po	-3431
loan	-3432
advert	-3433
assist	-3434
commission	-3435
difficulties	-3436
eat	-3437
hot	-3438
vas	-3439
demo	-3440
dest	-3441
count	-3442
selves	-3443
comfort	-3444
holding	-3445
primary	-3446
arranged	-3447
expendit	-3448
transmitted	-3449
bad	-3450
item	-3451
inste	-3452
iscal	-3453
father	-3454
thus	-3455
ture	-3456
State	-3457
built	-3458
Econom	-3459
answer	-3460
symbol	-3461
Current	-3462
allowed	-3463
reducing	-3464
controversy	-3465
anger	-3466
ronic	-3467
details	-3468
traffic	-3469
currency	-3470
delivery	-3471
surround	-3472
provision	-3473
Provincial	-3474
properties	-3475
interpretation	-3476
AT	-3477
Many	-3478
mers	-3479
ught	-3480
Recent	-3481
getting	-3482
revised	-3483
communic	-3484
designed	-3485
detection	-3486
Spe	-3487
gun	-3488
ever	-3489
felt	-3490
plas	-3491
dered	-3492
icial	-3493
manage	-3494
covered	-3495
village	-3496
resolution	-3497
requirements	-3498
comprehensive	-3499
bul	-3500
leav	-3501
stic	-3502
yong	-3503
arily	-3504
stead	-3505
arrest	-3506
quickly	-3507
infection	-3508
published	-3509
reflected	-3510
characteristic	-3511
BM	-3512
ga	-3513
die	-3514
ored	-3515
agent	-3516
across	-3517
applic	-3518
excluded	-3519
directors	-3520
documents	-3521
statement	-3522
interpreted	-3523
hee	-3524
axis	-3525
hypo	-3526
recru	-3527
rules	-3528
acking	-3529
fiscal	-3530
moment	-3531
satisf	-3532
centered	-3533
prosecut	-3534
emphasized	-3535
recommended	-3536
IT	-3537
PA	-3538
sle	-3539
gave	-3540
male	-3541
umul	-3542
Gener	-3543
Seung	-3544
peace	-3545
ughter	-3546
Develop	-3547
Special	-3548
mentary	-3549
strateg	-3550
detected	-3551
innovation	-3552
apo	-3553
gent	-3554
thern	-3555
officer	-3556
schedul	-3557
transist	-3558
discussed	-3559
transaction	-3560
Dr	-3561
pi	-3562
black	-3563
divid	-3564
favor	-3565
▁_220	-3566
attrib	-3567
consumer	-3568
component	-3569
universities	-3570
Im	-3571
LD	-3572
ibe	-3573
Fore	-3574
Hyun	-3575
sche	-3576
ctors	-3577
medic	-3578
sites	-3579
annual	-3580
stores	-3581
stream	-3582
Station	-3583
isition	-3584
ologies	-3585
focusing	-3586
learners	-3587
patterns	-3588
emotional	-3589
association	-3590
experienced	-3591
lat	-3592
adap	-3593
amber	-3594
preser	-3595
reform	-3596
earlier	-3597
ighting	-3598
survival	-3599
vehicles	-3600
authorities	-3601
hon	-3602
tow	-3603
file	-3604
lost	-3605
green	-3606
nuclear	-3607
protein	-3608
sharing	-3609
LE	-3610
Tax	-3611
nan	-3612
nit	-3613
Viet	-3614
puty	-3615
rice	-3616
plane	-3617
woman	-3618
▁_180	-3619
origin	-3620
categor	-3621
conflict	-3622
PD	-3623
Sup	-3624
icy	-3625
woo	-3626
Dece	-3627
Next	-3628
tele	-3629
older	-3630
resin	-3631
staff	-3632
larger	-3633
▁_2013	-3634
Vietnam	-3635
balance	-3636
context	-3637
exposed	-3638
December	-3639
properly	-3640
Department	-3641
enterprises	-3642
hom	-3643
oma	-3644
ague	-3645
foot	-3646
▁_45	-3647
Labor	-3648
Yeong	-3649
logic	-3650
lying	-3651
outer	-3652
raising	-3653
affected	-3654
creating	-3655
completely	-3656
supplement	-3657
Corporation	-3658
Won	-3659
Yoon	-3660
chip	-3661
oral	-3662
▁_34	-3663
tasks	-3664
Agency	-3665
attempt	-3666
graphic	-3667
instead	-3668
sanctions	-3669
maintained	-3670
participating	-3671
exem	-3672
jong	-3673
mall	-3674
union	-3675
closed	-3676
fering	-3677
manner	-3678
hearing	-3679
Currently	-3680
autonomous	-3681
disabilities	-3682
Administration	-3683
IS	-3684
Art	-3685
HCC	-3686
eco	-3687
pad	-3688
club	-3689
edge	-3690
idea	-3691
yond	-3692
Techn	-3693
sorry	-3694
allows	-3695
causes	-3696
markets	-3697
combined	-3698
friendly	-3699
expanding	-3700
continuously	-3701
Wel	-3702
cars	-3703
eyes	-3704
rear	-3705
talk	-3706
Daegu	-3707
absor	-3708
cient	-3709
newly	-3710
plays	-3711
bottom	-3712
finger	-3713
article	-3714
charged	-3715
optical	-3716
demonstr	-3717
atmosphere	-3718
controlled	-3719
impossible	-3720
Development	-3721
performances	-3722
uni	-3723
poll	-3724
resh	-3725
ultr	-3726
Kyung	-3727
amend	-3728
ought	-3729
erring	-3730
Affairs	-3731
pension	-3732
operative	-3733
appearance	-3734
Def	-3735
page	-3736
lawma	-3737
inflam	-3738
models	-3739
orders	-3740
▁_2019	-3741
benefit	-3742
feature	-3743
announce	-3744
ordinary	-3745
platform	-3746
refriger	-3747
Referring	-3748
prescribed	-3749
alternative	-3750
experiences	-3751
Bl	-3752
mig	-3753
pic	-3754
tae	-3755
hotel	-3756
serve	-3757
▁_198	-3758
layers	-3759
punish	-3760
theater	-3761
hydrogen	-3762
discharge	-3763
investors	-3764
disclosure	-3765
intervention	-3766
70	-3767
bag	-3768
bid	-3769
ror	-3770
sus	-3771
acts	-3772
cycl	-3773
girl	-3774
bring	-3775
heard	-3776
jeong	-3777
▁_160	-3778
wanted	-3779
Liberty	-3780
degrees	-3781
nursing	-3782
thereof	-3783
Recently	-3784
revision	-3785
requested	-3786
themselves	-3787
acquisition	-3788
discussions	-3789
Mr	-3790
Yoo	-3791
cod	-3792
saw	-3793
rare	-3794
told	-3795
ither	-3796
minim	-3797
motor	-3798
white	-3799
ancing	-3800
double	-3801
expert	-3802
Gangnam	-3803
achieved	-3804
creative	-3805
disabled	-3806
thes	-3807
ahead	-3808
ifier	-3809
mixed	-3810
pregn	-3811
disput	-3812
square	-3813
believe	-3814
numbers	-3815
equation	-3816
measuring	-3817
supported	-3818
corporation	-3819
preparation	-3820
DA	-3821
Sub	-3822
oth	-3823
vest	-3824
cribe	-3825
doing	-3826
ories	-3827
uding	-3828
wrong	-3829
attack	-3830
choice	-3831
encour	-3832
terior	-3833
trying	-3834
Welfare	-3835
conserv	-3836
polymer	-3837
profits	-3838
becoming	-3839
gradually	-3840
definition	-3841
investigated	-3842
mg	-3843
mir	-3844
Nove	-3845
jeon	-3846
ogen	-3847
wear	-3848
zone	-3849
extre	-3850
discuss	-3851
November	-3852
professor	-3853
procedures	-3854
responsible	-3855
specialized	-3856
inf	-3857
fuel	-3858
noon	-3859
rist	-3860
▁_51	-3861
Local	-3862
fered	-3863
stain	-3864
formul	-3865
Gangwon	-3866
appoint	-3867
drawing	-3868
reached	-3869
release	-3870
reports	-3871
Festival	-3872
audience	-3873
minister	-3874
introduce	-3875
developing	-3876
perception	-3877
separately	-3878
supporting	-3879
negotiations	-3880
buf	-3881
umn	-3882
Land	-3883
▁_52	-3884
empir	-3885
games	-3886
ising	-3887
style	-3888
Regard	-3889
depart	-3890
records	-3891
uations	-3892
repeated	-3893
difficulty	-3894
CA	-3895
Due	-3896
Also	-3897
Dire	-3898
idge	-3899
fract	-3900
ipher	-3901
iples	-3902
beyond	-3903
forced	-3904
parking	-3905
tenance	-3906
advanced	-3907
although	-3908
concerns	-3909
identify	-3910
dimension	-3911
Gyeongsang	-3912
researcher	-3913
transactions	-3914
psychological	-3915
authentication	-3916
ange	-3917
phil	-3918
reet	-3919
cious	-3920
compe	-3921
ensure	-3922
issued	-3923
observ	-3924
phones	-3925
random	-3926
visual	-3927
Justice	-3928
centers	-3929
solving	-3930
tension	-3931
Provided	-3932
requires	-3933
denuclear	-3934
assessment	-3935
instruction	-3936
PS	-3937
Fed	-3938
barr	-3939
goes	-3940
iday	-3941
ners	-3942
oxide	-3943
wered	-3944
write	-3945
agreed	-3946
almost	-3947
dollar	-3948
estern	-3949
famous	-3950
window	-3951
defense	-3952
temporary	-3953
textbooks	-3954
photograph	-3955
Na	-3956
Form	-3957
Hall	-3958
cash	-3959
spir	-3960
▁_43	-3961
advis	-3962
cohol	-3963
behind	-3964
chamber	-3965
cooling	-3966
Col	-3967
bio	-3968
cep	-3969
eye	-3970
mac	-3971
sud	-3972
node	-3973
wife	-3974
adhes	-3975
gradu	-3976
▁_170	-3977
Russia	-3978
shared	-3979
summar	-3980
lawsuit	-3981
agencies	-3982
tourists	-3983
stability	-3984
Industrial	-3985
monitoring	-3986
disposition	-3987
mathematical	-3988
HB	-3989
II	-3990
Yes	-3991
uco	-3992
rule	-3993
ules	-3994
sists	-3995
whose	-3996
finding	-3997
removed	-3998
shopping	-3999
recognize	-4000
technical	-4001
distributed	-4002
King	-4003
bloc	-4004
evit	-4005
prem	-4006
disci	-4007
drama	-4008
fluid	-4009
poses	-4010
schol	-4011
slight	-4012
Security	-4013
flexible	-4014
predicted	-4015
meaningful	-4016
probability	-4017
cold	-4018
hyun	-4019
rein	-4020
bonds	-4021
raise	-4022
sides	-4023
sleep	-4024
tomor	-4025
linear	-4026
player	-4027
switch	-4028
useful	-4029
Culture	-4030
Defense	-4031
coupled	-4032
American	-4033
certific	-4034
tomorrow	-4035
broadcast	-4036
institutional	-4037
BS	-4038
Cr	-4039
▁C	-4040
Pre	-4041
las	-4042
mia	-4043
voc	-4044
cele	-4045
Hwang	-4046
Hyund	-4047
heavy	-4048
illed	-4049
watch	-4050
acting	-4051
defend	-4052
stocks	-4053
sudden	-4054
theore	-4055
Hyundai	-4056
replace	-4057
receives	-4058
violence	-4059
apartment	-4060
expenditure	-4061
NS	-4062
funda	-4063
judge	-4064
tumor	-4065
alcohol	-4066
produce	-4067
compound	-4068
examples	-4069
guarantee	-4070
TA	-4071
spo	-4072
banks	-4073
faith	-4074
grant	-4075
happy	-4076
penal	-4077
tware	-4078
People	-4079
celebr	-4080
idance	-4081
inevit	-4082
widely	-4083
chronic	-4084
itation	-4085
adjusted	-4086
assembly	-4087
RA	-4088
ao	-4089
bum	-4090
cin	-4091
stim	-4092
ults	-4093
doesn	-4094
dream	-4095
▁_2012	-4096
monthly	-4097
spected	-4098
employed	-4099
features	-4100
magnetic	-4101
proposal	-4102
supplied	-4103
tendency	-4104
remaining	-4105
principles	-4106
successful	-4107
transistor	-4108
maintenance	-4109
Asia	-4110
Thus	-4111
pipe	-4112
herit	-4113
Support	-4114
competit	-4115
majority	-4116
afternoon	-4117
flowchart	-4118
literature	-4119
previously	-4120
agricultural	-4121
multicultural	-4122
yo	-4123
Fund	-4124
Prof	-4125
Tour	-4126
bitr	-4127
bone	-4128
oles	-4129
sale	-4130
scan	-4131
chall	-4132
eight	-4133
filed	-4134
adding	-4135
humans	-4136
entered	-4137
ivation	-4138
oriented	-4139
analyzing	-4140
existence	-4141
screening	-4142
investigate	-4143
technologies	-4144
effectiveness	-4145
Now	-4146
jac	-4147
Exam	-4148
Febr	-4149
Food	-4150
cogn	-4151
Prime	-4152
Christ	-4153
defect	-4154
giving	-4155
owners	-4156
preval	-4157
Koreans	-4158
express	-4159
Electron	-4160
February	-4161
acquired	-4162
instruct	-4163
presence	-4164
resource	-4165
rotation	-4166
taxation	-4167
Promotion	-4168
executive	-4169
adjustment	-4170
conference	-4171
coefficient	-4172
illustrated	-4173
denuclearization	-4174
BC	-4175
Cons	-4176
hall	-4177
inqu	-4178
note	-4179
drugs	-4180
muscle	-4181
settle	-4182
closely	-4183
damages	-4184
DP	-4185
ym	-4186
God	-4187
Rev	-4188
fit	-4189
dead	-4190
affil	-4191
guard	-4192
moral	-4193
divers	-4194
ergart	-4195
houses	-4196
stance	-4197
believed	-4198
culation	-4199
distingu	-4200
recorded	-4201
software	-4202
vertical	-4203
suspected	-4204
conversion	-4205
ji	-4206
que	-4207
Blue	-4208
Sing	-4209
fold	-4210
alyst	-4211
tests	-4212
button	-4213
failed	-4214
suspic	-4215
metabol	-4216
efficacy	-4217
medicine	-4218
peripher	-4219
vascular	-4220
accidents	-4221
convention	-4222
eral	-4223
▁_39	-4224
gence	-4225
moved	-4226
useum	-4227
volat	-4228
cheong	-4229
church	-4230
forest	-4231
derived	-4232
greatly	-4233
studied	-4234
guidance	-4235
identity	-4236
promoted	-4237
regarded	-4238
scheduled	-4239
Electronics	-4240
presidential	-4241
classification	-4242
Da	-4243
ps	-4244
born	-4245
wise	-4246
apter	-4247
topic	-4248
Commer	-4249
delive	-4250
filled	-4251
▁_2000	-4252
General	-4253
constit	-4254
healthy	-4255
premium	-4256
version	-4257
contains	-4258
evaluate	-4259
promoting	-4260
registered	-4261
Furthermore	-4262
anx	-4263
pow	-4264
Jeol	-4265
ampl	-4266
iful	-4267
Under	-4268
antib	-4269
creat	-4270
glass	-4271
iques	-4272
teams	-4273
duties	-4274
plastic	-4275
launched	-4276
delivered	-4277
Technology	-4278
comparison	-4279
conclusion	-4280
counseling	-4281
electrical	-4282
guidelines	-4283
broadcasting	-4284
constitutional	-4285
TC	-4286
Our	-4287
abs	-4288
hae	-4289
nas	-4290
uck	-4291
fell	-4292
mole	-4293
▁_38	-4294
brief	-4295
exact	-4296
ships	-4297
Second	-4298
actors	-4299
arbitr	-4300
unfair	-4301
daughter	-4302
incidence	-4303
resulting	-4304
operations	-4305
Ko	-4306
Ph	-4307
Are	-4308
jun	-4309
sea	-4310
expo	-4311
heon	-4312
shar	-4313
vary	-4314
encing	-4315
prelim	-4316
signed	-4317
Consider	-4318
diagnosed	-4319
structures	-4320
determining	-4321
expectations	-4322
Ab	-4323
pil	-4324
firm	-4325
izon	-4326
says	-4327
▁_65	-4328
Child	-4329
cript	-4330
goals	-4331
neigh	-4332
serum	-4333
incent	-4334
reedom	-4335
unders	-4336
itative	-4337
awareness	-4338
buildings	-4339
preparing	-4340
regression	-4341
significance	-4342
Bae	-4343
ori	-4344
Safe	-4345
diff	-4346
endo	-4347
rail	-4348
town	-4349
iance	-4350
Commun	-4351
chance	-4352
height	-4353
histor	-4354
ibrary	-4355
summer	-4356
discrim	-4357
exports	-4358
Business	-4359
examined	-4360
findings	-4361
governor	-4362
specified	-4363
regardless	-4364
techniques	-4365
experimental	-4366
yu	-4367
pir	-4368
ups	-4369
elig	-4370
ware	-4371
wish	-4372
▁_55	-4373
accel	-4374
perce	-4375
talks	-4376
Unlike	-4377
appeal	-4378
argued	-4379
assign	-4380
buffer	-4381
commod	-4382
crimes	-4383
icated	-4384
sensit	-4385
states	-4386
density	-4387
remains	-4388
consists	-4389
criticism	-4390
processes	-4391
concerning	-4392
containing	-4393
foundation	-4394
punishment	-4395
consultation	-4396
60	-4397
IC	-4398
Ahn	-4399
Ste	-4400
Vice	-4401
deem	-4402
Centr	-4403
Secre	-4404
protr	-4405
German	-4406
ferent	-4407
plants	-4408
stated	-4409
ordered	-4410
smaller	-4411
volunte	-4412
Director	-4413
visiting	-4414
ultaneous	-4415
consistent	-4416
preliminary	-4417
corporations	-4418
Day	-4419
East	-4420
radi	-4421
extra	-4422
innov	-4423
renal	-4424
▁_310	-4425
choose	-4426
solute	-4427
decline	-4428
extreme	-4429
thermal	-4430
European	-4431
Transport	-4432
separated	-4433
Lif	-4434
fib	-4435
dedu	-4436
dial	-4437
expl	-4438
▁_44	-4439
Civil	-4440
asset	-4441
cryst	-4442
marri	-4443
theme	-4444
gorith	-4445
jected	-4446
linked	-4447
notice	-4448
victims	-4449
restrict	-4450
tainment	-4451
Regarding	-4452
decreases	-4453
sensitive	-4454
technique	-4455
contribute	-4456
correction	-4457
obligation	-4458
Environment	-4459
calculation	-4460
11	-4461
Ul	-4462
Let	-4463
Par	-4464
cip	-4465
iat	-4466
Comp	-4467
itud	-4468
rich	-4469
tock	-4470
tood	-4471
vibr	-4472
▁_48	-4473
Found	-4474
wards	-4475
keting	-4476
Central	-4477
convers	-4478
machine	-4479
disaster	-4480
exposure	-4481
register	-4482
activated	-4483
avoidance	-4484
depression	-4485
understood	-4486
transferred	-4487
verification	-4488
CR	-4489
TB	-4490
Not	-4491
oud	-4492
aper	-4493
arth	-4494
rupt	-4495
▁_37	-4496
abuse	-4497
caught	-4498
figure	-4499
strain	-4500
tissue	-4501
▁_2010	-4502
objects	-4503
painting	-4504
beautiful	-4505
restaurant	-4506
Considering	-4507
independence	-4508
Cup	-4509
cro	-4510
mas	-4511
oso	-4512
wit	-4513
abil	-4514
sess	-4515
spot	-4516
prise	-4517
radio	-4518
Safety	-4519
listed	-4520
Science	-4521
discipl	-4522
learned	-4523
lectual	-4524
secured	-4525
signals	-4526
willing	-4527
Prosecut	-4528
absolute	-4529
priority	-4530
continues	-4531
matically	-4532
ownership	-4533
statistically	-4534
Lot	-4535
Pat	-4536
pra	-4537
Jose	-4538
atom	-4539
clar	-4540
lung	-4541
crack	-4542
drome	-4543
esity	-4544
faces	-4545
gather	-4546
intend	-4547
inting	-4548
master	-4549
shares	-4550
smooth	-4551
spring	-4552
hepatic	-4553
insulin	-4554
leaders	-4555
lecture	-4556
Industry	-4557
algorith	-4558
anything	-4559
articles	-4560
entrance	-4561
feedback	-4562
interval	-4563
reviewed	-4564
stressed	-4565
amendment	-4566
empirical	-4567
deliberation	-4568
DC	-4569
Bud	-4570
Lim	-4571
Per	-4572
ech	-4573
ert	-4574
gift	-4575
shor	-4576
intel	-4577
usive	-4578
▁_600	-4579
couldn	-4580
danger	-4581
deemed	-4582
voting	-4583
oration	-4584
partial	-4585
passing	-4586
planned	-4587
functional	-4588
occurrence	-4589
Information	-4590
chairperson	-4591
simultaneous	-4592
opportunities	-4593
Oh	-4594
Ano	-4595
kid	-4596
nar	-4597
swe	-4598
Brit	-4599
bent	-4600
mist	-4601
audio	-4602
offee	-4603
repor	-4604
twice	-4605
abroad	-4606
mortal	-4607
rought	-4608
Finance	-4609
freedom	-4610
intends	-4611
membran	-4612
ruption	-4613
smoking	-4614
syndrome	-4615
withdraw	-4616
radiation	-4617
researchers	-4618
mi	-4619
Hum	-4620
cop	-4621
coll	-4622
shap	-4623
shoc	-4624
suic	-4625
swit	-4626
usal	-4627
apore	-4628
lands	-4629
seong	-4630
songs	-4631
effort	-4632
letter	-4633
posing	-4634
diction	-4635
elastic	-4636
enhance	-4637
accompan	-4638
approved	-4639
Singapore	-4640
excessive	-4641
confidence	-4642
peripheral	-4643
structural	-4644
His	-4645
fan	-4646
Kong	-4647
arts	-4648
assa	-4649
aves	-4650
nutr	-4651
wood	-4652
hands	-4653
taste	-4654
▁_230	-4655
attach	-4656
dismis	-4657
simply	-4658
assumed	-4659
selling	-4660
Republic	-4661
judicial	-4662
uncertain	-4663
throughout	-4664
IP	-4665
MS	-4666
Ma	-4667
lia	-4668
vul	-4669
coil	-4670
imag	-4671
mold	-4672
Decre	-4673
alleg	-4674
arter	-4675
relig	-4676
title	-4677
adults	-4678
apping	-4679
either	-4680
looked	-4681
threat	-4682
Another	-4683
accumul	-4684
aspects	-4685
citizen	-4686
deliver	-4687
nothing	-4688
someone	-4689
uniform	-4690
accepted	-4691
accurate	-4692
entering	-4693
esterday	-4694
inations	-4695
outcomes	-4696
recovery	-4697
cognitive	-4698
conscious	-4699
blockchain	-4700
prevalence	-4701
pm	-4702
roy	-4703
died	-4704
matr	-4705
mits	-4706
peak	-4707
gluco	-4708
grand	-4709
isure	-4710
noise	-4711
scores	-4712
▁_2011	-4713
acquire	-4714
leaving	-4715
pressed	-4716
recruit	-4717
slightly	-4718
admission	-4719
secretary	-4720
transplant	-4721
ES	-4722
ID	-4723
Pen	-4724
gly	-4725
hip	-4726
sho	-4727
cape	-4728
warr	-4729
Austr	-4730
signs	-4731
Invest	-4732
eating	-4733
extent	-4734
grades	-4735
insula	-4736
paying	-4737
consult	-4738
delayed	-4739
philoso	-4740
ranking	-4741
Cultural	-4742
channels	-4743
electron	-4744
marriage	-4745
mountain	-4746
overcome	-4747
relative	-4748
reporting	-4749
legislation	-4750
AP	-4751
AR	-4752
Il	-4753
cm	-4754
Emp	-4755
Eun	-4756
Mon	-4757
Son	-4758
Why	-4759
fif	-4760
Conf	-4761
lens	-4762
brain	-4763
cepts	-4764
clock	-4765
recur	-4766
System	-4767
plasma	-4768
rental	-4769
barrier	-4770
capable	-4771
causing	-4772
checked	-4773
coordin	-4774
managed	-4775
princip	-4776
samples	-4777
annivers	-4778
rational	-4779
dependent	-4780
competency	-4781
fundamental	-4782
reliability	-4783
surrounding	-4784
establishing	-4785
implications	-4786
subparagraph	-4787
identification	-4788
competitiveness	-4789
Agr	-4790
fal	-4791
jur	-4792
Both	-4793
Chief	-4794
Super	-4795
album	-4796
dynam	-4797
ional	-4798
liber	-4799
sheet	-4800
Decree	-4801
iliary	-4802
rating	-4803
horizon	-4804
olution	-4805
paralle	-4806
sustain	-4807
tourist	-4808
weather	-4809
website	-4810
sentence	-4811
mortality	-4812
convenient	-4813
manufacture	-4814
unification	-4815
complications	-4816
organizational	-4817
12	-4818
IN	-4819
lu	-4820
oxy	-4821
hwan	-4822
park	-4823
rect	-4824
fiber	-4825
hibit	-4826
marks	-4827
minor	-4828
▁_410	-4829
jacent	-4830
mitted	-4831
running	-4832
Economic	-4833
donation	-4834
extended	-4835
Secretary	-4836
reflection	-4837
determination	-4838
MP	-4839
TE	-4840
SME	-4841
math	-4842
aling	-4843
earth	-4844
heads	-4845
imate	-4846
preci	-4847
Sports	-4848
matrix	-4849
retire	-4850
wiring	-4851
anxiety	-4852
obesity	-4853
speaker	-4854
emission	-4855
iculture	-4856
Insurance	-4857
injection	-4858
yesterday	-4859
generating	-4860
situations	-4861
dimensional	-4862
confirmation	-4863
headquarters	-4864
circumstances	-4865
dry	-4866
FIGS	-4867
Spec	-4868
intr	-4869
ower	-4870
tube	-4871
nergy	-4872
thres	-4873
inform	-4874
speech	-4875
himself	-4876
adjacent	-4877
operator	-4878
visitors	-4879
threshold	-4880
strategies	-4881
insufficient	-4882
characterized	-4883
CV	-4884
Hu	-4885
Wa	-4886
ah	-4887
gg	-4888
arm	-4889
sou	-4890
huge	-4891
ises	-4892
jour	-4893
acute	-4894
elong	-4895
quite	-4896
rooms	-4897
▁_112	-4898
artists	-4899
compare	-4900
mounted	-4901
removal	-4902
revenue	-4903
revital	-4904
warrant	-4905
drinking	-4906
returned	-4907
advertise	-4908
liability	-4909
interaction	-4910
residential	-4911
TS	-4912
Her	-4913
Tai	-4914
gory	-4915
piece	-4916
▁_102	-4917
icians	-4918
infect	-4919
intake	-4920
lowest	-4921
solved	-4922
unable	-4923
vulner	-4924
biggest	-4925
falling	-4926
leisure	-4927
adhesive	-4928
autonomy	-4929
anniversary	-4930
applications	-4931
intellectual	-4932
RS	-4933
fur	-4934
hus	-4935
rum	-4936
Year	-4937
carr	-4938
ches	-4939
cles	-4940
stra	-4941
Myung	-4942
aries	-4943
fraud	-4944
numer	-4945
track	-4946
▁_250	-4947
Island	-4948
Pyeong	-4949
factory	-4950
silicon	-4951
trading	-4952
Hospital	-4953
validity	-4954
marketing	-4955
IV	-4956
rs	-4957
bind	-4958
▁_62	-4959
Lotte	-4960
adsor	-4961
aimed	-4962
desir	-4963
proto	-4964
ureau	-4965
beauty	-4966
judges	-4967
thered	-4968
timing	-4969
▁_2009	-4970
affects	-4971
deterior	-4972
parallel	-4973
straight	-4974
mechanism	-4975
Foundation	-4976
kindergart	-4977
transition	-4978
explanation	-4979
legislative	-4980
sensitivity	-4981
infrastructure	-4982
AD	-4983
FA	-4984
agg	-4985
aid	-4986
boy	-4987
nom	-4988
Such	-4989
biop	-4990
earn	-4991
scen	-4992
▁_95	-4993
domin	-4994
onald	-4995
route	-4996
views	-4997
Joseon	-4998
coffee	-4999
ooking	-5000
stabil	-5001
Airport	-5002
Austral	-5003
Foreign	-5004
justice	-5005
accounts	-5006
Professor	-5007
composite	-5008
selecting	-5009
criticized	-5010
determines	-5011
appointment	-5012
calculating	-5013
ET	-5014
Ha	-5015
Hee	-5016
Woo	-5017
cade	-5018
mail	-5019
seat	-5020
curve	-5021
drive	-5022
steps	-5023
▁_320	-5024
Comple	-5025
domain	-5026
limits	-5027
matory	-5028
Looking	-5029
accused	-5030
claimed	-5031
deposit	-5032
elected	-5033
emerged	-5034
finally	-5035
sensors	-5036
suicide	-5037
turning	-5038
familiar	-5039
substant	-5040
container	-5041
hospitals	-5042
intensity	-5043
isdiction	-5044
conducting	-5045
litigation	-5046
accompanied	-5047
personality	-5048
announcement	-5049
commissioned	-5050
ler	-5051
tox	-5052
tun	-5053
Four	-5054
Infr	-5055
aims	-5056
lawy	-5057
mart	-5058
norm	-5059
star	-5060
taxi	-5061
▁_53	-5062
Human	-5063
Organ	-5064
belie	-5065
coach	-5066
diame	-5067
fresh	-5068
ideas	-5069
paign	-5070
truth	-5071
Market	-5072
urgent	-5073
category	-5074
pictures	-5075
disclosed	-5076
perceived	-5077
activation	-5078
collecting	-5079
frequently	-5080
transparent	-5081
Ki	-5082
ze	-5083
zz	-5084
hwa	-5085
Last	-5086
blue	-5087
copy	-5088
drain	-5089
false	-5090
laser	-5091
Donald	-5092
claims	-5093
ranked	-5094
refund	-5095
century	-5096
clothes	-5097
concern	-5098
husband	-5099
waiting	-5100
approxim	-5101
gathered	-5102
defendant	-5103
elections	-5104
processed	-5105
responses	-5106
candidates	-5107
horizontal	-5108
percentage	-5109
prediction	-5110
prosecutor	-5111
regulatory	-5112
settlement	-5113
Chungcheong	-5114
conventional	-5115
intermediate	-5116
jurisdiction	-5117
Sim	-5118
mov	-5119
oph	-5120
rew	-5121
sac	-5122
sik	-5123
harm	-5124
iers	-5125
iles	-5126
pick	-5127
seok	-5128
Other	-5129
agend	-5130
colon	-5131
solar	-5132
▁_800	-5133
Taiwan	-5134
acters	-5135
ilater	-5136
option	-5137
▁_2008	-5138
brother	-5139
dollars	-5140
fishing	-5141
glucose	-5142
partner	-5143
walking	-5144
employee	-5145
everyone	-5146
managers	-5147
suggests	-5148
volution	-5149
desirable	-5150
extension	-5151
reception	-5152
connecting	-5153
preventing	-5154
communicate	-5155
manufactured	-5156
investigating	-5157
VR	-5158
Var	-5159
yro	-5160
dipl	-5161
dose	-5162
inge	-5163
nano	-5164
gical	-5165
iders	-5166
macro	-5167
polar	-5168
distin	-5169
exists	-5170
extend	-5171
flight	-5172
launch	-5173
narrow	-5174
nearby	-5175
winter	-5176
worked	-5177
Despite	-5178
winning	-5179
accommod	-5180
guarante	-5181
membrane	-5182
purposes	-5183
positions	-5184
principal	-5185
satisfied	-5186
electrodes	-5187
indicating	-5188
statistics	-5189
shareholder	-5190
EC	-5191
EU	-5192
alk	-5193
dum	-5194
han	-5195
ding	-5196
flat	-5197
isol	-5198
▁_75	-5199
assum	-5200
decod	-5201
leads	-5202
pleas	-5203
animal	-5204
ashion	-5205
instru	-5206
ishing	-5207
pancre	-5208
airport	-5209
consent	-5210
farmers	-5211
imposed	-5212
induced	-5213
optimal	-5214
playing	-5215
catalyst	-5216
eligible	-5217
contracts	-5218
extracted	-5219
sometimes	-5220
categories	-5221
characters	-5222
leadership	-5223
positioned	-5224
represents	-5225
constructed	-5226
statistical	-5227
presentation	-5228
Gun	-5229
hur	-5230
akes	-5231
gold	-5232
oxid	-5233
trig	-5234
umin	-5235
▁_72	-5236
wages	-5237
Altern	-5238
holder	-5239
repair	-5240
scopic	-5241
vessel	-5242
brought	-5243
coating	-5244
despite	-5245
feeling	-5246
logical	-5247
concepts	-5248
duration	-5249
inserted	-5250
neighbor	-5251
opposite	-5252
studying	-5253
ilitation	-5254
indicates	-5255
systematic	-5256
effectively	-5257
interesting	-5258
productivity	-5259
Infrastructure	-5260
MA	-5261
ee	-5262
LED	-5263
Head	-5264
Only	-5265
lose	-5266
nine	-5267
walk	-5268
adult	-5269
anten	-5270
defic	-5271
deleg	-5272
eding	-5273
honor	-5274
proof	-5275
Social	-5276
collap	-5277
Project	-5278
Tourism	-5279
dispute	-5280
ometric	-5281
quantum	-5282
thening	-5283
diameter	-5284
excluding	-5285
violation	-5286
Commercial	-5287
innovative	-5288
contribution	-5289
notification	-5290
DS	-5291
KT	-5292
LG	-5293
Mot	-5294
bab	-5295
chi	-5296
ley	-5297
Fair	-5298
camp	-5299
iced	-5300
magn	-5301
migr	-5302
resc	-5303
River	-5304
fifth	-5305
usage	-5306
diplom	-5307
papers	-5308
spirit	-5309
stimul	-5310
transl	-5311
Medical	-5312
carrier	-5313
realize	-5314
Particip	-5315
discount	-5316
calculate	-5317
directions	-5318
parameters	-5319
suspension	-5320
vocational	-5321
certificate	-5322
specifically	-5323
FC	-5324
Yor	-5325
gets	-5326
hang	-5327
leak	-5328
▁_47	-5329
Small	-5330
asion	-5331
cking	-5332
drink	-5333
▁_111	-5334
meters	-5335
strict	-5336
tariff	-5337
viewed	-5338
Finally	-5339
outcome	-5340
relates	-5341
viewers	-5342
consecut	-5343
contrast	-5344
surgical	-5345
thoughts	-5346
concluded	-5347
estimation	-5348
permission	-5349
recurrence	-5350
Mal	-5351
capt	-5352
exha	-5353
soft	-5354
▁_54	-5355
newsp	-5356
robot	-5357
rural	-5358
asking	-5359
otions	-5360
oxygen	-5361
prison	-5362
street	-5363
unlike	-5364
concert	-5365
ensions	-5366
exhaust	-5367
imaging	-5368
commonly	-5369
feelings	-5370
entrusted	-5371
intendent	-5372
objective	-5373
indicators	-5374
mechanical	-5375
reflecting	-5376
retirement	-5377
description	-5378
simultaneously	-5379
Br	-5380
sn	-5381
enz	-5382
hap	-5383
lip	-5384
olf	-5385
wro	-5386
Plan	-5387
agon	-5388
aren	-5389
crow	-5390
isms	-5391
jung	-5392
kept	-5393
wait	-5394
wire	-5395
▁_63	-5396
Offic	-5397
incur	-5398
scopy	-5399
waves	-5400
entity	-5401
exempl	-5402
Western	-5403
assault	-5404
describ	-5405
equival	-5406
finance	-5407
succeed	-5408
warning	-5409
emotions	-5410
intended	-5411
comparing	-5412
metabolic	-5413
historical	-5414
stipulates	-5415
comfortable	-5416
constitution	-5417
habilitation	-5418
transmitting	-5419
strengthening	-5420
kg	-5421
Don	-5422
ost	-5423
Baek	-5424
diet	-5425
marg	-5426
mask	-5427
teen	-5428
tiff	-5429
upon	-5430
Cheon	-5431
depos	-5432
looks	-5433
maxim	-5434
phosp	-5435
wavel	-5436
wrote	-5437
cardio	-5438
decide	-5439
scient	-5440
absence	-5441
animals	-5442
appreci	-5443
learner	-5444
Compared	-5445
finished	-5446
partially	-5447
subsidies	-5448
switching	-5449
limitation	-5450
wavelength	-5451
reservation	-5452
inflammatory	-5453
particularly	-5454
entertainment	-5455
ui	-5456
Pan	-5457
gar	-5458
wed	-5459
Budd	-5460
Life	-5461
Wave	-5462
York	-5463
devi	-5464
ogue	-5465
tree	-5466
unch	-5467
▁_46	-5468
crete	-5469
icity	-5470
incor	-5471
ivate	-5472
myeon	-5473
prais	-5474
prize	-5475
roads	-5476
trees	-5477
ultim	-5478
▁_121	-5479
agenda	-5480
biopsy	-5481
borrow	-5482
bright	-5483
deputy	-5484
facing	-5485
photos	-5486
▁_1000	-5487
British	-5488
Chapter	-5489
loyment	-5490
sources	-5491
allowing	-5492
coupling	-5493
estimate	-5494
sequence	-5495
supports	-5496
concerned	-5497
converted	-5498
expensive	-5499
pollution	-5500
suffering	-5501
vulnerable	-5502
cooperative	-5503
installation	-5504
Mus	-5505
Str	-5506
Tur	-5507
War	-5508
slo	-5509
Vill	-5510
grav	-5511
hear	-5512
seek	-5513
stro	-5514
zero	-5515
apped	-5516
offer	-5517
column	-5518
fixing	-5519
posted	-5520
saving	-5521
terror	-5522
▁_2007	-5523
▁_2020	-5524
cancell	-5525
diverse	-5526
passeng	-5527
resolve	-5528
critical	-5529
prescribe	-5530
recording	-5531
everything	-5532
subjective	-5533
concentrated	-5534
CP	-5535
Li	-5536
cos	-5537
ios	-5538
Face	-5539
meal	-5540
▁_61	-5541
Teach	-5542
clust	-5543
ensus	-5544
falls	-5545
gives	-5546
resid	-5547
stack	-5548
▁_240	-5549
dramas	-5550
govern	-5551
iciary	-5552
injury	-5553
lihood	-5554
recess	-5555
rising	-5556
taxpay	-5557
adopted	-5558
ulations	-5559
algorithm	-5560
advantages	-5561
popularity	-5562
securities	-5563
consecutive	-5564
integration	-5565
respondents	-5566
OE	-5567
audi	-5568
busy	-5569
gras	-5570
gree	-5571
Pyong	-5572
Union	-5573
craft	-5574
eries	-5575
Contro	-5576
arrange	-5577
calling	-5578
grounds	-5579
serving	-5580
younger	-5581
campaign	-5582
watching	-5583
attempted	-5584
vibration	-5585
complaints	-5586
completion	-5587
nationwide	-5588
electricity	-5589
Specifically	-5590
Alternatively	-5591
Bu	-5592
MO	-5593
RO	-5594
Jud	-5595
exc	-5596
join	-5597
drawn	-5598
flows	-5599
resto	-5600
wheel	-5601
joined	-5602
Daejeon	-5603
Various	-5604
contest	-5605
courses	-5606
damaged	-5607
fashion	-5608
holiday	-5609
perfect	-5610
restric	-5611
targets	-5612
modified	-5613
resolved	-5614
livestock	-5615
accurately	-5616
summarized	-5617
differently	-5618
conservative	-5619
conversation	-5620
restrictions	-5621
recommendation	-5622
Au	-5623
MR	-5624
Equ	-5625
Pal	-5626
fru	-5627
asis	-5628
cirr	-5629
doub	-5630
ials	-5631
neck	-5632
prop	-5633
taek	-5634
▁_49	-5635
▁_85	-5636
rogen	-5637
▁_202	-5638
France	-5639
Sejong	-5640
talent	-5641
thetic	-5642
Complex	-5643
antenna	-5644
married	-5645
musical	-5646
outdoor	-5647
wearing	-5648
configur	-5649
Peninsula	-5650
ferential	-5651
lawmakers	-5652
represented	-5653
HD	-5654
Pa	-5655
Bef	-5656
det	-5657
mel	-5658
pin	-5659
Chun	-5660
Inte	-5661
etic	-5662
hydr	-5663
ivic	-5664
menu	-5665
osis	-5666
pool	-5667
tank	-5668
wash	-5669
▁_68	-5670
Women	-5671
acted	-5672
array	-5673
entry	-5674
fluct	-5675
meant	-5676
valve	-5677
Before	-5678
adoles	-5679
cirrho	-5680
formal	-5681
groove	-5682
handle	-5683
killed	-5684
median	-5685
secret	-5686
visory	-5687
profess	-5688
arrested	-5689
cleaning	-5690
minimize	-5691
somewhat	-5692
generator	-5693
dependence	-5694
separation	-5695
efficiently	-5696
fingerprint	-5697
PM	-5698
ki	-5699
xy	-5700
Hye	-5701
ICT	-5702
lin	-5703
spl	-5704
Over	-5705
SMEs	-5706
bing	-5707
cers	-5708
elim	-5709
neur	-5710
Byung	-5711
Start	-5712
adequ	-5713
yroid	-5714
▁_122	-5715
▁_330	-5716
agents	-5717
bacter	-5718
forces	-5719
notify	-5720
parlia	-5721
patent	-5722
receip	-5723
specim	-5724
earning	-5725
protocol	-5726
semester	-5727
suffered	-5728
Represent	-5729
contained	-5730
transmits	-5731
Federation	-5732
continuing	-5733
eventually	-5734
smartphone	-5735
configurations	-5736
BL	-5737
Sen	-5738
Two	-5739
aes	-5740
apor	-5741
ause	-5742
dele	-5743
gang	-5744
Suwon	-5745
attle	-5746
humid	-5747
itime	-5748
shaft	-5749
equity	-5750
superi	-5751
theast	-5752
verify	-5753
vision	-5754
library	-5755
offices	-5756
solvent	-5757
suspect	-5758
Moreover	-5759
assessed	-5760
vacation	-5761
Pyongyang	-5762
happiness	-5763
plaintiff	-5764
discharged	-5765
explaining	-5766
Prosecutors	-5767
maintaining	-5768
replacement	-5769
CK	-5770
CN	-5771
Gim	-5772
tub	-5773
Oper	-5774
▁_71	-5775
Enter	-5776
arise	-5777
ental	-5778
guest	-5779
holes	-5780
renew	-5781
tools	-5782
usual	-5783
driven	-5784
enroll	-5785
remote	-5786
Company	-5787
missing	-5788
argument	-5789
ilateral	-5790
performs	-5791
remember	-5792
textbook	-5793
revolution	-5794
rehabilitation	-5795
DB	-5796
Car	-5797
Hae	-5798
amb	-5799
aux	-5800
bin	-5801
seo	-5802
gage	-5803
hoon	-5804
spat	-5805
India	-5806
anode	-5807
films	-5808
ifted	-5809
named	-5810
names	-5811
seats	-5812
shops	-5813
▁_700	-5814
doctor	-5815
helped	-5816
progno	-5817
remove	-5818
worker	-5819
Village	-5820
acceler	-5821
hibited	-5822
sectors	-5823
accuracy	-5824
emerging	-5825
incurred	-5826
indicated	-5827
indicator	-5828
operators	-5829
sequently	-5830
incentives	-5831
theoretical	-5832
electrically	-5833
relationships	-5834
discrimination	-5835
Dy	-5836
NO	-5837
SP	-5838
mL	-5839
SNS	-5840
cav	-5841
ham	-5842
lab	-5843
lor	-5844
tin	-5845
Geum	-5846
Iran	-5847
Yeon	-5848
amic	-5849
flag	-5850
gene	-5851
mill	-5852
sume	-5853
noted	-5854
oring	-5855
pulse	-5856
retro	-5857
spend	-5858
belief	-5859
desire	-5860
indoor	-5861
intens	-5862
singer	-5863
soccer	-5864
compris	-5865
cooking	-5866
dominal	-5867
gesture	-5868
lateral	-5869
license	-5870
stories	-5871
collabor	-5872
attending	-5873
classroom	-5874
parameter	-5875
precedent	-5876
preferably	-5877
stipulated	-5878
convergence	-5879
obligations	-5880
certification	-5881
superintendent	-5882
Del	-5883
Div	-5884
Mic	-5885
Soo	-5886
Tha	-5887
hye	-5888
Arts	-5889
Crim	-5890
Mong	-5891
Pers	-5892
omer	-5893
Until	-5894
cracy	-5895
naire	-5896
novel	-5897
owned	-5898
rants	-5899
worry	-5900
Rather	-5901
crypto	-5902
seemed	-5903
stages	-5904
combust	-5905
printed	-5906
dividing	-5907
lighting	-5908
portable	-5909
superior	-5910
auxiliary	-5911
committed	-5912
decisions	-5913
sectional	-5914
suspended	-5915
foreigners	-5916
Chairperson	-5917
Hereinafter	-5918
departments	-5919
expressions	-5920
proportional	-5921
representing	-5922
IL	-5923
Add	-5924
Kak	-5925
vit	-5926
Kwon	-5927
ende	-5928
miss	-5929
About	-5930
Every	-5931
facts	-5932
memor	-5933
▁_131	-5934
acknow	-5935
bought	-5936
differ	-5937
mentia	-5938
demands	-5939
desired	-5940
overlap	-5941
passage	-5942
scholar	-5943
Facebook	-5944
atically	-5945
checking	-5946
comments	-5947
fracture	-5948
happened	-5949
literacy	-5950
portions	-5951
reflects	-5952
rejected	-5953
steadily	-5954
suddenly	-5955
exemplary	-5956
generates	-5957
naturally	-5958
Employment	-5959
assistance	-5960
hypothesis	-5961
Enforcement	-5962
outstanding	-5963
utilization	-5964
UN	-5965
Ui	-5966
ja	-5967
lf	-5968
Net	-5969
Sou	-5970
dat	-5971
fab	-5972
raz	-5973
Like	-5974
emor	-5975
enge	-5976
hose	-5977
rose	-5978
sacr	-5979
weld	-5980
▁_66	-5981
Indon	-5982
calls	-5983
chest	-5984
cloud	-5985
colog	-5986
nasty	-5987
simpl	-5988
spent	-5989
yield	-5990
Deputy	-5991
convey	-5992
marked	-5993
mostly	-5994
ousand	-5995
spaces	-5996
unless	-5997
Indones	-5998
dynamic	-5999
focuses	-6000
package	-6001
theless	-6002
answered	-6003
breaking	-6004
controls	-6005
frequent	-6006
replaced	-6007
requests	-6008
verified	-6009
affiliated	-6010
creativity	-6011
interviews	-6012
professors	-6013
questionnaire	-6014
communications	-6015
LA	-6016
LS	-6017
Mi	-6018
Yu	-6019
HBV	-6020
ali	-6021
mur	-6022
uls	-6023
Move	-6024
Port	-6025
runs	-6026
weap	-6027
▁_64	-6028
Kakao	-6029
Ulsan	-6030
acket	-6031
adium	-6032
civic	-6033
infer	-6034
loved	-6035
mouth	-6036
recip	-6037
rench	-6038
stake	-6039
stone	-6040
tions	-6041
Museum	-6042
couple	-6043
finite	-6044
minute	-6045
proxim	-6046
adverse	-6047
antibod	-6048
applies	-6049
depends	-6050
formula	-6051
promise	-6052
abnormal	-6053
consensus	-6054
preferred	-6055
underwent	-6056
motivation	-6057
presenting	-6058
reportedly	-6059
corresponds	-6060
photographing	-6061
Ob	-6062
Bar	-6063
Fol	-6064
hop	-6065
Moun	-6066
Phil	-6067
cath	-6068
tech	-6069
Never	-6070
chron	-6071
kinds	-6072
tance	-6073
County	-6074
League	-6075
Rights	-6076
attemp	-6077
colors	-6078
county	-6079
debate	-6080
fortun	-6081
ingred	-6082
itudes	-6083
refuge	-6084
seeing	-6085
videos	-6086
worsen	-6087
injured	-6088
profile	-6089
recover	-6090
remarks	-6091
concrete	-6092
organize	-6093
securing	-6094
strongly	-6095
dangerous	-6096
responded	-6097
volunteer	-6098
pancreatic	-6099
preferable	-6100
illustrates	-6101
observation	-6102
progression	-6103
recruitment	-6104
implementing	-6105
approximately	-6106
representatives	-6107
Any	-6108
Ear	-6109
Mex	-6110
shr	-6111
amid	-6112
athy	-6113
dark	-6114
onto	-6115
rely	-6116
vote	-6117
▁_92	-6118
Mexic	-6119
Prote	-6120
blind	-6121
email	-6122
helps	-6123
reson	-6124
French	-6125
Policy	-6126
anyone	-6127
easier	-6128
myself	-6129
neglig	-6130
trends	-6131
America	-6132
angular	-6133
bending	-6134
destroy	-6135
holders	-6136
sequent	-6137
stopped	-6138
baseline	-6139
boundary	-6140
challeng	-6141
dementia	-6142
indicate	-6143
lawmaker	-6144
thousand	-6145
carefully	-6146
electroly	-6147
itionally	-6148
necessity	-6149
executives	-6150
protective	-6151
competitive	-6152
introducing	-6153
willingness	-6154
cancellation	-6155
Constitutional	-6156
GF	-6157
Gr	-6158
LT	-6159
km	-6160
Bas	-6161
tri	-6162
Line	-6163
ault	-6164
baby	-6165
cyto	-6166
drew	-6167
gone	-6168
igen	-6169
tons	-6170
valu	-6171
▁_58	-6172
▁_82	-6173
neutr	-6174
shock	-6175
stick	-6176
cancel	-6177
carcin	-6178
discre	-6179
earned	-6180
heated	-6181
iaries	-6182
icular	-6183
intent	-6184
latest	-6185
lowing	-6186
serves	-6187
subway	-6188
trials	-6189
earnest	-6190
farming	-6191
legally	-6192
receipt	-6193
visible	-6194
Criminal	-6195
dialogue	-6196
executed	-6197
monetary	-6198
particle	-6199
attitudes	-6200
cirrhosis	-6201
complaint	-6202
confident	-6203
criterion	-6204
expertise	-6205
inflation	-6206
religious	-6207
sentiment	-6208
attracting	-6209
collective	-6210
equivalent	-6211
governance	-6212
influenced	-6213
refrigerant	-6214
CH	-6215
MC	-6216
ido	-6217
jae	-6218
mes	-6219
raw	-6220
ull	-6221
Code	-6222
acle	-6223
anal	-6224
coal	-6225
elev	-6226
pene	-6227
warm	-6228
Acade	-6229
▁_190	-6230
Church	-6231
artist	-6232
dispos	-6233
hosted	-6234
mutual	-6235
perman	-6236
scored	-6237
shaped	-6238
vector	-6239
arrived	-6240
crystal	-6241
helpful	-6242
Children	-6243
Movement	-6244
bleeding	-6245
detector	-6246
directed	-6247
displays	-6248
issuance	-6249
payments	-6250
realized	-6251
surfaces	-6252
belonging	-6253
conflicts	-6254
producing	-6255
corruption	-6256
substances	-6257
designation	-6258
destination	-6259
strengthened	-6260
automatically	-6261
transplantation	-6262
ER	-6263
ys	-6264
San	-6265
dog	-6266
gam	-6267
lym	-6268
pel	-6269
rig	-6270
unk	-6271
ador	-6272
farm	-6273
fear	-6274
iled	-6275
olid	-6276
▁_67	-6277
▁_91	-6278
Peace	-6279
delic	-6280
fibro	-6281
foods	-6282
moist	-6283
sampl	-6284
semin	-6285
soldi	-6286
Koreas	-6287
Mongol	-6288
fusion	-6289
immune	-6290
losses	-6291
metast	-6292
penetr	-6293
pixels	-6294
recycl	-6295
regret	-6296
topics	-6297
Russian	-6298
adolesc	-6299
thereby	-6300
blocking	-6301
diabetic	-6302
shipping	-6303
abdominal	-6304
framework	-6305
spreading	-6306
substance	-6307
utilizing	-6308
adaptation	-6309
inevitably	-6310
philosophy	-6311
capabilities	-6312
BB	-6313
Ty	-6314
DNA	-6315
Soc	-6316
Data	-6317
Fire	-6318
Stat	-6319
anks	-6320
else	-6321
loop	-6322
lymp	-6323
▁_73	-6324
Third	-6325
broke	-6326
datab	-6327
glyce	-6328
▁_197	-6329
border	-6330
coding	-6331
declar	-6332
dispat	-6333
enters	-6334
freely	-6335
premis	-6336
relief	-6337
resign	-6338
shield	-6339
starts	-6340
inherit	-6341
telling	-6342
viewing	-6343
incorpor	-6344
officers	-6345
spending	-6346
thorough	-6347
exemption	-6348
interpret	-6349
irregular	-6350
diagnostic	-6351
ifications	-6352
enforcement	-6353
investments	-6354
demonstrated	-6355
consciousness	-6356
UV	-6357
Mat	-6358
ica	-6359
West	-6360
chat	-6361
omit	-6362
pump	-6363
ride	-6364
vacc	-6365
wers	-6366
▁_56	-6367
▁_74	-6368
▁_99	-6369
Thank	-6370
arden	-6371
coast	-6372
overl	-6373
prime	-6374
risks	-6375
shift	-6376
steel	-6377
uters	-6378
▁_420	-6379
ampion	-6380
blocks	-6381
broken	-6382
enable	-6383
iously	-6384
pieces	-6385
ruptcy	-6386
salary	-6387
cathode	-6388
largely	-6389
mixture	-6390
penalty	-6391
protest	-6392
spatial	-6393
Division	-6394
contrary	-6395
infringe	-6396
matching	-6397
deviation	-6398
ecosystem	-6399
pregnancy	-6400
resection	-6401
suspicion	-6402
inevitable	-6403
sequential	-6404
Constitution	-6405
Nevertheless	-6406
hypertension	-6407
FS	-6408
GS	-6409
OP	-6410
TH	-6411
bs	-6412
ik	-6413
Cap	-6414
ada	-6415
eun	-6416
lum	-6417
tip	-6418
Bang	-6419
Care	-6420
Inno	-6421
Seok	-6422
alid	-6423
feas	-6424
race	-6425
tics	-6426
Those	-6427
pitch	-6428
begins	-6429
circle	-6430
inquir	-6431
mation	-6432
closing	-6433
compres	-6434
dealing	-6435
however	-6436
weekend	-6437
Examples	-6438
fraction	-6439
indirect	-6440
mounting	-6441
quantity	-6442
subscrib	-6443
ultrason	-6444
cooperate	-6445
exclusive	-6446
voluntary	-6447
consisting	-6448
diplomatic	-6449
requirement	-6450
smartphones	-6451
IR	-6452
Sur	-6453
bak	-6454
bok	-6455
cyl	-6456
dys	-6457
lan	-6458
rob	-6459
Braz	-6460
cher	-6461
dual	-6462
golf	-6463
hyth	-6464
mell	-6465
obst	-6466
oste	-6467
prec	-6468
pure	-6469
rang	-6470
seal	-6471
shut	-6472
uble	-6473
Hotel	-6474
Olymp	-6475
moves	-6476
wants	-6477
Brazil	-6478
Energy	-6479
advice	-6480
closer	-6481
cylind	-6482
dinner	-6483
latter	-6484
portal	-6485
respir	-6486
stroke	-6487
careful	-6488
funding	-6489
gaining	-6490
invalid	-6491
tencies	-6492
thyroid	-6493
typical	-6494
managing	-6495
steering	-6496
targeting	-6497
constantly	-6498
subsequent	-6499
volatility	-6500
distinguish	-6501
orientation	-6502
restaurants	-6503
competencies	-6504
disciplinary	-6505
EA	-6506
ds	-6507
mn	-6508
Sat	-6509
kil	-6510
rid	-6511
wha	-6512
Mult	-6513
bath	-6514
icit	-6515
lith	-6516
phar	-6517
plus	-6518
shoo	-6519
tens	-6520
Heung	-6521
astro	-6522
hyeon	-6523
legit	-6524
lunch	-6525
ogene	-6526
sharp	-6527
vital	-6528
asound	-6529
bridge	-6530
faster	-6531
malign	-6532
movies	-6533
spaced	-6534
visits	-6535
▁_2005	-6536
convert	-6537
explore	-6538
figures	-6539
Patients	-6540
definite	-6541
manpower	-6542
politics	-6543
residual	-6544
Australia	-6545
adjusting	-6546
capacitor	-6547
decentral	-6548
exchanges	-6549
institute	-6550
Revolution	-6551
applicants	-6552
combustion	-6553
treatments	-6554
accumulated	-6555
conductivity	-6556
successfully	-6557
unemployment	-6558
SK	-6559
SO	-6560
Ur	-6561
nm	-6562
Roh	-6563
Tod	-6564
Yeo	-6565
ina	-6566
pne	-6567
sin	-6568
YouT	-6569
izer	-6570
shot	-6571
utic	-6572
▁_57	-6573
Power	-6574
ading	-6575
flood	-6576
mobil	-6577
veloc	-6578
▁_151	-6579
▁_196	-6580
ashing	-6581
behavi	-6582
gained	-6583
handed	-6584
icipal	-6585
intest	-6586
ticket	-6587
answers	-6588
comment	-6589
forcing	-6590
ography	-6591
passive	-6592
trustee	-6593
Services	-6594
meetings	-6595
operates	-6596
volatile	-6597
accounted	-6598
constrain	-6599
diversity	-6600
listening	-6601
Protection	-6602
laboratory	-6603
positively	-6604
disappeared	-6605
PI	-6606
UK	-6607
zo	-6608
Fam	-6609
Pop	-6610
Sum	-6611
fed	-6612
hun	-6613
ards	-6614
epis	-6615
gers	-6616
peer	-6617
prom	-6618
▁_59	-6619
Board	-6620
Today	-6621
adapt	-6622
isted	-6623
pilot	-6624
happen	-6625
kidney	-6626
preset	-6627
remark	-6628
▁_2006	-6629
Control	-6630
angible	-6631
harmony	-6632
putting	-6633
segment	-6634
cellular	-6635
equipped	-6636
pressive	-6637
receiver	-6638
scholars	-6639
supplies	-6640
Gyeongnam	-6641
attracted	-6642
challenge	-6643
involving	-6644
newspaper	-6645
reactions	-6646
inequality	-6647
engineering	-6648
sustainable	-6649
Organization	-6650
PG	-6651
SW	-6652
Dep	-6653
Doo	-6654
Glo	-6655
Leg	-6656
Sal	-6657
iss	-6658
nic	-6659
rib	-6660
yeo	-6661
Hwas	-6662
Shim	-6663
bron	-6664
coin	-6665
lots	-6666
nice	-6667
pret	-6668
turb	-6669
ying	-6670
encry	-6671
meter	-6672
neuro	-6673
throw	-6674
▁_114	-6675
chants	-6676
client	-6677
errors	-6678
escape	-6679
fabric	-6680
franch	-6681
inated	-6682
induce	-6683
powder	-6684
pushed	-6685
rescue	-6686
ritual	-6687
Instead	-6688
apeutic	-6689
climate	-6690
earthqu	-6691
genetic	-6692
infants	-6693
preneur	-6694
regener	-6695
unknown	-6696
explains	-6697
atization	-6698
creditors	-6699
favorable	-6700
residence	-6701
consulting	-6702
customized	-6703
evaluating	-6704
statements	-6705
ultrasound	-6706
violations	-6707
comparative	-6708
declaration	-6709
experiments	-6710
supervision	-6711
Construction	-6712
inflammation	-6713
infringement	-6714
independently	-6715
DR	-6716
HR	-6717
UI	-6718
Mid	-6719
hid	-6720
lux	-6721
mol	-6722
pal	-6723
pha	-6724
uum	-6725
Cong	-6726
Real	-6727
wing	-6728
wook	-6729
▁_76	-6730
Using	-6731
buses	-6732
ctomy	-6733
diode	-6734
entre	-6735
pover	-6736
stars	-6737
tired	-6738
asters	-6739
breast	-6740
bureau	-6741
copper	-6742
flower	-6743
ictory	-6744
imming	-6745
lawyer	-6746
merger	-6747
monary	-6748
undred	-6749
usions	-6750
Theater	-6751
jointly	-6752
species	-6753
watched	-6754
Mountain	-6755
admitted	-6756
database	-6757
pregnant	-6758
automatic	-6759
hepatitis	-6760
migration	-6761
obtaining	-6762
preceding	-6763
solutions	-6764
specially	-6765
acceptance	-6766
allocation	-6767
controvers	-6768
coordinate	-6769
communities	-6770
Headquarters	-6771
cardiovascular	-6772
EM	-6773
Ok	-6774
Bio	-6775
Ele	-6776
cab	-6777
pse	-6778
Fish	-6779
Star	-6780
cook	-6781
fers	-6782
hort	-6783
itar	-6784
stir	-6785
yeol	-6786
Could	-6787
Exper	-6788
agers	-6789
lived	-6790
modul	-6791
toler	-6792
veget	-6793
virus	-6794
Philip	-6795
circul	-6796
invent	-6797
regime	-6798
tumors	-6799
wealth	-6800
auditor	-6801
condens	-6802
drivers	-6803
involve	-6804
journal	-6805
lowered	-6806
mothers	-6807
venture	-6808
assigned	-6809
believes	-6810
coverage	-6811
exceeded	-6812
tracking	-6813
combining	-6814
encourage	-6815
extremely	-6816
mandatory	-6817
partition	-6818
universal	-6819
bankruptcy	-6820
conceptual	-6821
democratic	-6822
discovered	-6823
ministries	-6824
negligence	-6825
predicting	-6826
preference	-6827
protrusion	-6828
inheritance	-6829
respiratory	-6830
refrigerator	-6831
parliamentary	-6832
reconstruction	-6833
CL	-6834
EP	-6835
EV	-6836
OR	-6837
TF	-6838
Est	-6839
Gal	-6840
Rel	-6841
Yun	-6842
ray	-6843
beat	-6844
emun	-6845
pray	-6846
salt	-6847
trac	-6848
zzle	-6849
homes	-6850
ously	-6851
tight	-6852
harmon	-6853
hiring	-6854
nesses	-6855
strike	-6856
vacuum	-6857
wastes	-6858
alleged	-6859
granted	-6860
passion	-6861
seeking	-6862
worried	-6863
Equation	-6864
attempts	-6865
baseball	-6866
meantime	-6867
networks	-6868
northern	-6869
whenever	-6870
behaviors	-6871
fractures	-6872
reporters	-6873
advertising	-6874
instructors	-6875
sufficiently	-6876
subparagraphs	-6877
Representative	-6878
TR	-6879
ny	-6880
Gre	-6881
Mer	-6882
adi	-6883
ids	-6884
ino	-6885
mil	-6886
Self	-6887
fest	-6888
pace	-6889
sand	-6890
seed	-6891
snow	-6892
tomo	-6893
▁_05	-6894
Apple	-6895
dummy	-6896
grown	-6897
inver	-6898
kyung	-6899
spray	-6900
sweet	-6901
theat	-6902
▁_113	-6903
▁_125	-6904
▁_195	-6905
▁_610	-6906
Former	-6907
bodies	-6908
comply	-6909
debtor	-6910
licens	-6911
loaded	-6912
murder	-6913
paired	-6914
suffer	-6915
Dynasty	-6916
Economy	-6917
archite	-6918
assador	-6919
blocked	-6920
compass	-6921
compuls	-6922
engaged	-6923
evening	-6924
exactly	-6925
facilit	-6926
helping	-6927
offered	-6928
poverty	-6929
steroid	-6930
talking	-6931
constitu	-6932
distinct	-6933
graduate	-6934
printing	-6935
removing	-6936
sections	-6937
soldiers	-6938
acknowled	-6939
allocated	-6940
consisted	-6941
examining	-6942
molecular	-6943
workplace	-6944
Convention	-6945
apartments	-6946
capability	-6947
disability	-6948
officially	-6949
originally	-6950
restricted	-6951
contributed	-6952
Participants	-6953
entrepreneur	-6954
quantitative	-6955
Administrative	-6956
Att	-6957
Cit	-6958
Hak	-6959
Tok	-6960
rio	-6961
Gold	-6962
OECD	-6963
Team	-6964
ades	-6965
aque	-6966
gear	-6967
okay	-6968
onia	-6969
seiz	-6970
tent	-6971
▁_83	-6972
admin	-6973
boost	-6974
decor	-6975
fines	-6976
guess	-6977
icken	-6978
iling	-6979
intra	-6980
izens	-6981
mayor	-6982
neung	-6983
relax	-6984
river	-6985
symme	-6986
treas	-6987
analog	-6988
listen	-6989
marine	-6990
pyeong	-6991
tricts	-6992
YouTube	-6993
belongs	-6994
invited	-6995
liberal	-6996
reverse	-6997
reviews	-6998
surveys	-6999
welding	-7000
Students	-7001
counties	-7002
handling	-7003
missions	-7004
proceeds	-7005
velocity	-7006
chemother	-7007
deduction	-7008
districts	-7009
protected	-7010
traveling	-7011
compulsory	-7012
describing	-7013
expressing	-7014
citizenship	-7015
electrolyte	-7016
explanatory	-7017
progressive	-7018
qualitative	-7019
uncertainty	-7020
disadvantage	-7021
inconvenience	-7022
dL	-7023
pH	-7024
za	-7025
ama	-7026
awe	-7027
nee	-7028
nes	-7029
scr	-7030
upd	-7031
Bare	-7032
Town	-7033
bias	-7034
ease	-7035
emia	-7036
hate	-7037
ites	-7038
jang	-7039
meta	-7040
moon	-7041
Grand	-7042
Three	-7043
align	-7044
chose	-7045
fatty	-7046
heter	-7047
north	-7048
occas	-7049
worse	-7050
▁_115	-7051
▁_212	-7052
▁_510	-7053
Malays	-7054
museum	-7055
needle	-7056
passes	-7057
static	-7058
cluster	-7059
dropped	-7060
ethical	-7061
options	-7062
sending	-7063
sharply	-7064
Regional	-7065
ferences	-7066
interior	-7067
internet	-7068
lifelong	-7069
moisture	-7070
reporter	-7071
sampling	-7072
smoothly	-7073
stations	-7074
synchron	-7075
classical	-7076
ipulation	-7077
movements	-7078
permanent	-7079
valuation	-7080
Investment	-7081
deposition	-7082
guaranteed	-7083
repeatedly	-7084
adolescents	-7085
technological	-7086
BP	-7087
Lo	-7088
Ve	-7089
Did	-7090
aug	-7091
ees	-7092
ony	-7093
Seon	-7094
aker	-7095
cafe	-7096
eong	-7097
esis	-7098
fron	-7099
idol	-7100
lets	-7101
roof	-7102
stri	-7103
thma	-7104
▁_69	-7105
▁_77	-7106
Class	-7107
Hally	-7108
Youth	-7109
fight	-7110
filtr	-7111
fires	-7112
firms	-7113
ivals	-7114
rical	-7115
ritis	-7116
roles	-7117
ruled	-7118
sixth	-7119
split	-7120
▁_270	-7121
Jeolla	-7122
asting	-7123
corner	-7124
island	-7125
nurses	-7126
proved	-7127
sought	-7128
string	-7129
wonder	-7130
▁_1990	-7131
anticip	-7132
capture	-7133
etching	-7134
extingu	-7135
hundred	-7136
inhibit	-7137
linking	-7138
western	-7139
creditor	-7140
equality	-7141
nitrogen	-7142
reliable	-7143
specimen	-7144
stronger	-7145
Depending	-7146
exceeding	-7147
graduates	-7148
placement	-7149
sentenced	-7150
signaling	-7151
umulative	-7152
Securities	-7153
scientific	-7154
simulation	-7155
withdrawal	-7156
agriculture	-7157
instructions	-7158
advertisement	-7159
representation	-7160
CI	-7161
SA	-7162
BMI	-7163
Big	-7164
Joo	-7165
ema	-7166
sky	-7167
yel	-7168
bear	-7169
ised	-7170
lane	-7171
mary	-7172
uous	-7173
whom	-7174
▁_84	-7175
▁_96	-7176
Music	-7177
Stand	-7178
bling	-7179
eness	-7180
fever	-7181
genre	-7182
iates	-7183
inces	-7184
nodes	-7185
scand	-7186
▁_135	-7187
▁_141	-7188
▁_350	-7189
Bareun	-7190
Engine	-7191
Medium	-7192
distor	-7193
league	-7194
leaves	-7195
mirror	-7196
recept	-7197
▁_1980	-7198
Academy	-7199
Society	-7200
awarded	-7201
modules	-7202
omitted	-7203
ressing	-7204
testing	-7205
utilize	-7206
deadline	-7207
ensively	-7208
lectures	-7209
lowering	-7210
messages	-7211
otherapy	-7212
punished	-7213
shooting	-7214
utilized	-7215
biometric	-7216
carcinoma	-7217
detecting	-7218
insertion	-7219
nutrition	-7220
tradition	-7221
Pyeongtaek	-7222
Thereafter	-7223
absorption	-7224
agreements	-7225
attachment	-7226
enterprise	-7227
insulation	-7228
reflective	-7229
Supervisory	-7230
feasibility	-7231
negotiation	-7232
prospective	-7233
kindergarten	-7234
substantially	-7235
DL	-7236
La	-7237
uf	-7238
Afr	-7239
KOS	-7240
bat	-7241
dae	-7242
iew	-7243
ske	-7244
Your	-7245
aken	-7246
aved	-7247
bags	-7248
defe	-7249
folk	-7250
iron	-7251
Given	-7252
Model	-7253
chlor	-7254
dealt	-7255
gains	-7256
grasp	-7257
histo	-7258
ifies	-7259
mirae	-7260
rhyth	-7261
snack	-7262
Family	-7263
Fourth	-7264
Strate	-7265
aggreg	-7266
beings	-7267
cohort	-7268
destru	-7269
evapor	-7270
finish	-7271
habits	-7272
hidden	-7273
inning	-7274
lights	-7275
scenar	-7276
sister	-7277
thanks	-7278
thermo	-7279
uition	-7280
varian	-7281
voices	-7282
writer	-7283
Command	-7284
Washing	-7285
customs	-7286
dielect	-7287
doctors	-7288
expense	-7289
implant	-7290
signing	-7291
strange	-7292
balanced	-7293
governed	-7294
hardware	-7295
heritage	-7296
publicly	-7297
taxpayer	-7298
Establish	-7299
complexes	-7300
democracy	-7301
inorganic	-7302
magnitude	-7303
merchants	-7304
prognosis	-7305
strategic	-7306
dielectric	-7307
discretion	-7308
participant	-7309
therapeutic	-7310
Agricultural	-7311
administered	-7312
considerable	-7313
manipulation	-7314
specification	-7315
RF	-7316
BBB	-7317
bow	-7318
cig	-7319
gye	-7320
rac	-7321
ager	-7322
awei	-7323
beer	-7324
chul	-7325
este	-7326
fier	-7327
gall	-7328
rank	-7329
aband	-7330
antic	-7331
cardi	-7332
debut	-7333
empty	-7334
habit	-7335
maker	-7336
▁_260	-7337
▁_340	-7338
Design	-7339
Huawei	-7340
Mexico	-7341
battle	-7342
clause	-7343
illing	-7344
immers	-7345
retail	-7346
revers	-7347
Cheonan	-7348
apprais	-7349
briefly	-7350
creates	-7351
cutting	-7352
esterol	-7353
ilation	-7354
placing	-7355
premise	-7356
pursued	-7357
seizure	-7358
singers	-7359
summary	-7360
Hwaseong	-7361
adequate	-7362
enrolled	-7363
numerous	-7364
offering	-7365
pleasant	-7366
powerful	-7367
promised	-7368
swimming	-7369
systemic	-7370
conductor	-7371
confusion	-7372
disorders	-7373
intensive	-7374
practices	-7375
prevented	-7376
Elementary	-7377
childbirth	-7378
negatively	-7379
experiencing	-7380
qualification	-7381
AM	-7382
Em	-7383
IF	-7384
ST	-7385
GDP	-7386
Jes	-7387
Sea	-7388
Whe	-7389
avo	-7390
bes	-7391
phr	-7392
pig	-7393
rub	-7394
ugg	-7395
Goog	-7396
chon	-7397
culo	-7398
grat	-7399
hygi	-7400
inet	-7401
repl	-7402
soil	-7403
unar	-7404
▁_78	-7405
Green	-7406
Italy	-7407
Thail	-7408
inaug	-7409
menop	-7410
osteo	-7411
steam	-7412
▁_450	-7413
Google	-7414
Middle	-7415
Senior	-7416
define	-7417
estyle	-7418
format	-7419
iating	-7420
ieving	-7421
sounds	-7422
taught	-7423
Yongsan	-7424
amounts	-7425
defects	-7426
mistake	-7427
reduces	-7428
returns	-7429
surpris	-7430
taxable	-7431
tickets	-7432
Thailand	-7433
annually	-7434
claiming	-7435
fighting	-7436
ideology	-7437
minority	-7438
momentum	-7439
pointing	-7440
theories	-7441
childhood	-7442
designate	-7443
franchise	-7444
gathering	-7445
objection	-7446
promising	-7447
provinces	-7448
Washington	-7449
compressor	-7450
converting	-7451
cumulative	-7452
responding	-7453
ultrasonic	-7454
Agriculture	-7455
generations	-7456
prosecutors	-7457
temporarily	-7458
chemotherapy	-7459
controversial	-7460
supplementary	-7461
systematically	-7462
hospitalization	-7463
fi	-7464
Abo	-7465
Cha	-7466
Lit	-7467
ana	-7468
aze	-7469
Girl	-7470
Good	-7471
Once	-7472
Will	-7473
anes	-7474
aret	-7475
bits	-7476
cope	-7477
crew	-7478
deok	-7479
exts	-7480
kwon	-7481
mort	-7482
wasn	-7483
Above	-7484
Frame	-7485
aving	-7486
begun	-7487
cards	-7488
feels	-7489
haven	-7490
heung	-7491
holds	-7492
ician	-7493
pathy	-7494
phoon	-7495
pneum	-7496
throm	-7497
thusi	-7498
tries	-7499
▁_520	-7500
Except	-7501
Global	-7502
esteem	-7503
ethics	-7504
metics	-7505
pursue	-7506
upward	-7507
closure	-7508
emitted	-7509
execute	-7510
gastric	-7511
harmful	-7512
lesions	-7513
precise	-7514
Seongnam	-7515
Teachers	-7516
carrying	-7517
declared	-7518
discover	-7519
disputes	-7520
invested	-7521
searched	-7522
speaking	-7523
Framework	-7524
diffusion	-7525
exception	-7526
mediation	-7527
passenger	-7528
pulmonary	-7529
regulated	-7530
signature	-7531
succeeded	-7532
terminals	-7533
adsorption	-7534
approaches	-7535
decreasing	-7536
imposition	-7537
ordination	-7538
Engineering	-7539
cholesterol	-7540
overlapping	-7541
increasingly	-7542
interference	-7543
regeneration	-7544
temperatures	-7545
accommodation	-7546
reorganization	-7547
Ag	-7548
EL	-7549
Aud	-7550
HCV	-7551
Ham	-7552
Mun	-7553
avy	-7554
dil	-7555
geo	-7556
Bong	-7557
Geun	-7558
Prev	-7559
ache	-7560
aste	-7561
bage	-7562
cros	-7563
evac	-7564
knew	-7565
otes	-7566
robo	-7567
save	-7568
sett	-7569
▁_98	-7570
Jesus	-7571
Water	-7572
arity	-7573
cited	-7574
coron	-7575
cules	-7576
cytes	-7577
dried	-7578
fails	-7579
igent	-7580
meals	-7581
myung	-7582
persu	-7583
slope	-7584
thors	-7585
tooth	-7586
▁_123	-7587
▁_900	-7588
Confuc	-7589
Friday	-7590
chosen	-7591
poison	-7592
Example	-7593
Philipp	-7594
Studies	-7595
cigaret	-7596
enthusi	-7597
opposed	-7598
scandal	-7599
singing	-7600
towards	-7601
vitamin	-7602
analyzes	-7603
endeavor	-7604
investor	-7605
provider	-7606
remained	-7607
Operation	-7608
cological	-7609
comprised	-7610
computing	-7611
connector	-7612
dedicated	-7613
disasters	-7614
enhancing	-7615
logistics	-7616
otherwise	-7617
synthesis	-7618
therefore	-7619
viewpoint	-7620
Exhibition	-7621
Innovation	-7622
biological	-7623
compliance	-7624
revitalize	-7625
compression	-7626
dysfunction	-7627
imagination	-7628
underground	-7629
differential	-7630
prescription	-7631
transformation	-7632
21	-7633
Bi	-7634
Ca	-7635
IM	-7636
PE	-7637
Yi	-7638
BTS	-7639
Pom	-7640
Sin	-7641
dan	-7642
haz	-7643
jum	-7644
nod	-7645
Free	-7646
alty	-7647
arms	-7648
ceut	-7649
dece	-7650
ivar	-7651
pens	-7652
pill	-7653
tees	-7654
teor	-7655
west	-7656
▁_81	-7657
Motor	-7658
Pompe	-7659
Urban	-7660
alloy	-7661
expir	-7662
itors	-7663
label	-7664
surge	-7665
turns	-7666
ultra	-7667
walls	-7668
Consum	-7669
Goyang	-7670
Monday	-7671
Proper	-7672
Thanks	-7673
broker	-7674
causal	-7675
fierce	-7676
garden	-7677
losing	-7678
maceut	-7679
mature	-7680
nearly	-7681
planar	-7682
spokes	-7683
accompl	-7684
antibio	-7685
exchang	-7686
flowing	-7687
lithium	-7688
loading	-7689
propose	-7690
shorten	-7691
analyses	-7692
cultures	-7693
disclose	-7694
disposal	-7695
infected	-7696
pursuing	-7697
putation	-7698
subordin	-7699
voluntar	-7700
Christian	-7701
Indonesia	-7702
certified	-7703
occurring	-7704
ordinance	-7705
purchased	-7706
schematic	-7707
terrorism	-7708
Especially	-7709
attributes	-7710
instructor	-7711
medication	-7712
succession	-7713
suggesting	-7714
Bareunmirae	-7715
arrangement	-7716
distinguished	-7717
cryptocurrency	-7718
responsibilities	-7719
ND	-7720
FTA	-7721
Fil	-7722
hak	-7723
kim	-7724
quo	-7725
Open	-7726
Soon	-7727
Sund	-7728
Yeou	-7729
bicy	-7730
bile	-7731
boom	-7732
brid	-7733
fluo	-7734
meat	-7735
tray	-7736
wild	-7737
▁_86	-7738
▁_97	-7739
Rules	-7740
abstr	-7741
meets	-7742
reven	-7743
screw	-7744
▁_124	-7745
▁_430	-7746
Bridge	-7747
Hallyu	-7748
alumin	-7749
asthma	-7750
contem	-7751
harass	-7752
immuno	-7753
lesion	-7754
ologic	-7755
poster	-7756
College	-7757
agnetic	-7758
bonding	-7759
intense	-7760
issions	-7761
outputs	-7762
persist	-7763
porters	-7764
posture	-7765
subsidy	-7766
weapons	-7767
aircraft	-7768
briefing	-7769
captured	-7770
collapse	-7771
commerce	-7772
decoding	-7773
forecast	-7774
memories	-7775
reaching	-7776
shoulder	-7777
valuable	-7778
yourself	-7779
arguments	-7780
arthritis	-7781
donations	-7782
exclusion	-7783
festivals	-7784
oxidation	-7785
beneficial	-7786
extraction	-7787
indirectly	-7788
installing	-7789
livelihood	-7790
maceutical	-7791
underlying	-7792
expectation	-7793
identifying	-7794
ingredients	-7795
operational	-7796
specificity	-7797
unnecessary	-7798
individually	-7799
measurements	-7800
sequentially	-7801
teorological	-7802
demonstration	-7803
deterioration	-7804
kindergartens	-7805
CM	-7806
Ke	-7807
RE	-7808
TM	-7809
Wo	-7810
oi	-7811
Aut	-7812
Cre	-7813
Gor	-7814
Non	-7815
ato	-7816
iod	-7817
irt	-7818
ivo	-7819
rog	-7820
tag	-7821
tea	-7822
Home	-7823
atis	-7824
burn	-7825
eras	-7826
jing	-7827
narr	-7828
sole	-7829
stig	-7830
wins	-7831
▁_87	-7832
▁_93	-7833
White	-7834
faced	-7835
ideal	-7836
inate	-7837
inher	-7838
inlet	-7839
istan	-7840
oppon	-7841
spher	-7842
suits	-7843
sured	-7844
tells	-7845
wound	-7846
Compar	-7847
Myeong	-7848
gifted	-7849
herent	-7850
isters	-7851
margin	-7852
reward	-7853
synthe	-7854
winner	-7855
yellow	-7856
▁_2004	-7857
authors	-7858
differs	-7859
enjoyed	-7860
flowers	-7861
multipl	-7862
sitting	-7863
substit	-7864
symbols	-7865
tariffs	-7866
Articles	-7867
Exchange	-7868
artistic	-7869
favorite	-7870
honorary	-7871
itudinal	-7872
moderate	-7873
unstable	-7874
wearable	-7875
Following	-7876
amplifier	-7877
applicant	-7878
audiences	-7879
searching	-7880
applicable	-7881
attributed	-7882
correlated	-7883
deliberate	-7884
impression	-7885
interlayer	-7886
mechanisms	-7887
purchasing	-7888
tomography	-7889
Unification	-7890
complicated	-7891
restriction	-7892
voluntarily	-7893
achievements	-7894
Establishment	-7895
advertisements	-7896
BA	-7897
Cs	-7898
DF	-7899
LC	-7900
OT	-7901
hi	-7902
Bur	-7903
Cam	-7904
III	-7905
Tim	-7906
arg	-7907
cot	-7908
lie	-7909
orm	-7910
sad	-7911
sts	-7912
CCTV	-7913
Hist	-7914
Lead	-7915
Love	-7916
Road	-7917
asan	-7918
bann	-7919
cean	-7920
ford	-7921
fost	-7922
hurt	-7923
mood	-7924
oney	-7925
sick	-7926
tery	-7927
▁_79	-7928
adder	-7929
cable	-7930
deriv	-7931
doubt	-7932
draft	-7933
farms	-7934
pseud	-7935
reply	-7936
stood	-7937
stret	-7938
sugar	-7939
▁_103	-7940
▁_104	-7941
▁_119	-7942
▁_211	-7943
Canada	-7944
ansori	-7945
develo	-7946
foster	-7947
heater	-7948
impair	-7949
outlet	-7950
rarely	-7951
varies	-7952
Speaker	-7953
Yeouido	-7954
deficit	-7955
delinqu	-7956
filling	-7957
restore	-7958
savings	-7959
seventh	-7960
Interest	-7961
Strategy	-7962
branches	-7963
circular	-7964
counting	-7965
defining	-7966
demanded	-7967
dividend	-7968
fections	-7969
interven	-7970
migrants	-7971
ministry	-7972
notified	-7973
southern	-7974
villages	-7975
violated	-7976
budgetary	-7977
competent	-7978
cosmetics	-7979
departure	-7980
dismissal	-7981
economics	-7982
factories	-7983
molecules	-7984
providers	-7985
competence	-7986
precedents	-7987
subsidiary	-7988
destruction	-7989
realization	-7990
transmitter	-7991
standardized	-7992
investigations	-7993
differentiation	-7994
decentralization	-7995
AV	-7996
NF	-7997
PR	-7998
ti	-7999
▁m	-8000
Hol	-8001
Hon	-8002
Pay	-8003
axy	-8004
bae	-8005
uce	-8006
Hous	-8007
asts	-8008
cium	-8009
eper	-8010
evil	-8011
igno	-8012
impe	-8013
pros	-8014
shin	-8015
▁_88	-8016
Ansan	-8017
Games	-8018
Kwang	-8019
alley	-8020
andis	-8021
cance	-8022
cargo	-8023
carri	-8024
cheap	-8025
gling	-8026
manif	-8027
paths	-8028
proud	-8029
▁_105	-8030
Declar	-8031
Hanwha	-8032
Marine	-8033
Street	-8034
denied	-8035
finals	-8036
forget	-8037
hepato	-8038
neural	-8039
pretty	-8040
reader	-8041
▁_2002	-8042
▁_2003	-8043
Whether	-8044
binding	-8045
confron	-8046
default	-8047
exceeds	-8048
expects	-8049
ferment	-8050
inverse	-8051
letters	-8052
mutatis	-8053
victory	-8054
Congress	-8055
Property	-8056
aluminum	-8057
canceled	-8058
emphasis	-8059
imported	-8060
mobility	-8061
mutandis	-8062
treating	-8063
Christmas	-8064
Paragraph	-8065
childcare	-8066
crackdown	-8067
deposited	-8068
extending	-8069
initially	-8070
locations	-8071
penalties	-8072
pneumonia	-8073
recession	-8074
recovered	-8075
referring	-8076
transform	-8077
elasticity	-8078
Declaration	-8079
Philippines	-8080
demographic	-8081
subscribers	-8082
Additionally	-8083
acceleration	-8084
longitudinal	-8085
Communication	-8086
contributions	-8087
schematically	-8088
concentrations	-8089
circumferential	-8090
comprehensively	-8091
AF	-8092
BR	-8093
Fo	-8094
IB	-8095
FLD	-8096
Job	-8097
POS	-8098
alt	-8099
egg	-8100
joo	-8101
kno	-8102
omb	-8103
zer	-8104
Crit	-8105
Drug	-8106
Gwan	-8107
cure	-8108
exit	-8109
geuk	-8110
iors	-8111
osin	-8112
raid	-8113
root	-8114
zing	-8115
Basic	-8116
Earth	-8117
Nowon	-8118
Sever	-8119
atell	-8120
comed	-8121
edged	-8122
icing	-8123
imbur	-8124
shoes	-8125
smile	-8126
south	-8127
▁_132	-8128
Review	-8129
alysis	-8130
arrive	-8131
bigger	-8132
clinic	-8133
coated	-8134
exempt	-8135
impose	-8136
manual	-8137
mixing	-8138
powers	-8139
purity	-8140
radius	-8141
routes	-8142
seller	-8143
Capital	-8144
Library	-8145
acquain	-8146
chicken	-8147
circles	-8148
curious	-8149
feeding	-8150
joining	-8151
keeping	-8152
martial	-8153
pushing	-8154
reaches	-8155
reactor	-8156
ressive	-8157
unclear	-8158
utility	-8159
birthday	-8160
disorder	-8161
enhanced	-8162
premiums	-8163
pressing	-8164
sessions	-8165
statutes	-8166
targeted	-8167
Gangneung	-8168
collision	-8169
converter	-8170
exchanger	-8171
languages	-8172
municipal	-8173
paintings	-8174
realistic	-8175
appreciate	-8176
automobile	-8177
earthquake	-8178
intestinal	-8179
Competition	-8180
Regulations	-8181
circulation	-8182
compartment	-8183
constraints	-8184
restoration	-8185
structuring	-8186
Presidential	-8187
certificates	-8188
preservation	-8189
differentiated	-8190
BO	-8191
EN	-8192
Ga	-8193
Io	-8194
Ja	-8195
PV	-8196
mu	-8197
ru	-8198
Bay	-8199
Cus	-8200
Wed	-8201
gut	-8202
hob	-8203
lla	-8204
rex	-8205
ula	-8206
wol	-8207
Sohn	-8208
afts	-8209
asym	-8210
cend	-8211
choo	-8212
dies	-8213
dign	-8214
haps	-8215
hier	-8216
illa	-8217
melo	-8218
mice	-8219
oice	-8220
rics	-8221
semi	-8222
shad	-8223
thro	-8224
Forum	-8225
NAFLD	-8226
Would	-8227
aired	-8228
firef	-8229
forum	-8230
fruit	-8231
initi	-8232
pride	-8233
redit	-8234
socio	-8235
tends	-8236
▁_191	-8237
▁_194	-8238
Future	-8239
apolog	-8240
brands	-8241
buyers	-8242
cultiv	-8243
frames	-8244
frustr	-8245
gastro	-8246
iatric	-8247
isting	-8248
rhythm	-8249
scenes	-8250
scheme	-8251
tility	-8252
tourna	-8253
uggish	-8254
update	-8255
▁_2001	-8256
calcium	-8257
ceramic	-8258
hygiene	-8259
inquiry	-8260
seconds	-8261
startup	-8262
unified	-8263
vessels	-8264
Chungnam	-8265
electrom	-8266
explicit	-8267
greatest	-8268
hierarch	-8269
limiting	-8270
obstacle	-8271
probably	-8272
resistor	-8273
rotating	-8274
toxicity	-8275
upcoming	-8276
ventions	-8277
highlight	-8278
intervals	-8279
proposals	-8280
returning	-8281
Prevention	-8282
Vietnamese	-8283
behavioral	-8284
commitment	-8285
compensate	-8286
discussing	-8287
infections	-8288
institutes	-8289
metastasis	-8290
recipients	-8291
relocation	-8292
reputation	-8293
instability	-8294
perceptions	-8295
reinforcing	-8296
termination	-8297
translation	-8298
contributing	-8299
improvements	-8300
investigative	-8301
Hb	-8302
Bel	-8303
Har	-8304
IoT	-8305
Mok	-8306
Red	-8307
Ryu	-8308
Sch	-8309
Vol	-8310
hat	-8311
hub	-8312
uri	-8313
Arab	-8314
Paju	-8315
Step	-8316
acou	-8317
brea	-8318
embe	-8319
kick	-8320
leag	-8321
mine	-8322
Lunar	-8323
Prior	-8324
Rural	-8325
Spain	-8326
Tokyo	-8327
attor	-8328
fatig	-8329
illum	-8330
metic	-8331
obese	-8332
rigid	-8333
smell	-8334
▁_810	-8335
Intell	-8336
Jeonju	-8337
Seocho	-8338
Sunday	-8339
astern	-8340
bullet	-8341
buying	-8342
compat	-8343
easing	-8344
offers	-8345
porous	-8346
prompt	-8347
proven	-8348
spacer	-8349
Deliber	-8350
dietary	-8351
founded	-8352
inspect	-8353
judging	-8354
plating	-8355
Changwon	-8356
Starting	-8357
antibody	-8358
attorney	-8359
bacteria	-8360
consolid	-8361
downtown	-8362
elevated	-8363
everyday	-8364
injected	-8365
mentally	-8366
modeling	-8367
mortgage	-8368
parental	-8369
perative	-8370
produces	-8371
sluggish	-8372
Community	-8373
Gyeongbuk	-8374
allowance	-8375
delicious	-8376
financing	-8377
fostering	-8378
purchases	-8379
regularly	-8380
repayment	-8381
resonance	-8382
reviewing	-8383
separator	-8384
violating	-8385
affiliates	-8386
allowances	-8387
ampionship	-8388
attendance	-8389
challenges	-8390
confirming	-8391
expiration	-8392
filtration	-8393
humanities	-8394
legitimate	-8395
requesting	-8396
unexpected	-8397
allegations	-8398
conditioner	-8399
exhibitions	-8400
necessarily	-8401
prohibition	-8402
supervisory	-8403
conservation	-8404
subscription	-8405
GM	-8406
GO	-8407
IU	-8408
Ni	-8409
OH	-8410
PP	-8411
KBS	-8412
Out	-8413
Rep	-8414
ern	-8415
lad	-8416
umb	-8417
urs	-8418
Emer	-8419
Gree	-8420
Inde	-8421
Post	-8422
Trad	-8423
army	-8424
biom	-8425
cake	-8426
joon	-8427
kine	-8428
nail	-8429
scul	-8430
sook	-8431
tact	-8432
ysis	-8433
▁_01	-8434
Award	-8435
Broad	-8436
Herit	-8437
Treat	-8438
ambig	-8439
casts	-8440
charm	-8441
codes	-8442
enary	-8443
grain	-8444
inity	-8445
lanam	-8446
probe	-8447
shell	-8448
smoke	-8449
veill	-8450
Bureau	-8451
Forest	-8452
behalf	-8453
binder	-8454
deeply	-8455
fellow	-8456
fibers	-8457
glomer	-8458
native	-8459
sculpt	-8460
stones	-8461
therap	-8462
undant	-8463
Experts	-8464
Gangseo	-8465
Matters	-8466
Private	-8467
chapter	-8468
enables	-8469
happens	-8470
ighters	-8471
imports	-8472
leakage	-8473
privacy	-8474
refused	-8475
storing	-8476
thereto	-8477
Heritage	-8478
Maritime	-8479
Northern	-8480
Planning	-8481
colonial	-8482
football	-8483
improves	-8484
inverter	-8485
keywords	-8486
normally	-8487
refugees	-8488
shortage	-8489
variance	-8490
Jeollanam	-8491
Officials	-8492
Southeast	-8493
accompany	-8494
amination	-8495
assistant	-8496
attribute	-8497
basically	-8498
computers	-8499
copyright	-8500
detention	-8501
estimates	-8502
incentive	-8503
lifestyle	-8504
phenomena	-8505
requiring	-8506
resistant	-8507
sequences	-8508
veillance	-8509
collateral	-8510
committees	-8511
dispatched	-8512
protecting	-8513
suspicions	-8514
intelligent	-8515
neighboring	-8516
problematic	-8517
recognizing	-8518
transformed	-8519
Subsequently	-8520
additionally	-8521
subsidiaries	-8522
appropriately	-8523
Meteorological	-8524
CF	-8525
Ef	-8526
GB	-8527
Hz	-8528
TI	-8529
Ti	-8530
ba	-8531
Fac	-8532
Rob	-8533
Tem	-8534
bra	-8535
gae	-8536
gyo	-8537
kyu	-8538
som	-8539
Amid	-8540
Camp	-8541
Deok	-8542
Rule	-8543
Test	-8544
Tong	-8545
brow	-8546
cave	-8547
dens	-8548
fant	-8549
frag	-8550
grew	-8551
pend	-8552
▁_94	-8553
Hanoi	-8554
Satur	-8555
Their	-8556
divor	-8557
icate	-8558
idays	-8559
inery	-8560
matur	-8561
notes	-8562
ophil	-8563
parad	-8564
reets	-8565
▁_142	-8566
▁_144	-8567
▁_360	-8568
Galaxy	-8569
Income	-8570
Wednes	-8571
Yongin	-8572
artery	-8573
awards	-8574
buried	-8575
curing	-8576
cycles	-8577
guided	-8578
kimchi	-8579
metals	-8580
safely	-8581
talked	-8582
▁_1998	-8583
Earlier	-8584
Housing	-8585
Uijeong	-8586
abandon	-8587
attacks	-8588
cameras	-8589
contrad	-8590
dignity	-8591
essence	-8592
exclude	-8593
fatigue	-8594
femoral	-8595
leagues	-8596
locking	-8597
loyalty	-8598
offense	-8599
settled	-8600
shorter	-8601
synergy	-8602
trigger	-8603
typhoon	-8604
Malaysia	-8605
circuits	-8606
crystall	-8607
fibrosis	-8608
floating	-8609
promotes	-8610
resulted	-8611
Fisheries	-8612
batteries	-8613
cutaneous	-8614
equations	-8615
induction	-8616
inherited	-8617
judiciary	-8618
platforms	-8619
preserved	-8620
subsidize	-8621
supplying	-8622
variation	-8623
worldwide	-8624
faithfully	-8625
guarantees	-8626
intentions	-8627
organizing	-8628
prohibited	-8629
structured	-8630
instruments	-8631
provisional	-8632
advantageous	-8633
fluctuations	-8634
interactions	-8635
neighborhood	-8636
Environmental	-8637
Gyeongsangnam	-8638
accessibility	-8639
collaboration	-8640
extraordinary	-8641
qualifications	-8642
LP	-8643
RD	-8644
Ben	-8645
Dan	-8646
Hel	-8647
Mob	-8648
Sol	-8649
aro	-8650
gil	-8651
tab	-8652
van	-8653
CSAT	-8654
Hang	-8655
Mapo	-8656
Mart	-8657
Tele	-8658
Type	-8659
bell	-8660
bere	-8661
blow	-8662
dish	-8663
east	-8664
estr	-8665
feet	-8666
inks	-8667
libr	-8668
lies	-8669
lipo	-8670
mono	-8671
shif	-8672
udes	-8673
wake	-8674
▁_89	-8675
Black	-8676
Micro	-8677
arent	-8678
asive	-8679
bills	-8680
catch	-8681
clubs	-8682
crowd	-8683
drunk	-8684
fline	-8685
graft	-8686
imped	-8687
inhib	-8688
juven	-8689
medal	-8690
nerve	-8691
pical	-8692
skill	-8693
trail	-8694
winds	-8695
ylene	-8696
▁_193	-8697
Compan	-8698
Motors	-8699
angles	-8700
capsul	-8701
concil	-8702
covery	-8703
curved	-8704
dental	-8705
dishes	-8706
facial	-8707
filing	-8708
makers	-8709
satell	-8710
sement	-8711
temple	-8712
unions	-8713
Similar	-8714
academy	-8715
actress	-8716
massive	-8717
possess	-8718
ricular	-8719
specify	-8720
washing	-8721
whereas	-8722
activate	-8723
coronary	-8724
describe	-8725
dominant	-8726
downward	-8727
fairness	-8728
guardian	-8729
holidays	-8730
hundreds	-8731
infinite	-8732
invasion	-8733
maritime	-8734
pleasure	-8735
staining	-8736
Companies	-8737
Confucian	-8738
Wednesday	-8739
abolished	-8740
affecting	-8741
appearing	-8742
corrected	-8743
criptions	-8744
discourse	-8745
isolation	-8746
landscape	-8747
osinophil	-8748
permitted	-8749
sentences	-8750
teenagers	-8751
dimensions	-8752
discipline	-8753
immigrants	-8754
arbitration	-8755
cultivation	-8756
constituting	-8757
surveillance	-8758
semiconductors	-8759
synchronization	-8760
Ig	-8761
Mc	-8762
PL	-8763
TO	-8764
Abe	-8765
Ama	-8766
Dam	-8767
irs	-8768
isn	-8769
nav	-8770
nia	-8771
reo	-8772
sty	-8773
Happ	-8774
Ilbo	-8775
Joon	-8776
actu	-8777
arre	-8778
aven	-8779
chae	-8780
onym	-8781
orth	-8782
sive	-8783
thel	-8784
Dance	-8785
Shang	-8786
autom	-8787
conce	-8788
devis	-8789
doors	-8790
extin	-8791
fault	-8792
fewer	-8793
iable	-8794
ipped	-8795
letes	-8796
lymph	-8797
react	-8798
royal	-8799
thank	-8800
toxic	-8801
tuber	-8802
useok	-8803
▁_106	-8804
▁_134	-8805
allerg	-8806
arises	-8807
citing	-8808
copies	-8809
counts	-8810
degrad	-8811
fallen	-8812
luxury	-8813
minent	-8814
offset	-8815
raises	-8816
strugg	-8817
worthy	-8818
▁_1970	-8819
Kingdom	-8820
achment	-8821
arising	-8822
culosis	-8823
daycare	-8824
duction	-8825
enacted	-8826
fulfill	-8827
garbage	-8828
illness	-8829
lawyers	-8830
lessons	-8831
manipul	-8832
ovarian	-8833
physics	-8834
rebound	-8835
reveals	-8836
stacked	-8837
theorem	-8838
thrombo	-8839
updated	-8840
consumed	-8841
inclined	-8842
informed	-8843
laughter	-8844
revenues	-8845
severity	-8846
Uijeongbu	-8847
acquiring	-8848
arbitrary	-8849
dismissed	-8850
spokesman	-8851
attraction	-8852
authorized	-8853
ecological	-8854
emphasizes	-8855
harassment	-8856
heterogene	-8857
introduces	-8858
liberation	-8859
microphone	-8860
recognizes	-8861
undergoing	-8862
constituent	-8863
fortunately	-8864
intentional	-8865
proceedings	-8866
subcontract	-8867
Intelligence	-8868
consistently	-8869
coordination	-8870
manufacturers	-8871
restructuring	-8872
countermeasures	-8873
Ce	-8874
Ban	-8875
Dom	-8876
Maj	-8877
Ter	-8878
bac	-8879
gel	-8880
ius	-8881
kin	-8882
lev	-8883
scl	-8884
sod	-8885
soy	-8886
Foot	-8887
Kook	-8888
OLED	-8889
clim	-8890
dism	-8891
grid	-8892
lact	-8893
mild	-8894
none	-8895
oche	-8896
rock	-8897
spon	-8898
tone	-8899
ucle	-8900
Guard	-8901
Inspe	-8902
Memor	-8903
Naver	-8904
adopt	-8905
chant	-8906
cheol	-8907
files	-8908
flash	-8909
hyang	-8910
ingly	-8911
norms	-8912
sures	-8913
toile	-8914
waist	-8915
▁_133	-8916
▁_301	-8917
Chosun	-8918
Goryeo	-8919
derive	-8920
fruits	-8921
inflow	-8922
magnet	-8923
picked	-8924
prolif	-8925
thanol	-8926
healing	-8927
matched	-8928
muscles	-8929
neutral	-8930
offline	-8931
periods	-8932
privile	-8933
radical	-8934
ratings	-8935
reimbur	-8936
satisfy	-8937
stadium	-8938
streets	-8939
Citizens	-8940
Disaster	-8941
academia	-8942
acoustic	-8943
arterial	-8944
bereaved	-8945
commemor	-8946
deposits	-8947
glycemic	-8948
immunity	-8949
infrared	-8950
insisted	-8951
legality	-8952
scanning	-8953
Attention	-8954
Emergency	-8955
Residents	-8956
collapsed	-8957
commander	-8958
cultivate	-8959
poisoning	-8960
renewable	-8961
Prosecutor	-8962
girlfriend	-8963
identifier	-8964
indication	-8965
respective	-8966
tournament	-8967
deformation	-8968
stimulation	-8969
expenditures	-8970
inauguration	-8971
supplemented	-8972
interventions	-8973
retrospective	-8974
pharmaceutical	-8975
HO	-8976
hw	-8977
Gen	-8978
HbA	-8979
Hyo	-8980
Pac	-8981
Put	-8982
Ren	-8983
Sto	-8984
caf	-8985
lex	-8986
obv	-8987
pup	-8988
ral	-8989
waf	-8990
Book	-8991
COPD	-8992
Char	-8993
John	-8994
ales	-8995
dang	-8996
milk	-8997
omas	-8998
plug	-8999
sect	-9000
seon	-9001
uate	-9002
Dream	-9003
Hyung	-9004
Polit	-9005
Smart	-9006
Times	-9007
alloc	-9008
buyer	-9009
cyber	-9010
equil	-9011
parks	-9012
rally	-9013
risen	-9014
sauce	-9015
spons	-9016
teous	-9017
urged	-9018
viron	-9019
votes	-9020
Africa	-9021
Prefer	-9022
Unions	-9023
astics	-9024
covers	-9025
daemun	-9026
guests	-9027
induct	-9028
iverse	-9029
manned	-9030
ometry	-9031
plates	-9032
propag	-9033
sensed	-9034
silver	-9035
spouse	-9036
stereo	-9037
tested	-9038
treaty	-9039
tunnel	-9040
uality	-9041
unfold	-9042
Chuseok	-9043
banking	-9044
bracket	-9045
episode	-9046
federal	-9047
handled	-9048
itarian	-9049
keyword	-9050
observe	-9051
plenary	-9052
prestig	-9053
survive	-9054
trouble	-9055
turbine	-9056
Buddhist	-9057
adoption	-9058
entirely	-9059
equilibr	-9060
finances	-9061
ivariate	-9062
oriental	-9063
preserve	-9064
prospect	-9065
surveyed	-9066
brokerage	-9067
compounds	-9068
electrons	-9069
graphical	-9070
recycling	-9071
seriously	-9072
stipulate	-9073
umulation	-9074
Industries	-9075
Preferably	-9076
assumption	-9077
compromise	-9078
encryption	-9079
graduation	-9080
healthcare	-9081
membership	-9082
outpatient	-9083
passengers	-9084
vironments	-9085
distinction	-9086
involvement	-9087
subordinate	-9088
synthesized	-9089
conciliation	-9090
circumference	-9091
developmental	-9092
AC	-9093
DI	-9094
GT	-9095
Uz	-9096
VD	-9097
Blo	-9098
Buc	-9099
Chi	-9100
FTC	-9101
Mac	-9102
bek	-9103
god	-9104
hai	-9105
ita	-9106
ito	-9107
kel	-9108
zon	-9109
Chae	-9110
Does	-9111
News	-9112
abul	-9113
arer	-9114
boil	-9115
desk	-9116
dupl	-9117
enzy	-9118
fake	-9119
gray	-9120
iest	-9121
knee	-9122
neph	-9123
orph	-9124
pole	-9125
pron	-9126
shel	-9127
stag	-9128
sulf	-9129
worn	-9130
Build	-9131
Major	-9132
Uzbek	-9133
amine	-9134
amino	-9135
ausal	-9136
chrom	-9137
edges	-9138
gross	-9139
nucle	-9140
nurse	-9141
posto	-9142
quiet	-9143
rises	-9144
tough	-9145
troop	-9146
vical	-9147
▁_221	-9148
▁_530	-9149
▁_710	-9150
Integr	-9151
afraid	-9152
autumn	-9153
divide	-9154
enders	-9155
furnit	-9156
graphs	-9157
ifiers	-9158
kilome	-9159
opathy	-9160
packet	-9161
pelvic	-9162
revise	-9163
robots	-9164
slowly	-9165
stands	-9166
tenant	-9167
trench	-9168
ulated	-9169
Natural	-9170
Pacific	-9171
Workers	-9172
deleted	-9173
dismant	-9174
donated	-9175
gravity	-9176
officio	-9177
pedestr	-9178
prolong	-9179
readers	-9180
reserve	-9181
suction	-9182
tissues	-9183
unusual	-9184
violent	-9185
Cheongju	-9186
Commerce	-9187
Election	-9188
Mongolia	-9189
advisory	-9190
deceased	-9191
enjoying	-9192
faithful	-9193
greeting	-9194
inducing	-9195
inherent	-9196
lifetime	-9197
literary	-9198
maturity	-9199
offender	-9200
passport	-9201
religion	-9202
restored	-9203
supposed	-9204
destroyed	-9205
disappear	-9206
emphasize	-9207
evolution	-9208
governing	-9209
guideline	-9210
machinery	-9211
soundness	-9212
transfers	-9213
worsening	-9214
Particular	-9215
delegation	-9216
encouraged	-9217
infectious	-9218
likelihood	-9219
occupation	-9220
summarizes	-9221
ultimately	-9222
volunteers	-9223
conclusions	-9224
consistency	-9225
emphasizing	-9226
entrustment	-9227
equilibrium	-9228
selectively	-9229
accumulation	-9230
environments	-9231
examinations	-9232
manufacturer	-9233
professionals	-9234
CHB	-9235
MRI	-9236
Nak	-9237
ari	-9238
len	-9239
pit	-9240
pyo	-9241
rhe	-9242
uma	-9243
upl	-9244
wis	-9245
Army	-9246
Inst	-9247
Jour	-9248
Past	-9249
Pres	-9250
Show	-9251
Swed	-9252
aden	-9253
aver	-9254
bean	-9255
bird	-9256
bors	-9257
conv	-9258
dict	-9259
extr	-9260
geun	-9261
hero	-9262
keen	-9263
rush	-9264
scar	-9265
scor	-9266
terr	-9267
uria	-9268
Force	-9269
ctive	-9270
genes	-9271
onset	-9272
rated	-9273
refin	-9274
strug	-9275
texts	-9276
thane	-9277
zones	-9278
Awards	-9279
Herein	-9280
Leader	-9281
Pompeo	-9282
assume	-9283
bonded	-9284
cavity	-9285
deploy	-9286
dreams	-9287
gments	-9288
haptic	-9289
hazard	-9290
joints	-9291
lyrics	-9292
myster	-9293
precip	-9294
sewage	-9295
shadow	-9296
weekly	-9297
wooden	-9298
Student	-9299
adrenal	-9300
antigen	-9301
arrears	-9302
choices	-9303
compete	-9304
dioxide	-9305
equally	-9306
evident	-9307
invoice	-9308
listing	-9309
railway	-9310
rotated	-9311
sealing	-9312
unavoid	-9313
Saturday	-9314
Shanghai	-9315
anywhere	-9316
athletes	-9317
carriers	-9318
designer	-9319
earnings	-9320
encapsul	-9321
friction	-9322
opponent	-9323
scenario	-9324
theaters	-9325
achieving	-9326
appraisal	-9327
executing	-9328
furniture	-9329
libraries	-9330
maintains	-9331
malignant	-9332
proximity	-9333
Australian	-9334
aggressive	-9335
displaying	-9336
friendship	-9337
menopausal	-9338
personally	-9339
remarkable	-9340
struggling	-9341
thoroughly	-9342
celebrities	-9343
exploration	-9344
methodology	-9345
partnership	-9346
programming	-9347
scholarship	-9348
Deliberation	-9349
occupational	-9350
unreasonable	-9351
disadvantages	-9352
inappropriate	-9353
reinforcement	-9354
electromagnetic	-9355
recommendations	-9356
BI	-9357
FF	-9358
Gi	-9359
NP	-9360
ON	-9361
Up	-9362
va	-9363
Bit	-9364
Dem	-9365
Dif	-9366
Eul	-9367
Its	-9368
Nan	-9369
Sor	-9370
Tom	-9371
Val	-9372
ara	-9373
bub	-9374
dye	-9375
fly	-9376
lid	-9377
poe	-9378
ram	-9379
sar	-9380
Chan	-9381
Dise	-9382
Nong	-9383
aman	-9384
asks	-9385
boat	-9386
chem	-9387
cuts	-9388
dent	-9389
dian	-9390
drag	-9391
gaze	-9392
idal	-9393
lean	-9394
olic	-9395
ptom	-9396
quad	-9397
slip	-9398
ucks	-9399
Audit	-9400
Saudi	-9401
apers	-9402
bands	-9403
deals	-9404
depic	-9405
enact	-9406
insic	-9407
magaz	-9408
perme	-9409
ranch	-9410
sided	-9411
tower	-9412
trait	-9413
truck	-9414
▁_152	-9415
▁_171	-9416
▁_620	-9417
Credit	-9418
Doosan	-9419
Pohang	-9420
atomic	-9421
caring	-9422
checks	-9423
engage	-9424
enzyme	-9425
hybrid	-9426
infant	-9427
marker	-9428
melody	-9429
myeong	-9430
permit	-9431
porary	-9432
prejud	-9433
riding	-9434
sclero	-9435
semble	-9436
shapes	-9437
torque	-9438
Autonom	-9439
Express	-9440
History	-9441
Jeonbuk	-9442
abulary	-9443
airline	-9444
divorce	-9445
empathy	-9446
engines	-9447
extends	-9448
insured	-9449
lending	-9450
matches	-9451
parency	-9452
placebo	-9453
portfol	-9454
symptom	-9455
thelial	-9456
Football	-9457
Memorial	-9458
Military	-9459
Olympics	-9460
apparent	-9461
cervical	-9462
choosing	-9463
computed	-9464
connects	-9465
graphene	-9466
humidity	-9467
junction	-9468
prevents	-9469
reactive	-9470
servants	-9471
spectrum	-9472
startups	-9473
universe	-9474
weakness	-9475
dominated	-9476
economies	-9477
formulate	-9478
integrity	-9479
liquidity	-9480
packaging	-9481
philosoph	-9482
publicity	-9483
qualified	-9484
shielding	-9485
supervise	-9486
telephone	-9487
accumulate	-9488
constitute	-9489
discomfort	-9490
eosinophil	-9491
facilitate	-9492
impressive	-9493
beneficiary	-9494
nonvolatile	-9495
Independence	-9496
Particularly	-9497
consultations	-9498
stabilization	-9499
revitalization	-9500
Es	-9501
KI	-9502
PO	-9503
ek	-9504
ls	-9505
Mor	-9506
Pla	-9507
Spr	-9508
pou	-9509
suk	-9510
Base	-9511
Dang	-9512
Have	-9513
Kind	-9514
Rail	-9515
Talk	-9516
Time	-9517
Tues	-9518
Wall	-9519
belt	-9520
berg	-9521
blog	-9522
laid	-9523
nood	-9524
odes	-9525
plot	-9526
refe	-9527
rout	-9528
tomb	-9529
▁_02	-9530
Again	-9531
Along	-9532
Joint	-9533
Princ	-9534
Store	-9535
advoc	-9536
argue	-9537
bench	-9538
cathe	-9539
chips	-9540
digit	-9541
embed	-9542
enery	-9543
girls	-9544
ibery	-9545
laugh	-9546
lipid	-9547
sible	-9548
stent	-9549
swing	-9550
▁_001	-9551
▁_203	-9552
Amazon	-9553
alysts	-9554
curios	-9555
deaths	-9556
desper	-9557
impris	-9558
locked	-9559
majors	-9560
pledge	-9561
rubber	-9562
snacks	-9563
sodium	-9564
stayed	-9565
steady	-9566
titled	-9567
troops	-9568
uplink	-9569
Network	-9570
Several	-9571
Statist	-9572
Tuesday	-9573
albumin	-9574
bearing	-9575
cepting	-9576
evasion	-9577
fledged	-9578
knowing	-9579
nations	-9580
rolling	-9581
tensile	-9582
texture	-9583
tuition	-9584
violate	-9585
Consumer	-9586
Learning	-9587
Mathemat	-9588
adhesion	-9589
bulletin	-9590
civilian	-9591
clothing	-9592
cylinder	-9593
dramatic	-9594
ighteous	-9595
imposing	-9596
jections	-9597
precious	-9598
shipment	-9599
tangible	-9600
trainees	-9601
treasury	-9602
aesthetic	-9603
describes	-9604
emissions	-9605
encompass	-9606
endoscopy	-9607
exercises	-9608
fertility	-9609
producers	-9610
rejection	-9611
taxpayers	-9612
virtually	-9613
attractive	-9614
comparable	-9615
estimating	-9616
evaporator	-9617
instrument	-9618
substitute	-9619
unfamiliar	-9620
nutritional	-9621
prestigious	-9622
consultative	-9623
imprisonment	-9624
polarization	-9625
transferring	-9626
Investigation	-9627
possibilities	-9628
profitability	-9629
uncomfortable	-9630
LN	-9631
MD	-9632
PU	-9633
▁2	-9634
Amb	-9635
Bei	-9636
Dig	-9637
Pho	-9638
Ten	-9639
USA	-9640
Ver	-9641
lod	-9642
oda	-9643
ogy	-9644
ole	-9645
ona	-9646
xis	-9647
Cath	-9648
Gong	-9649
Guro	-9650
Wang	-9651
bong	-9652
boss	-9653
caus	-9654
cket	-9655
cyte	-9656
hemo	-9657
hike	-9658
ibly	-9659
ilty	-9660
imal	-9661
ivir	-9662
pept	-9663
retr	-9664
sten	-9665
Agree	-9666
Coast	-9667
Judge	-9668
Tower	-9669
Yeosu	-9670
alian	-9671
aspir	-9672
assay	-9673
axial	-9674
cheer	-9675
cough	-9676
donor	-9677
fried	-9678
lamin	-9679
minds	-9680
orous	-9681
tears	-9682
trips	-9683
wider	-9684
▁_192	-9685
▁_401	-9686
▁_550	-9687
Author	-9688
Lastly	-9689
Panmun	-9690
Proced	-9691
Report	-9692
Singer	-9693
Songpa	-9694
Turkey	-9695
arrass	-9696
booked	-9697
compos	-9698
cortic	-9699
digest	-9700
drinks	-9701
hearts	-9702
insure	-9703
intern	-9704
phrase	-9705
rotate	-9706
witter	-9707
▁_1100	-9708
▁_1995	-9709
▁_1997	-9710
Bucheon	-9711
Process	-9712
amended	-9713
bidding	-9714
bribery	-9715
designs	-9716
editing	-9717
funeral	-9718
heading	-9719
herself	-9720
hypothe	-9721
lacking	-9722
manages	-9723
nodules	-9724
refresh	-9725
selects	-9726
seniors	-9727
stomach	-9728
writers	-9729
Building	-9730
Suncheon	-9731
Training	-9732
abundant	-9733
alliance	-9734
barriers	-9735
bringing	-9736
conducts	-9737
develops	-9738
embezzle	-9739
maximize	-9740
mistakes	-9741
opposing	-9742
periodic	-9743
perspect	-9744
playback	-9745
slowdown	-9746
suppress	-9747
addiction	-9748
breathing	-9749
centering	-9750
collector	-9751
embarrass	-9752
finalized	-9753
illegally	-9754
initiated	-9755
investing	-9756
selective	-9757
typically	-9758
Ambassador	-9759
acceptable	-9760
antibodies	-9761
colleagues	-9762
compressed	-9763
initiation	-9764
objectives	-9765
physically	-9766
productive	-9767
rotational	-9768
vocabulary	-9769
Comparative	-9770
categorized	-9771
encouraging	-9772
enhancement	-9773
impeachment	-9774
substantial	-9775
unavoidable	-9776
associations	-9777
embezzlement	-9778
observations	-9779
perspectives	-9780
purification	-9781
storytelling	-9782
postoperative	-9783
transmittance	-9784
LR	-9785
Lu	-9786
NH	-9787
OL	-9788
PT	-9789
nO	-9790
Cab	-9791
Hwa	-9792
Kia	-9793
Lon	-9794
Mir	-9795
Mod	-9796
Six	-9797
boo	-9798
cis	-9799
dot	-9800
gok	-9801
hex	-9802
izz	-9803
oto	-9804
roo	-9805
uit	-9806
wet	-9807
Meth	-9808
adhe	-9809
amps	-9810
ayer	-9811
eggs	-9812
gran	-9813
legs	-9814
oven	-9815
ries	-9816
sees	-9817
Actor	-9818
Event	-9819
POSCO	-9820
Which	-9821
bread	-9822
brush	-9823
cites	-9824
cream	-9825
dense	-9826
drone	-9827
exams	-9828
exhib	-9829
intim	-9830
kitch	-9831
lling	-9832
nover	-9833
rotor	-9834
sight	-9835
sizes	-9836
spots	-9837
veter	-9838
vivid	-9839
worst	-9840
▁_302	-9841
Gwanak	-9842
Hanjin	-9843
Jongno	-9844
London	-9845
acheon	-9846
advent	-9847
basket	-9848
calend	-9849
confis	-9850
crafts	-9851
disper	-9852
drying	-9853
headed	-9854
icious	-9855
locals	-9856
lympho	-9857
makeup	-9858
oseong	-9859
porter	-9860
robust	-9861
thesia	-9862
wishes	-9863
▁_1960	-9864
Beijing	-9865
Federal	-9866
Journal	-9867
Kookmin	-9868
Overall	-9869
Product	-9870
Stadium	-9871
Twitter	-9872
Working	-9873
auction	-9874
caution	-9875
decoder	-9876
dispers	-9877
edition	-9878
marking	-9879
movable	-9880
ologist	-9881
painful	-9882
ranging	-9883
seminar	-9884
sponsor	-9885
staying	-9886
usively	-9887
witness	-9888
Gyeongju	-9889
actuator	-9890
analysts	-9891
catching	-9892
cavation	-9893
contacts	-9894
drainage	-9895
examines	-9896
exempted	-9897
explored	-9898
glycemia	-9899
impaired	-9900
manifest	-9901
mutation	-9902
ordering	-9903
outbreak	-9904
unlikely	-9905
unmanned	-9906
voltages	-9907
Resources	-9908
accepting	-9909
alignment	-9910
apologize	-9911
borrowing	-9912
curiosity	-9913
ederation	-9914
intervene	-9915
narrative	-9916
neighbors	-9917
subjected	-9918
Statistics	-9919
admissions	-9920
brightness	-9921
distribute	-9922
endoscopic	-9923
predictive	-9924
randomized	-9925
Statistical	-9926
accordingly	-9927
suggestions	-9928
transistors	-9929
architecture	-9930
preferential	-9931
transparency	-9932
tuberculosis	-9933
insignificant	-9934
professionalism	-9935
Eu	-9936
Wi	-9937
rh	-9938
td	-9939
wt	-9940
▁1	-9941
Bal	-9942
Jak	-9943
Moo	-9944
Nex	-9945
Tre	-9946
gon	-9947
oms	-9948
org	-9949
ski	-9950
Area	-9951
Bund	-9952
Cand	-9953
Case	-9954
Film	-9955
Long	-9956
Memb	-9957
acer	-9958
amed	-9959
atar	-9960
calm	-9961
ears	-9962
hism	-9963
nose	-9964
oing	-9965
pads	-9966
petr	-9967
pian	-9968
pour	-9969
pull	-9970
seop	-9971
solo	-9972
tall	-9973
tast	-9974
udge	-9975
unve	-9976
whel	-9977
yard	-9978
Great	-9979
Heavy	-9980
Liter	-9981
Panel	-9982
Plaza	-9983
Study	-9984
beach	-9985
cated	-9986
debts	-9987
deung	-9988
erity	-9989
excav	-9990
fluor	-9991
grows	-9992
ighth	-9993
letal	-9994
perit	-9995
regim	-9996
retal	-9997
saved	-9998
spont	-9999
stops	-10000
ulent	-10001
uries	-10002
urine	-10003
utter	-10004
▁_116	-10005
▁_126	-10006
Byeong	-10007
Gender	-10008
Temple	-10009
absent	-10010
absorb	-10011
bidity	-10012
boards	-10013
breach	-10014
comput	-10015
courts	-10016
cursor	-10017
editor	-10018
flying	-10019
guilty	-10020
harder	-10021
ighter	-10022
liable	-10023
merely	-10024
motive	-10025
pollut	-10026
pseudo	-10027
requis	-10028
rumors	-10029
Italian	-10030
Jeonnam	-10031
Shinhan	-10032
Taekwon	-10033
antivir	-10034
arrival	-10035
bicycle	-10036
burdens	-10037
clients	-10038
colored	-10039
crucial	-10040
defines	-10041
detects	-10042
faculty	-10043
filming	-10044
missile	-10045
ongoing	-10046
outlook	-10047
pending	-10048
perpetr	-10049
refugee	-10050
scatter	-10051
scoring	-10052
shifted	-10053
shipped	-10054
therein	-10055
winners	-10056
Analysts	-10057
avoiding	-10058
bathroom	-10059
declined	-10060
involves	-10061
marginal	-10062
overwhel	-10063
producer	-10064
purifier	-10065
randomly	-10066
receptor	-10067
sexually	-10068
talented	-10069
turnover	-10070
vitality	-10071
workshop	-10072
Councilor	-10073
affection	-10074
considers	-10075
discrimin	-10076
fisheries	-10077
launching	-10078
obligated	-10079
primarily	-10080
secretion	-10081
sponsored	-10082
thousands	-10083
Inspection	-10084
Kindergart	-10085
assignment	-10086
intangible	-10087
possession	-10088
procedural	-10089
questioned	-10090
attractions	-10091
cylindrical	-10092
discharging	-10093
flexibility	-10094
inspections	-10095
promotional	-10096
resignation	-10097
appreciation	-10098
destinations	-10099
experiential	-10100
Confederation	-10101
confrontation	-10102
contamination	-10103
conversations	-10104
decomposition	-10105
Ed	-10106
Gy	-10107
MT	-10108
Ms	-10109
RL	-10110
eu	-10111
hu	-10112
ov	-10113
Ann	-10114
Cel	-10115
EAN	-10116
Huh	-10117
Ltd	-10118
Psy	-10119
Rad	-10120
Tor	-10121
USD	-10122
anc	-10123
dur	-10124
fet	-10125
gal	-10126
gau	-10127
igr	-10128
sip	-10129
sla	-10130
tap	-10131
vag	-10132
Anti	-10133
Clin	-10134
Hope	-10135
Know	-10136
Lake	-10137
Myan	-10138
Ther	-10139
Upon	-10140
aded	-10141
afen	-10142
bles	-10143
chun	-10144
disk	-10145
enem	-10146
erad	-10147
euro	-10148
itus	-10149
lone	-10150
plum	-10151
reno	-10152
stan	-10153
tape	-10154
tile	-10155
vous	-10156
ASEAN	-10157
Custo	-10158
Daily	-10159
Gimpo	-10160
Girls	-10161
Media	-10162
Paris	-10163
Thurs	-10164
accus	-10165
afore	-10166
ageal	-10167
atoms	-10168
boxes	-10169
doped	-10170
embol	-10171
esoph	-10172
fairy	-10173
ferry	-10174
ionic	-10175
latch	-10176
ocean	-10177
oline	-10178
seeks	-10179
shore	-10180
straw	-10181
wides	-10182
▁_107	-10183
▁_204	-10184
▁_280	-10185
Asiana	-10186
anonym	-10187
argues	-10188
burned	-10189
dermat	-10190
honest	-10191
iances	-10192
missed	-10193
multip	-10194
resort	-10195
sludge	-10196
tender	-10197
traded	-10198
Digital	-10199
Disease	-10200
Myanmar	-10201
Namyang	-10202
Program	-10203
aqueous	-10204
attered	-10205
beliefs	-10206
cardiac	-10207
chances	-10208
confess	-10209
conform	-10210
congest	-10211
dancing	-10212
dispens	-10213
linkage	-10214
longest	-10215
melting	-10216
neither	-10217
perpend	-10218
rescent	-10219
scenery	-10220
screens	-10221
talents	-10222
trained	-10223
wedding	-10224
Chemical	-10225
airlines	-10226
criptive	-10227
geometry	-10228
homepage	-10229
incerity	-10230
pancreat	-10231
petitive	-10232
regulate	-10233
skeletal	-10234
subtract	-10235
Corporate	-10236
Taekwondo	-10237
bilateral	-10238
developer	-10239
discovery	-10240
emergence	-10241
imbalance	-10242
incidents	-10243
intrinsic	-10244
malicious	-10245
observing	-10246
reinforce	-10247
terminate	-10248
Evaluation	-10249
Uzbekistan	-10250
Yeongdeung	-10251
esophageal	-10252
evacuation	-10253
excavation	-10254
inhibitors	-10255
microscope	-10256
vegetables	-10257
widespread	-10258
workplaces	-10259
Cooperation	-10260
advancement	-10261
coordinates	-10262
empirically	-10263
politicians	-10264
confidential	-10265
consequences	-10266
contemporary	-10267
inconvenient	-10268
modification	-10269
Entertainment	-10270
complementary	-10271
justification	-10272
perpendicular	-10273
Chungcheongnam	-10274
aforementioned	-10275
hepatocellular	-10276
El	-10277
GI	-10278
HS	-10279
OC	-10280
PH	-10281
WL	-10282
ka	-10283
Ber	-10284
Buk	-10285
CKD	-10286
FSS	-10287
GFR	-10288
Ind	-10289
Kaz	-10290
Kum	-10291
PCB	-10292
Sil	-10293
ads	-10294
akh	-10295
asy	-10296
gak	-10297
lag	-10298
nea	-10299
nut	-10300
shi	-10301
uct	-10302
umi	-10303
wak	-10304
Auto	-10305
Init	-10306
Mike	-10307
Shop	-10308
TACE	-10309
Vene	-10310
Work	-10311
bang	-10312
exag	-10313
foil	-10314
hits	-10315
irty	-10316
lift	-10317
loud	-10318
pays	-10319
rays	-10320
rine	-10321
toon	-10322
umes	-10323
wine	-10324
▁_03	-10325
Jinju	-10326
Phone	-10327
Roman	-10328
Volun	-10329
acerb	-10330
alarm	-10331
bloss	-10332
corro	-10333
enlar	-10334
enorm	-10335
gases	-10336
incin	-10337
inine	-10338
knows	-10339
labuk	-10340
paste	-10341
physi	-10342
proxy	-10343
relay	-10344
rever	-10345
strip	-10346
twent	-10347
viral	-10348
voted	-10349
▁_540	-10350
Argent	-10351
Buddha	-10352
Experi	-10353
Forces	-10354
Master	-10355
Respon	-10356
Survey	-10357
afenib	-10358
cooled	-10359
drones	-10360
forgot	-10361
header	-10362
mented	-10363
parity	-10364
patrio	-10365
ranges	-10366
script	-10367
seized	-10368
serial	-10369
themes	-10370
waters	-10371
wisdom	-10372
England	-10373
Jinping	-10374
Members	-10375
Nuclear	-10376
Olympic	-10377
Perhaps	-10378
chestra	-10379
concave	-10380
exagger	-10381
fasting	-10382
heavily	-10383
ignored	-10384
issuing	-10385
journey	-10386
massage	-10387
migrant	-10388
molding	-10389
neglect	-10390
obvious	-10391
pansori	-10392
soluble	-10393
stepped	-10394
surplus	-10395
touched	-10396
Advisory	-10397
Airlines	-10398
Analysis	-10399
Personal	-10400
abstract	-10401
dissemin	-10402
fixation	-10403
invasive	-10404
licensed	-10405
morality	-10406
occupied	-10407
proteins	-10408
sacrific	-10409
settings	-10410
touching	-10411
ultimate	-10412
weakened	-10413
Agreement	-10414
Jeollabuk	-10415
Standards	-10416
abandoned	-10417
abolition	-10418
addressed	-10419
amplitude	-10420
comprises	-10421
designing	-10422
dividends	-10423
entertain	-10424
exhibited	-10425
identical	-10426
inclusion	-10427
penetrate	-10428
prolonged	-10429
relevance	-10430
replacing	-10431
sincerity	-10432
algorithms	-10433
comprising	-10434
extinguish	-10435
metabolism	-10436
newspapers	-10437
reinforced	-10438
wastewater	-10439
Traditional	-10440
conflicting	-10441
immigration	-10442
publication	-10443
rectangular	-10444
ventilation	-10445
accompanying	-10446
pathological	-10447
periodically	-10448
interpersonal	-10449
proliferation	-10450
polymerization	-10451
implementations	-10452
BD	-10453
Ky	-10454
ML	-10455
Mt	-10456
Vi	-10457
ec	-10458
vs	-10459
ETR	-10460
Eui	-10461
Exe	-10462
Flo	-10463
Gap	-10464
Geo	-10465
Heo	-10466
Log	-10467
Low	-10468
Mil	-10469
Sem	-10470
Vis	-10471
awa	-10472
enn	-10473
igm	-10474
ook	-10475
unt	-10476
urg	-10477
Card	-10478
Hold	-10479
Meas	-10480
Pass	-10481
SPSS	-10482
Ship	-10483
amaz	-10484
arta	-10485
atch	-10486
evol	-10487
geno	-10488
geum	-10489
mesh	-10490
mini	-10491
odds	-10492
odor	-10493
opol	-10494
reci	-10495
ropy	-10496
shed	-10497
tied	-10498
vast	-10499
Hyeon	-10500
KOSPI	-10501
Paren	-10502
Photo	-10503
Schol	-10504
Venez	-10505
admit	-10506
ament	-10507
angio	-10508
avors	-10509
bowel	-10510
cence	-10511
crats	-10512
crops	-10513
encod	-10514
enses	-10515
grace	-10516
hemat	-10517
horse	-10518
idate	-10519
ifice	-10520
incum	-10521
inhal	-10522
itate	-10523
modes	-10524
piezo	-10525
reset	-10526
taxed	-10527
tosis	-10528
viate	-10529
walks	-10530
weigh	-10531
▁_222	-10532
▁_232	-10533
▁_470	-10534
Branch	-10535
Gimhae	-10536
Golden	-10537
Palace	-10538
Reform	-10539
Stream	-10540
actory	-10541
afford	-10542
asymme	-10543
biased	-10544
breath	-10545
brings	-10546
chocol	-10547
coupon	-10548
lesson	-10549
pastor	-10550
priced	-10551
prophy	-10552
roller	-10553
sinter	-10554
valley	-10555
Cabinet	-10556
Pension	-10557
Section	-10558
ancient	-10559
camping	-10560
coeffic	-10561
coexist	-10562
consign	-10563
couples	-10564
exacerb	-10565
exhibit	-10566
kitchen	-10567
lifting	-10568
noodles	-10569
ogenous	-10570
routine	-10571
seekers	-10572
statute	-10573
tically	-10574
Catholic	-10575
Domestic	-10576
Everyone	-10577
catheter	-10578
churches	-10579
diagnose	-10580
drawings	-10581
embedded	-10582
enormous	-10583
ethylene	-10584
humanity	-10585
lawsuits	-10586
memorial	-10587
phosphor	-10588
rescence	-10589
reversed	-10590
sleeping	-10591
strictly	-10592
weighted	-10593
adsorbent	-10594
architect	-10595
attaching	-10596
breakfast	-10597
celebrate	-10598
chemicals	-10599
chemistry	-10600
delegated	-10601
exchanged	-10602
expresses	-10603
extensive	-10604
happening	-10605
immersion	-10606
incumbent	-10607
justified	-10608
mobilized	-10609
neglected	-10610
normative	-10611
occupancy	-10612
practiced	-10613
prominent	-10614
satellite	-10615
strengths	-10616
surprised	-10617
Conference	-10618
Previously	-10619
derivative	-10620
excellence	-10621
explicitly	-10622
impairment	-10623
progressed	-10624
propensity	-10625
repetitive	-10626
sentencing	-10627
separating	-10628
similarity	-10629
solidarity	-10630
supporters	-10631
unilateral	-10632
usefulness	-10633
demonstrate	-10634
highlighted	-10635
influencing	-10636
photography	-10637
Kindergarten	-10638
alternatives	-10639
coefficients	-10640
conveniently	-10641
displacement	-10642
economically	-10643
abnormalities	-10644
encapsulation	-10645
gastrointestinal	-10646
80	-10647
Ba	-10648
GA	-10649
SH	-10650
SI	-10651
BMW	-10652
Dec	-10653
Koo	-10654
Mad	-10655
Wal	-10656
Who	-10657
aul	-10658
aya	-10659
bye	-10660
dor	-10661
fro	-10662
omy	-10663
pac	-10664
rod	-10665
thr	-10666
uff	-10667
uki	-10668
Ange	-10669
Brex	-10670
Call	-10671
Chul	-10672
Club	-10673
Five	-10674
Hana	-10675
MetS	-10676
Wood	-10677
atal	-10678
atop	-10679
carb	-10680
cler	-10681
clip	-10682
cute	-10683
dess	-10684
foam	-10685
hide	-10686
iris	-10687
kyun	-10688
phal	-10689
sink	-10690
soup	-10691
▁_07	-10692
Prize	-10693
Sewol	-10694
Stock	-10695
acids	-10696
alien	-10697
ashed	-10698
blade	-10699
booth	-10700
decis	-10701
igrap	-10702
laxis	-10703
males	-10704
mouse	-10705
patch	-10706
quart	-10707
remin	-10708
resil	-10709
stair	-10710
ulate	-10711
wrist	-10712
▁_153	-10713
▁_155	-10714
▁_162	-10715
▁_630	-10716
▁_910	-10717
Anyang	-10718
Anyone	-10719
Brexit	-10720
Detail	-10721
Having	-10722
aesong	-10723
bottle	-10724
cracks	-10725
dissip	-10726
evenly	-10727
finity	-10728
herein	-10729
idemia	-10730
inject	-10731
inputs	-10732
inseng	-10733
jumped	-10734
methyl	-10735
nights	-10736
perfor	-10737
psycho	-10738
reluct	-10739
render	-10740
senses	-10741
sovere	-10742
surviv	-10743
thinks	-10744
walked	-10745
weapon	-10746
Anseong	-10747
Display	-10748
Manager	-10749
Volunte	-10750
bladder	-10751
clarify	-10752
commend	-10753
counted	-10754
dismiss	-10755
dispose	-10756
harvest	-10757
igraphy	-10758
implies	-10759
insurer	-10760
killing	-10761
markers	-10762
nervous	-10763
painted	-10764
pillars	-10765
porosis	-10766
postpon	-10767
preview	-10768
servers	-10769
ulatory	-10770
Lifelong	-10771
backward	-10772
calendar	-10773
combines	-10774
conclude	-10775
covering	-10776
crossing	-10777
hometown	-10778
iateness	-10779
isolated	-10780
meanings	-10781
pensions	-10782
platelet	-10783
screened	-10784
secretar	-10785
socially	-10786
struggle	-10787
triangle	-10788
uniforms	-10789
writings	-10790
Authority	-10791
Instagram	-10792
alcoholic	-10793
antiviral	-10794
appliance	-10795
bacterial	-10796
boyfriend	-10797
capturing	-10798
enactment	-10799
inclusive	-10800
luminance	-10801
numerical	-10802
peninsula	-10803
prerequis	-10804
reasoning	-10805
righteous	-10806
scattered	-10807
sovereign	-10808
specimens	-10809
unchanged	-10810
Dongdaemun	-10811
Regardless	-10812
accomplish	-10813
ambassador	-10814
exercising	-10815
fraudulent	-10816
greenhouse	-10817
navigation	-10818
operatives	-10819
preventive	-10820
terminated	-10821
exclusively	-10822
reorganized	-10823
spontaneous	-10824
substituted	-10825
vaccination	-10826
Yeongdeungpo	-10827
fluorescence	-10828
illumination	-10829
pancreatitis	-10830
stakeholders	-10831
Gyeongsangbuk	-10832
acknowledging	-10833
intentionally	-10834
participatory	-10835
piezoelectric	-10836
reconstructed	-10837
irregularities	-10838
reconciliation	-10839
appropriateness	-10840
Di	-10841
EB	-10842
HF	-10843
MI	-10844
OA	-10845
SE	-10846
SR	-10847
UT	-10848
Yo	-10849
ml	-10850
oh	-10851
Bro	-10852
Bul	-10853
CNT	-10854
Eth	-10855
GPS	-10856
ICO	-10857
Isl	-10858
Max	-10859
Mee	-10860
Pet	-10861
Pil	-10862
Pur	-10863
RNA	-10864
SUV	-10865
Spo	-10866
Tot	-10867
Wol	-10868
dem	-10869
elf	-10870
eup	-10871
gyu	-10872
iox	-10873
mud	-10874
osc	-10875
pip	-10876
rae	-10877
yen	-10878
Acts	-10879
Grad	-10880
Main	-10881
Okay	-10882
Rest	-10883
Well	-10884
acon	-10885
beom	-10886
cart	-10887
cort	-10888
curv	-10889
dogs	-10890
elap	-10891
erob	-10892
ette	-10893
furn	-10894
rows	-10895
stry	-10896
thal	-10897
Belgi	-10898
Greek	-10899
Pract	-10900
Treas	-10901
adays	-10902
alpha	-10903
alter	-10904
aming	-10905
angry	-10906
arith	-10907
bases	-10908
cured	-10909
draws	-10910
hemod	-10911
hired	-10912
ioxid	-10913
lycer	-10914
plung	-10915
poems	-10916
ryong	-10917
shout	-10918
sical	-10919
silic	-10920
spine	-10921
stiff	-10922
tobac	-10923
vocal	-10924
wired	-10925
▁_108	-10926
▁_143	-10927
▁_154	-10928
▁_213	-10929
▁_311	-10930
Indian	-10931
Legisl	-10932
Period	-10933
Spring	-10934
Totten	-10935
Valley	-10936
abused	-10937
banned	-10938
calibr	-10939
casual	-10940
coping	-10941
dating	-10942
defeat	-10943
distal	-10944
doping	-10945
lactic	-10946
merged	-10947
poetry	-10948
recall	-10949
studio	-10950
timely	-10951
trophy	-10952
versus	-10953
wholes	-10954
youths	-10955
Content	-10956
Contest	-10957
Jakarta	-10958
agonist	-10959
biliary	-10960
descend	-10961
discard	-10962
ethanol	-10963
filters	-10964
hormone	-10965
ifiable	-10966
lodging	-10967
mobiles	-10968
oneself	-10969
pharmac	-10970
praised	-10971
pressur	-10972
printer	-10973
prosper	-10974
regards	-10975
sensory	-10976
shortly	-10977
stating	-10978
suspend	-10979
weights	-10980
Gangdong	-10981
Thursday	-10982
allergic	-10983
anterior	-10984
contamin	-10985
diagrams	-10986
enforced	-10987
exploded	-10988
homogene	-10989
iciaries	-10990
illation	-10991
impurity	-10992
packages	-10993
subframe	-10994
subgroup	-10995
surprise	-10996
switched	-10997
symmetry	-10998
Bluetooth	-10999
Generally	-11000
Procedure	-11001
Similarly	-11002
Tottenham	-11003
astically	-11004
cigarette	-11005
conglomer	-11006
demanding	-11007
eliminate	-11008
exercised	-11009
mediating	-11010
mountains	-11011
ochemical	-11012
petitions	-11013
precisely	-11014
recruited	-11015
revealing	-11016
terrorist	-11017
tolerance	-11018
uniformly	-11019
weakening	-11020
Expressway	-11021
Integrated	-11022
absolutely	-11023
boundaries	-11024
complained	-11025
completing	-11026
currencies	-11027
delivering	-11028
dispersion	-11029
influences	-11030
ingredient	-11031
initiative	-11032
interposed	-11033
kilometers	-11034
modulation	-11035
noteworthy	-11036
overcoming	-11037
polarizing	-11038
refractive	-11039
simplified	-11040
translated	-11041
alternately	-11042
antibiotics	-11043
degradation	-11044
essentially	-11045
excessively	-11046
photographs	-11047
predictions	-11048
speculation	-11049
Broadcasting	-11050
championship	-11051
combinations	-11052
communicates	-11053
determinants	-11054
reproduction	-11055
photosensitive	-11056
electrochemical	-11057
informatization	-11058
BT	-11059
CJ	-11060
FT	-11061
GH	-11062
GR	-11063
HP	-11064
Hg	-11065
LL	-11066
Mu	-11067
OD	-11068
SF	-11069
UE	-11070
VA	-11071
zy	-11072
▁0	-11073
CSR	-11074
Dav	-11075
HIV	-11076
Hoe	-11077
Lab	-11078
Num	-11079
Phy	-11080
SVR	-11081
Squ	-11082
Yon	-11083
aps	-11084
asm	-11085
cha	-11086
fre	-11087
jak	-11088
jom	-11089
kit	-11090
ody	-11091
phe	-11092
Fran	-11093
Hank	-11094
Pung	-11095
Sure	-11096
Tech	-11097
Turk	-11098
Yeah	-11099
acup	-11100
allo	-11101
amun	-11102
cyst	-11103
drum	-11104
dysp	-11105
echo	-11106
fist	-11107
izen	-11108
ller	-11109
logy	-11110
maps	-11111
memo	-11112
muco	-11113
myth	-11114
pork	-11115
rite	-11116
sius	-11117
slot	-11118
spin	-11119
tert	-11120
uity	-11121
vein	-11122
▁_06	-11123
Hello	-11124
KOSDA	-11125
acles	-11126
alive	-11127
atten	-11128
bless	-11129
crine	-11130
deems	-11131
edema	-11132
enger	-11133
fatal	-11134
forth	-11135
gebra	-11136
harsh	-11137
hyung	-11138
infar	-11139
merit	-11140
remit	-11141
theft	-11142
unity	-11143
vapor	-11144
wafer	-11145
woong	-11146
woven	-11147
wrink	-11148
▁_163	-11149
▁_440	-11150
Fortun	-11151
Living	-11152
Person	-11153
Summit	-11154
Winter	-11155
aiming	-11156
anatom	-11157
ateful	-11158
benign	-11159
bronch	-11160
capita	-11161
convic	-11162
endome	-11163
firmly	-11164
gyeong	-11165
iPhone	-11166
ieties	-11167
illary	-11168
indict	-11169
leaked	-11170
lifted	-11171
liness	-11172
multin	-11173
nasium	-11174
ocheon	-11175
organs	-11176
platin	-11177
ptions	-11178
ratios	-11179
relate	-11180
retain	-11181
tended	-11182
thread	-11183
titles	-11184
urated	-11185
verbal	-11186
Britain	-11187
Improve	-11188
Meeting	-11189
Teacher	-11190
ascites	-11191
augment	-11192
burning	-11193
careers	-11194
coastal	-11195
combine	-11196
concent	-11197
congrat	-11198
encrypt	-11199
excited	-11200
females	-11201
hacking	-11202
interim	-11203
leather	-11204
notable	-11205
ocation	-11206
pleural	-11207
replied	-11208
seasons	-11209
smokers	-11210
suscept	-11211
wacheon	-11212
Electric	-11213
Equality	-11214
Existing	-11215
acquires	-11216
advances	-11217
antioxid	-11218
basement	-11219
classify	-11220
colorful	-11221
comprise	-11222
confused	-11223
curement	-11224
decisive	-11225
deducted	-11226
deployed	-11227
downlink	-11228
enlarged	-11229
entities	-11230
instance	-11231
interact	-11232
machines	-11233
mediated	-11234
millions	-11235
occasion	-11236
paradigm	-11237
pathways	-11238
proximal	-11239
recycled	-11240
showcase	-11241
steroids	-11242
underway	-11243
unveiled	-11244
violates	-11245
waveform	-11246
Geumcheon	-11247
Panmunjom	-11248
assaulted	-11249
certainly	-11250
chocolate	-11251
contacted	-11252
dissolved	-11253
filtering	-11254
hierarchy	-11255
impedance	-11256
judgments	-11257
logically	-11258
ministers	-11259
mutations	-11260
prejudice	-11261
repeating	-11262
sintering	-11263
specialty	-11264
triglycer	-11265
amendments	-11266
approached	-11267
cigarettes	-11268
compatible	-11269
contractor	-11270
definitely	-11271
distortion	-11272
projection	-11273
psychology	-11274
recruiting	-11275
retrospect	-11276
specialist	-11277
subsidized	-11278
television	-11279
variations	-11280
accelerated	-11281
automobiles	-11282
circulating	-11283
classifying	-11284
concentrate	-11285
delinquency	-11286
diversified	-11287
frequencies	-11288
meaningless	-11289
nationality	-11290
negotiating	-11291
obstruction	-11292
populations	-11293
preferences	-11294
suppression	-11295
breakthrough	-11296
complication	-11297
explanations	-11298
fermentation	-11299
hospitalized	-11300
incorporated	-11301
interpreting	-11302
overwhelming	-11303
beneficiaries	-11304
differentiate	-11305
instructional	-11306
15	-11307
HC	-11308
SC	-11309
Ang	-11310
BMD	-11311
Bes	-11312
Bok	-11313
Egy	-11314
Far	-11315
ICU	-11316
Key	-11317
MBC	-11318
POP	-11319
Ret	-11320
Sus	-11321
Use	-11322
apt	-11323
gif	-11324
guk	-11325
nis	-11326
sei	-11327
Game	-11328
Play	-11329
Take	-11330
Vlad	-11331
flux	-11332
glad	-11333
hash	-11334
heir	-11335
kids	-11336
kill	-11337
leap	-11338
nurt	-11339
umab	-11340
umns	-11341
yuan	-11342
Block	-11343
Egypt	-11344
Langu	-11345
Legal	-11346
Medic	-11347
Trust	-11348
ammon	-11349
andom	-11350
arian	-11351
assem	-11352
bally	-11353
borne	-11354
cache	-11355
cakes	-11356
coinc	-11357
coins	-11358
comor	-11359
crush	-11360
diver	-11361
dress	-11362
ernal	-11363
gifts	-11364
helic	-11365
honey	-11366
hoped	-11367
imacy	-11368
imply	-11369
lacks	-11370
links	-11371
opath	-11372
posts	-11373
reign	-11374
relat	-11375
spicy	-11376
spoke	-11377
strat	-11378
truly	-11379
ument	-11380
▁_118	-11381
▁_164	-11382
▁_172	-11383
▁_189	-11384
▁_730	-11385
Assess	-11386
Consul	-11387
Contin	-11388
Mobile	-11389
Square	-11390
Sweden	-11391
Termin	-11392
Unless	-11393
academ	-11394
antine	-11395
colleg	-11396
decade	-11397
diesel	-11398
elabor	-11399
invite	-11400
modify	-11401
nephro	-11402
potato	-11403
reborn	-11404
refuse	-11405
ritory	-11406
rivers	-11407
strual	-11408
tablet	-11409
traces	-11410
▁_2030	-11411
Bundang	-11412
Burning	-11413
Kaesong	-11414
ambient	-11415
anytime	-11416
biomark	-11417
convinc	-11418
ctional	-11419
decades	-11420
domains	-11421
induces	-11422
marital	-11423
priorit	-11424
pursuit	-11425
relieve	-11426
shaking	-11427
sincere	-11428
undergo	-11429
Creative	-11430
Language	-11431
Official	-11432
altitude	-11433
assuming	-11434
cheering	-11435
converts	-11436
deciding	-11437
educated	-11438
exciting	-11439
graphite	-11440
inferior	-11441
inferred	-11442
intraven	-11443
observer	-11444
portrait	-11445
prohibit	-11446
railroad	-11447
rogation	-11448
tensions	-11449
tertiary	-11450
urgently	-11451
visually	-11452
warrants	-11453
Argentina	-11454
Brazilian	-11455
Namyangju	-11456
Treatment	-11457
augmented	-11458
exploring	-11459
inquiries	-11460
mechanics	-11461
portfolio	-11462
posterior	-11463
recipient	-11464
relatives	-11465
resolving	-11466
respected	-11467
sacrifice	-11468
stabilize	-11469
surpassed	-11470
territory	-11471
withdrawn	-11472
witnesses	-11473
Experience	-11474
Individual	-11475
Indonesian	-11476
Republican	-11477
anesthesia	-11478
antibiotic	-11479
appliances	-11480
continuity	-11481
deficiency	-11482
exceptions	-11483
extracting	-11484
illegality	-11485
integrally	-11486
invitation	-11487
networking	-11488
neutrality	-11489
ordinances	-11490
overlooked	-11491
paragraphs	-11492
persistent	-11493
positivity	-11494
privileged	-11495
prognostic	-11496
protruding	-11497
publishing	-11498
reproduced	-11499
stabilized	-11500
suppressed	-11501
surrounded	-11502
Enterprises	-11503
conditional	-11504
ideological	-11505
influential	-11506
irradiation	-11507
calculations	-11508
dramatically	-11509
humanitarian	-11510
intersection	-11511
quantization	-11512
shipbuilding	-11513
specializing	-11514
Unfortunately	-11515
fundamentally	-11516
Transportation	-11517
Cu	-11518
Fi	-11519
Mg	-11520
RC	-11521
SD	-11522
SU	-11523
TP	-11524
CVD	-11525
Dut	-11526
Jam	-11527
LTE	-11528
NFC	-11529
Sok	-11530
TDF	-11531
Top	-11532
ams	-11533
eti	-11534
gym	-11535
hou	-11536
iro	-11537
lob	-11538
luc	-11539
vig	-11540
vin	-11541
▁10	-11542
FIFA	-11543
Sand	-11544
apps	-11545
bump	-11546
clos	-11547
fing	-11548
fits	-11549
hack	-11550
hill	-11551
hong	-11552
insp	-11553
lder	-11554
lump	-11555
oked	-11556
pine	-11557
poem	-11558
rape	-11559
reck	-11560
soph	-11561
soul	-11562
tong	-11563
urry	-11564
yoon	-11565
Cheol	-11566
Guide	-11567
Index	-11568
Manch	-11569
Night	-11570
Reser	-11571
Still	-11572
aires	-11573
arose	-11574
bears	-11575
bered	-11576
chore	-11577
crude	-11578
daugh	-11579
epide	-11580
fired	-11581
gauge	-11582
imide	-11583
incub	-11584
liked	-11585
likes	-11586
lined	-11587
midst	-11588
mitig	-11589
morph	-11590
motiv	-11591
ocard	-11592
paint	-11593
pores	-11594
renow	-11595
rescu	-11596
slide	-11597
stamp	-11598
stuff	-11599
trace	-11600
▁_127	-11601
▁_128	-11602
▁_290	-11603
▁_720	-11604
Budget	-11605
Icheon	-11606
Should	-11607
afting	-11608
atopic	-11609
caregi	-11610
casing	-11611
distur	-11612
eighth	-11613
erobic	-11614
funded	-11615
genres	-11616
guards	-11617
heaven	-11618
hwamun	-11619
hydrox	-11620
inally	-11621
inland	-11622
laparo	-11623
occupy	-11624
partum	-11625
phages	-11626
repeat	-11627
resume	-11628
shrine	-11629
stably	-11630
sulfur	-11631
trauma	-11632
▁_1950	-11633
▁_1992	-11634
Celsius	-11635
Dongjak	-11636
Goseong	-11637
Nations	-11638
Subject	-11639
Without	-11640
algebra	-11641
amazing	-11642
approve	-11643
ciences	-11644
columns	-11645
crowded	-11646
decides	-11647
distant	-11648
dressed	-11649
entropy	-11650
fishery	-11651
ginseng	-11652
helicop	-11653
integer	-11654
kinetic	-11655
lighten	-11656
outlets	-11657
proving	-11658
renewal	-11659
reservo	-11660
romance	-11661
rotates	-11662
spheric	-11663
standby	-11664
sterone	-11665
vations	-11666
worship	-11667
Buddhism	-11668
Chungbuk	-11669
Previous	-11670
Seongbuk	-11671
adaptive	-11672
beverage	-11673
commands	-11674
dispatch	-11675
exhibits	-11676
gambling	-11677
gasoline	-11678
grateful	-11679
inductor	-11680
landfill	-11681
magazine	-11682
mellitus	-11683
ogenesis	-11684
pancreas	-11685
peaceful	-11686
plements	-11687
promptly	-11688
protrude	-11689
rankings	-11690
renowned	-11691
severely	-11692
stopping	-11693
supplier	-11694
temporal	-11695
Chuncheon	-11696
Mongolian	-11697
Northeast	-11698
Political	-11699
Volunteer	-11700
aggregate	-11701
animation	-11702
breakdown	-11703
daughters	-11704
distorted	-11705
encounter	-11706
forecasts	-11707
fulfilled	-11708
geometric	-11709
graduated	-11710
inhibitor	-11711
inventory	-11712
morbidity	-11713
offenders	-11714
organisms	-11715
releasing	-11716
reluctant	-11717
sclerosis	-11718
streaming	-11719
survivors	-11720
theastern	-11721
therapies	-11722
verifying	-11723
Afterwards	-11724
Eventually	-11725
Regulation	-11726
appointing	-11727
auditorium	-11728
bargaining	-11729
capitalism	-11730
centrality	-11731
corrective	-11732
diagnosing	-11733
indictment	-11734
irrational	-11735
legitimacy	-11736
malignancy	-11737
practicing	-11738
proceeding	-11739
scattering	-11740
supervisor	-11741
suspicious	-11742
waterproof	-11743
centralized	-11744
generalized	-11745
practically	-11746
precedented	-11747
conditioning	-11748
constructing	-11749
crowdfunding	-11750
enthusiastic	-11751
instrumental	-11752
multinational	-11753
reimbursement	-11754
unprecedented	-11755
sustainability	-11756
Ka	-11757
Ra	-11758
Ri	-11759
Sm	-11760
VI	-11761
VP	-11762
Bup	-11763
Dok	-11764
Eco	-11765
Fun	-11766
Ice	-11767
KEP	-11768
Nur	-11769
PCs	-11770
RAM	-11771
SLE	-11772
Sof	-11773
USB	-11774
bil	-11775
epo	-11776
fas	-11777
iso	-11778
lix	-11779
lug	-11780
neo	-11781
ock	-11782
omi	-11783
pyl	-11784
rim	-11785
rip	-11786
tut	-11787
Appl	-11788
Gumi	-11789
Kwak	-11790
Mary	-11791
Orig	-11792
Room	-11793
Sign	-11794
Sook	-11795
Span	-11796
Swit	-11797
anna	-11798
arry	-11799
atin	-11800
bral	-11801
corn	-11802
hasn	-11803
heal	-11804
hing	-11805
hire	-11806
hung	-11807
leep	-11808
mito	-11809
mock	-11810
omin	-11811
puts	-11812
tang	-11813
ubin	-11814
unci	-11815
▁_08	-11816
Asset	-11817
Hanam	-11818
Joong	-11819
KEPCO	-11820
Liver	-11821
Mokpo	-11822
Veter	-11823
Wonju	-11824
alert	-11825
asser	-11826
bloom	-11827
brake	-11828
cafes	-11829
const	-11830
conve	-11831
eigen	-11832
eroom	-11833
icism	-11834
imony	-11835
lings	-11836
masks	-11837
namic	-11838
opens	-11839
opera	-11840
sarco	-11841
shine	-11842
shoot	-11843
thumb	-11844
trick	-11845
vague	-11846
▁_139	-11847
▁_159	-11848
▁_251	-11849
▁_402	-11850
Friend	-11851
Gunsan	-11852
Kazakh	-11853
Pastor	-11854
acupun	-11855
agrees	-11856
allevi	-11857
atever	-11858
boiler	-11859
boring	-11860
cology	-11861
cosity	-11862
cyclic	-11863
deeper	-11864
hormon	-11865
isible	-11866
junior	-11867
lonely	-11868
molded	-11869
multim	-11870
naires	-11871
nozzle	-11872
ortium	-11873
reject	-11874
slowed	-11875
tances	-11876
trical	-11877
varied	-11878
viewer	-11879
virtue	-11880
▁_1120	-11881
▁_1200	-11882
▁_1996	-11883
▁_2022	-11884
Besides	-11885
Islamic	-11886
Markets	-11887
Parents	-11888
Sharing	-11889
Turkish	-11890
advised	-11891
anymore	-11892
ceiling	-11893
chaebol	-11894
cluding	-11895
debates	-11896
devised	-11897
earners	-11898
elapsed	-11899
enabled	-11900
existed	-11901
expands	-11902
furnace	-11903
illumin	-11904
instant	-11905
monomer	-11906
nitride	-11907
posting	-11908
preempt	-11909
refusal	-11910
retired	-11911
threats	-11912
versely	-11913
welcome	-11914
Bupyeong	-11915
Southern	-11916
appealed	-11917
aviation	-11918
colleges	-11919
comorbid	-11920
embodied	-11921
encoding	-11922
fighters	-11923
homeroom	-11924
juvenile	-11925
landmark	-11926
overtime	-11927
perceive	-11928
prescrib	-11929
reserved	-11930
shifting	-11931
tropical	-11932
Candidate	-11933
absorbing	-11934
ambiguous	-11935
clarified	-11936
conscient	-11937
copolymer	-11938
curvature	-11939
distribut	-11940
divisions	-11941
menstrual	-11942
ourselves	-11943
possessed	-11944
postponed	-11945
probation	-11946
proceeded	-11947
recurrent	-11948
retention	-11949
satisfies	-11950
spherical	-11951
successor	-11952
viscosity	-11953
Conversely	-11954
Corruption	-11955
Electronic	-11956
accelerate	-11957
basketball	-11958
comparator	-11959
complexity	-11960
disposable	-11961
everywhere	-11962
generative	-11963
infarction	-11964
mainstream	-11965
missionary	-11966
parliament	-11967
performers	-11968
physicians	-11969
vertically	-11970
Gwanghwamun	-11971
assumptions	-11972
coexistence	-11973
compensated	-11974
cultivating	-11975
eligibility	-11976
fluorescent	-11977
intensively	-11978
interactive	-11979
lipoprotein	-11980
objectively	-11981
regrettable	-11982
sacrificial	-11983
variability	-11984
acknowledged	-11985
arrangements	-11986
continuation	-11987
cooperatives	-11988
deteriorated	-11989
distributing	-11990
optimization	-11991
photographed	-11992
subcommittee	-11993
Institutional	-11994
communicating	-11995
comprehension	-11996
discretionary	-11997
incorporation	-11998
commercialized	-11999
multiplication	-12000
questionnaires	-12001
retrospectively	-12002
13	-12003
65	-12004
KA	-12005
PF	-12006
RT	-12007
SL	-12008
TG	-12009
eg	-12010
ff	-12011
ya	-12012
Bol	-12013
Boo	-12014
CRP	-12015
Gye	-12016
Had	-12017
IBM	-12018
IST	-12019
Inc	-12020
MAC	-12021
Mel	-12022
Nov	-12023
Por	-12024
STE	-12025
Wan	-12026
asi	-12027
awn	-12028
ell	-12029
epi	-12030
ida	-12031
nae	-12032
Cert	-12033
Corp	-12034
Live	-12035
Rich	-12036
Uber	-12037
Wind	-12038
acry	-12039
athe	-12040
avir	-12041
bowl	-12042
boys	-12043
buck	-12044
crop	-12045
cury	-12046
deno	-12047
emen	-12048
flaw	-12049
hyuk	-12050
iant	-12051
iter	-12052
leuk	-12053
lled	-12054
nori	-12055
null	-12056
pink	-12057
ueen	-12058
umat	-12059
vant	-12060
Coach	-12061
Cross	-12062
Floor	-12063
Honam	-12064
Incre	-12065
James	-12066
Masan	-12067
Silla	-12068
Solid	-12069
aulic	-12070
beams	-12071
doses	-12072
ensit	-12073
epoxy	-12074
finds	-12075
gered	-12076
giant	-12077
hopes	-12078
hurry	-12079
mally	-12080
manus	-12081
menus	-12082
monit	-12083
nanot	-12084
rains	-12085
ranks	-12086
seung	-12087
siles	-12088
tress	-12089
uated	-12090
▁_145	-12091
▁_182	-12092
▁_223	-12093
▁_241	-12094
▁_312	-12095
▁_920	-12096
Conver	-12097
Songdo	-12098
alytic	-12099
anyang	-12100
beacon	-12101
binary	-12102
blower	-12103
campus	-12104
caster	-12105
cotton	-12106
cruise	-12107
delete	-12108
dormit	-12109
encoun	-12110
fairly	-12111
formin	-12112
glance	-12113
indeed	-12114
indemn	-12115
kernel	-12116
mining	-12117
multil	-12118
packed	-12119
panels	-12120
pocket	-12121
statue	-12122
summon	-12123
uating	-12124
uneven	-12125
vacant	-12126
vertex	-12127
warned	-12128
yields	-12129
Changes	-12130
Conserv	-12131
Reuters	-12132
Switzer	-12133
Univers	-12134
adipose	-12135
ampions	-12136
appeals	-12137
blowing	-12138
charger	-12139
cheaper	-12140
clinics	-12141
declare	-12142
failing	-12143
gateway	-12144
indices	-12145
innings	-12146
mineral	-12147
minimal	-12148
noticed	-12149
packing	-12150
patents	-12151
rewards	-12152
secrets	-12153
sembled	-12154
slowing	-12155
stirred	-12156
strings	-12157
tobacco	-12158
traject	-12159
urinary	-12160
warming	-12161
worries	-12162
adopting	-12163
dialysis	-12164
employer	-12165
filtered	-12166
flooding	-12167
gradient	-12168
immersed	-12169
injuries	-12170
izations	-12171
maternal	-12172
merchant	-12173
monopoly	-12174
mutually	-12175
protects	-12176
sidewall	-12177
speakers	-12178
stepping	-12179
stimulus	-12180
symbolic	-12181
Seongdong	-12182
addresses	-12183
coalition	-12184
companion	-12185
consuming	-12186
correctly	-12187
decorated	-12188
disciples	-12189
duplicate	-12190
explosion	-12191
hydration	-12192
hydraulic	-12193
medicines	-12194
musicians	-12195
similarly	-12196
sincerely	-12197
spotlight	-12198
stiffness	-12199
stimulate	-12200
synthetic	-12201
travelers	-12202
variously	-12203
Assessment	-12204
congestion	-12205
containers	-12206
dermatitis	-12207
durability	-12208
expectancy	-12209
extinction	-12210
inhibition	-12211
mysterious	-12212
normalized	-12213
ologically	-12214
pedestrian	-12215
practition	-12216
prehensive	-12217
prosperity	-12218
quantities	-12219
quarantine	-12220
saturation	-12221
submission	-12222
suggestion	-12223
unemployed	-12224
Switzerland	-12225
acupuncture	-12226
anticipated	-12227
approaching	-12228
atmospheric	-12229
celebration	-12230
contributes	-12231
definitions	-12232
integrating	-12233
medications	-12234
questioning	-12235
withholding	-12236
commendation	-12237
degenerative	-12238
guaranteeing	-12239
percutaneous	-12240
reservations	-12241
revitalizing	-12242
entrepreneurs	-12243
observational	-12244
philosophical	-12245
postmenopausal	-12246
specifications	-12247
underprivileged	-12248
entrepreneurship	-12249
AE	-12250
DE	-12251
FO	-12252
KB	-12253
Ku	-12254
SN	-12255
tz	-12256
Cal	-12257
Cop	-12258
Dal	-12259
ECG	-12260
Gil	-12261
Gym	-12262
ISA	-12263
IgG	-12264
Mrs	-12265
Pak	-12266
Syd	-12267
Sym	-12268
Tal	-12269
Tar	-12270
Was	-12271
arc	-12272
aus	-12273
eal	-12274
ets	-12275
iel	-12276
ini	-12277
rol	-12278
rug	-12279
tos	-12280
Arch	-12281
Asan	-12282
Educ	-12283
Golf	-12284
Hill	-12285
Paul	-12286
anda	-12287
bare	-12288
bold	-12289
bott	-12290
cant	-12291
cipl	-12292
clam	-12293
coag	-12294
edia	-12295
flip	-12296
gaps	-12297
izza	-12298
keys	-12299
lobe	-12300
lord	-12301
ocar	-12302
pher	-12303
pone	-12304
quit	-12305
seaf	-12306
stal	-12307
tere	-12308
tomy	-12309
tort	-12310
visa	-12311
woon	-12312
Advis	-12313
Bloom	-12314
Early	-12315
Juven	-12316
Later	-12317
Maybe	-12318
Plant	-12319
Right	-12320
Seven	-12321
Space	-12322
adian	-12323
amics	-12324
anium	-12325
armed	-12326
beats	-12327
cabin	-12328
defam	-12329
ensor	-12330
erase	-12331
escap	-12332
essay	-12333
fined	-12334
hobby	-12335
ivism	-12336
lever	-12337
loses	-12338
lucky	-12339
lysis	-12340
mosqu	-12341
pages	-12342
peaks	-12343
peers	-12344
piano	-12345
propr	-12346
quint	-12347
rainy	-12348
remed	-12349
remem	-12350
rower	-12351
shirt	-12352
sweat	-12353
teeth	-12354
timer	-12355
ulous	-12356
▁_225	-12357
▁_231	-12358
▁_235	-12359
▁_650	-12360
▁_830	-12361
Estate	-12362
Execut	-12363
Overse	-12364
Proble	-12365
Sydney	-12366
arthro	-12367
barrel	-12368
boasts	-12369
breaks	-12370
cement	-12371
charts	-12372
chondr	-12373
declin	-12374
detain	-12375
enrich	-12376
ethnic	-12377
globin	-12378
hinder	-12379
hotels	-12380
itions	-12381
lasted	-12382
latent	-12383
lessly	-12384
lowers	-12385
multic	-12386
noting	-12387
planes	-12388
plasty	-12389
prizes	-12390
shower	-12391
voters	-12392
▁_1310	-12393
▁_1994	-12394
Bitcoin	-12395
Centers	-12396
Concert	-12397
Eastern	-12398
Efforts	-12399
Pocheon	-12400
Prefect	-12401
advisor	-12402
arrives	-12403
avoided	-12404
broncho	-12405
budgets	-12406
cabinet	-12407
cending	-12408
closest	-12409
disturb	-12410
drought	-12411
enlarge	-12412
fintech	-12413
flights	-12414
founder	-12415
graders	-12416
grouped	-12417
leaking	-12418
nominal	-12419
optimum	-12420
oratory	-12421
overdue	-12422
peptide	-12423
sliding	-12424
spectro	-12425
tonight	-12426
vectors	-12427
Disabled	-12428
Gwangjin	-12429
Multiple	-12430
Overseas	-12431
Shopping	-12432
Terminal	-12433
Treasury	-12434
abortion	-12435
absorbed	-12436
adequacy	-12437
allocate	-12438
collects	-12439
commence	-12440
delicate	-12441
dynamics	-12442
farmland	-12443
genotype	-12444
informal	-12445
obstruct	-12446
partners	-12447
postpone	-12448
presumed	-12449
relieved	-12450
reversal	-12451
shutdown	-12452
silicone	-12453
smallest	-12454
terrible	-12455
vicinity	-12456
Happiness	-12457
Municipal	-12458
Sometimes	-12459
Technical	-12460
aporation	-12461
assembled	-12462
corrosion	-12463
criticize	-12464
declining	-12465
deepening	-12466
gratitude	-12467
guardians	-12468
integrate	-12469
metformin	-12470
monitored	-12471
nominated	-12472
normality	-12473
obstacles	-12474
optimized	-12475
perfectly	-12476
precursor	-12477
predictor	-12478
prevalent	-12479
realizing	-12480
reforming	-12481
regulates	-12482
rendering	-12483
strongest	-12484
wholesale	-12485
Collection	-12486
Literature	-12487
confession	-12488
correcting	-12489
incidental	-12490
multilayer	-12491
noticeable	-12492
petitioner	-12493
pollutants	-12494
postpartum	-12495
reductions	-12496
remembered	-12497
remittance	-12498
resilience	-12499
revocation	-12500
tenderness	-12501
validation	-12502
Fortunately	-12503
Improvement	-12504
antioxidant	-12505
arbitrarily	-12506
backgrounds	-12507
competitors	-12508
complaining	-12509
criticizing	-12510
dissolution	-12511
documentary	-12512
evaluations	-12513
grandmother	-12514
intravenous	-12515
macrophages	-12516
perforation	-12517
photoresist	-12518
prescribing	-12519
procurement	-12520
sufficiency	-12521
threatening	-12522
understands	-12523
considerably	-12524
firefighters	-12525
osteoporosis	-12526
preparations	-12527
prerequisite	-12528
questionable	-12529
radiotherapy	-12530
satisfactory	-12531
Comprehensive	-12532
Interestingly	-12533
computational	-12534
consolidation	-12535
heterogeneous	-12536
physiological	-12537
transcription	-12538
16	-12539
Cy	-12540
ED	-12541
EF	-12542
Fu	-12543
MB	-12544
MW	-12545
RB	-12546
Sw	-12547
UC	-12548
AFP	-12549
Bon	-12550
Boy	-12551
Cir	-12552
Gov	-12553
Kyo	-12554
Lar	-12555
Men	-12556
PGA	-12557
SOC	-12558
Sar	-12559
Sex	-12560
Sty	-12561
VAT	-12562
bun	-12563
chy	-12564
eno	-12565
erc	-12566
ili	-12567
lav	-12568
muc	-12569
ofo	-12570
umo	-12571
vou	-12572
yes	-12573
zel	-12574
ADHD	-12575
Cali	-12576
Hoon	-12577
Hypo	-12578
Mark	-12579
Osan	-12580
Plus	-12581
Thai	-12582
agen	-12583
apop	-12584
atro	-12585
bies	-12586
blur	-12587
bund	-12588
chro	-12589
erup	-12590
geul	-12591
grip	-12592
idle	-12593
ksan	-12594
luck	-12595
mang	-12596
medi	-12597
neat	-12598
nets	-12599
ophy	-12600
prud	-12601
revo	-12602
rope	-12603
rown	-12604
slit	-12605
tips	-12606
twin	-12607
uela	-12608
uest	-12609
uric	-12610
vivo	-12611
wand	-12612
weed	-12613
wrap	-12614
▁_04	-12615
Check	-12616
David	-12617
Happy	-12618
Ilsan	-12619
Light	-12620
Seoda	-12621
Story	-12622
Woong	-12623
ained	-12624
alkal	-12625
ankle	-12626
backs	-12627
beans	-12628
burst	-12629
calor	-12630
excre	-12631
expon	-12632
fares	-12633
fuels	-12634
grams	-12635
grass	-12636
hinge	-12637
ische	-12638
keeps	-12639
liner	-12640
lover	-12641
magic	-12642
malls	-12643
ouses	-12644
pairs	-12645
quasi	-12646
remun	-12647
resum	-12648
segae	-12649
stall	-12650
taxis	-12651
token	-12652
ulcer	-12653
umbre	-12654
wires	-12655
▁_117	-12656
▁_136	-12657
▁_165	-12658
▁_188	-12659
▁_215	-12660
▁_501	-12661
Arabia	-12662
Barcel	-12663
Concer	-12664
Guaran	-12665
Method	-12666
Modern	-12667
Namsan	-12668
Sokcho	-12669
Spokes	-12670
Though	-12671
Yangju	-12672
Yonsei	-12673
abling	-12674
aerial	-12675
affirm	-12676
anthro	-12677
babies	-12678
cherry	-12679
dances	-12680
denial	-12681
ealand	-12682
feared	-12683
flavor	-12684
fornia	-12685
fought	-12686
freeze	-12687
grains	-12688
guitar	-12689
itives	-12690
keeper	-12691
nickel	-12692
oppose	-12693
orthog	-12694
oscill	-12695
patrol	-12696
poured	-12697
promul	-12698
revive	-12699
ripple	-12700
rounds	-12701
shaken	-12702
tables	-12703
toilet	-12704
trucks	-12705
wouldn	-12706
▁_1010	-12707
Actress	-12708
Chamber	-12709
Compens	-12710
Hangeul	-12711
Hanyang	-12712
Iranian	-12713
Mexican	-12714
Reading	-12715
Telecom	-12716
Traffic	-12717
apology	-12718
braking	-12719
bubbles	-12720
casters	-12721
classic	-12722
comings	-12723
courage	-12724
highway	-12725
hobbies	-12726
ialysis	-12727
ictions	-12728
imagine	-12729
luggage	-12730
mapping	-12731
motives	-12732
myocard	-12733
outflow	-12734
polynom	-12735
pursues	-12736
resting	-12737
shelter	-12738
shouldn	-12739
skilled	-12740
streams	-12741
tenants	-12742
uterine	-12743
varying	-12744
welling	-12745
Actually	-12746
Clinical	-12747
Geumgang	-12748
Interior	-12749
Medicine	-12750
Steering	-12751
airplane	-12752
borrowed	-12753
burdened	-12754
clusters	-12755
competed	-12756
differed	-12757
download	-12758
effusion	-12759
exported	-12760
exterior	-12761
featured	-12762
firmware	-12763
foldable	-12764
freezing	-12765
grasping	-12766
inactive	-12767
integral	-12768
intermed	-12769
offenses	-12770
offshore	-12771
ologists	-12772
omission	-12773
predicts	-12774
responds	-12775
revising	-12776
suspects	-12777
tailored	-12778
uploaded	-12779
worsened	-12780
Barcelona	-12781
Democracy	-12782
Guarantee	-12783
Seodaemun	-12784
Shinsegae	-12785
Venezuela	-12786
believing	-12787
causative	-12788
confessed	-12789
criminals	-12790
defensive	-12791
discusses	-12792
dispersed	-12793
dominance	-12794
encrypted	-12795
excavated	-12796
fortunate	-12797
incorrect	-12798
intuition	-12799
itatively	-12800
revisions	-12801
saturated	-12802
suppliers	-12803
triggered	-12804
undergone	-12805
California	-12806
anatomical	-12807
automation	-12808
casualties	-12809
circulated	-12810
clinically	-12811
conscience	-12812
creatinine	-12813
cultivated	-12814
exhaustion	-12815
fabricated	-12816
geographic	-12817
incomplete	-12818
multimedia	-12819
outputting	-12820
passionate	-12821
progresses	-12822
reasonably	-12823
remarkably	-12824
threatened	-12825
triangular	-12826
accommodate	-12827
businessmen	-12828
calibration	-12829
calligraphy	-12830
challenging	-12831
credibility	-12832
directional	-12833
electronics	-12834
establishes	-12835
evaporation	-12836
ferentially	-12837
functioning	-12838
multiplying	-12839
perpetrator	-12840
secretariat	-12841
sovereignty	-12842
specialists	-12843
acquaintance	-12844
commencement	-12845
competitions	-12846
geographical	-12847
incineration	-12848
infiltration	-12849
policyholder	-12850
preoperative	-12851
reactivation	-12852
remuneration	-12853
substitution	-12854
acquaintances	-12855
conglomerates	-12856
conscientious	-12857
deteriorating	-12858
dissemination	-12859
globalization	-12860
macroeconomic	-12861
nanoparticles	-12862
visualization	-12863
Communications	-12864
municipalities	-12865
redistribution	-12866
Representatives	-12867
36	-12868
AG	-12869
AN	-12870
CB	-12871
DO	-12872
HT	-12873
KL	-12874
NC	-12875
OO	-12876
Py	-12877
SM	-12878
ko	-12879
ACK	-12880
ALD	-12881
Adv	-12882
COE	-12883
CPU	-12884
CSI	-12885
Cla	-12886
Dob	-12887
Fif	-12888
Gas	-12889
IMF	-12890
Kuk	-12891
Kyu	-12892
Los	-12893
Mag	-12894
Mom	-12895
Oil	-12896
PCR	-12897
ROM	-12898
SBS	-12899
SEM	-12900
Sug	-12901
Syr	-12902
TNF	-12903
aqu	-12904
dop	-12905
idi	-12906
moo	-12907
myo	-12908
tie	-12909
tyl	-12910
wir	-12911
zen	-12912
Best	-12913
Choe	-12914
Clar	-12915
Comb	-12916
Find	-12917
Grow	-12918
Hand	-12919
Jack	-12920
Make	-12921
Netf	-12922
Pang	-12923
Phar	-12924
Prem	-12925
Prim	-12926
Seol	-12927
Sind	-12928
Ulle	-12929
Week	-12930
aint	-12931
beef	-12932
bulk	-12933
caut	-12934
clic	-12935
cule	-12936
dash	-12937
ders	-12938
enum	-12939
fate	-12940
fuse	-12941
gymn	-12942
ican	-12943
inee	-12944
mile	-12945
mmHg	-12946
olds	-12947
otic	-12948
phob	-12949
prot	-12950
ribs	-12951
sput	-12952
stam	-12953
ubes	-12954
utro	-12955
viet	-12956
viro	-12957
ymes	-12958
Bible	-12959
Contr	-12960
Hence	-12961
Hydro	-12962
Kumho	-12963
Nexen	-12964
Serum	-12965
Sorry	-12966
Staff	-12967
Woods	-12968
Woori	-12969
adata	-12970
angel	-12971
birds	-12972
bored	-12973
cartr	-12974
click	-12975
diets	-12976
ellip	-12977
ensur	-12978
ested	-12979
fence	-12980
focal	-12981
icons	-12982
igens	-12983
lobby	-12984
lungs	-12985
ozone	-12986
pedag	-12987
peror	-12988
pizza	-12989
realm	-12990
repat	-12991
rites	-12992
rocks	-12993
rumor	-12994
seeds	-12995
shake	-12996
shame	-12997
spite	-12998
threw	-12999
wheat	-13000
▁_175	-13001
▁_214	-13002
▁_511	-13003
▁_840	-13004
▁_930	-13005
Garden	-13006
Instit	-13007
Newton	-13008
Taking	-13009
Travel	-13010
advise	-13011
ancest	-13012
anyway	-13013
arring	-13014
delays	-13015
empath	-13016
euthan	-13017
expose	-13018
fisher	-13019
gentle	-13020
golden	-13021
herbal	-13022
hollow	-13023
iences	-13024
jacket	-13025
legend	-13026
levied	-13027
lovers	-13028
minors	-13029
ometer	-13030
orphic	-13031
ounced	-13032
photon	-13033
physic	-13034
pillar	-13035
prayer	-13036
presup	-13037
pulled	-13038
radial	-13039
rupted	-13040
seated	-13041
shaman	-13042
sheets	-13043
solder	-13044
sputum	-13045
stairs	-13046
sually	-13047
surely	-13048
tastes	-13049
useong	-13050
utable	-13051
utures	-13052
venous	-13053
Against	-13054
Angeles	-13055
Critics	-13056
Formula	-13057
Netflix	-13058
Perform	-13059
Siheung	-13060
Spanish	-13061
Ulleung	-13062
abolish	-13063
ammonia	-13064
attende	-13065
burnout	-13066
capping	-13067
chanter	-13068
cortico	-13069
decimal	-13070
devoted	-13071
fitness	-13072
flipped	-13073
folding	-13074
glasses	-13075
guiding	-13076
hitting	-13077
hosting	-13078
imeters	-13079
impregn	-13080
incheon	-13081
mercury	-13082
methane	-13083
monopol	-13084
ocarcin	-13085
orption	-13086
pigment	-13087
rescued	-13088
spouses	-13089
stopper	-13090
tactile	-13091
thetics	-13092
toilets	-13093
vacancy	-13094
Likewise	-13095
Resident	-13096
alkaline	-13097
confirms	-13098
distrust	-13099
ensuring	-13100
essional	-13101
formulas	-13102
founding	-13103
hardness	-13104
homework	-13105
indicted	-13106
infinity	-13107
initiate	-13108
intermit	-13109
keyboard	-13110
listened	-13111
metadata	-13112
missiles	-13113
molecule	-13114
mosquito	-13115
narrowed	-13116
openings	-13117
peritone	-13118
pitchers	-13119
planners	-13120
profiles	-13121
readable	-13122
refining	-13123
striking	-13124
switches	-13125
therefor	-13126
Different	-13127
Executive	-13128
Orchestra	-13129
Yeongdong	-13130
accessing	-13131
adherence	-13132
aftermath	-13133
assessing	-13134
bandwidth	-13135
catalysts	-13136
catalytic	-13137
celebrity	-13138
commodity	-13139
condenser	-13140
defective	-13141
designers	-13142
invisible	-13143
licensing	-13144
linearity	-13145
maximized	-13146
messenger	-13147
normalize	-13148
parenting	-13149
retailers	-13150
schedules	-13151
shortened	-13152
summarize	-13153
vegetable	-13154
warehouse	-13155
Additional	-13156
Facilities	-13157
Prefecture	-13158
accessible	-13159
accusation	-13160
conduction	-13161
consortium	-13162
contracted	-13163
enrollment	-13164
enthusiasm	-13165
gymnastics	-13166
hemoglobin	-13167
minimizing	-13168
mitochondr	-13169
myocardial	-13170
objections	-13171
refractory	-13172
relaxation	-13173
sanitation	-13174
sculptures	-13175
theatrical	-13176
thereafter	-13177
trajectory	-13178
Educational	-13179
Mathematics	-13180
acknowledge	-13181
biochemical	-13182
commemorate	-13183
counterpart	-13184
cratization	-13185
crystalline	-13186
descendants	-13187
descriptive	-13188
discovering	-13189
exceptional	-13190
exploratory	-13191
hydrocarbon	-13192
liquidation	-13193
registering	-13194
suppressing	-13195
Compensation	-13196
Professional	-13197
attributable	-13198
crosslinking	-13199
disagreement	-13200
exaggeration	-13201
hemodialysis	-13202
horizontally	-13203
multivariate	-13204
personalized	-13205
correspondent	-13206
decentralized	-13207
uncertainties	-13208
distinguishing	-13209
Mn	-13210
NM	-13211
oy	-13212
tt	-13213
Bet	-13214
COV	-13215
Chu	-13216
Dia	-13217
ESS	-13218
Exc	-13219
Exp	-13220
Fer	-13221
HDL	-13222
Haw	-13223
Jer	-13224
Lou	-13225
MOU	-13226
Mis	-13227
SiC	-13228
Sir	-13229
VIP	-13230
Van	-13231
Web	-13232
abr	-13233
adm	-13234
cue	-13235
dip	-13236
hag	-13237
isk	-13238
kne	-13239
rin	-13240
swi	-13241
tsu	-13242
upe	-13243
Aren	-13244
Bill	-13245
Chil	-13246
Choo	-13247
Coin	-13248
Isra	-13249
Mess	-13250
Rain	-13251
Seog	-13252
Subs	-13253
adul	-13254
asia	-13255
astr	-13256
atre	-13257
bach	-13258
baek	-13259
burg	-13260
cham	-13261
ctin	-13262
deny	-13263
dizz	-13264
eman	-13265
endu	-13266
enza	-13267
grap	-13268
guys	-13269
gwan	-13270
hael	-13271
isto	-13272
jump	-13273
jury	-13274
knot	-13275
lake	-13276
lash	-13277
mann	-13278
olar	-13279
poet	-13280
saka	-13281
surd	-13282
tale	-13283
tism	-13284
ubic	-13285
upus	-13286
urge	-13287
usan	-13288
vend	-13289
wels	-13290
wore	-13291
Apart	-13292
Beaut	-13293
Crime	-13294
Dokdo	-13295
Holly	-13296
Multi	-13297
Press	-13298
Putin	-13299
bilir	-13300
carbo	-13301
dates	-13302
defer	-13303
deple	-13304
drank	-13305
ducer	-13306
eaten	-13307
entit	-13308
fetus	-13309
ignee	-13310
knock	-13311
mates	-13312
mound	-13313
osity	-13314
penia	-13315
pipes	-13316
prone	-13317
quota	-13318
rotat	-13319
sells	-13320
shear	-13321
skept	-13322
sport	-13323
stuck	-13324
tense	-13325
tours	-13326
utory	-13327
vency	-13328
wives	-13329
▁_109	-13330
▁_138	-13331
▁_146	-13332
▁_157	-13333
▁_185	-13334
▁_187	-13335
▁_304	-13336
▁_322	-13337
▁_412	-13338
▁_422	-13339
▁_750	-13340
Career	-13341
Discus	-13342
Effect	-13343
Israel	-13344
Pangyo	-13345
Patent	-13346
Soviet	-13347
Vision	-13348
absurd	-13349
aching	-13350
anemia	-13351
apters	-13352
atedly	-13353
atosis	-13354
avored	-13355
celain	-13356
cheese	-13357
comedy	-13358
convex	-13359
cooked	-13360
cooler	-13361
ctures	-13362
deform	-13363
dining	-13364
excite	-13365
extrem	-13366
floors	-13367
folded	-13368
guides	-13369
insert	-13370
layout	-13371
liquef	-13372
liquor	-13373
marrow	-13374
namely	-13375
parade	-13376
philic	-13377
planet	-13378
plaque	-13379
plasia	-13380
plated	-13381
prints	-13382
proves	-13383
restim	-13384
slides	-13385
slogan	-13386
soared	-13387
spinal	-13388
sticks	-13389
styles	-13390
subset	-13391
tongue	-13392
traits	-13393
valued	-13394
waited	-13395
▁_1991	-13396
▁_1999	-13397
African	-13398
Artists	-13399
Belgium	-13400
Chungju	-13401
Francis	-13402
Michael	-13403
Pansori	-13404
Persons	-13405
agrance	-13406
aligned	-13407
attends	-13408
besides	-13409
cancers	-13410
capacit	-13411
captain	-13412
charter	-13413
cleaned	-13414
costume	-13415
crossed	-13416
daytime	-13417
depreci	-13418
desires	-13419
disrupt	-13420
doubled	-13421
dyspnea	-13422
educate	-13423
escaped	-13424
fastest	-13425
fingers	-13426
forests	-13427
fulness	-13428
iencies	-13429
lightly	-13430
lumines	-13431
mileage	-13432
ourcing	-13433
pathway	-13434
pitcher	-13435
prevail	-13436
reagent	-13437
revived	-13438
rituals	-13439
roughly	-13440
squares	-13441
stretch	-13442
sympath	-13443
textile	-13444
transfe	-13445
transit	-13446
vaginal	-13447
viruses	-13448
Autonomy	-13449
Canadian	-13450
Contract	-13451
Detailed	-13452
Gwacheon	-13453
Gwanggyo	-13454
Standard	-13455
Startups	-13456
amounted	-13457
attracts	-13458
blossoms	-13459
ceramics	-13460
chlorine	-13461
collagen	-13462
confound	-13463
cultured	-13464
defeated	-13465
enabling	-13466
episodes	-13467
fortress	-13468
gestures	-13469
historic	-13470
homeless	-13471
innocent	-13472
logistic	-13473
purities	-13474
refusing	-13475
repaired	-13476
sanction	-13477
solvency	-13478
speeding	-13479
veterans	-13480
warnings	-13481
whatever	-13482
worrying	-13483
Relations	-13484
Taiwanese	-13485
Yangcheon	-13486
activists	-13487
additives	-13488
ambiguity	-13489
bilirubin	-13490
ciplinary	-13491
civilians	-13492
competing	-13493
condensed	-13494
diplomacy	-13495
diversify	-13496
educators	-13497
enlighten	-13498
evaluates	-13499
explosive	-13500
fastening	-13501
finishing	-13502
indispens	-13503
inspected	-13504
menopause	-13505
minimized	-13506
nurturing	-13507
overnight	-13508
premature	-13509
roughness	-13510
scientist	-13511
socialist	-13512
sorafenib	-13513
unciation	-13514
villagers	-13515
Accounting	-13516
Autonomous	-13517
Kazakhstan	-13518
Originally	-13519
Solidarity	-13520
analytical	-13521
announcing	-13522
aspiration	-13523
caregivers	-13524
complement	-13525
counselors	-13526
deductions	-13527
defamation	-13528
engagement	-13529
overlapped	-13530
politician	-13531
regulating	-13532
repetition	-13533
reversible	-13534
subscriber	-13535
surprising	-13536
sustaining	-13537
trochanter	-13538
weaknesses	-13539
Controversy	-13540
Convergence	-13541
Examination	-13542
assessments	-13543
connections	-13544
consignment	-13545
designating	-13546
drastically	-13547
earthquakes	-13548
eradication	-13549
fluctuation	-13550
frustration	-13551
inclination	-13552
ineffective	-13553
penetration	-13554
predictable	-13555
propagation	-13556
psychiatric	-13557
restricting	-13558
unconscious	-13559
Championship	-13560
Consequently	-13561
accelerating	-13562
collectively	-13563
firefighting	-13564
hypoglycemia	-13565
mobilization	-13566
multilateral	-13567
permeability	-13568
shortcomings	-13569
surroundings	-13570
unauthorized	-13571
conservatives	-13572
demonstrating	-13573
indispensable	-13574
normalization	-13575
redevelopment	-13576
thermoelectric	-13577
diversification	-13578
unconstitutional	-13579
14	-13580
Ds	-13581
GP	-13582
GV	-13583
HI	-13584
KO	-13585
OF	-13586
Oc	-13587
RP	-13588
Sc	-13589
Sp	-13590
VE	-13591
VO	-13592
WS	-13593
gs	-13594
tv	-13595
ws	-13596
▁3	-13597
▁4	-13598
CDM	-13599
CNN	-13600
Doc	-13601
Dru	-13602
ETF	-13603
FET	-13604
FEV	-13605
FFF	-13606
Gyu	-13607
Hom	-13608
Hun	-13609
KBO	-13610
Kol	-13611
LNG	-13612
MTB	-13613
Noh	-13614
Oct	-13615
ROK	-13616
Roy	-13617
Run	-13618
See	-13619
Sky	-13620
Too	-13621
VDD	-13622
WHO	-13623
ado	-13624
aki	-13625
ano	-13626
bam	-13627
dad	-13628
ere	-13629
ife	-13630
igo	-13631
lon	-13632
mul	-13633
nap	-13634
orn	-13635
pep	-13636
ppm	-13637
rag	-13638
sca	-13639
tib	-13640
ura	-13641
Alex	-13642
Daed	-13643
Nine	-13644
Tell	-13645
Vent	-13646
asto	-13647
bail	-13648
beds	-13649
bike	-13650
bomb	-13651
bran	-13652
bull	-13653
chef	-13654
coli	-13655
cong	-13656
dawn	-13657
depr	-13658
dots	-13659
duod	-13660
ente	-13661
forc	-13662
foss	-13663
gard	-13664
gout	-13665
gust	-13666
ione	-13667
irts	-13668
latt	-13669
nals	-13670
owns	-13671
ptic	-13672
rash	-13673
sail	-13674
shoe	-13675
soap	-13676
stab	-13677
toll	-13678
trio	-13679
umor	-13680
unal	-13681
▁_09	-13682
Beach	-13683
COVID	-13684
Elder	-13685
Intel	-13686
Osaka	-13687
Sales	-13688
Total	-13689
Yemen	-13690
agedy	-13691
ambul	-13692
arked	-13693
bever	-13694
boats	-13695
choir	-13696
clerk	-13697
cyclo	-13698
demol	-13699
deser	-13700
domen	-13701
dying	-13702
ellow	-13703
eping	-13704
esium	-13705
euros	-13706
flame	-13707
groom	-13708
hemor	-13709
heres	-13710
hikes	-13711
imper	-13712
iolet	-13713
irrit	-13714
kines	-13715
loads	-13716
lupus	-13717
naval	-13718
orbit	-13719
ounce	-13720
pless	-13721
prede	-13722
quadr	-13723
radon	-13724
rison	-13725
slave	-13726
slump	-13727
spare	-13728
stagn	-13729
stein	-13730
tents	-13731
tices	-13732
towns	-13733
trash	-13734
vinyl	-13735
ximab	-13736
▁_147	-13737
▁_181	-13738
▁_184	-13739
▁_205	-13740
▁_370	-13741
▁_380	-13742
▁_413	-13743
▁_421	-13744
▁_640	-13745
▁_802	-13746
▁_870	-13747
Cambod	-13748
Campus	-13749
Common	-13750
Daewoo	-13751
Ethics	-13752
Excuse	-13753
Hadong	-13754
Indeed	-13755
Record	-13756
Sector	-13757
Things	-13758
ancies	-13759
athero	-13760
burial	-13761
crying	-13762
curves	-13763
detach	-13764
drives	-13765
elimin	-13766
emerge	-13767
extern	-13768
filler	-13769
fossil	-13770
graded	-13771
igraph	-13772
imeter	-13773
itated	-13774
ledger	-13775
multid	-13776
multif	-13777
praise	-13778
priest	-13779
prohib	-13780
receiv	-13781
repatr	-13782
retard	-13783
scales	-13784
shocks	-13785
souven	-13786
stator	-13787
strive	-13788
weaker	-13789
Druking	-13790
Entrust	-13791
Liberal	-13792
Mission	-13793
Schools	-13794
Usually	-13795
adviser	-13796
cartoon	-13797
conceal	-13798
coolant	-13799
credits	-13800
critics	-13801
dumping	-13802
dynasty	-13803
enzymes	-13804
epidemi	-13805
gradual	-13806
grammar	-13807
hishing	-13808
indexes	-13809
instein	-13810
landing	-13811
layered	-13812
modulus	-13813
mucosal	-13814
nominee	-13815
ologics	-13816
onectin	-13817
opathic	-13818
outward	-13819
permits	-13820
planted	-13821
pouring	-13822
promulg	-13823
rearing	-13824
referen	-13825
respons	-13826
sellers	-13827
servant	-13828
synthes	-13829
vaccine	-13830
widened	-13831
Graduate	-13832
Holdings	-13833
Together	-13834
accessed	-13835
advisors	-13836
antigens	-13837
aperture	-13838
bicycles	-13839
cautious	-13840
citation	-13841
composer	-13842
concerts	-13843
contexts	-13844
councils	-13845
deformed	-13846
entitled	-13847
excludes	-13848
forcibly	-13849
graphics	-13850
ignition	-13851
landlord	-13852
mistaken	-13853
netizens	-13854
password	-13855
plastics	-13856
profound	-13857
resigned	-13858
restrial	-13859
rigidity	-13860
romantic	-13861
sciences	-13862
spraying	-13863
treasure	-13864
weekends	-13865
Gymnasium	-13866
Malaysian	-13867
apoptosis	-13868
attendees	-13869
automated	-13870
beverages	-13871
clearance	-13872
collusion	-13873
counselor	-13874
depressed	-13875
desperate	-13876
electoral	-13877
employers	-13878
endocrine	-13879
enjoyment	-13880
exhausted	-13881
expecting	-13882
exporting	-13883
influenza	-13884
insulator	-13885
itational	-13886
literally	-13887
magnesium	-13888
membranes	-13889
nanotubes	-13890
narrowing	-13891
negotiate	-13892
occasions	-13893
predecess	-13894
prospects	-13895
prototype	-13896
purifiers	-13897
qualities	-13898
receptors	-13899
reservoir	-13900
sculpture	-13901
welcoming	-13902
Christians	-13903
activating	-13904
clinicians	-13905
committing	-13906
concurrent	-13907
contacting	-13908
criticisms	-13909
delinquent	-13910
developers	-13911
downstream	-13912
eliminated	-13913
ensitivity	-13914
frustrated	-13915
impurities	-13916
inadequate	-13917
insolvency	-13918
irrelevant	-13919
manuscript	-13920
occasional	-13921
originated	-13922
orthogonal	-13923
phosphorus	-13924
preservice	-13925
preserving	-13926
standpoint	-13927
wirelessly	-13928
Legislation	-13929
adjustments	-13930
broadcasted	-13931
broadcaster	-13932
compilation	-13933
conjunction	-13934
constitutes	-13935
continental	-13936
convolution	-13937
derivatives	-13938
diffraction	-13939
dissipation	-13940
elimination	-13941
exponential	-13942
homogeneous	-13943
journalists	-13944
objectivity	-13945
politically	-13946
potentially	-13947
progressing	-13948
prophylaxis	-13949
proteinuria	-13950
Registration	-13951
anticipation	-13952
contaminated	-13953
conveniences	-13954
discontinued	-13955
exacerbation	-13956
governmental	-13957
hierarchical	-13958
investigator	-13959
participates	-13960
repatriation	-13961
heterogeneity	-13962
planarization	-13963
practitioners	-13964
prescriptions	-13965
correspondence	-13966
humidification	-13967
microorganisms	-13968
dissatisfaction	-13969
internationally	-13970
19	-13971
DG	-13972
HA	-13973
HL	-13974
IA	-13975
Ik	-13976
JT	-13977
NT	-13978
PB	-13979
SG	-13980
UL	-13981
kn	-13982
▁5	-13983
API	-13984
Age	-13985
App	-13986
Bob	-13987
Bot	-13988
Bre	-13989
CRC	-13990
Cer	-13991
Cro	-13992
Gar	-13993
Hor	-13994
LCD	-13995
Lad	-13996
Liu	-13997
Mem	-13998
Mut	-13999
Nag	-14000
Ram	-14001
Sha	-14002
Sho	-14003
TiO	-14004
UAV	-14005
Ven	-14006
ala	-14007
bap	-14008
hui	-14009
hyo	-14010
iri	-14011
jam	-14012
kyo	-14013
odo	-14014
ora	-14015
pes	-14016
sag	-14017
una	-14018
uzz	-14019
zed	-14020
Appe	-14021
Chic	-14022
Ever	-14023
Fine	-14024
Hero	-14025
Kids	-14026
Kwan	-14027
Lord	-14028
MERS	-14029
Mang	-14030
Miss	-14031
Mour	-14032
NASH	-14033
Pain	-14034
Unit	-14035
adju	-14036
aked	-14037
anas	-14038
anta	-14039
aser	-14040
axes	-14041
bars	-14042
blan	-14043
byon	-14044
chin	-14045
clay	-14046
deck	-14047
dich	-14048
disc	-14049
enia	-14050
envo	-14051
fung	-14052
groo	-14053
iner	-14054
kiln	-14055
lamp	-14056
limb	-14057
nerg	-14058
okes	-14059
osex	-14060
ours	-14061
padd	-14062
peel	-14063
phic	-14064
pler	-14065
pore	-14066
seaw	-14067
shim	-14068
spel	-14069
spro	-14070
suck	-14071
trem	-14072
uber	-14073
zinc	-14074
Attor	-14075
Blood	-14076
Embas	-14077
Hepat	-14078
Hyang	-14079
Intro	-14080
Mater	-14081
Ocean	-14082
Smith	-14083
Taxes	-14084
Watch	-14085
adipo	-14086
algae	-14087
alkyl	-14088
ballo	-14089
blame	-14090
bones	-14091
camps	-14092
chole	-14093
decay	-14094
decry	-14095
drove	-14096
eased	-14097
enemy	-14098
escal	-14099
iasis	-14100
inosa	-14101
itant	-14102
minus	-14103
noble	-14104
odong	-14105
orrow	-14106
pecul	-14107
petro	-14108
piled	-14109
query	-14110
radar	-14111
redem	-14112
riots	-14113
roots	-14114
saves	-14115
shelf	-14116
solic	-14117
squad	-14118
tiles	-14119
trics	-14120
tubes	-14121
undae	-14122
vitro	-14123
▁_137	-14124
▁_161	-14125
▁_262	-14126
▁_332	-14127
▁_460	-14128
▁_502	-14129
▁_680	-14130
Diabet	-14131
Dobong	-14132
Recogn	-14133
Season	-14134
Senate	-14135
acetyl	-14136
aggrav	-14137
airway	-14138
allies	-14139
amorph	-14140
asleep	-14141
boiled	-14142
cables	-14143
candle	-14144
donate	-14145
dyeing	-14146
favors	-14147
firing	-14148
frozen	-14149
insect	-14150
iodine	-14151
izable	-14152
lenses	-14153
metaph	-14154
parcel	-14155
percus	-14156
quoted	-14157
relics	-14158
revoke	-14159
scaven	-14160
sealed	-14161
slurry	-14162
subtle	-14163
tennis	-14164
thirds	-14165
treats	-14166
ulsion	-14167
urable	-14168
vative	-14169
washed	-14170
widget	-14171
▁_1930	-14172
▁_3000	-14173
Chicago	-14174
Citizen	-14175
Conflic	-14176
Embassy	-14177
Gyeongg	-14178
Patient	-14179
Renault	-14180
Reserve	-14181
Taegeuk	-14182
adapted	-14183
baggage	-14184
cleaner	-14185
consume	-14186
courier	-14187
custody	-14188
debtors	-14189
empower	-14190
encoded	-14191
erosion	-14192
fantasy	-14193
footage	-14194
forgery	-14195
grooves	-14196
happily	-14197
hydrate	-14198
illiant	-14199
infring	-14200
interfe	-14201
jumping	-14202
masters	-14203
measles	-14204
mentors	-14205
mergers	-14206
midterm	-14207
missive	-14208
outline	-14209
relaxed	-14210
rheumat	-14211
seafood	-14212
seating	-14213
shuttle	-14214
soybean	-14215
stitial	-14216
teaches	-14217
uminous	-14218
windows	-14219
wirings	-14220
Attorney	-14221
Baseball	-14222
Contrary	-14223
Creation	-14224
Customer	-14225
Einstein	-14226
Lawmaker	-14227
Specific	-14228
Whenever	-14229
adjuvant	-14230
adsorbed	-14231
audition	-14232
boosting	-14233
claimant	-14234
coaching	-14235
compares	-14236
detached	-14237
detained	-14238
dictator	-14239
embolism	-14240
encephal	-14241
executes	-14242
globally	-14243
granting	-14244
habitual	-14245
handover	-14246
harmonic	-14247
helpless	-14248
journals	-14249
monitors	-14250
nowadays	-14251
ographic	-14252
optional	-14253
overlaps	-14254
pathetic	-14255
peculiar	-14256
planting	-14257
porosity	-14258
pository	-14259
proposes	-14260
protests	-14261
refunded	-14262
reserves	-14263
rigorous	-14264
searches	-14265
seawater	-14266
starring	-14267
stenosis	-14268
superfic	-14269
sympathy	-14270
uitively	-14271
upstream	-14272
vertices	-14273
Americans	-14274
Biologics	-14275
Champions	-14276
Eunpyeong	-14277
Hollywood	-14278
Knowledge	-14279
Naturally	-14280
Universal	-14281
alleviate	-14282
anonymous	-14283
answering	-14284
ballistic	-14285
cessation	-14286
clockwise	-14287
consignee	-14288
directing	-14289
discarded	-14290
discounts	-14291
disparity	-14292
fishermen	-14293
forgotten	-14294
fragrance	-14295
imaginary	-14296
injecting	-14297
juveniles	-14298
modulator	-14299
periphery	-14300
phosphate	-14301
precision	-14302
pressions	-14303
protested	-14304
regulator	-14305
relocated	-14306
resonator	-14307
scenarios	-14308
somewhere	-14309
statutory	-14310
subgroups	-14311
sustained	-14312
testimony	-14313
Guidelines	-14314
Hypothesis	-14315
advantaged	-14316
capacitive	-14317
capacitors	-14318
compassion	-14319
disappears	-14320
excitement	-14321
extinctive	-14322
predefined	-14323
recommends	-14324
remodeling	-14325
scheduling	-14326
alternating	-14327
ampionships	-14328
capacitance	-14329
contractual	-14330
embarrassed	-14331
endothelial	-14332
gallbladder	-14333
grandfather	-14334
illuminance	-14335
interviewed	-14336
monotherapy	-14337
pedestrians	-14338
proportions	-14339
radioactive	-14340
ventricular	-14341
wavelengths	-14342
civilization	-14343
confiscation	-14344
constructive	-14345
disappointed	-14346
extinguished	-14347
implantation	-14348
interstitial	-14349
laparoscopic	-14350
psychosocial	-14351
publications	-14352
radiographic	-14353
similarities	-14354
collaborative	-14355
electrostatic	-14356
functionality	-14357
socioeconomic	-14358
traditionally	-14359
mathematicians	-14360
nanostructures	-14361
ultrasonography	-14362
22	-14363
24	-14364
BH	-14365
FV	-14366
GE	-14367
Ir	-14368
NB	-14369
RN	-14370
SB	-14371
Us	-14372
yi	-14373
AAD	-14374
ANO	-14375
Bum	-14376
CAP	-14377
CLK	-14378
Cou	-14379
Der	-14380
EUS	-14381
Gra	-14382
Guk	-14383
Gut	-14384
Hit	-14385
ILD	-14386
ITs	-14387
Ken	-14388
Koh	-14389
MPa	-14390
NCS	-14391
Rom	-14392
Set	-14393
TVs	-14394
Tou	-14395
Tro	-14396
aor	-14397
axi	-14398
bee	-14399
bis	-14400
bom	-14401
coc	-14402
hea	-14403
hed	-14404
hen	-14405
iga	-14406
jet	-14407
kuk	-14408
loo	-14409
orb	-14410
sme	-14411
tat	-14412
vom	-14413
yer	-14414
Byun	-14415
Cost	-14416
Duty	-14417
ESRD	-14418
Eucl	-14419
Gall	-14420
Hann	-14421
Holy	-14422
Kant	-14423
List	-14424
Mone	-14425
NAND	-14426
Niet	-14427
Note	-14428
Rome	-14429
Sach	-14430
User	-14431
Viol	-14432
assy	-14433
benz	-14434
beta	-14435
coat	-14436
cosm	-14437
ctic	-14438
cuff	-14439
enic	-14440
ergy	-14441
fibr	-14442
haul	-14443
hors	-14444
hyup	-14445
ichu	-14446
inch	-14447
isot	-14448
kert	-14449
lend	-14450
lers	-14451
lium	-14452
luor	-14453
mush	-14454
onin	-14455
oudy	-14456
owon	-14457
pets	-14458
quot	-14459
ramp	-14460
ryul	-14461
silk	-14462
skip	-14463
span	-14464
spar	-14465
styl	-14466
tear	-14467
Corps	-14468
Hyper	-14469
Ident	-14470
Large	-14471
Milan	-14472
Nietz	-14473
Posit	-14474
Retur	-14475
STEAM	-14476
Sachs	-14477
Share	-14478
Sport	-14479
Starb	-14480
Style	-14481
THAAD	-14482
affir	-14483
artif	-14484
balls	-14485
batch	-14486
cavir	-14487
cloth	-14488
cytop	-14489
diarr	-14490
drill	-14491
eager	-14492
energ	-14493
essim	-14494
flour	-14495
greed	-14496
gwang	-14497
halls	-14498
iceal	-14499
inert	-14500
inist	-14501
jaund	-14502
lasts	-14503
laund	-14504
merge	-14505
necro	-14506
ogens	-14507
pupil	-14508
resur	-14509
rings	-14510
steep	-14511
verge	-14512
▁_178	-14513
▁_183	-14514
▁_253	-14515
▁_255	-14516
▁_321	-14517
▁_521	-14518
▁_611	-14519
▁_612	-14520
▁_660	-14521
▁_820	-14522
Around	-14523
Coffee	-14524
Custom	-14525
Growth	-14526
Jamsil	-14527
Junior	-14528
Parlia	-14529
Presby	-14530
Refuge	-14531
Robert	-14532
Subway	-14533
Theore	-14534
Treaty	-14535
Within	-14536
accred	-14537
albums	-14538
anaphy	-14539
bronze	-14540
bubble	-14541
chiefs	-14542
deduct	-14543
digits	-14544
domest	-14545
engrav	-14546
erator	-14547
extrac	-14548
hoping	-14549
iatory	-14550
ilitar	-14551
initis	-14552
labore	-14553
laptop	-14554
lively	-14555
lovely	-14556
loving	-14557
mapped	-14558
marble	-14559
medals	-14560
neutro	-14561
parath	-14562
parked	-14563
poorly	-14564
produc	-14565
propyl	-14566
reside	-14567
rolled	-14568
rooted	-14569
rotary	-14570
sacred	-14571
solely	-14572
sorrow	-14573
speeds	-14574
spoken	-14575
stolen	-14576
teenth	-14577
triple	-14578
united	-14579
urious	-14580
▁_1110	-14581
▁_1210	-14582
▁_1400	-14583
▁_1920	-14584
▁_1978	-14585
▁_1988	-14586
▁_1989	-14587
Chronic	-14588
Customs	-14589
Goldman	-14590
Jecheon	-14591
Morning	-14592
Officer	-14593
Payment	-14594
Premier	-14595
Regular	-14596
Systems	-14597
abdomen	-14598
accusto	-14599
alities	-14600
apprent	-14601
assumes	-14602
asympto	-14603
aviolet	-14604
batting	-14605
cerebro	-14606
cheered	-14607
clearer	-14608
clusion	-14609
erupted	-14610
fielder	-14611
fistula	-14612
freight	-14613
hanging	-14614
incomes	-14615
involun	-14616
islands	-14617
issance	-14618
laundry	-14619
lecting	-14620
majored	-14621
milling	-14622
museums	-14623
phrases	-14624
plunged	-14625
portray	-14626
pottery	-14627
pricing	-14628
recipro	-14629
reminis	-14630
resumed	-14631
reunion	-14632
revisit	-14633
strokes	-14634
sulfide	-14635
surfact	-14636
surgeon	-14637
tightly	-14638
totally	-14639
tubular	-14640
usement	-14641
vicious	-14642
winding	-14643
wrapped	-14644
Academic	-14645
Campaign	-14646
Facility	-14647
Gapyeong	-14648
Haeundae	-14649
Jincheon	-14650
Measures	-14651
Problems	-14652
Tomorrow	-14653
Veterans	-14654
backdrop	-14655
boarding	-14656
breeding	-14657
catastro	-14658
cerebral	-14659
chapters	-14660
conveyed	-14661
costumes	-14662
delegate	-14663
deletion	-14664
depicted	-14665
diarrhea	-14666
doctoral	-14667
downturn	-14668
ensemble	-14669
formally	-14670
headache	-14671
implicit	-14672
jaundice	-14673
monument	-14674
occupies	-14675
paration	-14676
persuade	-14677
potatoes	-14678
presided	-14679
quintile	-14680
readjust	-14681
seasonal	-14682
shocking	-14683
siblings	-14684
spinning	-14685
stirring	-14686
swelling	-14687
template	-14688
traveled	-14689
twenties	-14690
umbrella	-14691
unfairly	-14692
variceal	-14693
versions	-14694
Apartment	-14695
Bloomberg	-14696
Extension	-14697
Nietzsche	-14698
Secondary	-14699
Selection	-14700
Starbucks	-14701
amplified	-14702
ancestors	-14703
asymmetry	-14704
benchmark	-14705
brilliant	-14706
composers	-14707
dashboard	-14708
discrepan	-14709
dismantle	-14710
editorial	-14711
entecavir	-14712
forefront	-14713
fragments	-14714
greetings	-14715
hazardous	-14716
illnesses	-14717
immigrant	-14718
impressed	-14719
inspector	-14720
intensify	-14721
intestine	-14722
inversion	-14723
localized	-14724
medicinal	-14725
memorable	-14726
multiplex	-14727
nonlinear	-14728
offensive	-14729
outermost	-14730
outputted	-14731
oxidative	-14732
porcelain	-14733
registers	-14734
reproduce	-14735
shrinking	-14736
signboard	-14737
sophistic	-14738
thermally	-14739
translate	-14740
wonderful	-14741
wondering	-14742
workshops	-14743
Artificial	-14744
Curriculum	-14745
Gyeonggido	-14746
accustomed	-14747
aesthetics	-14748
apparently	-14749
arithmetic	-14750
assistants	-14751
attempting	-14752
broadcasts	-14753
burdensome	-14754
calculates	-14755
conductors	-14756
housewives	-14757
ilaterally	-14758
inducement	-14759
internally	-14760
moderating	-14761
overweight	-14762
relativity	-14763
robustness	-14764
satisfying	-14765
stationary	-14766
subdivided	-14767
submitting	-14768
tendencies	-14769
thrombosis	-14770
transferee	-14771
triggering	-14772
underwater	-14773
Entrustment	-14774
Performance	-14775
comfortably	-14776
conferences	-14777
encompasses	-14778
handwritten	-14779
hypertrophy	-14780
intensified	-14781
luminescent	-14782
necessities	-14783
predecessor	-14784
protagonist	-14785
rationality	-14786
seriousness	-14787
stimulating	-14788
substantive	-14789
susceptible	-14790
terrestrial	-14791
Intellectual	-14792
deliberately	-14793
deregulation	-14794
intensifying	-14795
intermediary	-14796
localization	-14797
reproductive	-14798
transmissive	-14799
volunteering	-14800
withstanding	-14801
Understanding	-14802
commemorative	-14803
disadvantaged	-14804
disappearance	-14805
individuality	-14806
investigators	-14807
presentations	-14808
theoretically	-14809
capitalization	-14810
inconveniences	-14811
microstructure	-14812
overconfidence	-14813
preferentially	-14814
responsiveness	-14815
18	-14816
25	-14817
Ae	-14818
Ah	-14819
DD	-14820
Du	-14821
Hi	-14822
LI	-14823
LO	-14824
NI	-14825
NK	-14826
Op	-14827
WC	-14828
Wr	-14829
Wu	-14830
nS	-14831
ni	-14832
vy	-14833
200	-14834
Bie	-14835
CAS	-14836
DAA	-14837
Duk	-14838
GDM	-14839
Joh	-14840
Kon	-14841
LDL	-14842
Nep	-14843
OTT	-14844
PTC	-14845
Sak	-14846
Sas	-14847
Sul	-14848
azy	-14849
azz	-14850
ego	-14851
esh	-14852
gla	-14853
glu	-14854
guy	-14855
hoe	-14856
isa	-14857
odd	-14858
pap	-14859
pas	-14860
phi	-14861
rab	-14862
rer	-14863
rey	-14864
tan	-14865
uth	-14866
uts	-14867
xia	-14868
Benz	-14869
CEOs	-14870
Cafe	-14871
Cell	-14872
Coal	-14873
Cold	-14874
Cron	-14875
Endo	-14876
Hung	-14877
Inha	-14878
JTBC	-14879
Matt	-14880
Navy	-14881
Saem	-14882
Scot	-14883
Site	-14884
Spir	-14885
Stan	-14886
adds	-14887
ania	-14888
boot	-14889
bore	-14890
coma	-14891
eday	-14892
ests	-14893
esty	-14894
etch	-14895
feat	-14896
[...]
