<unk>	0
<s>	0
</s>	0
▁_	-0
▁_.	-1
▁에	-2
▁는	-3
▁다	-4
▁의	-5
▁이	-6
▁을	-7
▁하	-8
▁_,	-9
▁은	-10
▁를	-11
▁한	-12
▁가	-13
▁으	-14
▁고	-15
▁으로	-16
▁_(	-17
▁_)	-18
▁에서	-19
▁_1	-20
▁적	-21
▁과	-22
▁들	-23
▁로	-24
▁도	-25
▁_2	-26
▁할	-27
▁지	-28
▁되	-29
▁기	-30
▁된	-31
▁어	-32
▁인	-33
▁와	-34
▁여	-35
▁었	-36
▁했	-37
▁게	-38
니다	-39
▁해	-40
▁면	-41
▁한다	-42
▁_3	-43
▁성	-44
▁시	-45
▁라	-46
▁였	-47
대한	-48
▁일	-49
00	-50
▁될	-51
연구	-52
▁년	-53
한다	-54
▁_4	-55
▁부	-56
▁자	-57
상기	-58
경우	-59
▁습	-60
사용	-61
▁습니다	-62
▁1	-63
▁_5	-64
▁만	-65
▁된다	-66
따라	-67
▁아	-68
▁_‘	-69
▁보	-70
▁화	-71
▁_20	-72
교육	-73
▁2	-74
포함	-75
▁_·	-76
▁에게	-77
위해	-78
▁_’	-79
▁_%	-80
▁개	-81
▁_“	-82
▁았	-83
▁_6	-84
▁며	-85
▁주	-86
필요	-87
▁대	-88
▁다고	-89
결과	-90
▁다는	-91
▁_-	-92
정보	-93
우리	-94
▁_”	-95
▁조	-96
관련	-97
나타	-98
실시	-99
한국	-100
▁사	-101
▁명	-102
▁지만	-103
까지	-104
또는	-105
통해	-106
▁까지	-107
장치	-108
▁_"	-109
분석	-110
다른	-111
▁_10	-112
▁던	-113
위한	-114
▁나	-115
▁_7	-116
▁도록	-117
▁_?	-118
가능	-119
문제	-120
때문	-121
▁_8	-122
환자	-123
▁월	-124
관계	-125
이러	-126
▁_201	-127
대해	-128
위원	-129
프로	-130
아니	-131
이용	-132
경기	-133
▁면서	-134
발생	-135
▁예	-136
따른	-137
▁_12	-138
▁보다	-139
제공	-140
▁라고	-141
이상	-142
▁_9	-143
다양	-144
데이	-145
방법	-146
구성	-147
학생	-148
기업	-149
사람	-150
▁_11	-151
▁세	-152
▁상	-153
학교	-154
▁부터	-155
지난	-156
영향	-157
가지	-158
레이	-159
관리	-160
평가	-161
증가	-162
하나	-163
데이터	-164
▁_'	-165
▁회	-166
▁원	-167
확인	-168
전자	-169
지역	-170
가장	-171
결정	-172
▁공	-173
▁거	-174
▁서	-175
정부	-176
사회	-177
부분	-178
대상	-179
▁수	-180
▁겠	-181
영역	-182
지원	-183
▁라는	-184
시간	-185
형성	-186
경제	-187
▁권	-188
▁는데	-189
다음	-190
효과	-191
▁_100	-192
사이	-193
▁입	-194
▁차	-195
활동	-196
진행	-197
문화	-198
발명	-199
▁전	-200
사업	-201
▁이나	-202
중요	-203
된다	-204
▁어요	-205
▁_200	-206
부터	-207
치료	-208
설명	-209
수행	-210
▁_0	-211
내용	-212
▁형	-213
함께	-214
의미	-215
▁분	-216
서울	-217
▁계	-218
미국	-219
스트	-220
▁제	-221
생각	-222
▁됐	-223
▁_19	-224
▁3	-225
의해	-226
변화	-227
▁해야	-228
합니다	-229
과정	-230
비스	-231
▁층	-232
구조	-233
운영	-234
▁_/	-235
신호	-236
학습	-237
적용	-238
▁함	-239
참여	-240
▁_13	-241
당신	-242
동안	-243
정책	-244
이후	-245
위치	-246
현재	-247
▁처	-248
기술	-249
▁는다	-250
▁으며	-251
국가	-252
특히	-253
같이	-254
활용	-255
▁거나	-256
기준	-257
모두	-258
해당	-259
▁입니다	-260
스템	-261
영상	-262
자신	-263
환경	-264
단계	-265
규정	-266
산업	-267
▁_15	-268
선택	-269
이스	-270
이미	-271
모든	-272
▁장	-273
시작	-274
상태	-275
경기도	-276
일반	-277
▁는지	-278
대표	-279
이번	-280
▁위원	-281
조사	-282
상황	-283
투자	-284
중국	-285
일부	-286
지방	-287
방향	-288
연결	-289
따르	-290
▁별	-291
수준	-292
시장	-293
▁법	-294
측정	-295
관한	-296
기능	-297
▁소	-298
▁음	-299
이루	-300
▁어서	-301
방식	-302
서비스	-303
감소	-304
▁_30	-305
그룹	-306
정도	-307
최근	-308
차이	-309
특성	-310
국내	-311
나타났	-312
판단	-313
교사	-314
그램	-315
시스템	-316
제어	-317
표시	-318
밝혔	-319
개발	-320
각각	-321
도시	-322
▁교육	-323
또한	-324
전문	-325
그러	-326
▁여야	-327
이어	-328
개인	-329
사실	-330
▁려	-331
10	-332
금융	-333
새로	-334
▁마	-335
고려	-336
▁_14	-337
중심	-338
여기	-339
▁스	-340
통신	-341
▁률	-342
▁억	-343
세계	-344
플레이	-345
▁합니다	-346
전체	-347
직접	-348
▁간	-349
비교	-350
통령	-351
위험	-352
프로그램	-353
▁단	-354
보여	-355
▁어야	-356
처리	-357
경험	-358
▁시키	-359
▁비	-360
▁진	-361
아이	-362
대통령	-363
검사	-364
이해	-365
입력	-366
▁요	-367
제시	-368
만들	-369
▁재	-370
청장	-371
추가	-372
없이	-373
동작	-374
그리	-375
존재	-376
특별	-377
기간	-378
목적	-379
위하	-380
알려	-381
경찰	-382
이유	-383
평균	-384
이하	-385
여러	-386
개선	-387
규모	-388
실제	-389
여성	-390
자리	-391
▁항	-392
건강	-393
에서	-394
새로운	-395
행위	-396
▁용	-397
▁신	-398
▁위	-399
인식	-400
회사	-401
다시	-402
▁_18	-403
관심	-404
동일	-405
일본	-406
범위	-407
인다	-408
지속	-409
따라서	-410
반응	-411
매우	-412
어려	-413
20	-414
▁받	-415
설정	-416
생활	-417
▁기관	-418
요구	-419
▁로서	-420
발전	-421
▁로부터	-422
행사	-423
인터	-424
설치	-425
역할	-426
형태	-427
유지	-428
▁당	-429
▁체	-430
제품	-431
▁고자	-432
수신	-433
보이	-434
생성	-435
지금	-436
구청장	-437
▁_16	-438
생산	-439
기존	-440
▁시간	-441
▁안	-442
디스	-443
자료	-444
▁씨	-445
정상	-446
▁으면	-447
▁4	-448
기대	-449
위해서	-450
배치	-451
이루어	-452
가운	-453
많이	-454
그것	-455
▁야	-456
▁연	-457
활성	-458
▁실	-459
소비	-460
이동	-461
어떤	-462
공간	-463
추진	-464
확대	-465
▁처럼	-466
수업	-467
▁교	-468
출력	-469
이미지	-470
▁율	-471
성장	-472
복수	-473
시아	-474
시행	-475
라인	-476
센서	-477
가운데	-478
▁있	-479
서로	-480
보인다	-481
센터	-482
요인	-483
저장	-484
외부	-485
업무	-486
미치	-487
▁선	-488
노동	-489
▁중	-490
상대	-491
구체	-492
▁위원회	-493
대부분	-494
▁돼	-495
마련	-496
정의	-497
▁유	-498
디스플레이	-499
주요	-500
국민	-501
대해서	-502
계획	-503
대응	-504
측면	-505
▁점	-506
북한	-507
자기	-508
▁호	-509
보호	-510
피해	-511
진다	-512
▁사업	-513
조직	-514
물질	-515
▁해서	-516
▁째	-517
▁_25	-518
관광	-519
소득	-520
주장	-521
▁니	-522
세포	-523
기반	-524
▁_50	-525
능력	-526
논의	-527
인정	-528
전기	-529
노력	-530
변수	-531
이전	-532
그리고	-533
대하	-534
해결	-535
▁으로써	-536
공급	-537
메모	-538
사건	-539
효율	-540
제한	-541
책임	-542
프로세	-543
▁협	-544
작용	-545
역시	-546
모델	-547
사항	-548
보다	-549
분야	-550
패턴	-551
차량	-552
▁세요	-553
운동	-554
기초	-555
표현	-556
다만	-557
공정	-558
기본	-559
000	-560
살펴	-561
제도	-562
▁_17	-563
방문	-564
안전	-565
으며	-566
의원	-567
행정	-568
▁질	-569
▁_21	-570
여부	-571
올해	-572
전극	-573
기관	-574
특정	-575
개념	-576
목표	-577
이트	-578
▁구	-579
자체	-580
결합	-581
▁_120	-582
더욱	-583
자유	-584
비율	-585
기록	-586
의료	-587
▁m	-588
너지	-589
▁더	-590
발표	-591
▁학	-592
오늘	-593
사고	-594
이런	-595
▁건	-596
▁배	-597
들어	-598
비해	-599
도입	-600
대학	-601
영화	-602
예정	-603
주민	-604
메모리	-605
수학	-606
일정	-607
거리	-608
집단	-609
예상	-610
경쟁	-611
국제	-612
업체	-613
전송	-614
▁번	-615
의한	-616
행동	-617
내부	-618
현장	-619
▁시장	-620
가격	-621
장애	-622
케이	-623
▁_23	-624
크기	-625
가족	-626
므로	-627
수록	-628
모습	-629
요소	-630
특징	-631
지난해	-632
▁리	-633
한편	-634
▁관계	-635
주의	-636
가치	-637
▁과정	-638
그래	-639
의사	-640
▁관리	-641
▁_22	-642
강화	-643
선정	-644
진단	-645
▁다면	-646
먼저	-647
못하	-648
어느	-649
어떻	-650
▁나요	-651
나타내	-652
병원	-653
유의	-654
▁기업	-655
▁_24	-656
준비	-657
발견	-658
야기	-659
그렇	-660
모듈	-661
바람	-662
반도	-663
보험	-664
거래	-665
고객	-666
변경	-667
블록	-668
친구	-669
기판	-670
제조	-671
복지	-672
인해	-673
공동	-674
절차	-675
보였	-676
부담	-677
속도	-678
실험	-679
▁감	-680
사진	-681
▁_110	-682
추정	-683
조성	-684
온도	-685
지적	-686
▁_40	-687
당시	-688
작업	-689
처음	-690
회로	-691
전달	-692
▁a	-693
▁∼	-694
교수	-695
비용	-696
이날	-697
조건	-698
지사	-699
▁정보	-700
▁드	-701
규제	-702
사례	-703
▁정	-704
판매	-705
요청	-706
▁인지	-707
▁방	-708
단말	-709
▁_<	-710
▁연구	-711
▁관	-712
공개	-713
그림	-714
제외	-715
검토	-716
예측	-717
강조	-718
대로	-719
이것	-720
정확	-721
in	-722
어떻게	-723
▁으로서	-724
어나	-725
준다	-726
향상	-727
▁시설	-728
인간	-729
▁개월	-730
아닌	-731
▁센터	-732
계약	-733
▁문화	-734
도움	-735
▁데	-736
계속	-737
바로	-738
외국	-739
해석	-740
반영	-741
관계자	-742
그러나	-743
자동	-744
▁5	-745
▁국	-746
▁님	-747
관찰	-748
▁_>	-749
만큼	-750
입장	-751
공공	-752
수사	-753
전히	-754
예산	-755
제안	-756
프로세서	-757
수술	-758
개정	-759
전압	-760
이드	-761
▁임	-762
가진	-763
의견	-764
er	-765
경영	-766
만족	-767
AA	-768
적극	-769
▁어부	-770
▁활동	-771
적절	-772
▁내	-773
지급	-774
최대	-775
공연	-776
무원	-777
배우	-778
전력	-779
텐츠	-780
소리	-781
통계	-782
이야기	-783
너무	-784
아직	-785
안정	-786
우선	-787
부모	-788
원인	-789
작품	-790
정치	-791
유사	-792
▁에요	-793
민주	-794
스터	-795
어렵	-796
▁지역	-797
현실	-798
드러	-799
가정	-800
▁_~	-801
동시	-802
무엇	-803
법원	-804
담당	-805
확보	-806
구분	-807
접근	-808
해외	-809
으로	-810
▁증	-811
근로	-812
소년	-813
시민	-814
▁시킬	-815
어도	-816
▁등	-817
계산	-818
직원	-819
참석	-820
스마	-821
조례	-822
충분	-823
국회	-824
감사	-825
현상	-826
▁사회	-827
적어도	-828
30	-829
금속	-830
미래	-831
상당	-832
상승	-833
참가	-834
터치	-835
에너지	-836
페이	-837
신청	-838
스크	-839
표면	-840
▁장치	-841
모형	-842
나타나	-843
▁청	-844
음악	-845
집중	-846
제기	-847
▁치	-848
설계	-849
의하	-850
제작	-851
▁오	-852
레스	-853
방송	-854
긍정	-855
지정	-856
▁더라	-857
부족	-858
지지	-859
▁가능	-860
라이	-861
자연	-862
▁지원	-863
반도체	-864
▁동	-865
고용	-866
분류	-867
파악	-868
▁한다는	-869
개최	-870
공기	-871
성공	-872
주변	-873
촬영	-874
전문가	-875
유형	-876
시설	-877
법률	-878
그런	-879
시험	-880
아가	-881
검찰	-882
역량	-883
▁네	-884
노인	-885
▁_」	-886
달리	-887
▁_「	-888
랜드	-889
전망	-890
조정	-891
높이	-892
워크	-893
음식	-894
▁학교	-895
CC	-896
고정	-897
지식	-898
검출	-899
그녀	-900
초기	-901
최소	-902
보내	-903
상호	-904
조절	-905
범죄	-906
여행	-907
임상	-908
전환	-909
과거	-910
디어	-911
상품	-912
▁마다	-913
차지	-914
현지	-915
살펴보	-916
▁_000	-917
스타	-918
▁나라	-919
▁달	-920
아래	-921
종합	-922
중앙	-923
감독	-924
인구	-925
소비자	-926
▁으로부터	-927
획득	-928
▁조사	-929
물론	-930
핵심	-931
위원장	-932
응답	-933
AAA	-934
▁기술	-935
▁트	-936
부산	-937
선수	-938
후보	-939
마음	-940
사망	-941
위기	-942
혁신	-943
▁대상	-944
▁_60	-945
▁생	-946
프레	-947
▁단체	-948
▁_26	-949
전국	-950
▁_31	-951
▁란	-952
나라	-953
다수	-954
재정	-955
채널	-956
스마트	-957
독립	-958
▁팀	-959
조금	-960
최종	-961
바람직	-962
위원회	-963
한다는	-964
▁_130	-965
실행	-966
통합	-967
▁천	-968
반면	-969
인한	-970
참조	-971
한계	-972
기회	-973
모드	-974
다르	-975
주로	-976
지도	-977
나타낸	-978
▁계획	-979
▁값	-980
가스	-981
전통	-982
제출	-983
▁_300	-984
▁뿐	-985
메시	-986
신뢰	-987
예방	-988
표준	-989
▁군	-990
공유	-991
대비	-992
내지	-993
비롯	-994
제거	-995
트럼	-996
우수	-997
주제	-998
합의	-999
역사	-1000
on	-1001
단체	-1002
분리	-1003
사전	-1004
▁식	-1005
교과	-1006
앞서	-1007
조치	-1008
나오	-1009
방안	-1010
오후	-1011
수집	-1012
자원	-1013
법인	-1014
수출	-1015
컴퓨	-1016
▁금	-1017
▁산업	-1018
삼성	-1019
최고	-1020
경로	-1021
관점	-1022
등록	-1023
원칙	-1024
▁_27	-1025
통한	-1026
an	-1027
근거	-1028
조세	-1029
▁정책	-1030
▁더라도	-1031
▁6	-1032
지막	-1033
협력	-1034
▁므로	-1035
발광	-1036
어린	-1037
감지	-1038
공사	-1039
대체	-1040
의무	-1041
체계	-1042
마지막	-1043
떨어	-1044
은행	-1045
전략	-1046
통하	-1047
초등	-1048
현대	-1049
회전	-1050
▁한다고	-1051
▁심	-1052
성과	-1053
회장	-1054
메시지	-1055
▁b	-1056
개별	-1057
단순	-1058
영업	-1059
예술	-1060
▁산	-1061
검증	-1062
구축	-1063
남성	-1064
우려	-1065
질환	-1066
디바	-1067
수용	-1068
입자	-1069
버스	-1070
이론	-1071
열린	-1072
주주	-1073
▁미	-1074
부정	-1075
페이스	-1076
바이	-1077
사랑	-1078
움직	-1079
지만	-1080
채권	-1081
패널	-1082
▁으나	-1083
디바이스	-1084
주목	-1085
주택	-1086
흐름	-1087
▁해요	-1088
바탕	-1089
반대	-1090
소개	-1091
시도	-1092
장기	-1093
▁밖	-1094
구매	-1095
상관	-1096
이익	-1097
종류	-1098
트럼프	-1099
▁_2018	-1100
구현	-1101
신고	-1102
▁제도	-1103
사용자	-1104
보고	-1105
이뤄	-1106
중소	-1107
화면	-1108
al	-1109
네트	-1110
작성	-1111
회의	-1112
동산	-1113
사자	-1114
▁막	-1115
거의	-1116
얼마	-1117
연령	-1118
이렇	-1119
점수	-1120
메라	-1121
증상	-1122
▁러	-1123
질문	-1124
취업	-1125
가요	-1126
감염	-1127
글로	-1128
리아	-1129
소속	-1130
인천	-1131
권리	-1132
독일	-1133
민간	-1134
해야	-1135
▁_28	-1136
농도	-1137
언급	-1138
비중	-1139
인증	-1140
정리	-1141
▁경제	-1142
콘텐츠	-1143
en	-1144
시기	-1145
양성	-1146
카메라	-1147
▁_2016	-1148
디지	-1149
▁다가	-1150
됩니다	-1151
청소년	-1152
수요	-1153
인공	-1154
장관	-1155
전반	-1156
판결	-1157
직업	-1158
프레임	-1159
▁무	-1160
구동	-1161
▁아요	-1162
디지털	-1163
니까	-1164
오전	-1165
조합	-1166
교통	-1167
영어	-1168
테이	-1169
게임	-1170
노출	-1171
무선	-1172
소송	-1173
▁려는	-1174
컴퓨터	-1175
▁포	-1176
가질	-1177
50	-1178
정신	-1179
도면	-1180
유기	-1181
네트워크	-1182
▁_2015	-1183
만나	-1184
명확	-1185
임금	-1186
▁졌	-1187
혐의	-1188
재판	-1189
적합	-1190
추출	-1191
인터넷	-1192
연관	-1193
젝트	-1194
▁려고	-1195
케이션	-1196
각종	-1197
과학	-1198
규칙	-1199
당뇨	-1200
디자	-1201
본다	-1202
사무	-1203
서버	-1204
▁길	-1205
상부	-1206
이름	-1207
주식	-1208
▁정부	-1209
▁7	-1210
감정	-1211
시대	-1212
저항	-1213
헌법	-1214
남북	-1215
인사	-1216
확장	-1217
▁_199	-1218
과세	-1219
나온	-1220
보도	-1221
아동	-1222
태도	-1223
통제	-1224
화학	-1225
의도	-1226
향후	-1227
훈련	-1228
글로벌	-1229
여전히	-1230
도전	-1231
변환	-1232
수정	-1233
유도	-1234
▁구조	-1235
별도	-1236
청구	-1237
▁규모	-1238
▁_150	-1239
▁_2017	-1240
▁업	-1241
디오	-1242
이제	-1243
▁결과	-1244
논문	-1245
불구	-1246
수익	-1247
웨어	-1248
▁보험	-1249
이렇게	-1250
▁파	-1251
가구	-1252
부재	-1253
소재	-1254
카드	-1255
확산	-1256
▁시켜	-1257
이루어지	-1258
TV	-1259
보유	-1260
비판	-1261
정말	-1262
플리	-1263
아들	-1264
연장	-1265
체험	-1266
프리	-1267
어려움	-1268
▁_500	-1269
at	-1270
▁기간	-1271
부동산	-1272
le	-1273
▁종	-1274
▁타	-1275
이내	-1276
해서	-1277
▁개발	-1278
▁는가	-1279
▁아야	-1280
결국	-1281
단위	-1282
▁시킨	-1283
▁업체	-1284
▁회사	-1285
아시아	-1286
▁엔	-1287
자본	-1288
직무	-1289
▁회담	-1290
자동차	-1291
▁강	-1292
▁경	-1293
▁급	-1294
▁든	-1295
미세	-1296
장소	-1297
외국인	-1298
CT	-1299
건설	-1300
보장	-1301
게이트	-1302
▁축	-1303
소통	-1304
▁단계	-1305
마이	-1306
선행	-1307
섬유	-1308
소유	-1309
이때	-1310
인상	-1311
전류	-1312
▁자치	-1313
공무원	-1314
하지만	-1315
방지	-1316
소자	-1317
피부	-1318
▁밖에	-1319
실제로	-1320
일자리	-1321
구비	-1322
복합	-1323
▁분석	-1324
한다고	-1325
까요	-1326
못했	-1327
실질	-1328
연속	-1329
충전	-1330
▁물	-1331
내년	-1332
반복	-1333
산화	-1334
▁_:	-1335
▁_70	-1336
결제	-1337
다는	-1338
시점	-1339
신체	-1340
인지	-1341
최초	-1342
어려운	-1343
▁코	-1344
손해	-1345
증거	-1346
광주	-1347
논란	-1348
re	-1349
승인	-1350
주문	-1351
하루	-1352
▁_29	-1353
미리	-1354
수치	-1355
특수	-1356
▁기준	-1357
플리케이션	-1358
기여	-1359
언어	-1360
인기	-1361
중간	-1362
▁_80	-1363
▁_140	-1364
▁문	-1365
대화	-1366
질병	-1367
프트	-1368
자녀	-1369
형상	-1370
40	-1371
건물	-1372
고등	-1373
시각	-1374
재산	-1375
확정	-1376
▁복지	-1377
경향	-1378
과제	-1379
무역	-1380
유럽	-1381
인도	-1382
전화	-1383
정하	-1384
행복	-1385
▁투자	-1386
어린이	-1387
특별시	-1388
ig	-1389
▁8	-1390
▁편	-1391
거쳐	-1392
부과	-1393
심리	-1394
당뇨병	-1395
▁방법	-1396
디자인	-1397
무리	-1398
NA	-1399
전시	-1400
차원	-1401
파트	-1402
확실	-1403
▁행위	-1404
▁_32	-1405
스로	-1406
도지사	-1407
DM	-1408
언제	-1409
영국	-1410
터리	-1411
온라인	-1412
가상	-1413
라마	-1414
▁서비스	-1415
▁본	-1416
라고	-1417
평화	-1418
하부	-1419
합병	-1420
공식	-1421
생존	-1422
심사	-1423
전원	-1424
혹은	-1425
달라	-1426
방사	-1427
지나	-1428
▁소득	-1429
나타난	-1430
▁_210	-1431
변동	-1432
추천	-1433
▁가지	-1434
▁인데	-1435
▁평가	-1436
등장	-1437
시사	-1438
호사	-1439
▁씩	-1440
돌아	-1441
억제	-1442
중소기업	-1443
▁듯	-1444
재료	-1445
폐기	-1446
▁도시	-1447
▁효과	-1448
품질	-1449
근무	-1450
접촉	-1451
종양	-1452
st	-1453
매출	-1454
지능	-1455
브랜드	-1456
보건	-1457
의회	-1458
집행	-1459
스스로	-1460
대신	-1461
어난	-1462
▁아서	-1463
가까	-1464
으나	-1465
허용	-1466
혼합	-1467
도로	-1468
피해자	-1469
▁광	-1470
고리	-1471
다리	-1472
물리	-1473
분명	-1474
완화	-1475
위반	-1476
수입	-1477
연계	-1478
완료	-1479
▁투	-1480
가져	-1481
자세	-1482
▁조제	-1483
or	-1484
단지	-1485
대중	-1486
ar	-1487
▁모	-1488
달성	-1489
프로젝트	-1490
▁출	-1491
노드	-1492
동기	-1493
사장	-1494
샘플	-1495
여자	-1496
전해	-1497
조선	-1498
총리	-1499
건축	-1500
나왔	-1501
신경	-1502
유리	-1503
주파	-1504
청년	-1505
통과	-1506
필터	-1507
검색	-1508
무대	-1509
저희	-1510
해요	-1511
▁위원장	-1512
기계	-1513
나누	-1514
도출	-1515
머니	-1516
올라	-1517
▁_400	-1518
▁°	-1519
기억	-1520
매체	-1521
보조	-1522
더불	-1523
부여	-1524
절연	-1525
촉진	-1526
▁통신	-1527
대출	-1528
라는	-1529
분포	-1530
취소	-1531
타당	-1532
▁거래	-1533
러시아	-1534
민주당	-1535
못한	-1536
미만	-1537
작동	-1538
창업	-1539
대상자	-1540
▁c	-1541
▁테	-1542
남자	-1543
보안	-1544
음성	-1545
▁네요	-1546
근로자	-1547
두께	-1548
스토	-1549
어떠	-1550
자산	-1551
찾아	-1552
체결	-1553
항상	-1554
▁생활	-1555
서울특별시	-1556
▁박	-1557
갈등	-1558
비슷	-1559
의혹	-1560
플랫	-1561
단말기	-1562
지스터	-1563
▁했으며	-1564
CD	-1565
결론	-1566
나이	-1567
대사	-1568
선거	-1569
식별	-1570
심각	-1571
압력	-1572
와대	-1573
인하	-1574
입법	-1575
청와대	-1576
인터페이스	-1577
바라	-1578
주도	-1579
호텔	-1580
발달	-1581
벤트	-1582
이르	-1583
진로	-1584
▁시켰	-1585
배터리	-1586
▁액	-1587
그럼	-1588
약물	-1589
자율	-1590
최저	-1591
토지	-1592
트랜	-1593
히려	-1594
그동안	-1595
페이지	-1596
나타낸다	-1597
▁노	-1598
기획	-1599
마을	-1600
수립	-1601
심의	-1602
초점	-1603
형식	-1604
드라마	-1605
오히려	-1606
▁_41	-1607
보여준다	-1608
▁_2014	-1609
설립	-1610
회복	-1611
▁교사	-1612
찬가지	-1613
▁_33	-1614
▁께	-1615
▁터	-1616
배경	-1617
불법	-1618
소스	-1619
토론	-1620
하위	-1621
합리	-1622
회계	-1623
▁__	-1624
▁그룹	-1625
▁라면	-1626
▁환경	-1627
마찬가지	-1628
CO	-1629
▁링	-1630
거주	-1631
연락	-1632
운전	-1633
차별	-1634
폴리	-1635
홍보	-1636
관절	-1637
누구	-1638
수단	-1639
일상	-1640
정당	-1641
주관	-1642
지수	-1643
항목	-1644
▁대로	-1645
▁사항	-1646
▁농	-1647
공통	-1648
성격	-1649
양자	-1650
자금	-1651
충분히	-1652
▁_35	-1653
▁량	-1654
▁통	-1655
린다	-1656
운용	-1657
채무	-1658
함수	-1659
▁처리	-1660
▁총	-1661
둘러	-1662
빠르	-1663
사유	-1664
수지	-1665
▁결정	-1666
▁영역	-1667
단일	-1668
문재	-1669
배출	-1670
수도	-1671
신규	-1672
어디	-1673
연기	-1674
장점	-1675
모니	-1676
미술	-1677
순위	-1678
요일	-1679
코드	-1680
허가	-1681
미디어	-1682
AI	-1683
PC	-1684
객체	-1685
공부	-1686
금지	-1687
시청	-1688
언론	-1689
축제	-1690
편의	-1691
플라	-1692
확률	-1693
머리	-1694
먼지	-1695
불편	-1696
일치	-1697
잠재	-1698
줄이	-1699
초과	-1700
협상	-1701
▁학년	-1702
▁학습	-1703
▁시스템	-1704
▁론	-1705
도구	-1706
비트	-1707
성능	-1708
커버	-1709
▁주택	-1710
이벤트	-1711
만약	-1712
세대	-1713
에는	-1714
이외	-1715
종료	-1716
바이오	-1717
▁됨	-1718
관객	-1719
광고	-1720
기타	-1721
명령	-1722
순서	-1723
이행	-1724
통일	-1725
얼마나	-1726
▁_42	-1727
▁측	-1728
균형	-1729
본격	-1730
송신	-1731
연극	-1732
오른	-1733
점검	-1734
최적	-1735
추구	-1736
폭력	-1737
교과서	-1738
문제점	-1739
NS	-1740
유명	-1741
지시	-1742
▁_+	-1743
알려져	-1744
연구자	-1745
▁혈	-1746
개시	-1747
공격	-1748
노래	-1749
논리	-1750
동의	-1751
레벨	-1752
산출	-1753
▁라도	-1754
▁_101	-1755
▁셔	-1756
다가	-1757
만든	-1758
하락	-1759
▁10	-1760
위탁	-1761
유닛	-1762
임의	-1763
중단	-1764
▁줄	-1765
기기	-1766
길이	-1767
면역	-1768
수소	-1769
아주	-1770
취득	-1771
분위기	-1772
구간	-1773
바일	-1774
유발	-1775
자치	-1776
지배	-1777
가이드	-1778
▁9	-1779
금액	-1780
드시	-1781
아무	-1782
필수	-1783
협의	-1784
▁_36	-1785
▁바	-1786
달러	-1787
상이	-1788
설문	-1789
마이크	-1790
제대로	-1791
주파수	-1792
테스트	-1793
it	-1794
▁폼	-1795
내려	-1796
보상	-1797
중재	-1798
체인	-1799
파일	-1800
형사	-1801
▁인가	-1802
모바일	-1803
▁_90	-1804
ic	-1805
▁왔	-1806
기지	-1807
느끼	-1808
단백	-1809
불안	-1810
예비	-1811
일으	-1812
지하	-1813
▁계약	-1814
반드시	-1815
보고서	-1816
나가	-1817
다루	-1818
동반	-1819
보수	-1820
성인	-1821
신장	-1822
유동	-1823
채용	-1824
이어지	-1825
분자	-1826
정기	-1827
증명	-1828
▁차원	-1829
나아가	-1830
베트	-1831
서브	-1832
인력	-1833
지연	-1834
추적	-1835
▁려면	-1836
▁회의	-1837
▁_180	-1838
▁_220	-1839
BM	-1840
강원	-1841
기재	-1842
동물	-1843
변인	-1844
불과	-1845
세부	-1846
식품	-1847
안내	-1848
예시	-1849
휴대	-1850
▁능력	-1851
스마트폰	-1852
PA	-1853
PS	-1854
et	-1855
▁영	-1856
▁현	-1857
권한	-1858
대구	-1859
상담	-1860
워드	-1861
차례	-1862
창출	-1863
희망	-1864
▁은데	-1865
베이스	-1866
움직임	-1867
폐기물	-1868
ST	-1869
▁k	-1870
▁롭	-1871
도착	-1872
잘못	-1873
절제	-1874
처분	-1875
표본	-1876
Fig	-1877
▁검사	-1878
▁요소	-1879
참가자	-1880
LD	-1881
PD	-1882
▁평	-1883
대기	-1884
대형	-1885
자격	-1886
지표	-1887
추세	-1888
▁병원	-1889
▁스러	-1890
▁반	-1891
▁셨	-1892
고민	-1893
국무	-1894
면적	-1895
변형	-1896
악화	-1897
운드	-1898
의심	-1899
인트	-1900
탄소	-1901
당사자	-1902
▁발	-1903
결혼	-1904
조기	-1905
중구	-1906
▁대표	-1907
목소리	-1908
통해서	-1909
▁양	-1910
김정	-1911
프랑	-1912
회원	-1913
▁_=	-1914
▁수준	-1915
▁장애	-1916
베트남	-1917
이러스	-1918
복잡	-1919
전면	-1920
지출	-1921
들어가	-1922
기금	-1923
넘어	-1924
사법	-1925
징수	-1926
튜브	-1927
패드	-1928
항공	-1929
대법원	-1930
텍스트	-1931
▁_2013	-1932
▁판	-1933
기념	-1934
다고	-1935
다운	-1936
담보	-1937
보완	-1938
삽입	-1939
성별	-1940
요건	-1941
유치	-1942
지점	-1943
알려졌	-1944
지난달	-1945
트랜지스터	-1946
내일	-1947
놀이	-1948
대회	-1949
미터	-1950
본인	-1951
암호	-1952
완전	-1953
웨이	-1954
의지	-1955
인근	-1956
작가	-1957
정규	-1958
체중	-1959
통화	-1960
트리	-1961
하우	-1962
▁가격	-1963
▁보호	-1964
도내	-1965
도덕	-1966
매개	-1967
반기	-1968
서관	-1969
선호	-1970
성적	-1971
실천	-1972
운송	-1973
음파	-1974
재무	-1975
컨대	-1976
힘들	-1977
스트레스	-1978
IT	-1979
고령	-1980
기자	-1981
유입	-1982
유효	-1983
전지	-1984
▁비용	-1985
관광객	-1986
소프트	-1987
스크린	-1988
CA	-1989
강남	-1990
오래	-1991
전혀	-1992
필름	-1993
▁_2019	-1994
강한	-1995
나노	-1996
성분	-1997
소방	-1998
신용	-1999
이른	-2000
주기	-2001
호흡	-2002
그대로	-2003
▁됩니다	-2004
▁온	-2005
강제	-2006
경계	-2007
당연	-2008
손실	-2009
순환	-2010
예약	-2011
접수	-2012
▁달러	-2013
▁방향	-2014
▁자료	-2015
▁_2000	-2016
▁냐	-2017
▁피	-2018
가수	-2019
대책	-2020
매년	-2021
문항	-2022
유통	-2023
직장	-2024
타이	-2025
투입	-2026
▁방식	-2027
아파트	-2028
▁_160	-2029
▁느	-2030
간주	-2031
개입	-2032
냉각	-2033
메일	-2034
생명	-2035
실현	-2036
의존	-2037
진출	-2038
학자	-2039
한류	-2040
합성	-2041
HCC	-2042
▁질환	-2043
▁체계	-2044
단백질	-2045
프랑스	-2046
▁곳	-2047
동맥	-2048
장면	-2049
해도	-2050
▁물질	-2051
▁발전	-2052
나온다	-2053
모니터	-2054
70	-2055
HB	-2056
▁D	-2057
납부	-2058
다소	-2059
만드	-2060
보통	-2061
부위	-2062
분산	-2063
수수	-2064
인권	-2065
취약	-2066
로부터	-2067
유전자	-2068
▁_198	-2069
LE	-2070
ab	-2071
게요	-2072
버지	-2073
비핵	-2074
접속	-2075
▁가치	-2076
비핵화	-2077
▁한다면	-2078
▁말	-2079
계층	-2080
만성	-2081
모르	-2082
부문	-2083
세상	-2084
소수	-2085
쇼핑	-2086
열리	-2087
이사	-2088
이식	-2089
줄어	-2090
진동	-2091
침해	-2092
택시	-2093
학업	-2094
혈청	-2095
혜택	-2096
▁대회	-2097
▁상태	-2098
문재인	-2099
▁_45	-2100
CS	-2101
▁봉	-2102
▁티	-2103
강력	-2104
개방	-2105
기부	-2106
대안	-2107
유용	-2108
의식	-2109
이끌	-2110
자주	-2111
장비	-2112
적응	-2113
▁변수	-2114
방사선	-2115
서울시	-2116
OS	-2117
로봇	-2118
민국	-2119
실리	-2120
우울	-2121
이곳	-2122
전공	-2123
출산	-2124
후속	-2125
흥미	-2126
노동자	-2127
완전히	-2128
갖추	-2129
구속	-2130
나무	-2131
모양	-2132
스피	-2133
예컨대	-2134
초음파	-2135
▁_52	-2136
▁였으며	-2137
납세	-2138
롤러	-2139
메인	-2140
수직	-2141
영양	-2142
재생	-2143
전도	-2144
▁_&	-2145
▁예요	-2146
▁자원	-2147
기지국	-2148
일어나	-2149
▁_170	-2150
TA	-2151
머지	-2152
처벌	-2153
태양	-2154
▁에선	-2155
▁의회	-2156
▁_51	-2157
▁_2012	-2158
기법	-2159
로그	-2160
스테	-2161
알아	-2162
압축	-2163
저하	-2164
받아들	-2165
고등학교	-2166
ac	-2167
▁력	-2168
▁져	-2169
기울	-2170
명시	-2171
반사	-2172
밝혀	-2173
불가	-2174
상세	-2175
실무	-2176
연료	-2177
인물	-2178
정체	-2179
제주	-2180
화재	-2181
흡수	-2182
아버지	-2183
이용자	-2184
블록체인	-2185
▁쯤	-2186
▁플	-2187
▁홀	-2188
브라	-2189
임시	-2190
저녁	-2191
정서	-2192
훨씬	-2193
랍니다	-2194
사업자	-2195
▁을수록	-2196
BS	-2197
ro	-2198
▁루	-2199
▁설	-2200
계열	-2201
기사	-2202
미칠	-2203
비행	-2204
소식	-2205
아마	-2206
염증	-2207
정해	-2208
주체	-2209
충족	-2210
탐색	-2211
혈관	-2212
늘어나	-2213
간단	-2214
계기	-2215
금리	-2216
리드	-2217
절대	-2218
제재	-2219
충격	-2220
▁다며	-2221
▁우	-2222
▁직	-2223
관측	-2224
맥락	-2225
별지	-2226
부탁	-2227
속성	-2228
완성	-2229
입원	-2230
조작	-2231
축구	-2232
컨트	-2233
현행	-2234
활발	-2235
▁은행	-2236
구성원	-2237
나머지	-2238
합병증	-2239
▁_34	-2240
강도	-2241
관하	-2242
무기	-2243
발현	-2244
베이	-2245
아름	-2246
양상	-2247
첫째	-2248
출신	-2249
취지	-2250
화합	-2251
▁_43	-2252
바랍니다	-2253
고유	-2254
공감	-2255
바른	-2256
얼굴	-2257
오프	-2258
용량	-2259
접착	-2260
주행	-2261
차단	-2262
통증	-2263
투명	-2264
립니다	-2265
CE	-2266
▁약	-2267
걸쳐	-2268
교체	-2269
메이	-2270
문서	-2271
선발	-2272
실증	-2273
증권	-2274
▁운동	-2275
▁시킨다	-2276
바이러스	-2277
▁집	-2278
교환	-2279
국방	-2280
올리	-2281
임신	-2282
자극	-2283
주차	-2284
채택	-2285
▁본부	-2286
▁예술	-2287
대한민국	-2288
60	-2289
BC	-2290
▁매	-2291
▁버	-2292
가입	-2293
꾸준	-2294
맞추	-2295
미친	-2296
부품	-2297
스티	-2298
스포	-2299
얘기	-2300
원리	-2301
융합	-2302
이온	-2303
이탈	-2304
임대	-2305
창의	-2306
파라	-2307
▁공간	-2308
투자자	-2309
DA	-2310
골절	-2311
배제	-2312
보관	-2313
육성	-2314
입증	-2315
토대	-2316
투여	-2317
▁스럽	-2318
한국어	-2319
소프트웨어	-2320
어플리케이션	-2321
RA	-2322
▁민	-2323
▁병	-2324
▁절	-2325
거부	-2326
빈도	-2327
숫자	-2328
원자	-2329
주어	-2330
한정	-2331
▁금융	-2332
▁내용	-2333
▁지방	-2334
조성물	-2335
지방세	-2336
한국인	-2337
걱정	-2338
극장	-2339
농업	-2340
배선	-2341
윤리	-2342
출연	-2343
포르	-2344
프라	-2345
화소	-2346
▁이익	-2347
▁치료	-2348
경쟁력	-2349
변호사	-2350
케이스	-2351
격차	-2352
견해	-2353
경남	-2354
공장	-2355
국립	-2356
극복	-2357
근육	-2358
물건	-2359
발행	-2360
성취	-2361
여야	-2362
전했	-2363
정식	-2364
충돌	-2365
혁명	-2366
▁어도	-2367
▁책임	-2368
▁볼	-2369
손상	-2370
업계	-2371
점차	-2372
조명	-2373
▁신청	-2374
컨텐츠	-2375
▁된다는	-2376
▁레	-2377
▁크	-2378
간호	-2379
리어	-2380
부착	-2381
분할	-2382
서류	-2383
약속	-2384
인수	-2385
재발	-2386
취하	-2387
평면	-2388
피고	-2389
▁으므로	-2390
미세먼지	-2391
▁_1000	-2392
말씀	-2393
보존	-2394
빨리	-2395
생물	-2396
수상	-2397
파이	-2398
판례	-2399
▁분기	-2400
▁토	-2401
교류	-2402
섭취	-2403
세금	-2404
슐린	-2405
용어	-2406
일단	-2407
특허	-2408
흡연	-2409
▁문제	-2410
▁부재	-2411
▁조정	-2412
▁집단	-2413
인터뷰	-2414
▁죠	-2415
긴급	-2416
밀도	-2417
새롭	-2418
실적	-2419
출발	-2420
티브	-2421
ion	-2422
▁국당	-2423
▁재산	-2424
▁해도	-2425
▁_65	-2426
▁된다고	-2427
el	-2428
가르	-2429
나와	-2430
방침	-2431
사라	-2432
선박	-2433
소요	-2434
스틱	-2435
연산	-2436
첨가	-2437
초래	-2438
타인	-2439
픽셀	-2440
화장	-2441
▁공원	-2442
그래프	-2443
인슐린	-2444
▁_310	-2445
II	-2446
각도	-2447
간접	-2448
다이	-2449
단면	-2450
맞춰	-2451
부인	-2452
실패	-2453
의장	-2454
전부	-2455
참고	-2456
췌장	-2457
해소	-2458
혹시	-2459
▁라인	-2460
▁만큼	-2461
▁법인	-2462
▁절차	-2463
▁협회	-2464
고리즘	-2465
그래서	-2466
동영상	-2467
알고리즘	-2468
CR	-2469
op	-2470
마치	-2471
민감	-2472
불리	-2473
생체	-2474
오르	-2475
위촉	-2476
주거	-2477
주소	-2478
진정	-2479
▁조직	-2480
▁진다	-2481
만족도	-2482
모니터링	-2483
DP	-2484
ol	-2485
국토	-2486
독자	-2487
동료	-2488
발언	-2489
벌어	-2490
센싱	-2491
전술	-2492
촉매	-2493
최선	-2494
혈액	-2495
▁_[	-2496
▁라며	-2497
▁로운	-2498
▁법원	-2499
▁으면서	-2500
IS	-2501
가락	-2502
검정	-2503
깊이	-2504
둘째	-2505
빠른	-2506
선물	-2507
어제	-2508
우스	-2509
혼자	-2510
▁_]	-2511
▁듯이	-2512
▁부서	-2513
▁전문	-2514
알려진	-2515
유의미	-2516
학부모	-2517
as	-2518
is	-2519
객관	-2520
곡선	-2521
괜찮	-2522
도달	-2523
부상	-2524
생태	-2525
외교	-2526
의결	-2527
자아	-2528
장착	-2529
전제	-2530
진술	-2531
폐쇄	-2532
하이	-2533
화물	-2534
후군	-2535
▁과장	-2536
▁안정	-2537
그렇게	-2538
대학생	-2539
IC	-2540
▁십	-2541
내리	-2542
널리	-2543
렌즈	-2544
버퍼	-2545
비례	-2546
순간	-2547
실내	-2548
연주	-2549
조항	-2550
페인	-2551
▁mm	-2552
▁경찰	-2553
▁_230	-2554
▁_2010	-2555
도와	-2556
드백	-2557
모터	-2558
북미	-2559
산물	-2560
시즌	-2561
신속	-2562
엄마	-2563
원내	-2564
지침	-2565
지켜	-2566
축소	-2567
▁연금	-2568
▁요인	-2569
▁정상	-2570
▁_55	-2571
ES	-2572
관람	-2573
모집	-2574
상술	-2575
전이	-2576
제약	-2577
체육	-2578
▁규정	-2579
▁대학	-2580
▁한테	-2581
상당히	-2582
▁_39	-2583
▁_48	-2584
▁데이터	-2585
▁스러운	-2586
▁습니까	-2587
가중	-2588
분해	-2589
시절	-2590
알리	-2591
여름	-2592
요법	-2593
자문	-2594
지위	-2595
현금	-2596
효능	-2597
SNS	-2598
▁20	-2599
▁처분	-2600
▁협력	-2601
화합물	-2602
▁_38	-2603
▁_61	-2604
MS	-2605
▁류	-2606
버튼	-2607
사상	-2608
앞두	-2609
운행	-2610
원고	-2611
주입	-2612
커피	-2613
해제	-2614
▁느냐	-2615
▁드리	-2616
▁로써	-2617
▁이사	-2618
▁자산	-2619
실시간	-2620
지자체	-2621
이루어져	-2622
이루어질	-2623
강하	-2624
관세	-2625
구역	-2626
궁금	-2627
나섰	-2628
단기	-2629
방출	-2630
심장	-2631
철도	-2632
어머니	-2633
채권자	-2634
▁공무원	-2635
프로세스	-2636
CV	-2637
간격	-2638
계수	-2639
매력	-2640
문헌	-2641
바꾸	-2642
산정	-2643
상법	-2644
소정	-2645
어날	-2646
이중	-2647
인접	-2648
작위	-2649
전개	-2650
파장	-2651
폭행	-2652
ing	-2653
▁신호	-2654
실리콘	-2655
▁대학교	-2656
파라미터	-2657
▁_112	-2658
▁_2011	-2659
AP	-2660
EU	-2661
▁변	-2662
가로	-2663
과목	-2664
메뉴	-2665
부당	-2666
상속	-2667
시경	-2668
커지	-2669
통상	-2670
피드백	-2671
▁_44	-2672
▁을까요	-2673
아이디어	-2674
▁표	-2675
▁합	-2676
교회	-2677
산소	-2678
성립	-2679
우승	-2680
재미	-2681
전년	-2682
질량	-2683
할인	-2684
▁_・	-2685
의해서	-2686
AR	-2687
가설	-2688
경력	-2689
로드	-2690
롯데	-2691
맞춤	-2692
멤버	-2693
바닥	-2694
상위	-2695
식사	-2696
싱가	-2697
연간	-2698
재난	-2699
정지	-2700
폐지	-2701
흡착	-2702
스토리	-2703
able	-2704
▁는다는	-2705
싱가포르	-2706
IP	-2707
▁두	-2708
▁암	-2709
▁역	-2710
근본	-2711
나선	-2712
본질	-2713
선생	-2714
원래	-2715
적정	-2716
창조	-2717
출석	-2718
▁안전	-2719
영향력	-2720
오디오	-2721
▁백	-2722
개수	-2723
개혁	-2724
뉴스	-2725
니스	-2726
문학	-2727
바뀌	-2728
사안	-2729
성향	-2730
요즘	-2731
컬러	-2732
투과	-2733
펼쳐	-2734
평생	-2735
포트	-2736
▁건강	-2737
▁비율	-2738
▁_37	-2739
삼성전자	-2740
▁_410	-2741
다중	-2742
발병	-2743
오랜	-2744
유일	-2745
진료	-2746
케팅	-2747
평양	-2748
포괄	-2749
회귀	-2750
▁공사	-2751
▁노동	-2752
▁업무	-2753
한반도	-2754
애플리케이션	-2755
ET	-2756
▁브	-2757
▁저	-2758
범주	-2759
보정	-2760
인자	-2761
출시	-2762
코팅	-2763
타입	-2764
현저	-2765
현황	-2766
▁행정	-2767
가진다	-2768
MP	-2769
▁A	-2770
▁특	-2771
감안	-2772
경화	-2773
광역	-2774
무게	-2775
세무	-2776
수탁	-2777
스코	-2778
아리	-2779
요약	-2780
인가	-2781
자살	-2782
졸업	-2783
집합	-2784
함유	-2785
▁상품	-2786
▁성장	-2787
▁C	-2788
▁클	-2789
▁흥	-2790
고기	-2791
고통	-2792
공항	-2793
구별	-2794
급격	-2795
드리	-2796
문장	-2797
수원	-2798
오염	-2799
용이	-2800
유병	-2801
정비	-2802
종교	-2803
지구	-2804
▁을지	-2805
▁의료	-2806
▁임금	-2807
광역시	-2808
하우징	-2809
플레이트	-2810
▁키	-2811
감시	-2812
공모	-2813
다니	-2814
사정	-2815
시선	-2816
아침	-2817
음향	-2818
응급	-2819
점점	-2820
죄송	-2821
지향	-2822
탐구	-2823
홍콩	-2824
회담	-2825
▁교통	-2826
▁분야	-2827
▁였을	-2828
▁제품	-2829
▁확실	-2830
꾸준히	-2831
스포츠	-2832
나타난다	-2833
Table	-2834
▁_102	-2835
▁_2009	-2836
▁그	-2837
▁열	-2838
▁행	-2839
공시	-2840
모여	-2841
밝히	-2842
번호	-2843
부르	-2844
부채	-2845
의자	-2846
챔버	-2847
▁공동	-2848
▁체육	-2849
교육부	-2850
그런데	-2851
▁_62	-2852
▁_111	-2853
▁_600	-2854
FA	-2855
MA	-2856
▁G	-2857
▁복	-2858
겨울	-2859
군사	-2860
른다	-2861
배송	-2862
보일	-2863
부서	-2864
상상	-2865
세트	-2866
심히	-2867
혈당	-2868
▁mg	-2869
▁니까	-2870
▁서식	-2871
▁으니	-2872
▁청구	-2873
떨어지	-2874
레이저	-2875
스위치	-2876
포인트	-2877
▁_53	-2878
인공지능	-2879
VR	-2880
건조	-2881
고양	-2882
광학	-2883
대북	-2884
매장	-2885
모색	-2886
상장	-2887
상징	-2888
서구	-2889
세요	-2890
엔진	-2891
일시	-2892
주가	-2893
즐거	-2894
지문	-2895
창작	-2896
호주	-2897
회피	-2898
▁세기	-2899
가까운	-2900
부작용	-2901
테이블	-2902
LT	-2903
▁술	-2904
각형	-2905
경북	-2906
나서	-2907
느낌	-2908
단독	-2909
메타	-2910
뮤니	-2911
선언	-2912
에어	-2913
유전	-2914
임명	-2915
진입	-2916
착용	-2917
▁금리	-2918
▁당국	-2919
▁을까	-2920
▁장관	-2921
내시경	-2922
마케팅	-2923
커뮤니	-2924
▁_320	-2925
▁속	-2926
▁택	-2927
경과	-2928
답변	-2929
대리	-2930
분쟁	-2931
상업	-2932
수많	-2933
아울	-2934
우주	-2935
죽음	-2936
크리	-2937
▁세포	-2938
단순히	-2939
벗어나	-2940
최대한	-2941
원내대표	-2942
▁_121	-2943
▁_2008	-2944
▁페	-2945
가열	-2946
관통	-2947
대만	-2948
연방	-2949
용액	-2950
카페	-2951
해상	-2952
효력	-2953
▁기기	-2954
▁기능	-2955
▁주일	-2956
▁화폐	-2957
▁불	-2958
과도	-2959
스위	-2960
아내	-2961
영장	-2962
즉시	-2963
테나	-2964
통지	-2965
펀드	-2966
하면	-2967
형법	-2968
▁으려	-2969
▁참여	-2970
공동체	-2971
나타냈	-2972
컨트롤러	-2973
AD	-2974
▁담	-2975
규범	-2976
발굴	-2977
밝힌	-2978
보증	-2979
보편	-2980
수리	-2981
연수	-2982
원하	-2983
월드	-2984
유아	-2985
이재	-2986
혈압	-2987
화상	-2988
횟수	-2989
▁11	-2990
▁관련	-2991
▁기구	-2992
▁번호	-2993
▁선거	-2994
운전자	-2995
▁_95	-2996
SS	-2997
TC	-2998
▁남	-2999
가공	-3000
강의	-3001
내놓	-3002
널드	-3003
따로	-3004
멀티	-3005
민원	-3006
벡터	-3007
연도	-3008
연출	-3009
원활	-3010
입주	-3011
▁과학	-3012
▁께서	-3013
▁식품	-3014
▁자금	-3015
▁조군	-3016
▁혁명	-3017
마무리	-3018
안테나	-3019
절제술	-3020
IV	-3021
▁결	-3022
▁후	-3023
긴장	-3024
냉장	-3025
단어	-3026
리학	-3027
몇몇	-3028
법령	-3029
생기	-3030
스캔	-3031
여지	-3032
오류	-3033
올랐	-3034
용기	-3035
원장	-3036
제정	-3037
존중	-3038
코일	-3039
해양	-3040
▁12	-3041
▁km	-3042
▁작용	-3043
▁장부	-3044
도널드	-3045
▁골	-3046
개구	-3047
누적	-3048
뉴욕	-3049
다면	-3050
승리	-3051
시료	-3052
약간	-3053
여론	-3054
원격	-3055
위협	-3056
유체	-3057
이자	-3058
자발	-3059
적층	-3060
지니	-3061
호소	-3062
▁경기	-3063
▁리그	-3064
▁위기	-3065
▁형태	-3066
수수료	-3067
열심히	-3068
오른쪽	-3069
▁_71	-3070
홈페이지	-3071
▁초	-3072
구하	-3073
남편	-3074
니즘	-3075
덧붙	-3076
무료	-3077
문자	-3078
병변	-3079
비상	-3080
사태	-3081
실정	-3082
포기	-3083
포장	-3084
▁금액	-3085
▁방안	-3086
▁셔서	-3087
▁운영	-3088
▁재단	-3089
▁재판	-3090
▁평등	-3091
▁활용	-3092
담당자	-3093
아울러	-3094
하나님	-3095
▁연구원	-3096
▁_800	-3097
US	-3098
es	-3099
▁살	-3100
가시	-3101
권력	-3102
대전	-3103
리더	-3104
매일	-3105
바란	-3106
배열	-3107
법관	-3108
블랙	-3109
선고	-3110
위상	-3111
지분	-3112
철학	-3113
효소	-3114
▁구성	-3115
▁구역	-3116
▁대출	-3117
▁상황	-3118
▁한지	-3119
경영자	-3120
스피커	-3121
▁_72	-3122
이루어진	-3123
▁_250	-3124
AS	-3125
CI	-3126
MR	-3127
▁션	-3128
갑상	-3129
그려	-3130
극단	-3131
물품	-3132
비대	-3133
상면	-3134
압박	-3135
음주	-3136
이슈	-3137
일제	-3138
조화	-3139
할당	-3140
▁생산	-3141
▁소송	-3142
기다리	-3143
오늘날	-3144
▁_54	-3145
▁핑	-3146
라우	-3147
배상	-3148
부처	-3149
북부	-3150
신문	-3151
액체	-3152
입학	-3153
전쟁	-3154
전하	-3155
절반	-3156
포도	-3157
학문	-3158
▁관광	-3159
▁역량	-3160
▁청장	-3161
▁학생	-3162
간호사	-3163
강원도	-3164
통신부	-3165
▁_46	-3166
▁인가요	-3167
▁_240	-3168
▁_2007	-3169
ec	-3170
▁랑	-3171
동력	-3172
매매	-3173
물관	-3174
부장	-3175
사후	-3176
선진	-3177
선형	-3178
연합	-3179
완벽	-3180
저자	-3181
종종	-3182
증진	-3183
첨부	-3184
탄력	-3185
▁레이	-3186
▁자는	-3187
▁전략	-3188
▁조건	-3189
▁조치	-3190
▁준다	-3191
▁총회	-3192
도서관	-3193
사이트	-3194
친환경	-3195
FC	-3196
HD	-3197
LG	-3198
▁응	-3199
▁패	-3200
가계	-3201
개략	-3202
권고	-3203
기원	-3204
민법	-3205
보급	-3206
복원	-3207
비아	-3208
상용	-3209
설비	-3210
스케	-3211
왼쪽	-3212
유산	-3213
일관	-3214
전후	-3215
테러	-3216
풀이	-3217
프린	-3218
화성	-3219
희생	-3220
▁변화	-3221
▁사고	-3222
▁음악	-3223
겁니다	-3224
대체로	-3225
데이트	-3226
스타일	-3227
어려워	-3228
움직이	-3229
인프라	-3230
▁는다고	-3231
▁_202	-3232
▁_2020	-3233
BL	-3234
▁0	-3235
▁징	-3236
가동	-3237
가해	-3238
개편	-3239
교차	-3240
국어	-3241
기구	-3242
기분	-3243
끝나	-3244
대역	-3245
대장	-3246
릭터	-3247
메커	-3248
박스	-3249
받침	-3250
법정	-3251
벤처	-3252
부피	-3253
비밀	-3254
의문	-3255
주말	-3256
중독	-3257
중량	-3258
지각	-3259
직후	-3260
총장	-3261
탄성	-3262
플러	-3263
핸드	-3264
헤드	-3265
▁대책	-3266
▁모형	-3267
▁스타	-3268
▁심사	-3269
갑상선	-3270
개정안	-3271
리스트	-3272
알아보	-3273
캐릭터	-3274
▁_75	-3275
▁민주당	-3276
▁_131	-3277
ID	-3278
개설	-3279
국정	-3280
나올	-3281
명예	-3282
분양	-3283
불러	-3284
소화	-3285
아웃	-3286
여건	-3287
오드	-3288
위주	-3289
인쇄	-3290
전용	-3291
종래	-3292
지불	-3293
투표	-3294
회수	-3295
▁연막	-3296
▁이론	-3297
마스크	-3298
상대방	-3299
▁교육청	-3300
LA	-3301
▁준	-3302
등급	-3303
레인	-3304
로스	-3305
박막	-3306
밸브	-3307
수강	-3308
심화	-3309
예외	-3310
자전	-3311
저렴	-3312
전방	-3313
지닌	-3314
촉구	-3315
충남	-3316
훼손	-3317
▁등급	-3318
▁마을	-3319
▁발생	-3320
▁보고	-3321
▁사무	-3322
건가요	-3323
국방부	-3324
분명히	-3325
제조업	-3326
▁_47	-3327
▁_63	-3328
▁에게서	-3329
메커니즘	-3330
플라스틱	-3331
EC	-3332
▁검	-3333
▁놓	-3334
결함	-3335
관할	-3336
끝난	-3337
날씨	-3338
녹색	-3339
농촌	-3340
단점	-3341
도민	-3342
별로	-3343
봉사	-3344
봐야	-3345
사기	-3346
어났	-3347
임계	-3348
임기	-3349
전신	-3350
편리	-3351
편차	-3352
풍부	-3353
▁교환	-3354
▁시험	-3355
▁의원	-3356
손가락	-3357
지하철	-3358
▁_122	-3359
CN	-3360
ad	-3361
om	-3362
▁B	-3363
▁봤	-3364
▁외	-3365
▁케	-3366
가속	-3367
감각	-3368
감성	-3369
단자	-3370
당국	-3371
돌출	-3372
밴드	-3373
삭제	-3374
식당	-3375
실태	-3376
양국	-3377
연습	-3378
옵션	-3379
유출	-3380
이란	-3381
인원	-3382
자궁	-3383
저작	-3384
전형	-3385
제고	-3386
주최	-3387
중복	-3388
증대	-3389
학년	-3390
협약	-3391
협조	-3392
후반	-3393
LED	-3394
▁만족	-3395
▁세대	-3396
▁전쟁	-3397
▁지사	-3398
▁천만	-3399
무작위	-3400
바란다	-3401
▁_00	-3402
이루어진다	-3403
CP	-3404
간경	-3405
간다	-3406
기하	-3407
대처	-3408
떠나	-3409
뚜렷	-3410
밀접	-3411
발열	-3412
본체	-3413
분배	-3414
생긴	-3415
소장	-3416
수평	-3417
스프	-3418
실수	-3419
알코	-3420
여겨	-3421
인성	-3422
진화	-3423
천연	-3424
청소	-3425
취급	-3426
취임	-3427
키지	-3428
편성	-3429
하드	-3430
▁국가	-3431
▁아도	-3432
▁유치	-3433
▁효율	-3434
덧붙였	-3435
알코올	-3436
효능감	-3437
최저임금	-3438
▁_330	-3439
가득	-3440
기다	-3441
민족	-3442
부가	-3443
부진	-3444
선임	-3445
소견	-3446
시술	-3447
여금	-3448
이성	-3449
쟁점	-3450
제일	-3451
증폭	-3452
체납	-3453
체크	-3454
향해	-3455
▁공항	-3456
▁방송	-3457
▁사건	-3458
▁시대	-3459
▁주년	-3460
시사점	-3461
줄어들	-3462
▁공동체	-3463
아름다운	-3464
페이스북	-3465
IN	-3466
▁석	-3467
갖춘	-3468
국세	-3469
법무	-3470
분비	-3471
비하	-3472
사물	-3473
스처	-3474
양도	-3475
유해	-3476
인생	-3477
출혈	-3478
휘발	-3479
▁계수	-3480
▁냐는	-3481
▁시민	-3482
▁자본	-3483
네시아	-3484
된다는	-3485
드러나	-3486
로이드	-3487
법인세	-3488
아니하	-3489
의사소통	-3490
인도네시아	-3491
am	-3492
im	-3493
각자	-3494
게시	-3495
경사	-3496
기상	-3497
기소	-3498
노조	-3499
담회	-3500
면담	-3501
면서	-3502
목록	-3503
서명	-3504
수급	-3505
신설	-3506
작년	-3507
좋아	-3508
좌표	-3509
ent	-3510
▁여서	-3511
▁페이	-3512
국내외	-3513
달라질	-3514
뒷받침	-3515
비디오	-3516
시청자	-3517
어레이	-3518
자전거	-3519
▁_85	-3520
CK	-3521
KT	-3522
MO	-3523
ed	-3524
um	-3525
us	-3526
▁블	-3527
▁카	-3528
▁폭	-3529
가을	-3530
거듭	-3531
난민	-3532
리오	-3533
링크	-3534
무한	-3535
변이	-3536
보드	-3537
비난	-3538
실장	-3539
쓰레	-3540
아지	-3541
업종	-3542
전남	-3543
조리	-3544
중점	-3545
체제	-3546
흔들	-3547
▁cm	-3548
▁수단	-3549
▁연합	-3550
▁지출	-3551
▁환자	-3552
이어질	-3553
정규직	-3554
정확히	-3555
IL	-3556
OE	-3557
RS	-3558
▁송	-3559
▁환	-3560
강사	-3561
관여	-3562
광원	-3563
근접	-3564
기인	-3565
단축	-3566
동원	-3567
둔화	-3568
모아	-3569
비만	-3570
세서	-3571
수면	-3572
장르	-3573
적발	-3574
정한	-3575
조립	-3576
출입	-3577
치매	-3578
캠프	-3579
퇴직	-3580
판사	-3581
펄스	-3582
평소	-3583
학술	-3584
활약	-3585
▁개국	-3586
▁없이	-3587
▁지수	-3588
비행기	-3589
사업장	-3590
스타트	-3591
아이템	-3592
▁에너지	-3593
▁줘	-3594
▁줬	-3595
격자	-3596
고위	-3597
공익	-3598
과연	-3599
관해	-3600
그냥	-3601
노이	-3602
도모	-3603
림프	-3604
먼트	-3605
무용	-3606
무효	-3607
미안	-3608
바다	-3609
보냈	-3610
보행	-3611
부합	-3612
사립	-3613
센트	-3614
습관	-3615
시범	-3616
시코	-3617
실업	-3618
양식	-3619
양호	-3620
에도	-3621
열렸	-3622
올림	-3623
의뢰	-3624
척도	-3625
클럽	-3626
특이	-3627
함량	-3628
HBV	-3629
▁감독	-3630
▁계층	-3631
▁기에	-3632
▁의무	-3633
▁조차	-3634
관리자	-3635
드라이	-3636
쓰레기	-3637
중학교	-3638
프로토	-3639
▁드립니다	-3640
un	-3641
▁승	-3642
▁커	-3643
누가	-3644
매수	-3645
무관	-3646
뱅크	-3647
법안	-3648
쉬운	-3649
약품	-3650
연금	-3651
예후	-3652
원천	-3653
위생	-3654
음료	-3655
자랑	-3656
중첩	-3657
진보	-3658
카오	-3659
코어	-3660
▁배상	-3661
▁중앙	-3662
▁지도	-3663
▁혁신	-3664
교육감	-3665
구조물	-3666
명확히	-3667
응답자	-3668
장기간	-3669
▁_91	-3670
이탈리아	-3671
GF	-3672
il	-3673
▁홈	-3674
구입	-3675
그간	-3676
그린	-3677
근처	-3678
남녀	-3679
논쟁	-3680
느껴	-3681
단원	-3682
반발	-3683
버터	-3684
비즈	-3685
빠져	-3686
선별	-3687
소셜	-3688
식물	-3689
신탁	-3690
아르	-3691
아티	-3692
엘리	-3693
연소	-3694
오브	-3695
오픈	-3696
욕구	-3697
응용	-3698
이민	-3699
주시	-3700
토출	-3701
트렌	-3702
편집	-3703
피하	-3704
흡입	-3705
▁19	-3706
▁리부	-3707
▁할지	-3708
멕시코	-3709
사이클	-3710
아이콘	-3711
유치원	-3712
이뤄지	-3713
이메일	-3714
업데이트	-3715
AT	-3716
DS	-3717
id	-3718
고찰	-3719
구민	-3720
규명	-3721
단속	-3722
발급	-3723
부부	-3724
세기	-3725
올려	-3726
요리	-3727
우측	-3728
울산	-3729
유엔	-3730
입사	-3731
점유	-3732
정맥	-3733
축적	-3734
트로	-3735
▁부문	-3736
▁실장	-3737
▁주민	-3738
▁지구	-3739
▁체제	-3740
▁회로	-3741
갈수록	-3742
그러면	-3743
대학교	-3744
둘러싼	-3745
사실상	-3746
이른바	-3747
이어졌	-3748
제스처	-3749
PO	-3750
ch	-3751
▁g	-3752
▁긴	-3753
가변	-3754
거대	-3755
결의	-3756
곳곳	-3757
늘리	-3758
다공	-3759
담겨	-3760
독특	-3761
돌봄	-3762
매칭	-3763
번역	-3764
변하	-3765
보인	-3766
서술	-3767
성실	-3768
속하	-3769
시트	-3770
요금	-3771
위축	-3772
유로	-3773
임원	-3774
즐길	-3775
지휘	-3776
코스	-3777
팽창	-3778
플렉	-3779
▁21	-3780
▁30	-3781
▁같이	-3782
▁동안	-3783
▁보건	-3784
▁수사	-3785
▁판결	-3786
▁해졌	-3787
▁행동	-3788
▁행사	-3789
▁훈련	-3790
갑자기	-3791
광범위	-3792
▁_49	-3793
▁_66	-3794
TB	-3795
lo	-3796
▁베	-3797
곤란	-3798
골프	-3799
공원	-3800
구제	-3801
느낄	-3802
당해	-3803
독성	-3804
방해	-3805
배당	-3806
비전	-3807
살아	-3808
성질	-3809
성형	-3810
세종	-3811
소멸	-3812
연예	-3813
이격	-3814
인재	-3815
▁가구	-3816
▁공단	-3817
▁국장	-3818
▁든지	-3819
▁센서	-3820
▁신고	-3821
▁오염	-3822
▁이용	-3823
그래도	-3824
돌아가	-3825
드러났	-3826
보조금	-3827
정해진	-3828
키워드	-3829
패키지	-3830
▁_68	-3831
▁_420	-3832
ag	-3833
em	-3834
교실	-3835
급여	-3836
냉매	-3837
노사	-3838
대조	-3839
무슨	-3840
바디	-3841
양극	-3842
양측	-3843
엄격	-3844
인용	-3845
전북	-3846
정원	-3847
제목	-3848
좌우	-3849
초청	-3850
통보	-3851
파워	-3852
패시	-3853
항체	-3854
확립	-3855
▁개선	-3856
▁규칙	-3857
▁소비	-3858
▁여자	-3859
나타날	-3860
납세자	-3861
바라보	-3862
방정식	-3863
불가피	-3864
채무자	-3865
▁_190	-3866
▁_197	-3867
▁_700	-3868
MC	-3869
PM	-3870
▁것	-3871
과실	-3872
권장	-3873
낮추	-3874
도우	-3875
동차	-3876
드레	-3877
들여	-3878
매각	-3879
목사	-3880
무시	-3881
불만	-3882
블리	-3883
사과	-3884
의의	-3885
재질	-3886
절감	-3887
즐기	-3888
직자	-3889
충실	-3890
▁게임	-3891
▁반응	-3892
▁여부	-3893
▁흥원	-3894
늘어난	-3895
문화재	-3896
상반기	-3897
피고인	-3898
▁_64	-3899
비즈니스	-3900
스타트업	-3901
FS	-3902
IR	-3903
nm	-3904
▁필	-3905
가리	-3906
고도	-3907
균일	-3908
그때	-3909
내렸	-3910
노선	-3911
담긴	-3912
당초	-3913
드릴	-3914
리지	-3915
만날	-3916
몽골	-3917
버전	-3918
불거	-3919
빈곤	-3920
시안	-3921
엄청	-3922
염색	-3923
일체	-3924
줄일	-3925
증여	-3926
지진	-3927
카르	-3928
판정	-3929
향하	-3930
혼란	-3931
▁기본	-3932
▁등록	-3933
▁방지	-3934
▁속도	-3935
▁수익	-3936
▁전하	-3937
▁주도	-3938
▁회피	-3939
냉장고	-3940
라우드	-3941
레이드	-3942
브라질	-3943
사이즈	-3944
시행령	-3945
연구원	-3946
월드컵	-3947
주인공	-3948
증후군	-3949
프리미	-3950
EA	-3951
ER	-3952
LS	-3953
Si	-3954
▁글	-3955
▁취	-3956
경비	-3957
고장	-3958
그곳	-3959
급증	-3960
김영	-3961
노후	-3962
당선	-3963
로우	-3964
릭스	-3965
마크	-3966
맛있	-3967
배정	-3968
비록	-3969
산하	-3970
색상	-3971
세워	-3972
시정	-3973
실습	-3974
어울	-3975
엑스	-3976
왜냐	-3977
외선	-3978
용도	-3979
재원	-3980
전날	-3981
전파	-3982
주위	-3983
징계	-3984
철저	-3985
초대	-3986
출전	-3987
컨설	-3988
행렬	-3989
허리	-3990
호트	-3991
후원	-3992
DNA	-3993
▁공인	-3994
▁진흥	-3995
▁표시	-3996
▁학기	-3997
▁협약	-3998
여러분	-3999
전해졌	-4000
카카오	-4001
▁했으나	-4002
커뮤니티	-4003
▁프로그램	-4004
DC	-4005
SO	-4006
SW	-4007
▁애	-4008
가졌	-4009
거치	-4010
공중	-4011
극대	-4012
나갈	-4013
나다	-4014
나중	-4015
당부	-4016
대문	-4017
둘레	-4018
몰입	-4019
배려	-4020
복부	-4021
부지	-4022
연대	-4023
유연	-4024
이웃	-4025
타민	-4026
태국	-4027
패션	-4028
플래	-4029
화제	-4030
확충	-4031
휴식	-4032
흔히	-4033
▁개혁	-4034
▁드릴	-4035
▁업자	-4036
▁작업	-4037
건축물	-4038
그리스	-4039
따른다	-4040
스테이	-4041
하반기	-4042
▁협의회	-4043
그럼에도	-4044
왜냐하면	-4045
클라우드	-4046
프로토콜	-4047
▁_2005	-4048
GS	-4049
TS	-4050
mL	-4051
ur	-4052
▁퍼	-4053
건전	-4054
구리	-4055
근대	-4056
대립	-4057
돌려	-4058
돌연	-4059
벌이	-4060
본사	-4061
불량	-4062
상향	-4063
셋째	-4064
앨범	-4065
에이	-4066
열정	-4067
올렸	-4068
용접	-4069
유인	-4070
일방	-4071
증발	-4072
지내	-4073
지어	-4074
지질	-4075
출범	-4076
힘든	-4077
▁_–	-4078
▁위험	-4079
▁전극	-4080
▁친구	-4081
▁패널	-4082
가까이	-4083
사무실	-4084
살펴본	-4085
수탁자	-4086
스페인	-4087
연구소	-4088
저소득	-4089
캐나다	-4090
커패시	-4091
특별히	-4092
포도당	-4093
▁_58	-4094
▁_92	-4095
BB	-4096
DB	-4097
EM	-4098
NO	-4099
PG	-4100
ap	-4101
mm	-4102
감면	-4103
거기	-4104
결핵	-4105
기증	-4106
기호	-4107
남용	-4108
눈길	-4109
다를	-4110
마시	-4111
면접	-4112
배분	-4113
새벽	-4114
순차	-4115
신중	-4116
여가	-4117
일종	-4118
일찍	-4119
작곡	-4120
정수	-4121
종목	-4122
종속	-4123
지키	-4124
코딩	-4125
파괴	-4126
포토	-4127
하늘	-4128
하향	-4129
휴가	-4130
흐르	-4131
▁거리	-4132
▁교회	-4133
▁세계	-4134
▁수업	-4135
▁중심	-4136
▁코딩	-4137
▁화학	-4138
가중치	-4139
강남구	-4140
레이션	-4141
스위칭	-4142
올림픽	-4143
인정받	-4144
줍니다	-4145
코호트	-4146
▁_57	-4147
▁_67	-4148
▁_73	-4149
▁_82	-4150
▁자동차	-4151
▁_151	-4152
▁_2006	-4153
CH	-4154
가맹	-4155
가슴	-4156
간염	-4157
개성	-4158
경상	-4159
계좌	-4160
국적	-4161
기도	-4162
달려	-4163
당장	-4164
대략	-4165
도심	-4166
뛰어	-4167
맥주	-4168
모으	-4169
미쳤	-4170
부하	-4171
상인	-4172
상처	-4173
생겼	-4174
서식	-4175
서트	-4176
세우	-4177
수렴	-4178
수반	-4179
시군	-4180
시위	-4181
심한	-4182
심혈	-4183
알림	-4184
와서	-4185
위법	-4186
인과	-4187
잠시	-4188
재현	-4189
조각	-4190
직경	-4191
추측	-4192
▁미래	-4193
▁순위	-4194
▁영화	-4195
▁인구	-4196
▁재정	-4197
▁축제	-4198
▁활성	-4199
명세서	-4200
비타민	-4201
최소한	-4202
콘서트	-4203
▁_56	-4204
▁바이오	-4205
ation	-4206
▁_125	-4207
▁_196	-4208
UI	-4209
ir	-4210
iv	-4211
▁M	-4212
▁래	-4213
▁팅	-4214
가방	-4215
감상	-4216
걸리	-4217
고발	-4218
대퇴	-4219
드물	-4220
로운	-4221
로지	-4222
면제	-4223
물체	-4224
부실	-4225
순수	-4226
스탄	-4227
슬러	-4228
아닐	-4229
유무	-4230
좌측	-4231
중합	-4232
진전	-4233
차관	-4234
처방	-4235
초반	-4236
태풍	-4237
폭발	-4238
피크	-4239
한글	-4240
합동	-4241
환불	-4242
▁공장	-4243
▁모듈	-4244
▁사실	-4245
▁예방	-4246
▁함수	-4247
▁혈압	-4248
▁협상	-4249
간담회	-4250
나타낼	-4251
유튜브	-4252
입니다	-4253
접근성	-4254
주어진	-4255
케이블	-4256
▁_81	-4257
국회의원	-4258
▁_114	-4259
▁μ	-4260
▁딩	-4261
▁채	-4262
군가	-4263
기각	-4264
끌어	-4265
난다	-4266
누리	-4267
니아	-4268
매도	-4269
문의	-4270
설득	-4271
시상	-4272
옮겨	-4273
왜곡	-4274
이달	-4275
접합	-4276
주사	-4277
진실	-4278
진짜	-4279
필자	-4280
▁공급	-4281
▁과제	-4282
▁규제	-4283
▁기판	-4284
▁돼야	-4285
▁요법	-4286
▁의식	-4287
▁인력	-4288
▁차례	-4289
▁체험	-4290
▁회견	-4291
당연히	-4292
대다수	-4293
사망률	-4294
실험실	-4295
하여금	-4296
▁_59	-4297
▁_74	-4298
오브젝트	-4299
CL	-4300
EV	-4301
PT	-4302
▁d	-4303
▁디	-4304
거짓	-4305
경고	-4306
궁극	-4307
담배	-4308
더미	-4309
동남	-4310
매입	-4311
모임	-4312
뮤지	-4313
배양	-4314
보충	-4315
본부	-4316
상환	-4317
수분	-4318
일대	-4319
장벽	-4320
종이	-4321
첨단	-4322
클래	-4323
터키	-4324
품목	-4325
험자	-4326
▁개소	-4327
▁과세	-4328
▁담당	-4329
▁매체	-4330
▁업계	-4331
▁요건	-4332
▁현장	-4333
가입자	-4334
대변인	-4335
아무런	-4336
전시회	-4337
행정부	-4338
호스트	-4339
민주주의	-4340
이해관계	-4341
초등학생	-4342
인천광역시	-4343
Al	-4344
RF	-4345
UV	-4346
▁같	-4347
▁날	-4348
▁틴	-4349
간섭	-4350
간편	-4351
거운	-4352
걸음	-4353
고급	-4354
고전	-4355
교원	-4356
기체	-4357
높일	-4358
대선	-4359
막대	-4360
못할	-4361
박사	-4362
발휘	-4363
서면	-4364
수질	-4365
신분	-4366
예고	-4367
오랫	-4368
이득	-4369
종전	-4370
준수	-4371
증착	-4372
추론	-4373
코인	-4374
폐렴	-4375
폭염	-4376
표정	-4377
필리	-4378
학원	-4379
해안	-4380
ure	-4381
▁교과	-4382
▁범위	-4383
▁보장	-4384
▁봉사	-4385
▁상담	-4386
▁조체	-4387
▁특별	-4388
▁현예	-4389
간세포	-4390
드러내	-4391
떨어진	-4392
법무부	-4393
좋아하	-4394
치료법	-4395
컨설팅	-4396
▁_99	-4397
▁사업자	-4398
오랫동안	-4399
▁_115	-4400
데이터베이스	-4401
SK	-4402
▁즈	-4403
결코	-4404
굉장	-4405
기후	-4406
날짜	-4407
내측	-4408
동구	-4409
드론	-4410
루미	-4411
보낸	-4412
복용	-4413
붕괴	-4414
상응	-4415
상하	-4416
소지	-4417
수량	-4418
숙박	-4419
시나	-4420
실효	-4421
안타	-4422
양쪽	-4423
용매	-4424
원형	-4425
유가	-4426
저지	-4427
정착	-4428
축하	-4429
테롤	-4430
파손	-4431
피스	-4432
합격	-4433
향한	-4434
협업	-4435
훌륭	-4436
▁14	-4437
▁DM	-4438
▁_±	-4439
▁감사	-4440
▁수요	-4441
▁카드	-4442
말레이	-4443
매출액	-4444
배우자	-4445
살펴볼	-4446
신뢰도	-4447
아시안	-4448
어려울	-4449
일으키	-4450
콜레스	-4451
우리나라	-4452
콜레스테롤	-4453
MD	-4454
dL	-4455
▁각	-4456
▁톤	-4457
내성	-4458
대칭	-4459
동생	-4460
리스	-4461
물가	-4462
생겨	-4463
애플	-4464
역학	-4465
오직	-4466
올린	-4467
위임	-4468
이건	-4469
이수	-4470
정권	-4471
준용	-4472
지상	-4473
치열	-4474
타임	-4475
펌프	-4476
ter	-4477
▁급여	-4478
▁사용	-4479
▁선수	-4480
▁예산	-4481
▁필요	-4482
된다고	-4483
라이트	-4484
선보이	-4485
소유자	-4486
자세히	-4487
종사자	-4488
찾아가	-4489
OECD	-4490
▁대상자	-4491
▁된다면	-4492
커패시터	-4493
▁_141	-4494
▁_195	-4495
▁_212	-4496
▁_510	-4497
경기도지사	-4498
말레이시아	-4499
Co	-4500
▁침	-4501
구멍	-4502
급속	-4503
다녀	-4504
다행	-4505
대답	-4506
덕분	-4507
도어	-4508
란드	-4509
란히	-4510
레르	-4511
레지	-4512
마약	-4513
미흡	-4514
바르	-4515
별개	-4516
세법	-4517
수동	-4518
수석	-4519
수시	-4520
스텐	-4521
시효	-4522
어링	-4523
우즈	-4524
일원	-4525
진학	-4526
집계	-4527
친화	-4528
클러	-4529
키우	-4530
텔레	-4531
편광	-4532
할지	-4533
협동	-4534
호전	-4535
후방	-4536
and	-4537
▁가스	-4538
▁기금	-4539
▁라즈	-4540
▁링크	-4541
▁부분	-4542
▁선언	-4543
▁소자	-4544
▁이미	-4545
김정은	-4546
누군가	-4547
사시도	-4548
심지어	-4549
압축기	-4550
윈도우	-4551
자영업	-4552
재미있	-4553
항공사	-4554
화장실	-4555
▁_05	-4556
▁_69	-4557
▁전문가	-4558
시나리오	-4559
▁_113	-4560
▁_135	-4561
▁_610	-4562
▁에서부터	-4563
SA	-4564
pH	-4565
▁곡	-4566
▁메	-4567
고체	-4568
국악	-4569
김문	-4570
네이	-4571
단층	-4572
대폭	-4573
두려	-4574
루션	-4575
무사	-4576
물류	-4577
보강	-4578
수능	-4579
수당	-4580
시오	-4581
응원	-4582
일련	-4583
자국	-4584
장식	-4585
정적	-4586
져야	-4587
주석	-4588
주인	-4589
천식	-4590
칼슘	-4591
▁균형	-4592
▁요구	-4593
▁이랑	-4594
▁종합	-4595
▁증진	-4596
둘러싸	-4597
리스크	-4598
밝혀졌	-4599
보험료	-4600
선진국	-4601
셈블리	-4602
올바른	-4603
자회사	-4604
트레이	-4605
필리핀	-4606
화웨이	-4607
▁_83	-4608
▁교통부	-4609
▁는다면	-4610
이루어져야	-4611
IM	-4612
RO	-4613
of	-4614
ul	-4615
▁향	-4616
각국	-4617
계정	-4618
고교	-4619
고온	-4620
공제	-4621
교부	-4622
김성	-4623
끊임	-4624
놀라	-4625
다섯	-4626
로마	-4627
리즈	-4628
만남	-4629
바꿔	-4630
바지	-4631
반전	-4632
버리	-4633
벌금	-4634
범행	-4635
병행	-4636
부각	-4637
사료	-4638
산불	-4639
성찰	-4640
소아	-4641
시급	-4642
신입	-4643
심층	-4644
야구	-4645
어깨	-4646
웃음	-4647
의학	-4648
익숙	-4649
정량	-4650
지리	-4651
직면	-4652
질소	-4653
총괄	-4654
층간	-4655
태료	-4656
테크	-4657
필드	-4658
현미	-4659
후술	-4660
▁15	-4661
▁공제	-4662
▁목적	-4663
▁의견	-4664
▁촬영	-4665
▁출부	-4666
그만큼	-4667
뛰어난	-4668
박물관	-4669
사라지	-4670
송수신	-4671
스트리	-4672
아이돌	-4673
제주도	-4674
프리카	-4675
한다면	-4676
▁_76	-4677
어린이집	-4678
하드웨어	-4679
▁_270	-4680
스테로이드	-4681
St	-4682
TF	-4683
▁ᆞ	-4684
▁작	-4685
▁착	-4686
거론	-4687
게이	-4688
고의	-4689
공인	-4690
댓글	-4691
도금	-4692
라스	-4693
리티	-4694
머물	-4695
민사	-4696
배기	-4697
산림	-4698
습득	-4699
안보	-4700
예전	-4701
유학	-4702
인체	-4703
임차	-4704
전담	-4705
직선	-4706
천안	-4707
최신	-4708
커플	-4709
형광	-4710
ICT	-4711
▁설정	-4712
▁신부	-4713
▁전화	-4714
▁주주	-4715
▁주체	-4716
굉장히	-4717
사교육	-4718
시너지	-4719
알레르	-4720
어려웠	-4721
제어기	-4722
타이밍	-4723
▁는데요	-4724
▁보고서	-4725
▁할수록	-4726
다이오드	-4727
돌연변이	-4728
프리미엄	-4729
▁_1990	-4730
OR	-4731
PE	-4732
ot	-4733
▁존	-4734
가산	-4735
객실	-4736
거시	-4737
공업	-4738
공포	-4739
교정	-4740
규율	-4741
내재	-4742
로나	-4743
매니	-4744
반환	-4745
발효	-4746
법제	-4747
법칙	-4748
복귀	-4749
생략	-4750
세율	-4751
소상	-4752
소음	-4753
소형	-4754
수명	-4755
수비	-4756
아기	-4757
용산	-4758
우연	-4759
이틀	-4760
전산	-4761
착수	-4762
출근	-4763
출동	-4764
탄생	-4765
탑승	-4766
투어	-4767
평등	-4768
학급	-4769
혼인	-4770
환율	-4771
흘러	-4772
BMI	-4773
▁가족	-4774
▁공연	-4775
▁국제	-4776
▁군요	-4777
▁금지	-4778
▁단위	-4779
▁대사	-4780
▁셔야	-4781
▁시트	-4782
▁주기	-4783
▁지표	-4784
과태료	-4785
그래픽	-4786
떨어져	-4787
보험자	-4788
설문지	-4789
억제제	-4790
연예인	-4791
의약품	-4792
이뤄졌	-4793
지나치	-4794
▁도서관	-4795
아프리카	-4796
▁_350	-4797
IF	-4798
▁색	-4799
결절	-4800
구글	-4801
그치	-4802
농가	-4803
대가	-4804
따뜻	-4805
람회	-4806
명백	-4807
명칭	-4808
무상	-4809
미군	-4810
별표	-4811
보전	-4812
사일	-4813
살인	-4814
생제	-4815
성남	-4816
손흥	-4817
시원	-4818
싸움	-4819
어드	-4820
여권	-4821
연동	-4822
용인	-4823
이끄	-4824
이너	-4825
임무	-4826
정렬	-4827
진공	-4828
편안	-4829
펼치	-4830
포구	-4831
표지	-4832
하단	-4833
한층	-4834
화폐	-4835
활력	-4836
후면	-4837
est	-4838
▁13	-4839
▁_;	-4840
▁건설	-4841
▁공정	-4842
▁명령	-4843
▁변량	-4844
▁성부	-4845
▁운용	-4846
▁원장	-4847
▁조절	-4848
▁허가	-4849
▁협정	-4850
▁확인	-4851
고관절	-4852
관해서	-4853
마스터	-4854
성폭력	-4855
손흥민	-4856
순서도	-4857
알루미	-4858
언제나	-4859
열린다	-4860
일어난	-4861
전해질	-4862
태양광	-4863
활물질	-4864
휴대폰	-4865
▁_96	-4866
▁사이트	-4867
▁일수록	-4868
▁_123	-4869
▁_340	-4870
DR	-4871
ME	-4872
감원	-4873
강경	-4874
거절	-4875
거친	-4876
공존	-4877
나쁜	-4878
데뷔	-4879
리튬	-4880
마주	-4881
부호	-4882
상단	-4883
상생	-4884
세스	-4885
압류	-4886
에스	-4887
연말	-4888
예수	-4889
외측	-4890
이념	-4891
재고	-4892
재학	-4893
점심	-4894
주력	-4895
증시	-4896
찬성	-4897
천시	-4898
충북	-4899
패스	-4900
편지	-4901
학력	-4902
항소	-4903
허위	-4904
흉부	-4905
HCV	-4906
▁나가	-4907
▁단지	-4908
▁미술	-4909
▁성분	-4910
▁수행	-4911
▁이란	-4912
▁표준	-4913
▁해질	-4914
▁회계	-4915
게다가	-4916
다이어	-4917
대퇴골	-4918
두드러	-4919
들어갔	-4920
들어오	-4921
라이언	-4922
발병률	-4923
생물학	-4924
할머니	-4925
▁_77	-4926
▁투자자	-4927
▁페이서	-4928
▁프레임	-4929
받아들이	-4930
▁_520	-4931
▁_1980	-4932
IB	-4933
ay	-4934
mg	-4935
▁셀	-4936
▁쪽	-4937
▁텐	-4938
▁팬	-4939
가하	-4940
건립	-4941
공립	-4942
구상	-4943
기차	-4944
내면	-4945
높여	-4946
돌파	-4947
르몬	-4948
마리	-4949
매트	-4950
모았	-4951
미나	-4952
보육	-4953
분기	-4954
빠지	-4955
세액	-4956
속한	-4957
수십	-4958
슈퍼	-4959
시편	-4960
식각	-4961
실력	-4962
암시	-4963
이송	-4964
지체	-4965
직전	-4966
질서	-4967
추후	-4968
코더	-4969
클럭	-4970
테마	-4971
통로	-4972
한화	-4973
항원	-4974
BBB	-4975
▁18	-4976
▁_!	-4977
▁공개	-4978
▁교수	-4979
▁기록	-4980
▁라서	-4981
▁문항	-4982
▁범죄	-4983
▁여건	-4984
▁제공	-4985
▁투표	-4986
▁한데	-4987
간경변	-4988
김문수	-4989
될까요	-4990
이어서	-4991
일반인	-4992
테이너	-4993
폼페이	-4994
항생제	-4995
호흡기	-4996
▁관계자	-4997
▁입니까	-4998
▁해진다	-4999
▁_191	-5000
▁_260	-5001
▁_2004	-5002
DL	-5003
EL	-5004
od	-5005
▁P	-5006
▁±	-5007
▁낸	-5008
▁망	-5009
▁왕	-5010
강점	-5011
걸려	-5012
공단	-5013
과장	-5014
관상	-5015
구단	-5016
군수	-5017
능동	-5018
로구	-5019
만난	-5020
면허	-5021
변조	-5022
부대	-5023
부신	-5024
뿌리	-5025
사로	-5026
사체	-5027
선출	-5028
세로	-5029
수여	-5030
시뮬	-5031
시키	-5032
안건	-5033
안팎	-5034
어지	-5035
오스	-5036
외과	-5037
유행	-5038
이명	-5039
인종	-5040
입시	-5041
입지	-5042
작물	-5043
정전	-5044
제곱	-5045
조달	-5046
지장	-5047
채워	-5048
추이	-5049
함양	-5050
협회	-5051
GDP	-5052
▁부담	-5053
▁사원	-5054
▁섬유	-5055
▁소방	-5056
▁여성	-5057
▁전자	-5058
거래소	-5059
기대감	-5060
모른다	-5061
바이어	-5062
사이버	-5063
산화물	-5064
살아가	-5065
솔루션	-5066
수신기	-5067
수용체	-5068
열처리	-5069
올라가	-5070
이사장	-5071
전도성	-5072
주차장	-5073
편의점	-5074
CCTV	-5075
▁_78	-5076
알루미늄	-5077
BA	-5078
BP	-5079
Ch	-5080
▁S	-5081
▁겟	-5082
▁염	-5083
▁킹	-5084
고지	-5085
군집	-5086
급성	-5087
기저	-5088
김치	-5089
남도	-5090
내린	-5091
넥터	-5092
독서	-5093
득점	-5094
또래	-5095
라도	-5096
묘사	-5097
문건	-5098
박근	-5099
반성	-5100
배달	-5101
사각	-5102
상임	-5103
생애	-5104
서민	-5105
석유	-5106
선도	-5107
선사	-5108
세월	-5109
소외	-5110
시계	-5111
시스	-5112
심볼	-5113
쓰이	-5114
아세	-5115
약제	-5116
연휴	-5117
외래	-5118
원소	-5119
일실	-5120
일차	-5121
재개	-5122
재단	-5123
조언	-5124
중증	-5125
체류	-5126
카운	-5127
티켓	-5128
편익	-5129
합금	-5130
화점	-5131
▁동물	-5132
▁모델	-5133
▁사유	-5134
▁사이	-5135
▁성과	-5136
▁심리	-5137
▁원칙	-5138
▁으시	-5139
▁판사	-5140
▁형성	-5141
고분자	-5142
관광지	-5143
금감원	-5144
늘어날	-5145
사로잡	-5146
스케줄	-5147
여의도	-5148
화장품	-5149
확실히	-5150
▁_87	-5151
▁재판소	-5152
▁체육관	-5153
▁효능감	-5154
고등학생	-5155
드라이버	-5156
알레르기	-5157
컨테이너	-5158
클러스터	-5159
▁_211	-5160
Ag	-5161
HR	-5162
NF	-5163
TH	-5164
▁⋅	-5165
▁먼	-5166
▁없	-5167
개체	-5168
고속	-5169
골반	-5170
공진	-5171
기조	-5172
대외	-5173
돌기	-5174
동네	-5175
때로	-5176
루프	-5177
멀리	-5178
물량	-5179
보낼	-5180
복구	-5181
산지	-5182
생일	-5183
선량	-5184
소중	-5185
수산	-5186
시내	-5187
시퀀	-5188
약화	-5189
양육	-5190
어휘	-5191
용역	-5192
접종	-5193
중대	-5194
직관	-5195
추석	-5196
파티	-5197
표기	-5198
혈증	-5199
히터	-5200
FTA	-5201
▁고등	-5202
▁도로	-5203
▁러닝	-5204
▁영장	-5205
▁제재	-5206
▁주식	-5207
▁지부	-5208
▁파일	-5209
▁해석	-5210
경찰관	-5211
라운드	-5212
레이어	-5213
못한다	-5214
서울대	-5215
쇼핑몰	-5216
아무리	-5217
연결부	-5218
일어날	-5219
지도자	-5220
컴퓨팅	-5221
파이프	-5222
혼합물	-5223
휘발성	-5224
▁십시오	-5225
▁였으나	-5226
▁유치원	-5227
▁_450	-5228
Figure	-5229
VD	-5230
ut	-5231
▁태	-5232
가전	-5233
감동	-5234
건수	-5235
난소	-5236
남부	-5237
내외	-5238
노원	-5239
달하	-5240
대단	-5241
대목	-5242
동적	-5243
동향	-5244
둔다	-5245
미노	-5246
밀히	-5247
방위	-5248
벌써	-5249
병역	-5250
불순	-5251
비치	-5252
상금	-5253
상실	-5254
상영	-5255
상정	-5256
세라	-5257
세션	-5258
소녀	-5259
수혜	-5260
슬라	-5261
여과	-5262
요양	-5263
이력	-5264
이룬	-5265
이목	-5266
이주	-5267
일환	-5268
재량	-5269
재배	-5270
중력	-5271
지대	-5272
출판	-5273
평택	-5274
하천	-5275
홀로	-5276
후자	-5277
흔한	-5278
▁16	-5279
▁24	-5280
▁격차	-5281
▁경영	-5282
▁교류	-5283
▁그램	-5284
▁농업	-5285
▁보수	-5286
▁신문	-5287
▁여도	-5288
▁장기	-5289
▁전부	-5290
▁준비	-5291
▁탄소	-5292
▁특성	-5293
▁펀드	-5294
▁해결	-5295
기관지	-5296
박근혜	-5297
아마도	-5298
임직원	-5299
정한다	-5300
프라이	-5301
▁_98	-5302
▁디자인	-5303
관계없이	-5304
▁_105	-5305
▁_430	-5306
▁_900	-5307
PP	-5308
▁갈	-5309
▁창	-5310
▁추	-5311
▁탈	-5312
가사	-5313
강릉	-5314
공조	-5315
구할	-5316
나눠	-5317
놓여	-5318
다룬	-5319
당일	-5320
동등	-5321
들이	-5322
디아	-5323
라디	-5324
리그	-5325
못해	-5326
무릎	-5327
미널	-5328
밀착	-5329
벤딩	-5330
블루	-5331
소극	-5332
소모	-5333
송파	-5334
수료	-5335
스펙	-5336
승용	-5337
식이	-5338
신선	-5339
실린	-5340
싱턴	-5341
에게	-5342
여유	-5343
역대	-5344
유량	-5345
음극	-5346
일례	-5347
잖아	-5348
장학	-5349
전사	-5350
전역	-5351
좌석	-5352
지명	-5353
출장	-5354
패킷	-5355
확신	-5356
ine	-5357
▁17	-5358
▁극장	-5359
▁도구	-5360
▁면적	-5361
▁목표	-5362
▁발광	-5363
▁수당	-5364
▁시예	-5365
▁실적	-5366
▁여행	-5367
▁점수	-5368
▁차량	-5369
▁채권	-5370
▁채널	-5371
달라지	-5372
미친다	-5373
부총리	-5374
의결권	-5375
인버터	-5376
저항성	-5377
줄어든	-5378
차세대	-5379
트렌치	-5380
판소리	-5381
피의자	-5382
활발히	-5383
▁_84	-5384
▁_86	-5385
대법원장	-5386
어셈블리	-5387
▁_104	-5388
▁_132	-5389
▁_2002	-5390
BR	-5391
LC	-5392
TR	-5393
Zn	-5394
▁극	-5395
▁워	-5396
귀속	-5397
그건	-5398
그럴	-5399
기한	-5400
끼리	-5401
나아	-5402
난방	-5403
들려	-5404
맞이	-5405
명의	-5406
미니	-5407
방어	-5408
법리	-5409
사우	-5410
사인	-5411
상해	-5412
시그	-5413
시책	-5414
안녕	-5415
얼음	-5416
여당	-5417
외환	-5418
이혼	-5419
인센	-5420
중반	-5421
지인	-5422
진흥	-5423
집회	-5424
창원	-5425
추상	-5426
취재	-5427
탱크	-5428
퇴근	-5429
특화	-5430
포착	-5431
학계	-5432
한도	-5433
행하	-5434
Pop	-5435
▁kg	-5436
▁기반	-5437
▁설계	-5438
▁시기	-5439
▁유형	-5440
▁의사	-5441
▁이온	-5442
▁자면	-5443
▁점검	-5444
▁지식	-5445
▁통계	-5446
공정위	-5447
리더십	-5448
불순물	-5449
상당수	-5450
스티벌	-5451
액세스	-5452
와이어	-5453
워싱턴	-5454
정확도	-5455
찾아보	-5456
피험자	-5457
핸드폰	-5458
호르몬	-5459
▁_97	-5460
▁소득세	-5461
▁연구소	-5462
이어진다	-5463
인센티브	-5464
▁_194	-5465
▁_2003	-5466
AF	-5467
CF	-5468
Hb	-5469
TO	-5470
▁북	-5471
▁촉	-5472
간부	-5473
강좌	-5474
개막	-5475
갱신	-5476
게재	-5477
겨진	-5478
고무	-5479
공자	-5480
권자	-5481
기독	-5482
나사	-5483
뇌물	-5484
뇌졸	-5485
느낀	-5486
단부	-5487
담관	-5488
대피	-5489
덱스	-5490
도핑	-5491
돌리	-5492
리뷰	-5493
마커	-5494
매립	-5495
빠진	-5496
살해	-5497
상가	-5498
서초	-5499
수성	-5500
실용	-5501
심하	-5502
아날	-5503
아쉬	-5504
앞둔	-5505
연행	-5506
위안	-5507
유니	-5508
유방	-5509
육아	-5510
은이	-5511
이종	-5512
입찰	-5513
자라	-5514
저감	-5515
접목	-5516
증례	-5517
차장	-5518
철수	-5519
출자	-5520
파업	-5521
퍼스	-5522
흔적	-5523
▁고용	-5524
▁동기	-5525
▁마저	-5526
▁위탁	-5527
▁이상	-5528
▁조항	-5529
▁회장	-5530
마우스	-5531
뮤지컬	-5532
병리학	-5533
사각형	-5534
상승세	-5535
식별자	-5536
엄청난	-5537
이재명	-5538
일어났	-5539
재판부	-5540
프로필	-5541
▁_79	-5542
▁교환기	-5543
마이크로	-5544
아티스트	-5545
▁_119	-5546
▁_124	-5547
시뮬레이션	-5548
AV	-5549
DF	-5550
Hz	-5551
SP	-5552
▁×	-5553
▁손	-5554
▁쇼	-5555
경보	-5556
고사	-5557
공고	-5558
구강	-5559
국소	-5560
내릴	-5561
냄새	-5562
느꼈	-5563
대량	-5564
대변	-5565
독점	-5566
두산	-5567
라며	-5568
매월	-5569
뮤직	-5570
분말	-5571
빈번	-5572
상한	-5573
성숙	-5574
소설	-5575
소성	-5576
수백	-5577
스키	-5578
시인	-5579
시티	-5580
신생	-5581
예능	-5582
와이	-5583
우러	-5584
유력	-5585
이래	-5586
이점	-5587
이질	-5588
일러	-5589
입금	-5590
장려	-5591
재능	-5592
전수	-5593
정황	-5594
중개	-5595
중지	-5596
지칭	-5597
챔피	-5598
체포	-5599
치유	-5600
친절	-5601
카이	-5602
토크	-5603
평행	-5604
포지	-5605
호기	-5606
호응	-5607
FLD	-5608
KBS	-5609
▁개념	-5610
▁거부	-5611
▁더니	-5612
▁상공	-5613
▁소유	-5614
▁자리	-5615
▁장비	-5616
▁전압	-5617
▁주의	-5618
급격히	-5619
기부금	-5620
넘어서	-5621
더욱이	-5622
돌아오	-5623
들어서	-5624
변동성	-5625
복지부	-5626
상세히	-5627
시리즈	-5628
시퀀스	-5629
예술가	-5630
월요일	-5631
의료비	-5632
일본인	-5633
토론회	-5634
현미경	-5635
환경부	-5636
▁_01	-5637
▁경찰서	-5638
▁미디어	-5639
그러므로	-5640
비정규직	-5641
아날로그	-5642
플레이션	-5643
▁_810	-5644
▁_2001	-5645
EN	-5646
TT	-5647
th	-5648
▁균	-5649
가끔	-5650
갑작	-5651
경구	-5652
관행	-5653
국장	-5654
내원	-5655
넘치	-5656
노트	-5657
더위	-5658
러스	-5659
르티	-5660
마친	-5661
면세	-5662
모이	-5663
모호	-5664
미소	-5665
방전	-5666
배포	-5667
봉지	-5668
세운	-5669
소드	-5670
소판	-5671
수영	-5672
신념	-5673
신발	-5674
실외	-5675
심판	-5676
압수	-5677
운반	-5678
원주	-5679
유망	-5680
융자	-5681
이나	-5682
임스	-5683
잠금	-5684
전주	-5685
절실	-5686
접하	-5687
제자	-5688
조문	-5689
증인	-5690
출생	-5691
출현	-5692
취미	-5693
치명	-5694
침투	-5695
탄올	-5696
탄핵	-5697
트륨	-5698
틸렌	-5699
파산	-5700
▁_‧	-5701
▁가요	-5702
▁과목	-5703
▁담보	-5704
▁무역	-5705
▁보조	-5706
▁인식	-5707
▁인증	-5708
▁자고	-5709
▁진단	-5710
▁통합	-5711
▁평화	-5712
▁폭력	-5713
▁해진	-5714
▁현상	-5715
가르치	-5716
고양이	-5717
기상청	-5718
벌어지	-5719
복합체	-5720
스트림	-5721
우울증	-5722
컨트롤	-5723
해상도	-5724
현저히	-5725
▁_93	-5726
▁됐으며	-5727
▁으세요	-5728
끊임없이	-5729
서비스업	-5730
NAFLD	-5731
▁_103	-5732
가이드라인	-5733
Cr	-5734
HO	-5735
In	-5736
os	-5737
ph	-5738
▁닝	-5739
▁목	-5740
▁잡	-5741
▁죄	-5742
▁팝	-5743
가게	-5744
계절	-5745
공지	-5746
규격	-5747
기온	-5748
다란	-5749
대행	-5750
돌입	-5751
발송	-5752
벌였	-5753
본고	-5754
상자	-5755
세수	-5756
수령	-5757
수색	-5758
스튜	-5759
시야	-5760
신임	-5761
실체	-5762
아빠	-5763
악기	-5764
야당	-5765
여섯	-5766
인류	-5767
인장	-5768
저해	-5769
적립	-5770
정할	-5771
주된	-5772
중성	-5773
즉각	-5774
청원	-5775
충성	-5776
침대	-5777
콜라	-5778
킨다	-5779
타자	-5780
택배	-5781
투수	-5782
트위	-5783
폐수	-5784
푸드	-5785
피아	-5786
현안	-5787
호의	-5788
환원	-5789
히트	-5790
ase	-5791
▁연도	-5792
▁유닛	-5793
▁주행	-5794
결과물	-5795
계열사	-5796
냅니다	-5797
뇌졸중	-5798
대리인	-5799
뜨거운	-5800
릅니다	-5801
사업체	-5802
스프링	-5803
아니한	-5804
의정부	-5805
이민자	-5806
자격증	-5807
즐거움	-5808
커넥터	-5809
하노이	-5810
▁질수록	-5811
▁_1998	-5812
CM	-5813
Ig	-5814
ct	-5815
▁곤	-5816
▁언	-5817
▁육	-5818
▁캐	-5819
▁품	-5820
간략	-5821
갤럭	-5822
고시	-5823
공화	-5824
관장	-5825
국면	-5826
너스	-5827
노년	-5828
노화	-5829
농림	-5830
대인	-5831
댄스	-5832
드문	-5833
리세	-5834
마감	-5835
마침	-5836
마트	-5837
만일	-5838
매주	-5839
메달	-5840
몰랐	-5841
몸체	-5842
방탄	-5843
부수	-5844
북측	-5845
상수	-5846
소집	-5847
쏟아	-5848
악관	-5849
애초	-5850
어리	-5851
예금	-5852
오버	-5853
오차	-5854
외식	-5855
유익	-5856
이게	-5857
인격	-5858
재직	-5859
적분	-5860
적색	-5861
정류	-5862
정립	-5863
정밀	-5864
정화	-5865
종결	-5866
짜리	-5867
철거	-5868
철회	-5869
청약	-5870
측벽	-5871
크로	-5872
탑재	-5873
파견	-5874
파리	-5875
피곤	-5876
학기	-5877
해명	-5878
행보	-5879
행태	-5880
▁대비	-5881
▁보증	-5882
▁사례	-5883
▁제한	-5884
▁직원	-5885
갤럭시	-5886
고령화	-5887
관절염	-5888
금요일	-5889
나선다	-5890
네이버	-5891
들어간	-5892
디스크	-5893
매니저	-5894
부회장	-5895
상속인	-5896
샘플링	-5897
세미나	-5898
응급실	-5899
이산화	-5900
인덱스	-5901
잇따라	-5902
적외선	-5903
젊은이	-5904
참석자	-5905
캠페인	-5906
파트너	-5907
포스트	-5908
▁_88	-5909
▁연합회	-5910
▁재정부	-5911
그렇지만	-5912
매트릭스	-5913
오프라인	-5914
▁_133	-5915
▁_301	-5916
▁_360	-5917
GB	-5918
KB	-5919
PL	-5920
RD	-5921
RE	-5922
▁T	-5923
▁족	-5924
▁프	-5925
견인	-5926
공직	-5927
국비	-5928
국한	-5929
권위	-5930
금전	-5931
급식	-5932
당했	-5933
도서	-5934
디션	-5935
뜨리	-5936
런스	-5937
레드	-5938
로직	-5939
마디	-5940
마찰	-5941
먼스	-5942
멘토	-5943
멘트	-5944
모션	-5945
무장	-5946
부근	-5947
빨라	-5948
상시	-5949
생계	-5950
소변	-5951
실종	-5952
심해	-5953
아닙	-5954
아베	-5955
약정	-5956
영구	-5957
영세	-5958
외주	-5959
우편	-5960
워서	-5961
원심	-5962
위성	-5963
유예	-5964
의제	-5965
이기	-5966
이집	-5967
잔류	-5968
조영	-5969
준공	-5970
진상	-5971
차선	-5972
척추	-5973
탐지	-5974
폭넓	-5975
표창	-5976
하중	-5977
한인	-5978
횡령	-5979
III	-5980
ers	-5981
ity	-5982
▁_『	-5983
▁_』	-5984
▁경험	-5985
▁고서	-5986
▁되게	-5987
▁위치	-5988
▁지지	-5989
▁추진	-5990
▁패턴	-5991
▁포럼	-5992
▁합의	-5993
관람객	-5994
교육청	-5995
기독교	-5996
남학생	-5997
백악관	-5998
사업비	-5999
송신기	-6000
일으킬	-6001
트로피	-6002
포먼스	-6003
폴리머	-6004
▁기본법	-6005
▁증후군	-6006
▁폐기물	-6007
디자이너	-6008
라이언트	-6009
저소득층	-6010
▁_134	-6011
▁_142	-6012
▁_193	-6013
클라이언트	-6014
▁_1970	-6015
GO	-6016
OH	-6017
ip	-6018
▁갔	-6019
▁근	-6020
▁난	-6021
▁답	-6022
▁앤	-6023
▁책	-6024
▁컵	-6025
▁탄	-6026
강연	-6027
거두	-6028
건의	-6029
결승	-6030
고조	-6031
과일	-6032
광장	-6033
교역	-6034
교장	-6035
교재	-6036
나뉘	-6037
넌트	-6038
데려	-6039
데미	-6040
도포	-6041
등기	-6042
러닝	-6043
마르	-6044
무늬	-6045
비리	-6046
상권	-6047
생리	-6048
세균	-6049
세웠	-6050
소거	-6051
소관	-6052
소문	-6053
수위	-6054
스웨	-6055
신축	-6056
아우	-6057
앞선	-6058
애니	-6059
어촌	-6060
업자	-6061
영재	-6062
운항	-6063
위약	-6064
입구	-6065
저기	-6066
저축	-6067
전세	-6068
조약	-6069
종사	-6070
중립	-6071
증강	-6072
지름	-6073
진리	-6074
차트	-6075
출구	-6076
커질	-6077
컴포	-6078
태권	-6079
특유	-6080
편견	-6081
포항	-6082
포화	-6083
플립	-6084
헬스	-6085
화려	-6086
회생	-6087
HbA	-6088
▁경쟁	-6089
▁계열	-6090
▁광부	-6091
▁다시	-6092
▁러블	-6093
▁방문	-6094
▁부장	-6095
▁사령	-6096
▁유로	-6097
▁의도	-6098
▁잖아	-6099
▁재난	-6100
▁전달	-6101
▁전형	-6102
▁지대	-6103
▁학회	-6104
가맹점	-6105
가해자	-6106
곧바로	-6107
그래핀	-6108
기다려	-6109
기하학	-6110
된다면	-6111
떨어졌	-6112
부드러	-6113
서초구	-6114
선보였	-6115
성폭행	-6116
세라믹	-6117
시상식	-6118
어우러	-6119
예산안	-6120
웨이퍼	-6121
이명박	-6122
일요일	-6123
캐리어	-6124
협의회	-6125
▁광역시	-6126
▁줍니다	-6127
다이어트	-6128
드립니다	-6129
컴포넌트	-6130
▁_144	-6131
BI	-6132
LP	-6133
kg	-6134
▁t	-6135
▁봐	-6136
▁텍	-6137
▁핵	-6138
가깝	-6139
감축	-6140
검진	-6141
결핍	-6142
계면	-6143
고소	-6144
골격	-6145
공예	-6146
교섭	-6147
국경	-6148
국고	-6149
국외	-6150
굴절	-6151
균열	-6152
김동	-6153
깨끗	-6154
눈물	-6155
던스	-6156
돼지	-6157
란트	-6158
래치	-6159
러리	-6160
로리	-6161
르트	-6162
맞춘	-6163
명목	-6164
목숨	-6165
문회	-6166
박수	-6167
배운	-6168
백신	-6169
법규	-6170
벨트	-6171
병합	-6172
복제	-6173
부전	-6174
빨간	-6175
산시	-6176
새해	-6177
생길	-6178
서양	-6179
선적	-6180
세분	-6181
세제	-6182
소시	-6183
손님	-6184
수거	-6185
숨지	-6186
시공	-6187
약관	-6188
약한	-6189
양주	-6190
열악	-6191
유래	-6192
유선	-6193
임용	-6194
재해	-6195
전액	-6196
절단	-6197
점포	-6198
정교	-6199
조심	-6200
조용	-6201
증식	-6202
카테	-6203
타격	-6204
투기	-6205
특검	-6206
평탄	-6207
표적	-6208
합류	-6209
해방	-6210
햅틱	-6211
혈전	-6212
형평	-6213
환영	-6214
▁가량	-6215
▁끼리	-6216
▁버스	-6217
▁사법	-6218
▁사진	-6219
▁수술	-6220
▁시티	-6221
▁실험	-6222
▁예의	-6223
▁유아	-6224
▁일지	-6225
▁전지	-6226
▁종양	-6227
▁초등	-6228
▁텐트	-6229
▁통상	-6230
▁피해	-6231
▁학원	-6232
▁흐름	-6233
게시판	-6234
기울기	-6235
동아리	-6236
떠오르	-6237
라이브	-6238
목적지	-6239
사용료	-6240
사이드	-6241
소년단	-6242
승무원	-6243
승용차	-6244
어울리	-6245
여학생	-6246
저출산	-6247
카데미	-6248
커다란	-6249
폴리오	-6250
플러그	-6251
▁201	-6252
▁_94	-6253
아닙니다	-6254
어드레스	-6255
퍼포먼스	-6256
페스티벌	-6257
▁_106	-6258
▁_221	-6259
▁_710	-6260
인플레이션	-6261
DI	-6262
HP	-6263
PI	-6264
TM	-6265
Ti	-6266
av	-6267
cm	-6268
cy	-6269
▁르	-6270
▁압	-6271
가교	-6272
강성	-6273
경미	-6274
경위	-6275
계단	-6276
고백	-6277
고생	-6278
공약	-6279
귀국	-6280
남한	-6281
내다	-6282
낸다	-6283
누락	-6284
덩이	-6285
도중	-6286
로컬	-6287
만났	-6288
만화	-6289
모순	-6290
모자	-6291
몰려	-6292
무너	-6293
문구	-6294
미러	-6295
바깥	-6296
반려	-6297
반박	-6298
발주	-6299
방북	-6300
법익	-6301
베네	-6302
분사	-6303
브리	-6304
빠졌	-6305
성명	-6306
수주	-6307
수증	-6308
승객	-6309
신원	-6310
아예	-6311
아트	-6312
안성	-6313
안착	-6314
액정	-6315
어른	-6316
엇갈	-6317
역전	-6318
오해	-6319
외면	-6320
위로	-6321
유한	-6322
이거	-6323
재활	-6324
적자	-6325
전라	-6326
져서	-6327
조회	-6328
종업	-6329
주류	-6330
주재	-6331
주한	-6332
줄기	-6333
중기	-6334
중시	-6335
창식	-6336
처치	-6337
총회	-6338
텔링	-6339
투석	-6340
판독	-6341
퍼지	-6342
포스	-6343
풍경	-6344
학과	-6345
행해	-6346
혈장	-6347
화해	-6348
휴일	-6349
▁50	-6350
▁근무	-6351
▁명회	-6352
▁모드	-6353
▁분리	-6354
▁아동	-6355
▁아이	-6356
▁영리	-6357
▁용품	-6358
▁으신	-6359
▁인터	-6360
▁재료	-6361
▁증가	-6362
▁증권	-6363
▁지향	-6364
▁철도	-6365
▁통제	-6366
▁파크	-6367
거주자	-6368
경제학	-6369
공감대	-6370
궁금증	-6371
드러냈	-6372
메이션	-6373
미사일	-6374
보험금	-6375
보호자	-6376
비활성	-6377
사망자	-6378
사운드	-6379
성범죄	-6380
스웨덴	-6381
신청서	-6382
아미노	-6383
이뤄질	-6384
임차인	-6385
접착제	-6386
항공기	-6387
▁_89	-6388
받아들여	-6389
살펴본다	-6390
아니한다	-6391
엘리먼트	-6392
▁_171	-6393
▁_192	-6394
방탄소년단	-6395
▁_3000	-6396
IU	-6397
PR	-6398
og	-6399
▁O	-6400
▁때	-6401
▁콘	-6402
▁틱	-6403
가량	-6404
개폐	-6405
거동	-6406
걸렸	-6407
걸릴	-6408
경부	-6409
고가	-6410
고마	-6411
고성	-6412
고안	-6413
공학	-6414
기둥	-6415
김종	-6416
나눌	-6417
남기	-6418
녹음	-6419
늘려	-6420
니어	-6421
다량	-6422
단장	-6423
담론	-6424
대개	-6425
대거	-6426
동북	-6427
동화	-6428
마비	-6429
만기	-6430
말로	-6431
맨드	-6432
머무	-6433
메르	-6434
며칠	-6435
면책	-6436
명단	-6437
명성	-6438
모의	-6439
미팅	-6440
믿음	-6441
바뀐	-6442
발령	-6443
배울	-6444
본래	-6445
비서	-6446
비싸	-6447
빌리	-6448
서부	-6449
세입	-6450
소결	-6451
소위	-6452
손잡	-6453
수식	-6454
수축	-6455
숨진	-6456
시드	-6457
실물	-6458
악성	-6459
양심	-6460
어르	-6461
여사	-6462
열람	-6463
위대	-6464
일보	-6465
일회	-6466
접지	-6467
정제	-6468
지목	-6469
차등	-6470
충청	-6471
치과	-6472
침체	-6473
쾌적	-6474
트래	-6475
파생	-6476
편향	-6477
포럼	-6478
폭로	-6479
피로	-6480
한강	-6481
한진	-6482
항암	-6483
해체	-6484
허락	-6485
효용	-6486
MRI	-6487
ect	-6488
▁TV	-6489
▁구간	-6490
▁근로	-6491
▁기념	-6492
▁기사	-6493
▁놀이	-6494
▁무자	-6495
▁실습	-6496
▁이전	-6497
▁자격	-6498
▁재생	-6499
▁정도	-6500
▁정비	-6501
▁정신	-6502
▁주간	-6503
▁지침	-6504
▁측면	-6505
▁캠프	-6506
▁하고	-6507
갑니다	-6508
강서구	-6509
골다공	-6510
광주시	-6511
너무나	-6512
다문화	-6513
두려움	-6514
라이프	-6515
반응기	-6516
수학자	-6517
시설물	-6518
잠재력	-6519
장애물	-6520
종업원	-6521
즐거운	-6522
지켜보	-6523
차이점	-6524
취업자	-6525
키스탄	-6526
트위터	-6527
플렉서	-6528
COPD	-6529
▁_02	-6530
골다공증	-6531
비트코인	-6532
스펙트럼	-6533
▁_001	-6534
▁_152	-6535
FF	-6536
KI	-6537
LN	-6538
Li	-6539
OP	-6540
PU	-6541
SC	-6542
TI	-6543
ce	-6544
oT	-6545
up	-6546
▁L	-6547
▁삼	-6548
▁쉬	-6549
간사	-6550
개봉	-6551
건너	-6552
건데	-6553
격려	-6554
경도	-6555
기공	-6556
기질	-6557
김진	-6558
김태	-6559
나갔	-6560
담낭	-6561
대입	-6562
동행	-6563
똑같	-6564
리즘	-6565
만료	-6566
몰리	-6567
무죄	-6568
미용	-6569
반입	-6570
발화	-6571
배임	-6572
병렬	-6573
분담	-6574
붙여	-6575
상측	-6576
선제	-6577
송금	-6578
수송	-6579
승계	-6580
시다	-6581
신재	-6582
신화	-6583
아프	-6584
에러	-6585
온실	-6586
원료	-6587
유관	-6588
으니	-6589
의거	-6590
이도	-6591
이승	-6592
인더	-6593
입체	-6594
자부	-6595
자성	-6596
전위	-6597
정점	-6598
조향	-6599
즐겁	-6600
지루	-6601
지주	-6602
징금	-6603
징역	-6604
차기	-6605
채취	-6606
청주	-6607
추억	-6608
출국	-6609
출제	-6610
친다	-6611
커서	-6612
케어	-6613
태아	-6614
팀장	-6615
파동	-6616
하수	-6617
한미	-6618
합쳐	-6619
해시	-6620
해킹	-6621
흔하	-6622
Met	-6623
RNA	-6624
▁23	-6625
▁40	-6626
▁공학	-6627
▁공헌	-6628
▁기자	-6629
▁기획	-6630
▁노조	-6631
▁농가	-6632
▁봐야	-6633
▁설비	-6634
▁요금	-6635
▁월드	-6636
▁의학	-6637
▁인권	-6638
▁제어	-6639
▁집행	-6640
▁짜리	-6641
▁축구	-6642
▁판매	-6643
▁프로	-6644
▁혈증	-6645
▁협의	-6646
갑작스	-6647
거쳐야	-6648
검출기	-6649
대학원	-6650
모집단	-6651
미생물	-6652
별다른	-6653
샤프트	-6654
소득세	-6655
시계열	-6656
아니면	-6657
아름다	-6658
어르신	-6659
인천시	-6660
자기장	-6661
자신감	-6662
장애인	-6663
정치인	-6664
진행할	-6665
최창식	-6666
코르티	-6667
크로스	-6668
패스트	-6669
평균값	-6670
현대차	-6671
회원국	-6672
▁구청장	-6673
▁박물관	-6674
대중교통	-6675
▁_620	-6676
▁고등학교	-6677
포트폴리오	-6678
▁_1100	-6679
▁_1997	-6680
▁멘	-6681
▁운	-6682
▁짐	-6683
▁척	-6684
▁칼	-6685
가용	-6686
각호	-6687
경정	-6688
계엄	-6689
과다	-6690
과잉	-6691
그게	-6692
기름	-6693
기성	-6694
김용	-6695
꼽히	-6696
끝내	-6697
남겨	-6698
내내	-6699
내장	-6700
넘겨	-6701
녹화	-6702
농민	-6703
다름	-6704
담겼	-6705
대결	-6706
대금	-6707
도쿄	-6708
동장	-6709
리조	-6710
리포	-6711
마그	-6712
말초	-6713
머신	-6714
메틸	-6715
명절	-6716
몰라	-6717
무려	-6718
문맥	-6719
미미	-6720
바꿀	-6721
보복	-6722
복사	-6723
부패	-6724
불교	-6725
뷰티	-6726
살리	-6727
수년	-6728
식도	-6729
쓰러	-6730
알파	-6731
야간	-6732
야외	-6733
양태	-6734
어떨	-6735
어진	-6736
없애	-6737
여수	-6738
열릴	-6739
열차	-6740
오리	-6741
유저	-6742
유족	-6743
응력	-6744
이슬	-6745
일괄	-6746
전승	-6747
점진	-6748
정관	-6749
조처	-6750
종일	-6751
주름	-6752
중위	-6753
지혜	-6754
청사	-6755
축산	-6756
출마	-6757
커스	-6758
크림	-6759
클로	-6760
패러	-6761
폐암	-6762
해군	-6763
힌다	-6764
ate	-6765
▁22	-6766
▁가액	-6767
▁결제	-6768
▁기법	-6769
▁단부	-6770
▁대금	-6771
▁분류	-6772
▁분포	-6773
▁생명	-6774
▁수입	-6775
▁수지	-6776
▁순환	-6777
▁연수	-6778
▁온도	-6779
▁의장	-6780
▁임대	-6781
▁입자	-6782
▁제안	-6783
▁조달	-6784
▁조합	-6785
▁현황	-6786
가져오	-6787
개구부	-6788
기무사	-6789
디코더	-6790
방문객	-6791
부적절	-6792
사법부	-6793
시그널	-6794
액티브	-6795
작곡가	-6796
찾아내	-6797
챔피언	-6798
치료제	-6799
코리아	-6800
혈소판	-6801
호기심	-6802
▁보조금	-6803
▁보호법	-6804
▁사무소	-6805
▁소비자	-6806
▁으려고	-6807
가상현실	-6808
경제성장	-6809
달라진다	-6810
부가가치	-6811
▁_530	-6812
애니메이션	-6813
커뮤니케이션	-6814
EP	-6815
LR	-6816
Le	-6817
OC	-6818
가습	-6819
간식	-6820
감싸	-6821
개통	-6822
걸린	-6823
고르	-6824
고형	-6825
골목	-6826
공론	-6827
공표	-6828
교반	-6829
구형	-6830
군인	-6831
귀사	-6832
그날	-6833
금연	-6834
긴밀	-6835
끼치	-6836
납품	-6837
내포	-6838
단단	-6839
대두	-6840
대우	-6841
도급	-6842
라미	-6843
막염	-6844
말기	-6845
멈추	-6846
무형	-6847
밀집	-6848
방열	-6849
분수	-6850
붙잡	-6851
비추	-6852
사지	-6853
산모	-6854
색깔	-6855
선두	-6856
선배	-6857
쏠리	-6858
야생	-6859
약해	-6860
양형	-6861
어쩌	-6862
에피	-6863
오가	-6864
오토	-6865
온다	-6866
유물	-6867
은퇴	-6868
음원	-6869
이를	-6870
인명	-6871
인연	-6872
일산	-6873
입국	-6874
자력	-6875
접할	-6876
제언	-6877
주자	-6878
창단	-6879
챙겨	-6880
총액	-6881
추락	-6882
추행	-6883
침입	-6884
타협	-6885
토피	-6886
티나	-6887
티스	-6888
판문	-6889
폐경	-6890
포털	-6891
하원	-6892
학대	-6893
해부	-6894
허브	-6895
혐오	-6896
후기	-6897
휘도	-6898
CHB	-6899
IoT	-6900
PSS	-6901
▁26	-6902
▁감소	-6903
▁강도	-6904
▁건축	-6905
▁검진	-6906
▁공기	-6907
▁교예	-6908
▁기한	-6909
▁노총	-6910
▁면허	-6911
▁병증	-6912
▁부채	-6913
▁부처	-6914
▁북부	-6915
▁비르	-6916
▁시킴	-6917
▁역학	-6918
▁영상	-6919
▁우드	-6920
▁질서	-6921
▁토록	-6922
▁했었	-6923
▁회관	-6924
▁효소	-6925
가르쳐	-6926
거짓말	-6927
경영진	-6928
과징금	-6929
냉각수	-6930
노이즈	-6931
다가오	-6932
벌어졌	-6933
스마스	-6934
아이스	-6935
음식점	-6936
적절히	-6937
지원자	-6938
찾아볼	-6939
추출물	-6940
커맨드	-6941
테리어	-6942
플랫폼	-6943
▁노동부	-6944
▁라운드	-6945
▁여서는	-6946
▁퍼센트	-6947
▁플란트	-6948
회귀분석	-6949
크리스마스	-6950
SI	-6951
ax	-6952
co	-6953
ff	-6954
iz	-6955
pp	-6956
▁돌	-6957
▁렌	-6958
▁립	-6959
▁순	-6960
▁싱	-6961
▁팩	-6962
가볍	-6963
가액	-6964
강구	-6965
강행	-6966
거점	-6967
걸친	-6968
고문	-6969
과반	-6970
관내	-6971
구청	-6972
권익	-6973
그만	-6974
기어	-6975
기침	-6976
김경	-6977
김포	-6978
나름	-6979
나설	-6980
넷째	-6981
누르	-6982
다툼	-6983
달랐	-6984
대륙	-6985
대식	-6986
던지	-6987
동성	-6988
동참	-6989
바늘	-6990
반경	-6991
발목	-6992
방과	-6993
부득	-6994
북구	-6995
분노	-6996
비로	-6997
비싼	-6998
빌려	-6999
상무	-7000
석탄	-7001
선율	-7002
세정	-7003
세탁	-7004
소진	-7005
수기	-7006
슬롯	-7007
승진	-7008
시가	-7009
시켜	-7010
식단	-7011
신비	-7012
신한	-7013
압도	-7014
양질	-7015
어쩔	-7016
오를	-7017
옮기	-7018
용해	-7019
우정	-7020
유죄	-7021
응축	-7022
인덕	-7023
자이	-7024
잡음	-7025
장난	-7026
정면	-7027
정성	-7028
제로	-7029
주간	-7030
진주	-7031
차질	-7032
채우	-7033
천구	-7034
취할	-7035
치러	-7036
코치	-7037
탈출	-7038
터널	-7039
퇴원	-7040
투스	-7041
투약	-7042
특례	-7043
페라	-7044
폐업	-7045
포용	-7046
플랜	-7047
힘입	-7048
CEO	-7049
POP	-7050
act	-7051
ist	-7052
▁31	-7053
▁34	-7054
▁경로	-7055
▁규범	-7056
▁노인	-7057
▁다니	-7058
▁뱅크	-7059
▁변인	-7060
▁선택	-7061
▁쇼핑	-7062
▁양성	-7063
▁연맹	-7064
▁용량	-7065
▁유지	-7066
▁입력	-7067
▁지법	-7068
▁창업	-7069
▁코드	-7070
▁투명	-7071
▁필터	-7072
강아지	-7073
고주파	-7074
과학자	-7075
기본법	-7076
나트륨	-7077
노원구	-7078
다공성	-7079
물리학	-7080
백화점	-7081
브리드	-7082
삼각형	-7083
스트로	-7084
에이터	-7085
연평균	-7086
오피스	-7087
외국어	-7088
운송인	-7089
이른다	-7090
이어진	-7091
입출력	-7092
캠퍼스	-7093
토요일	-7094
퍼런스	-7095
항소심	-7096
▁소송법	-7097
▁으니까	-7098
▁으려는	-7099
▁이미지	-7100
▁하우스	-7101
▁한가요	-7102
대한항공	-7103
프로그래	-7104
▁_107	-7105
▁_232	-7106
▁_302	-7107
▁_401	-7108
▁_550	-7109
하이브리드	-7110
PH	-7111
RL	-7112
SN	-7113
ex	-7114
ia	-7115
ow	-7116
ub	-7117
ue	-7118
▁V	-7119
▁릭	-7120
▁봇	-7121
▁폰	-7122
▁황	-7123
감수	-7124
강요	-7125
경주	-7126
고향	-7127
관료	-7128
관악	-7129
교양	-7130
구호	-7131
균등	-7132
금강	-7133
낭비	-7134
냉동	-7135
넘기	-7136
다발	-7137
대여	-7138
든다	-7139
런던	-7140
매달	-7141
메트	-7142
명문	-7143
몰드	-7144
문턱	-7145
물러	-7146
미루	-7147
버렸	-7148
변제	-7149
병력	-7150
본원	-7151
부딪	-7152
부양	-7153
부자	-7154
부활	-7155
분식	-7156
산란	-7157
선교	-7158
세그	-7159
솔직	-7160
송풍	-7161
시중	-7162
시진	-7163
신기	-7164
심근	-7165
액션	-7166
엘라	-7167
연준	-7168
영등	-7169
올릴	-7170
우위	-7171
원가	-7172
원통	-7173
월세	-7174
유대	-7175
으면	-7176
이정	-7177
이프	-7178
인디	-7179
인민	-7180
인출	-7181
입양	-7182
자사	-7183
잠깐	-7184
적당	-7185
접어	-7186
제동	-7187
준거	-7188
중도	-7189
지났	-7190
진지	-7191
차입	-7192
청산	-7193
체감	-7194
총재	-7195
카인	-7196
커리	-7197
코너	-7198
탈락	-7199
터빈	-7200
토양	-7201
트랙	-7202
파급	-7203
평판	-7204
포즈	-7205
한식	-7206
해운	-7207
형벌	-7208
호에	-7209
man	-7210
▁27	-7211
▁개정	-7212
▁교부	-7213
▁대행	-7214
▁변경	-7215
▁서류	-7216
▁서부	-7217
▁세트	-7218
▁일치	-7219
▁자유	-7220
▁작품	-7221
▁차별	-7222
▁창조	-7223
▁측정	-7224
▁테크	-7225
▁피스	-7226
▁필름	-7227
▁항목	-7228
▁해양	-7229
▁혈관	-7230
경찰청	-7231
뛰어나	-7232
마세요	-7233
모델링	-7234
불안감	-7235
블로그	-7236
비로소	-7237
선호도	-7238
시진핑	-7239
아마존	-7240
월평균	-7241
재건축	-7242
적으로	-7243
조합원	-7244
지난주	-7245
철저히	-7246
판문점	-7247
프린팅	-7248
플래시	-7249
현행법	-7250
흡착제	-7251
TACE	-7252
▁계획서	-7253
▁청정기	-7254
▁코리아	-7255
불법행위	-7256
▁_116	-7257
▁_203	-7258
▁_204	-7259
▁_222	-7260
▁드릴게요	-7261
▁_1995	-7262
Ar	-7263
GT	-7264
Ni	-7265
Re	-7266
WL	-7267
af	-7268
ib	-7269
▁K	-7270
▁R	-7271
▁X	-7272
▁e	-7273
▁냈	-7274
▁너	-7275
▁벽	-7276
▁빔	-7277
▁알	-7278
▁참	-7279
▁헌	-7280
각기	-7281
강렬	-7282
갖춰	-7283
개관	-7284
거울	-7285
견제	-7286
고대	-7287
고스	-7288
극히	-7289
근간	-7290
글루	-7291
기아	-7292
김현	-7293
까다	-7294
내역	-7295
너희	-7296
다임	-7297
당기	-7298
동부	-7299
뒤늦	-7300
드려	-7301
로이	-7302
리듬	-7303
매김	-7304
메리	-7305
명명	-7306
모노	-7307
미얀	-7308
발간	-7309
방학	-7310
배수	-7311
복호	-7312
부민	-7313
북쪽	-7314
분간	-7315
분당	-7316
불어	-7317
붙이	-7318
사퇴	-7319
산책	-7320
상사	-7321
생생	-7322
성년	-7323
세력	-7324
스캐	-7325
스팅	-7326
습도	-7327
승부	-7328
시신	-7329
신앙	-7330
신인	-7331
안심	-7332
앞장	-7333
애착	-7334
어서	-7335
업소	-7336
열려	-7337
열화	-7338
용품	-7339
원본	-7340
원유	-7341
위계	-7342
위함	-7343
응시	-7344
이견	-7345
익명	-7346
임피	-7347
장단	-7348
전적	-7349
정공	-7350
조별	-7351
조율	-7352
조현	-7353
존경	-7354
중계	-7355
직권	-7356
착오	-7357
청각	-7358
총선	-7359
총수	-7360
치환	-7361
칼리	-7362
커졌	-7363
크레	-7364
클릭	-7365
탁월	-7366
턴스	-7367
파주	-7368
포츠	-7369
한때	-7370
한번	-7371
한쪽	-7372
헤더	-7373
호출	-7374
흥행	-7375
CKD	-7376
ETR	-7377
ell	-7378
min	-7379
pro	-7380
▁25	-7381
▁가정	-7382
▁권한	-7383
▁뉴스	-7384
▁법상	-7385
▁복합	-7386
▁분위	-7387
▁세액	-7388
▁안보	-7389
▁원인	-7390
▁융합	-7391
▁지검	-7392
▁촉직	-7393
▁촉진	-7394
▁취량	-7395
▁혜택	-7396
▁화고	-7397
가져가	-7398
개개인	-7399
공기업	-7400
공통점	-7401
관심사	-7402
기울이	-7403
기증자	-7404
나란히	-7405
납니다	-7406
넘어가	-7407
단면도	-7408
대문구	-7409
브레이	-7410
소규모	-7411
스위스	-7412
아르헨	-7413
에틸렌	-7414
유의성	-7415
의료진	-7416
인지도	-7417
일부분	-7418
일으켰	-7419
전기차	-7420
증발기	-7421
증폭기	-7422
직장인	-7423
클래식	-7424
테리아	-7425
트랜스	-7426
포스코	-7427
프로브	-7428
한계점	-7429
흡연자	-7430
▁200	-7431
▁감독원	-7432
▁더라고	-7433
▁일자리	-7434
▁콘텐츠	-7435
가장자리	-7436
교통사고	-7437
레지스터	-7438
미친다는	-7439
보입니다	-7440
스토리지	-7441
스튜디오	-7442
인테리어	-7443
플렉서블	-7444
▁_540	-7445
아르헨티나	-7446
▁_1960	-7447
AE	-7448
FI	-7449
Fe	-7450
GI	-7451
ML	-7452
MT	-7453
ND	-7454
OD	-7455
RC	-7456
VA	-7457
ey	-7458
pe	-7459
▁H	-7460
▁꾼	-7461
▁낼	-7462
▁능	-7463
▁맵	-7464
▁셋	-7465
▁썬	-7466
▁올	-7467
▁휴	-7468
가짜	-7469
감도	-7470
개척	-7471
결산	-7472
경유	-7473
고개	-7474
골수	-7475
공소	-7476
교대	-7477
굴곡	-7478
권역	-7479
근원	-7480
근위	-7481
글자	-7482
금고	-7483
기쁨	-7484
김해	-7485
깨달	-7486
나눔	-7487
나마	-7488
남긴	-7489
다층	-7490
단서	-7491
대수	-7492
도산	-7493
돌보	-7494
동양	-7495
돼요	-7496
래요	-7497
램프	-7498
레버	-7499
마취	-7500
매핑	-7501
멋진	-7502
모래	-7503
무인	-7504
문법	-7505
배향	-7506
보스	-7507
부스	-7508
부종	-7509
분실	-7510
사외	-7511
서리	-7512
선전	-7513
성사	-7514
아까	-7515
안다	-7516
어두	-7517
에칭	-7518
연루	-7519
연체	-7520
염기	-7521
염두	-7522
용융	-7523
우체	-7524
응고	-7525
이완	-7526
이윤	-7527
인문	-7528
일각	-7529
잉크	-7530
자흐	-7531
장래	-7532
재벌	-7533
재화	-7534
적시	-7535
전직	-7536
정형	-7537
제휴	-7538
조도	-7539
존엄	-7540
종괴	-7541
줄여	-7542
중등	-7543
즐겨	-7544
진구	-7545
집값	-7546
징후	-7547
차폐	-7548
추산	-7549
태그	-7550
텐데	-7551
토큰	-7552
트넘	-7553
파란	-7554
편입	-7555
평구	-7556
한복	-7557
DMZ	-7558
▁교실	-7559
▁기지	-7560
▁느라	-7561
▁문학	-7562
▁보전	-7563
▁분권	-7564
▁비트	-7565
▁생태	-7566
▁였음	-7567
▁장려	-7568
▁전력	-7569
▁중개	-7570
▁지요	-7571
▁창출	-7572
▁케어	-7573
▁타운	-7574
▁표현	-7575
▁한가	-7576
게스트	-7577
고속도	-7578
고양시	-7579
고위급	-7580
고혈압	-7581
기업가	-7582
다행히	-7583
단기간	-7584
도메인	-7585
독립성	-7586
돌출부	-7587
메이저	-7588
부득이	-7589
부산시	-7590
불공정	-7591
상상력	-7592
생산량	-7593
생산자	-7594
수상자	-7595
슬라이	-7596
식습관	-7597
신경망	-7598
실린더	-7599
아닌지	-7600
아토피	-7601
에이전	-7602
우연히	-7603
이바지	-7604
이슬람	-7605
인코딩	-7606
임대료	-7607
자부심	-7608
자외선	-7609
자카르	-7610
재산세	-7611
정의당	-7612
중국어	-7613
췌장염	-7614
터미널	-7615
핀테크	-7616
SPSS	-7617
▁기술원	-7618
▁봉사자	-7619
▁케이스	-7620
▁특별시	-7621
고스란히	-7622
드러난다	-7623
부드러운	-7624
부위원장	-7625
세그먼트	-7626
슬라이드	-7627
이뤄지지	-7628
자리매김	-7629
자본주의	-7630
자카르타	-7631
코르티코	-7632
패러다임	-7633
▁바이러스	-7634
▁_1200	-7635
80	-7636
BD	-7637
SH	-7638
▁α	-7639
▁랩	-7640
▁맥	-7641
▁잔	-7642
▁칩	-7643
▁켓	-7644
▁펀	-7645
간과	-7646
감광	-7647
건비	-7648
경피	-7649
계시	-7650
공명	-7651
공산	-7652
과소	-7653
관념	-7654
교도	-7655
교란	-7656
구석	-7657
궤도	-7658
그릇	-7659
그쳤	-7660
기내	-7661
나눈	-7662
네티	-7663
농축	-7664
당사	-7665
동맹	-7666
뒤집	-7667
드래	-7668
레오	-7669
렌더	-7670
마모	-7671
매물	-7672
메탈	-7673
명동	-7674
모범	-7675
모은	-7676
무력	-7677
뭔가	-7678
발라	-7679
발사	-7680
발의	-7681
방치	-7682
배워	-7683
봐도	-7684
분위	-7685
분화	-7686
브렉	-7687
사내	-7688
사찰	-7689
선원	-7690
소라	-7691
소매	-7692
소폭	-7693
손목	-7694
수습	-7695
숙소	-7696
아나	-7697
아제	-7698
아크	-7699
어때	-7700
여정	-7701
연봉	-7702
열전	-7703
요하	-7704
우월	-7705
우유	-7706
원작	-7707
원전	-7708
원화	-7709
의상	-7710
인산	-7711
일면	-7712
임진	-7713
자재	-7714
장례	-7715
점막	-7716
조속	-7717
중순	-7718
지면	-7719
진심	-7720
창립	-7721
총체	-7722
최악	-7723
취향	-7724
치아	-7725
크라	-7726
크루	-7727
클리	-7728
탄화	-7729
토랑	-7730
통행	-7731
퇴행	-7732
파형	-7733
판시	-7734
페르	-7735
필연	-7736
했었	-7737
현직	-7738
협박	-7739
호수	-7740
횡단	-7741
GFR	-7742
all	-7743
art	-7744
ens	-7745
▁거든	-7746
▁관절	-7747
▁벤처	-7748
▁보유	-7749
▁봉투	-7750
▁성취	-7751
▁성향	-7752
▁소장	-7753
▁요원	-7754
▁전공	-7755
▁전류	-7756
▁전시	-7757
▁전체	-7758
▁정지	-7759
▁제기	-7760
▁지급	-7761
▁징수	-7762
▁친화	-7763
▁침해	-7764
▁케이	-7765
▁트리	-7766
▁합리	-7767
▁흥국	-7768
간단히	-7769
기업체	-7770
기준선	-7771
돌아왔	-7772
들여다	-7773
레지스	-7774
림프구	-7775
명령어	-7776
바이트	-7777
보건소	-7778
보여준	-7779
송파구	-7780
수요자	-7781
신생아	-7782
아이폰	-7783
연락처	-7784
오랜만	-7785
오페라	-7786
워크숍	-7787
유전체	-7788
이어져	-7789
인건비	-7790
인문학	-7791
자치구	-7792
장학금	-7793
종로구	-7794
지방산	-7795
진다는	-7796
집니다	-7797
카자흐	-7798
토트넘	-7799
판매자	-7800
필터링	-7801
해부학	-7802
회전축	-7803
MetS	-7804
OLED	-7805
▁스포츠	-7806
▁통신부	-7807
국무총리	-7808
그라운드	-7809
동아시아	-7810
드릴게요	-7811
레스토랑	-7812
아름다움	-7813
온실가스	-7814
으로부터	-7815
음주운전	-7816
임피던스	-7817
텔레비전	-7818
프로파일	-7819
▁_155	-7820
▁_630	-7821
▁_910	-7822
보건복지부	-7823
스토리텔링	-7824
HF	-7825
OL	-7826
TP	-7827
Th	-7828
UE	-7829
UN	-7830
VP	-7831
ak	-7832
oc	-7833
pl	-7834
qu	-7835
▁N	-7836
▁락	-7837
▁펜	-7838
▁폐	-7839
▁풍	-7840
가늠	-7841
가령	-7842
개헌	-7843
거둔	-7844
거뒀	-7845
견적	-7846
경매	-7847
극심	-7848
급등	-7849
급수	-7850
김재	-7851
김학	-7852
꿈꾸	-7853
내수	-7854
다지	-7855
단가	-7856
당하	-7857
도래	-7858
돌이	-7859
레일	-7860
로맨	-7861
마땅	-7862
마자	-7863
모인	-7864
민생	-7865
밀려	-7866
반하	-7867
방금	-7868
배웠	-7869
배타	-7870
버트	-7871
베르	-7872
부러	-7873
부리	-7874
불행	-7875
비닐	-7876
비장	-7877
비주	-7878
샌드	-7879
생식	-7880
성경	-7881
섹션	-7882
셔츠	-7883
소각	-7884
소급	-7885
숙제	-7886
스택	-7887
스파	-7888
시동	-7889
신라	-7890
싸이	-7891
써야	-7892
쓰기	-7893
아라	-7894
아쉽	-7895
액수	-7896
에지	-7897
여객	-7898
여파	-7899
연성	-7900
열쇠	-7901
외관	-7902
외모	-7903
외무	-7904
용수	-7905
워낙	-7906
위장	-7907
이례	-7908
자립	-7909
장부	-7910
장악	-7911
저번	-7912
저조	-7913
전향	-7914
조형	-7915
주지	-7916
주축	-7917
지성	-7918
지형	-7919
직렬	-7920
진영	-7921
집안	-7922
처럼	-7923
청색	-7924
청취	-7925
초콜	-7926
치우	-7927
칭찬	-7928
탄탄	-7929
펜션	-7930
표명	-7931
필라	-7932
합산	-7933
해임	-7934
형제	-7935
화문	-7936
환상	-7937
환수	-7938
획기	-7939
CNT	-7940
GPS	-7941
ICO	-7942
PCB	-7943
SUV	-7944
ach	-7945
ard	-7946
for	-7947
▁구나	-7948
▁국민	-7949
▁던데	-7950
▁민족	-7951
▁밀도	-7952
▁바이	-7953
▁부가	-7954
▁부품	-7955
▁세율	-7956
▁아트	-7957
▁애인	-7958
▁위반	-7959
▁일까	-7960
▁입법	-7961
▁장벽	-7962
▁전환	-7963
▁주제	-7964
▁청사	-7965
▁평균	-7966
▁하나	-7967
▁학과	-7968
▁합병	-7969
가까워	-7970
검찰청	-7971
계약서	-7972
그래피	-7973
기술력	-7974
난이도	-7975
네티즌	-7976
당분간	-7977
대단히	-7978
라디오	-7979
렌더링	-7980
마포구	-7981
바인더	-7982
발전소	-7983
베네수	-7984
보행자	-7985
비대칭	-7986
수수색	-7987
수시로	-7988
스트링	-7989
아쉬움	-7990
알칼리	-7991
애노드	-7992
야말로	-7993
에탄올	-7994
오프셋	-7995
중금속	-7996
초콜릿	-7997
췌장암	-7998
측정치	-7999
컨버터	-8000
트렌드	-8001
프린터	-8002
하이드	-8003
해결책	-8004
회사법	-8005
▁_03	-8006
▁경영자	-8007
▁담당자	-8008
▁박람회	-8009
▁스러워	-8010
▁영화제	-8011
▁은데요	-8012
압수수색	-8013
주어진다	-8014
▁_108	-8015
▁_143	-8016
▁_153	-8017
▁_213	-8018
▁_280	-8019
베네수엘라	-8020
Ca	-8021
Cl	-8022
EX	-8023
GR	-8024
Tr	-8025
VE	-8026
ox	-8027
▁h	-8028
▁록	-8029
▁않	-8030
▁움	-8031
▁탑	-8032
▁～	-8033
간암	-8034
개월	-8035
걸림	-8036
걸이	-8037
고루	-8038
공청	-8039
구니	-8040
굳이	-8041
그랬	-8042
근력	-8043
김병	-8044
꺼내	-8045
남겼	-8046
낯선	-8047
내게	-8048
넓이	-8049
노무	-8050
높였	-8051
뉴얼	-8052
느리	-8053
담임	-8054
도박	-8055
도정	-8056
둥이	-8057
드루	-8058
매진	-8059
명분	-8060
모리	-8061
무산	-8062
물려	-8063
민선	-8064
배관	-8065
배움	-8066
버려	-8067
법학	-8068
변위	-8069
변호	-8070
부천	-8071
북도	-8072
비유	-8073
사령	-8074
산구	-8075
살피	-8076
상급	-8077
상반	-8078
상온	-8079
손쉽	-8080
수장	-8081
스카	-8082
스팀	-8083
스핀	-8084
식량	-8085
아픈	-8086
악취	-8087
약국	-8088
영동	-8089
영웅	-8090
와인	-8091
완공	-8092
왕복	-8093
외곽	-8094
워하	-8095
유독	-8096
유료	-8097
응집	-8098
이면	-8099
자진	-8100
작전	-8101
저온	-8102
적격	-8103
전염	-8104
절약	-8105
접경	-8106
제게	-8107
조류	-8108
중부	-8109
증기	-8110
짐작	-8111
창고	-8112
창문	-8113
청정	-8114
체내	-8115
침범	-8116
침습	-8117
타운	-8118
평범	-8119
평평	-8120
한창	-8121
함의	-8122
합계	-8123
해법	-8124
호우	-8125
회동	-8126
회식	-8127
흑연	-8128
CSR	-8129
SVR	-8130
ive	-8131
▁36	-8132
▁80	-8133
▁_*	-8134
▁_°	-8135
▁nm	-8136
▁광고	-8137
▁광장	-8138
▁구속	-8139
▁네트	-8140
▁마리	-8141
▁배출	-8142
▁보상	-8143
▁사상	-8144
▁소리	-8145
▁소재	-8146
▁수석	-8147
▁시청	-8148
▁신경	-8149
▁실시	-8150
▁실태	-8151
▁어린	-8152
▁윤리	-8153
▁정치	-8154
▁조례	-8155
▁진행	-8156
▁참가	-8157
가져다	-8158
공연장	-8159
공직자	-8160
국세청	-8161
그나마	-8162
노하우	-8163
다국적	-8164
대법관	-8165
들어갈	-8166
미얀마	-8167
방송사	-8168
베스트	-8169
베이징	-8170
부담감	-8171
사이토	-8172
성추행	-8173
수영장	-8174
스테론	-8175
실외기	-8176
안타까	-8177
알부민	-8178
영화제	-8179
우즈베	-8180
우체국	-8181
작업자	-8182
장시간	-8183
전기장	-8184
중학생	-8185
중합체	-8186
지나가	-8187
지방간	-8188
최적화	-8189
칼로리	-8190
코스닥	-8191
포스터	-8192
하우스	-8193
행사장	-8194
▁거래법	-8195
▁근로자	-8196
▁신청서	-8197
▁중공업	-8198
대식세포	-8199
브레이크	-8200
블루투스	-8201
비휘발성	-8202
상관없이	-8203
소멸시효	-8204
스트리밍	-8205
엔트로피	-8206
이뤄지고	-8207
▁_126	-8208
▁_154	-8209
▁_162	-8210
▁_172	-8211
▁_311	-8212
프로그래밍	-8213
▁_2030	-8214
AC	-8215
CJ	-8216
GM	-8217
HS	-8218
Hg	-8219
SL	-8220
ng	-8221
▁릿	-8222
▁빙	-8223
▁엠	-8224
▁철	-8225
가려	-8226
가죽	-8227
골드	-8228
골든	-8229
공판	-8230
과감	-8231
관습	-8232
괴롭	-8233
구경	-8234
구도	-8235
구미	-8236
기에	-8237
김상	-8238
깨닫	-8239
꼬리	-8240
꼼꼼	-8241
끄러	-8242
나쁘	-8243
늘어	-8244
닉스	-8245
다채	-8246
단식	-8247
도약	-8248
동쪽	-8249
동해	-8250
두리	-8251
랜덤	-8252
러브	-8253
리바	-8254
리얼	-8255
마다	-8256
매듭	-8257
물어	-8258
미뤄	-8259
밀리	-8260
바닷	-8261
발산	-8262
발음	-8263
방영	-8264
방울	-8265
변속	-8266
비춰	-8267
상습	-8268
서예	-8269
소금	-8270
소실	-8271
소홀	-8272
스탠	-8273
승소	-8274
시세	-8275
시연	-8276
신동	-8277
싱글	-8278
안무	-8279
안방	-8280
약자	-8281
양산	-8282
양수	-8283
양승	-8284
역설	-8285
연설	-8286
영위	-8287
예보	-8288
우징	-8289
월경	-8290
유성	-8291
윤곽	-8292
의류	-8293
이걸	-8294
자존	-8295
작사	-8296
장내	-8297
적법	-8298
전단	-8299
전무	-8300
중견	-8301
중동	-8302
증류	-8303
진폭	-8304
질러	-8305
집권	-8306
채점	-8307
천군	-8308
최상	-8309
추모	-8310
치즈	-8311
쿠폰	-8312
탐방	-8313
텍스	-8314
통장	-8315
투쟁	-8316
트럭	-8317
패치	-8318
편하	-8319
평형	-8320
하측	-8321
해력	-8322
호남	-8323
회절	-8324
회화	-8325
흰색	-8326
HIV	-8327
age	-8328
igh	-8329
▁강화	-8330
▁결합	-8331
▁구매	-8332
▁대전	-8333
▁레드	-8334
▁모임	-8335
▁미군	-8336
▁배분	-8337
▁밸브	-8338
▁복무	-8339
▁분배	-8340
▁사람	-8341
▁사랑	-8342
▁성능	-8343
▁신탁	-8344
▁언어	-8345
▁영향	-8346
▁원회	-8347
▁인사	-8348
▁인상	-8349
▁작가	-8350
▁장소	-8351
▁접종	-8352
▁주사	-8353
▁지체	-8354
▁치가	-8355
▁편성	-8356
▁호텔	-8357
▁화면	-8358
가구원	-8359
가져야	-8360
가져왔	-8361
공급자	-8362
공청회	-8363
과반수	-8364
구제역	-8365
구직자	-8366
긴장감	-8367
넘어섰	-8368
돌아보	-8369
둘러보	-8370
드러난	-8371
들어온	-8372
매뉴얼	-8373
먹거리	-8374
물고기	-8375
벌어진	-8376
범죄자	-8377
복강경	-8378
비해서	-8379
사라졌	-8380
소기업	-8381
수요일	-8382
수차례	-8383
시공간	-8384
신고자	-8385
아닌가	-8386
아닐까	-8387
아무것	-8388
안타깝	-8389
어떨까	-8390
엉덩이	-8391
옵니다	-8392
접어들	-8393
제공항	-8394
충실히	-8395
커플링	-8396
케이크	-8397
클래스	-8398
클수록	-8399
통신망	-8400
트리거	-8401
특별법	-8402
피사체	-8403
현지인	-8404
▁담당관	-8405
▁드린다	-8406
▁레이트	-8407
▁문화원	-8408
▁자마자	-8409
▁포인트	-8410
두드러지	-8411
박테리아	-8412
블레이드	-8413
카테고리	-8414
프로세싱	-8415
플레이어	-8416
협동조합	-8417
▁_118	-8418
▁_128	-8419
▁_251	-8420
▁_470	-8421
▁_730	-8422
우즈베키스탄	-8423
AM	-8424
FT	-8425
Mg	-8426
Na	-8427
SE	-8428
SF	-8429
ob	-8430
▁귀	-8431
▁넥	-8432
▁듀	-8433
▁례	-8434
▁짓	-8435
▁칭	-8436
▁컨	-8437
▁콜	-8438
▁핀	-8439
가벼	-8440
가압	-8441
가축	-8442
각급	-8443
감당	-8444
격리	-8445
격벽	-8446
결렬	-8447
결여	-8448
경관	-8449
계곡	-8450
고립	-8451
공영	-8452
공헌	-8453
광선	-8454
광자	-8455
구두	-8456
구정	-8457
국부	-8458
그걸	-8459
극한	-8460
근데	-8461
기장	-8462
나열	-8463
내놨	-8464
내륙	-8465
노광	-8466
담즙	-8467
도형	-8468
독창	-8469
들리	-8470
따랐	-8471
로서	-8472
마켓	-8473
먹이	-8474
명품	-8475
미디	-8476
민속	-8477
밀폐	-8478
바꾼	-8479
바뀔	-8480
바퀴	-8481
반품	-8482
반해	-8483
백색	-8484
백혈	-8485
버그	-8486
버시	-8487
법조	-8488
볼륨	-8489
분만	-8490
사형	-8491
산성	-8492
산재	-8493
산학	-8494
삼각	-8495
상고	-8496
석방	-8497
선천	-8498
섬세	-8499
속력	-8500
슬릿	-8501
승차	-8502
신약	-8503
심도	-8504
아픔	-8505
안락	-8506
안양	-8507
애정	-8508
여타	-8509
연내	-8510
연일	-8511
열풍	-8512
외상	-8513
용지	-8514
운명	-8515
육상	-8516
이룰	-8517
자매	-8518
자식	-8519
자칫	-8520
잠정	-8521
잡지	-8522
장수	-8523
전투	-8524
접점	-8525
정답	-8526
제국	-8527
제보	-8528
조국	-8529
중고	-8530
중추	-8531
증언	-8532
지붕	-8533
직류	-8534
천천	-8535
촬상	-8536
최다	-8537
출하	-8538
캐비	-8539
캠핑	-8540
타원	-8541
탈착	-8542
태극	-8543
토리	-8544
통역	-8545
퇴출	-8546
포획	-8547
푸른	-8548
프랜	-8549
피자	-8550
헌신	-8551
현존	-8552
홈런	-8553
후생	-8554
흉기	-8555
BMW	-8556
CVD	-8557
MBC	-8558
ore	-8559
pop	-8560
▁_#	-8561
▁금속	-8562
▁나갈	-8563
▁단원	-8564
▁동의	-8565
▁라기	-8566
▁랜드	-8567
▁민주	-8568
▁박스	-8569
▁발표	-8570
▁백만	-8571
▁법률	-8572
▁변동	-8573
▁보도	-8574
▁사단	-8575
▁상승	-8576
▁시즌	-8577
▁시행	-8578
▁에겐	-8579
▁요양	-8580
▁위생	-8581
▁으러	-8582
▁으리	-8583
▁이스	-8584
▁자율	-8585
▁조성	-8586
▁처벌	-8587
▁청원	-8588
▁축산	-8589
▁키로	-8590
▁통화	-8591
▁회전	-8592
개발자	-8593
거래위	-8594
경기장	-8595
고정부	-8596
광화문	-8597
구매자	-8598
국무부	-8599
기관장	-8600
남북한	-8601
대표단	-8602
대해선	-8603
돋보이	-8604
리조트	-8605
메이커	-8606
면밀히	-8607
박람회	-8608
방법론	-8609
본회의	-8610
브리핑	-8611
블라디	-8612
사우디	-8613
생존자	-8614
수화물	-8615
영수증	-8616
이집트	-8617
존중감	-8618
줄어드	-8619
중국인	-8620
증권사	-8621
천천히	-8622
충전기	-8623
코로나	-8624
타이틀	-8625
통계청	-8626
트래픽	-8627
펼쳐지	-8628
화이트	-8629
활성탄	-8630
test	-8631
▁_07	-8632
▁경쟁력	-8633
▁단체장	-8634
▁발전소	-8635
그리스도	-8636
다운로드	-8637
독립운동	-8638
매개변수	-8639
사회주의	-8640
에이전트	-8641
주식회사	-8642
중앙은행	-8643
카카오톡	-8644
한국은행	-8645
▁_161	-8646
▁_164	-8647
▁_189	-8648
▁_241	-8649
▁_440	-8650
▁시킨다는	-8651
공정거래위	-8652
동남아시아	-8653
사이토카인	-8654
프라이버시	-8655
▁_1950	-8656
▁_1992	-8657
As	-8658
EB	-8659
GH	-8660
HC	-8661
HL	-8662
OO	-8663
SR	-8664
TE	-8665
TG	-8666
VC	-8667
ra	-8668
sc	-8669
▁독	-8670
▁령	-8671
▁료	-8672
▁악	-8673
▁졸	-8674
▁춤	-8675
가루	-8676
가뭄	-8677
감기	-8678
감자	-8679
강세	-8680
개소	-8681
겨우	-8682
경연	-8683
고수	-8684
곱셈	-8685
공략	-8686
공평	-8687
과민	-8688
관건	-8689
구심	-8690
귀여	-8691
그릴	-8692
기리	-8693
기피	-8694
낙태	-8695
낚시	-8696
내각	-8697
내비	-8698
노령	-8699
농사	-8700
놓인	-8701
놓치	-8702
누릴	-8703
누설	-8704
누출	-8705
다각	-8706
다룰	-8707
당당	-8708
당황	-8709
대부	-8710
대위	-8711
도체	-8712
동결	-8713
동전	-8714
동조	-8715
동종	-8716
라엘	-8717
로터	-8718
루브	-8719
리브	-8720
메탄	-8721
목포	-8722
못지	-8723
미스	-8724
민관	-8725
발진	-8726
밝기	-8727
방면	-8728
배리	-8729
밸리	-8730
번에	-8731
복무	-8732
본문	-8733
본선	-8734
봉투	-8735
부극	-8736
비드	-8737
비자	-8738
사명	-8739
사슬	-8740
산후	-8741
살짝	-8742
새끼	-8743
생선	-8744
서빙	-8745
선명	-8746
선점	-8747
세척	-8748
솔로	-8749
수화	-8750
숙련	-8751
시차	-8752
신성	-8753
실감	-8754
실망	-8755
아파	-8756
양면	-8757
역동	-8758
연임	-8759
연통	-8760
열기	-8761
영원	-8762
옛날	-8763
오일	-8764
외신	-8765
우회	-8766
워터	-8767
위배	-8768
이산	-8769
이영	-8770
인턴	-8771
인형	-8772
입건	-8773
전계	-8774
전당	-8775
정동	-8776
제이	-8777
중화	-8778
지르	-8779
지우	-8780
차분	-8781
책무	-8782
처지	-8783
첫날	-8784
체력	-8785
촉발	-8786
추경	-8787
충동	-8788
치수	-8789
캐시	-8790
캡쳐	-8791
케인	-8792
코트	-8793
타르	-8794
타일	-8795
탄산	-8796
파크	-8797
퍼져	-8798
포집	-8799
표출	-8800
한전	-8801
합법	-8802
해고	-8803
해수	-8804
현역	-8805
협정	-8806
홍수	-8807
환기	-8808
희곡	-8809
희석	-8810
BMD	-8811
NFC	-8812
SLE	-8813
TDF	-8814
USB	-8815
ast	-8816
ver	-8817
▁관청	-8818
▁규명	-8819
▁냐고	-8820
▁대응	-8821
▁배당	-8822
▁버리	-8823
▁부족	-8824
▁부진	-8825
▁수산	-8826
▁수학	-8827
▁승인	-8828
▁시도	-8829
▁시점	-8830
▁야구	-8831
▁연대	-8832
▁영업	-8833
▁용부	-8834
▁일보	-8835
▁주석	-8836
▁차이	-8837
▁처장	-8838
▁침체	-8839
▁탄력	-8840
▁페니	-8841
감광성	-8842
검색어	-8843
고령자	-8844
고위험	-8845
공교육	-8846
공모전	-8847
관악구	-8848
구로구	-8849
그리드	-8850
놀라운	-8851
동남아	-8852
들어왔	-8853
뛰어넘	-8854
레이터	-8855
마사지	-8856
면세점	-8857
미성년	-8858
발전기	-8859
벨기에	-8860
보유자	-8861
보이스	-8862
부른다	-8863
불거지	-8864
성남시	-8865
성장세	-8866
성취도	-8867
수용자	-8868
슈타인	-8869
스캔들	-8870
스트라	-8871
신청자	-8872
아세안	-8873
안전성	-8874
외교부	-8875
움직일	-8876
유가족	-8877
유방암	-8878
음식물	-8879
의한다	-8880
이어폰	-8881
제조사	-8882
차이즈	-8883
책임자	-8884
취재진	-8885
카운터	-8886
태어나	-8887
테이프	-8888
포지션	-8889
피아노	-8890
회로도	-8891
흔들리	-8892
▁100	-8893
▁계약자	-8894
▁시켜야	-8895
▁올림픽	-8896
▁월드컵	-8897
▁유공자	-8898
▁인터넷	-8899
▁청소년	-8900
▁하우징	-8901
관상동맥	-8902
문화유산	-8903
불휘발성	-8904
사무총장	-8905
알려준다	-8906
유가증권	-8907
이스라엘	-8908
전라남도	-8909
트레이닝	-8910
피보험자	-8911
▁_165	-8912
▁_182	-8913
▁_231	-8914
▁_290	-8915
▁_402	-8916
▁_920	-8917
자아존중감	-8918
카자흐스탄	-8919
프랜차이즈	-8920
▁_1120	-8921
▁_2022	-8922
CB	-8923
Cu	-8924
GA	-8925
HA	-8926
KL	-8927
SD	-8928
Sh	-8929
ew	-8930
mi	-8931
▁견	-8932
▁났	-8933
▁빌	-8934
▁옥	-8935
▁쳐	-8936
강풍	-8937
개연	-8938
결심	-8939
경감	-8940
경원	-8941
경합	-8942
계량	-8943
공군	-8944
공리	-8945
과대	-8946
과자	-8947
교감	-8948
교복	-8949
교직	-8950
국군	-8951
군대	-8952
궤양	-8953
급락	-8954
기르	-8955
기숙	-8956
김민	-8957
난임	-8958
날카	-8959
남산	-8960
넌스	-8961
누진	-8962
단정	-8963
당첨	-8964
대본	-8965
대항	-8966
대향	-8967
더블	-8968
동법	-8969
될지	-8970
뒷면	-8971
라벨	-8972
리셋	-8973
리터	-8974
마스	-8975
맡겨	-8976
맡기	-8977
매번	-8978
머스	-8979
모방	-8980
무단	-8981
무척	-8982
미수	-8983
미토	-8984
밀봉	-8985
바쁜	-8986
반송	-8987
방한	-8988
변함	-8989
볼트	-8990
부속	-8991
부유	-8992
분열	-8993
브로	-8994
블릿	-8995
빼앗	-8996
사원	-8997
산부	-8998
상충	-8999
생검	-9000
샤워	-9001
서사	-9002
서열	-9003
세목	-9004
수율	-9005
숨졌	-9006
승강	-9007
승자	-9008
시블	-9009
신저	-9010
심청	-9011
아끼	-9012
알렸	-9013
약하	-9014
양단	-9015
양보	-9016
업적	-9017
에코	-9018
연쇄	-9019
연인	-9020
염소	-9021
영리	-9022
영토	-9023
오빠	-9024
온수	-9025
완충	-9026
외출	-9027
우린	-9028
우산	-9029
우호	-9030
유포	-9031
은혜	-9032
응하	-9033
이관	-9034
이직	-9035
익히	-9036
자의	-9037
재심	-9038
전격	-9039
정무	-9040
정작	-9041
정직	-9042
제표	-9043
조짐	-9044
종단	-9045
좌관	-9046
준하	-9047
중년	-9048
직스	-9049
천공	-9050
청렴	-9051
치킨	-9052
키트	-9053
테스	-9054
평창	-9055
포맷	-9056
포상	-9057
푸스	-9058
풀리	-9059
플로	-9060
피할	-9061
학사	-9062
학설	-9063
항만	-9064
해지	-9065
혈류	-9066
홍역	-9067
후회	-9068
CRP	-9069
IBM	-9070
ICU	-9071
LTE	-9072
PGA	-9073
SOC	-9074
ang	-9075
ass	-9076
ial	-9077
ort	-9078
▁강점	-9079
▁건전	-9080
▁경비	-9081
▁곤란	-9082
▁구민	-9083
▁기회	-9084
▁내역	-9085
▁논문	-9086
▁다음	-9087
▁대한	-9088
▁도민	-9089
▁돌봄	-9090
▁무용	-9091
▁사기	-9092
▁상환	-9093
▁서울	-9094
▁세제	-9095
▁수도	-9096
▁실천	-9097
▁영어	-9098
▁옵션	-9099
▁용역	-9100
▁유발	-9101
▁유통	-9102
▁이닝	-9103
▁인과	-9104
▁정당	-9105
▁정원	-9106
▁취소	-9107
▁타당	-9108
▁태도	-9109
▁팀장	-9110
▁판단	-9111
▁편의	-9112
▁학급	-9113
▁항공	-9114
▁해제	-9115
▁혈당	-9116
▁환부	-9117
가져올	-9118
간다는	-9119
감염병	-9120
경화증	-9121
구성도	-9122
기념식	-9123
내년도	-9124
내다봤	-9125
높인다	-9126
늘어났	-9127
대구시	-9128
덩어리	-9129
레이트	-9130
로그인	-9131
로이터	-9132
모니아	-9133
미술관	-9134
민원인	-9135
버넌스	-9136
사고력	-9137
설명력	-9138
섬유증	-9139
성매매	-9140
소시엄	-9141
손잡이	-9142
스케일	-9143
스티븐	-9144
식생활	-9145
아니요	-9146
아름답	-9147
어두운	-9148
유권자	-9149
이용객	-9150
전문의	-9151
제임스	-9152
증여세	-9153
지원금	-9154
직사각	-9155
체납자	-9156
체질량	-9157
취득세	-9158
캐소드	-9159
캐스팅	-9160
태블릿	-9161
투과율	-9162
프린트	-9163
플러스	-9164
피부염	-9165
희생자	-9166
▁_08	-9167
▁경찰청	-9168
▁브레인	-9169
▁소유자	-9170
▁였음을	-9171
▁진다는	-9172
▁할게요	-9173
미친다고	-9174
바이어스	-9175
배기가스	-9176
소득세법	-9177
손해배상	-9178
슬라이딩	-9179
아미노산	-9180
테러리즘	-9181
플렉시블	-9182
▁_223	-9183
▁_650	-9184
▁_720	-9185
▁산업단지	-9186
마이크로폰	-9187
▁_1994	-9188
▁_1996	-9189
FO	-9190
LL	-9191
SU	-9192
UT	-9193
cl	-9194
de	-9195
ys	-9196
▁E	-9197
▁까	-9198
▁넷	-9199
▁쓰	-9200
▁칸	-9201
▁컬	-9202
▁쿠	-9203
▁틀	-9204
▁팔	-9205
▁폴	-9206
가마	-9207
갈비	-9208
개재	-9209
건지	-9210
걸어	-9211
검체	-9212
겹치	-9213
경신	-9214
계통	-9215
고받	-9216
곡면	-9217
관중	-9218
괴리	-9219
구급	-9220
굴착	-9221
금호	-9222
기량	-9223
깔끔	-9224
낙관	-9225
낙찰	-9226
내신	-9227
네덜	-9228
넥센	-9229
노즐	-9230
니켈	-9231
담도	-9232
답답	-9233
당직	-9234
당한	-9235
대원	-9236
더스	-9237
동호	-9238
돼서	-9239
등산	-9240
따를	-9241
따져	-9242
뚜껑	-9243
뜨렸	-9244
라돈	-9245
리모	-9246
마산	-9247
막혀	-9248
만간	-9249
맞서	-9250
모기	-9251
목회	-9252
무서	-9253
무언	-9254
미션	-9255
민지	-9256
바리	-9257
바쁘	-9258
박리	-9259
발매	-9260
발성	-9261
벤치	-9262
병리	-9263
보류	-9264
부식	-9265
부응	-9266
불꽃	-9267
불신	-9268
비위	-9269
사연	-9270
상계	-9271
상류	-9272
상점	-9273
색소	-9274
설사	-9275
소감	-9276
소명	-9277
소액	-9278
소환	-9279
손익	-9280
송도	-9281
순천	-9282
스퍼	-9283
시피	-9284
시흥	-9285
신나	-9286
신부	-9287
실기	-9288
실례	-9289
안쪽	-9290
어민	-9291
엄중	-9292
에폭	-9293
여비	-9294
영아	-9295
예선	-9296
오목	-9297
오존	-9298
옹호	-9299
유류	-9300
의병	-9301
인드	-9302
일기	-9303
임종	-9304
입각	-9305
자각	-9306
자질	-9307
잡힌	-9308
재편	-9309
절충	-9310
정시	-9311
정차	-9312
제제	-9313
조망	-9314
조장	-9315
직교	-9316
직종	-9317
진압	-9318
질렀	-9319
차광	-9320
첨예	-9321
최장	-9322
추위	-9323
춘천	-9324
치안	-9325
침수	-9326
침윤	-9327
칼럼	-9328
털어	-9329
통치	-9330
트라	-9331
파열	-9332
펼쳤	-9333
풍기	-9334
프란	-9335
플루	-9336
피력	-9337
필기	-9338
하얀	-9339
합치	-9340
해설	-9341
현수	-9342
혈중	-9343
회신	-9344
후배	-9345
흑색	-9346
흑자	-9347
AFP	-9348
DAA	-9349
IgG	-9350
MAC	-9351
ZnO	-9352
ann	-9353
▁28	-9354
▁29	-9355
▁건물	-9356
▁고령	-9357
▁고요	-9358
▁공부	-9359
▁공화	-9360
▁교섭	-9361
▁기계	-9362
▁나노	-9363
▁나무	-9364
▁될지	-9365
▁로워	-9366
▁마크	-9367
▁법칙	-9368
▁변환	-9369
▁습관	-9370
▁영재	-9371
▁예고	-9372
▁원리	-9373
▁유총	-9374
▁으셨	-9375
▁인원	-9376
▁인치	-9377
▁전이	-9378
▁점유	-9379
▁져야	-9380
▁중단	-9381
▁지주	-9382
▁진이	-9383
▁채무	-9384
▁천억	-9385
▁커버	-9386
▁특례	-9387
▁폐쇄	-9388
▁학자	-9389
▁확대	-9390
▁확정	-9391
감사원	-9392
강동구	-9393
글쓰기	-9394
기다렸	-9395
기준치	-9396
난소암	-9397
내려가	-9398
노동당	-9399
노트북	-9400
대주주	-9401
드리아	-9402
들어와	-9403
림프절	-9404
모양새	-9405
모회사	-9406
무언가	-9407
미국인	-9408
배리어	-9409
부담금	-9410
부적합	-9411
불거진	-9412
비주얼	-9413
사용량	-9414
사회과	-9415
상관없	-9416
생긴다	-9417
생성물	-9418
생화학	-9419
서해안	-9420
소방관	-9421
속한다	-9422
수원시	-9423
스토퍼	-9424
쏟아지	-9425
아티닌	-9426
어쩌면	-9427
에어컨	-9428
에폭시	-9429
용산구	-9430
원자력	-9431
위해선	-9432
유학생	-9433
이뤄진	-9434
이해도	-9435
일으킨	-9436
저지른	-9437
전도체	-9438
조만간	-9439
조직학	-9440
주고받	-9441
주성분	-9442
중요도	-9443
증가세	-9444
코스피	-9445
타당도	-9446
태어난	-9447
프리뷰	-9448
하락세	-9449
했으나	-9450
화학식	-9451
ADHD	-9452
▁_06	-9453
▁관리법	-9454
▁로직스	-9455
▁부지사	-9456
▁상거래	-9457
네덜란드	-9458
노동조합	-9459
대통령령	-9460
스테이지	-9461
암모니아	-9462
여겨진다	-9463
오피스텔	-9464
유럽연합	-9465
이뤄지는	-9466
컨소시엄	-9467
표준편차	-9468
▁_163	-9469
▁_312	-9470
▁_830	-9471
객관적으로	-9472
멀티미디어	-9473
부가가치세	-9474
크레아티닌	-9475
▁_5000	-9476
De	-9477
IO	-9478
KO	-9479
MI	-9480
PB	-9481
RT	-9482
TD	-9483
UC	-9484
VI	-9485
WS	-9486
io	-9487
▁렀	-9488
▁린	-9489
▁멸	-9490
▁얼	-9491
▁울	-9492
▁촌	-9493
▁텀	-9494
가난	-9495
가담	-9496
간극	-9497
감압	-9498
갔었	-9499
강간	-9500
거세	-9501
거실	-9502
거품	-9503
결단	-9504
결손	-9505
경막	-9506
고맙	-9507
공로	-9508
공무	-9509
구사	-9510
구인	-9511
구한	-9512
구획	-9513
군산	-9514
귀결	-9515
그저	-9516
기제	-9517
기형	-9518
끈다	-9519
끊이	-9520
나빠	-9521
내과	-9522
넘겼	-9523
논증	-9524
뉴질	-9525
다큐	-9526
단편	-9527
대시	-9528
더해	-9529
덕트	-9530
도보	-9531
도선	-9532
돗물	-9533
드럽	-9534
드림	-9535
떠난	-9536
라리	-9537
라면	-9538
레저	-9539
루빈	-9540
마당	-9541
마일	-9542
무궁	-9543
무렵	-9544
미드	-9545
미시	-9546
박동	-9547
박탈	-9548
발판	-9549
방수	-9550
방역	-9551
병기	-9552
볼록	-9553
분장	-9554
비평	-9555
사드	-9556
상회	-9557
서서	-9558
서치	-9559
성희	-9560
세밀	-9561
센스	-9562
소원	-9563
속초	-9564
송영	-9565
수조	-9566
수천	-9567
슬로	-9568
시일	-9569
실온	-9570
아랍	-9571
악용	-9572
안겨	-9573
애국	-9574
액상	-9575
양해	-9576
언젠	-9577
엔터	-9578
여대	-9579
연다	-9580
열거	-9581
영입	-9582
예매	-9583
예쁜	-9584
오더	-9585
와의	-9586
우진	-9587
위조	-9588
유적	-9589
유추	-9590
이원	-9591
이의	-9592
인위	-9593
일간	-9594
일용	-9595
입수	-9596
입점	-9597
잔디	-9598
잔여	-9599
잔차	-9600
장병	-9601
저스	-9602
절개	-9603
점착	-9604
정복	-9605
정우	-9606
정정	-9607
제반	-9608
제소	-9609
조업	-9610
주권	-9611
주먹	-9612
직위	-9613
질의	-9614
집적	-9615
집착	-9616
착공	-9617
착색	-9618
창구	-9619
채소	-9620
채팅	-9621
책정	-9622
체적	-9623
초월	-9624
추징	-9625
취해	-9626
침묵	-9627
커널	-9628
틀림	-9629
파편	-9630
판별	-9631
폭우	-9632
피어	-9633
학점	-9634
학회	-9635
한하	-9636
항산	-9637
항의	-9638
행운	-9639
헬기	-9640
화살	-9641
환급	-9642
회고	-9643
회상	-9644
휴양	-9645
힌지	-9646
IMF	-9647
PCR	-9648
SBS	-9649
com	-9650
con	-9651
ice	-9652
one	-9653
vir	-9654
▁45	-9655
▁감지	-9656
▁강사	-9657
▁경보	-9658
▁농단	-9659
▁다른	-9660
▁다운	-9661
▁단장	-9662
▁도와	-9663
▁드렸	-9664
▁마켓	-9665
▁몰입	-9666
▁미터	-9667
▁보안	-9668
▁분쟁	-9669
▁비리	-9670
▁상체	-9671
▁세력	-9672
▁수급	-9673
▁수집	-9674
▁신용	-9675
▁엔터	-9676
▁워드	-9677
▁육성	-9678
▁이득	-9679
▁자녀	-9680
▁정의	-9681
▁주로	-9682
▁줘야	-9683
▁지배	-9684
▁집중	-9685
▁크기	-9686
▁타임	-9687
▁토론	-9688
▁통지	-9689
▁투어	-9690
▁튜브	-9691
▁합체	-9692
▁해져	-9693
▁헌법	-9694
가구주	-9695
갤러리	-9696
근거리	-9697
금강산	-9698
기숙사	-9699
기업인	-9700
나항공	-9701
농산물	-9702
농어촌	-9703
느껴졌	-9704
돌아온	-9705
돌아와	-9706
때때로	-9707
로맨스	-9708
마침내	-9709
매도인	-9710
모서리	-9711
무거운	-9712
무더위	-9713
문해력	-9714
미토콘	-9715
방사성	-9716
보일러	-9717
부드럽	-9718
불어넣	-9719
불이행	-9720
비무장	-9721
살아남	-9722
상품권	-9723
셀로나	-9724
소비세	-9725
신세계	-9726
안락사	-9727
양성자	-9728
여행사	-9729
오디션	-9730
오로지	-9731
위안부	-9732
융자금	-9733
이사회	-9734
입주자	-9735
저작물	-9736
전구체	-9737
전자파	-9738
주어지	-9739
지도부	-9740
지지층	-9741
진료비	-9742
책임감	-9743
카운트	-9744
캘리포	-9745
테이션	-9746
통신사	-9747
통신원	-9748
판매량	-9749
펌웨어	-9750
포커스	-9751
프레스	-9752
회의록	-9753
▁가이드	-9754
▁거든요	-9755
▁공화국	-9756
▁대학원	-9757
▁방정식	-9758
▁보험료	-9759
▁사령관	-9760
▁정보원	-9761
▁지원금	-9762
▁청문회	-9763
▁타임스	-9764
감정평가	-9765
거버넌스	-9766
뉴질랜드	-9767
마이너스	-9768
산업단지	-9769
아카데미	-9770
안전사고	-9771
할아버지	-9772
▁_136	-9773
▁_215	-9774
▁_225	-9775
▁_235	-9776
▁_412	-9777
▁_501	-9778
▁_640	-9779
▁네트워크	-9780
나타냅니다	-9781
터치스크린	-9782
▁_1010	-9783
미토콘드리아	-9784
아시아나항공	-9785
FE	-9786
Me	-9787
PF	-9788
PX	-9789
SM	-9790
Sn	-9791
WC	-9792
ug	-9793
wt	-9794
yl	-9795
▁I	-9796
▁맙	-9797
▁몰	-9798
▁밍	-9799
▁범	-9800
▁앱	-9801
▁잉	-9802
▁츠	-9803
▁헤	-9804
각별	-9805
갈라	-9806
감량	-9807
감별	-9808
갯벌	-9809
거나	-9810
검거	-9811
견고	-9812
결연	-9813
경량	-9814
경협	-9815
계승	-9816
고액	-9817
과열	-9818
괴사	-9819
국산	-9820
권유	-9821
궤적	-9822
근사	-9823
금형	-9824
기전	-9825
김기	-9826
김장	-9827
끼워	-9828
남쪽	-9829
내구	-9830
넓히	-9831
네슘	-9832
넷플	-9833
노란	-9834
녹지	-9835
논거	-9836
놀랍	-9837
눈치	-9838
눌러	-9839
뉴턴	-9840
다쳤	-9841
다항	-9842
담합	-9843
당겨	-9844
데리	-9845
도망	-9846
독려	-9847
디젤	-9848
렉터	-9849
로비	-9850
르노	-9851
마블	-9852
말단	-9853
매스	-9854
목재	-9855
무덤	-9856
배면	-9857
백분	-9858
번거	-9859
벌인	-9860
벽면	-9861
부를	-9862
불렀	-9863
브루	-9864
비극	-9865
빈혈	-9866
사설	-9867
사카	-9868
살려	-9869
상쇄	-9870
상피	-9871
생소	-9872
서쪽	-9873
선착	-9874
성황	-9875
세출	-9876
소독	-9877
송치	-9878
수감	-9879
수련	-9880
수월	-9881
수유	-9882
수호	-9883
수확	-9884
승낙	-9885
시카	-9886
신의	-9887
실비	-9888
실재	-9889
악재	-9890
안산	-9891
액추	-9892
야채	-9893
양대	-9894
어릴	-9895
엔드	-9896
열띤	-9897
영광	-9898
외치	-9899
외화	-9900
욕망	-9901
용선	-9902
우대	-9903
우드	-9904
우버	-9905
울릉	-9906
위헌	-9907
유소	-9908
이지	-9909
일수	-9910
재차	-9911
적힌	-9912
전립	-9913
전임	-9914
정산	-9915
정유	-9916
종량	-9917
주방	-9918
지로	-9919
직결	-9920
진도	-9921
차림	-9922
참관	-9923
창극	-9924
창설	-9925
천장	-9926
체조	-9927
초고	-9928
촉각	-9929
총량	-9930
추계	-9931
출간	-9932
출고	-9933
충당	-9934
침전	-9935
컬럼	-9936
클린	-9937
타단	-9938
탈피	-9939
탐사	-9940
텐셜	-9941
템플	-9942
톨릭	-9943
판로	-9944
팡이	-9945
펩타	-9946
피치	-9947
하동	-9948
학위	-9949
한시	-9950
한자	-9951
해산	-9952
허혈	-9953
현진	-9954
환승	-9955
황금	-9956
ALD	-9957
CPU	-9958
WHO	-9959
ack	-9960
ess	-9961
int	-9962
▁60	-9963
▁건수	-9964
▁경력	-9965
▁경색	-9966
▁고객	-9967
▁고문	-9968
▁곡선	-9969
▁공시	-9970
▁구제	-9971
▁국회	-9972
▁남용	-9973
▁당하	-9974
▁동력	-9975
▁매수	-9976
▁먼지	-9977
▁민원	-9978
▁부대	-9979
▁분과	-9980
▁분해	-9981
▁비전	-9982
▁상금	-9983
▁생물	-9984
▁서장	-9985
▁성적	-9986
▁소원	-9987
▁손실	-9988
▁수출	-9989
▁시각	-9990
▁약식	-9991
▁양도	-9992
▁에다	-9993
▁연결	-9994
▁연령	-9995
▁오프	-9996
▁운송	-9997
▁은지	-9998
▁이후	-9999
▁인수	-10000
▁인정	-10001
▁일정	-10002
▁져서	-10003
▁주자	-10004
▁진료	-10005
▁체부	-10006
▁체의	-10007
▁취도	-10008
▁텔레	-10009
▁트랙	-10010
▁품질	-10011
▁프레	-10012
▁화합	-10013
▁회귀	-10014
가벼운	-10015
가치관	-10016
감소세	-10017
건설업	-10018
경찰서	-10019
고밀도	-10020
고소득	-10021
고품질	-10022
교육자	-10023
국공립	-10024
꼽힌다	-10025
나아갈	-10026
남양주	-10027
노무현	-10028
단백뇨	-10029
동작구	-10030
듭니다	-10031
따라야	-10032
떨어질	-10033
메신저	-10034
못해서	-10035
본다면	-10036
부의장	-10037
불거졌	-10038
비교기	-10039
비대위	-10040
빨간색	-10041
사라진	-10042
상속세	-10043
선보일	-10044
선제골	-10045
성희롱	-10046
소비재	-10047
소화기	-10048
수돗물	-10049
수산물	-10050
수익자	-10051
수자원	-10052
수학식	-10053
스티커	-10054
시각화	-10055
시리아	-10056
신청인	-10057
쏟아졌	-10058
아이디	-10059
악영향	-10060
양방향	-10061
여행객	-10062
연주자	-10063
열전도	-10064
올라왔	-10065
올린다	-10066
요오드	-10067
원통형	-10068
유기물	-10069
유니폼	-10070
의존도	-10071
임상의	-10072
잇따르	-10073
전자기	-10074
전처리	-10075
좌표계	-10076
준다고	-10077
철학자	-10078
첨가제	-10079
청년층	-10080
코미디	-10081
코엑스	-10082
태평양	-10083
테두리	-10084
통계학	-10085
파란색	-10086
플래그	-10087
학교장	-10088
화성시	-10089
▁거래소	-10090
▁노동자	-10091
▁시장법	-10092
▁으려면	-10093
▁이미드	-10094
▁절제술	-10095
▁집니다	-10096
▁학년도	-10097
공공시설	-10098
그레이드	-10099
넷플릭스	-10100
당뇨병성	-10101
드라이브	-10102
받아들일	-10103
소위원회	-10104
스테이션	-10105
스트리트	-10106
어린아이	-10107
영등포구	-10108
일어난다	-10109
재무제표	-10110
컨텍스트	-10111
펩타이드	-10112
해외여행	-10113
▁5000	-10114
▁_117	-10115
▁_127	-10116
▁_188	-10117
▁_214	-10118
▁_422	-10119
▁_511	-10120
다문화교육	-10121
부산광역시	-10122
액추에이터	-10123
▁_1310	-10124
▁_1600	-10125
▁_4000	-10126
An	-10127
DE	-10128
HT	-10129
MB	-10130
az	-10131
ix	-10132
te	-10133
▁닉	-10134
▁둘	-10135
▁런	-10136
▁럴	-10137
▁삭	-10138
▁센	-10139
▁접	-10140
가성	-10141
간헐	-10142
감액	-10143
강건	-10144
개원	-10145
거꾸	-10146
거쳤	-10147
겨냥	-10148
결실	-10149
결장	-10150
경지	-10151
경호	-10152
고인	-10153
고충	-10154
곱하	-10155
공용	-10156
과시	-10157
관용	-10158
광교	-10159
구원	-10160
국빈	-10161
근절	-10162
기쁘	-10163
기점	-10164
김지	-10165
끝날	-10166
낭종	-10167
널티	-10168
농지	-10169
눈빛	-10170
느린	-10171
다투	-10172
단절	-10173
단행	-10174
대교	-10175
대대	-10176
대면	-10177
대세	-10178
동포	-10179
동형	-10180
두부	-10181
드로	-10182
디저	-10183
떡볶	-10184
띈다	-10185
랭킹	-10186
러드	-10187
렉션	-10188
렉스	-10189
리콜	-10190
마술	-10191
만점	-10192
말라	-10193
멈춰	-10194
명료	-10195
모였	-10196
모욕	-10197
모토	-10198
모험	-10199
몸통	-10200
무수	-10201
무지	-10202
민정	-10203
바흐	-10204
박성	-10205
박원	-10206
박차	-10207
반납	-10208
발상	-10209
번지	-10210
범프	-10211
복리	-10212
부구	-10213
부시	-10214
비정	-10215
빅뱅	-10216
사관	-10217
사단	-10218
사리	-10219
사양	-10220
산입	-10221
상표	-10222
새겨	-10223
성도	-10224
셀프	-10225
소망	-10226
수목	-10227
스태	-10228
시약	-10229
신곡	-10230
신년	-10231
신흥	-10232
심실	-10233
씨앗	-10234
악수	-10235
앙상	-10236
액화	-10237
약점	-10238
어긋	-10239
어선	-10240
어업	-10241
어져	-10242
언니	-10243
얼룩	-10244
에르	-10245
연애	-10246
열대	-10247
영혼	-10248
예배	-10249
예의	-10250
외형	-10251
위암	-10252
위젯	-10253
유감	-10254
유증	-10255
육군	-10256
육체	-10257
은폐	-10258
의향	-10259
이겨	-10260
일선	-10261
자택	-10262
적혀	-10263
전동	-10264
전선	-10265
정자	-10266
정주	-10267
정함	-10268
좌절	-10269
주부	-10270
증액	-10271
차시	-10272
차익	-10273
참작	-10274
처한	-10275
철강	-10276
총력	-10277
출토	-10278
친서	-10279
크업	-10280
태우	-10281
터링	-10282
턴트	-10283
통찰	-10284
통풍	-10285
특색	-10286
특혜	-10287
폴트	-10288
표상	-10289
푸틴	-10290
풀려	-10291
픽처	-10292
하남	-10293
한꺼	-10294
한데	-10295
한지	-10296
해리	-10297
행진	-10298
헌재	-10299
형편	-10300
호스	-10301
환호	-10302
후손	-10303
흑인	-10304
BTS	-10305
HDL	-10306
ISA	-10307
SiC	-10308
VDD	-10309
end	-10310
ich	-10311
ide	-10312
ill	-10313
ind	-10314
yst	-10315
▁39	-10316
▁공유	-10317
▁관심	-10318
▁급식	-10319
▁기온	-10320
▁나눔	-10321
▁내막	-10322
▁단백	-10323
▁러시	-10324
▁마트	-10325
▁문서	-10326
▁물류	-10327
▁물품	-10328
▁발행	-10329
▁밴드	-10330
▁법규	-10331
▁법령	-10332
▁불안	-10333
▁비중	-10334
▁상대	-10335
▁상장	-10336
▁선정	-10337
▁스크	-10338
▁안타	-10339
▁양식	-10340
▁업종	-10341
▁연극	-10342
▁워킹	-10343
▁원가	-10344
▁이해	-10345
▁저장	-10346
▁종시	-10347
▁지점	-10348
▁지회	-10349
▁채용	-10350
▁체결	-10351
▁최고	-10352
▁클로	-10353
▁타워	-10354
▁테터	-10355
▁표본	-10356
▁푸드	-10357
▁플라	-10358
▁혐의	-10359
▁회복	-10360
간략히	-10361
골고루	-10362
골프장	-10363
광진구	-10364
교도소	-10365
금천구	-10366
내분비	-10367
내세우	-10368
냉장실	-10369
노동력	-10370
다가가	-10371
다가왔	-10372
대표자	-10373
동북아	-10374
드디어	-10375
디저트	-10376
따라가	-10377
떡볶이	-10378
라디칼	-10379
레시피	-10380
만족감	-10381
매개체	-10382
모은다	-10383
목요일	-10384
못지않	-10385
무조건	-10386
바로잡	-10387
벌금형	-10388
변환기	-10389
복호화	-10390
불린다	-10391
생성기	-10392
설득력	-10393
시달리	-10394
식중독	-10395
심의회	-10396
쌍둥이	-10397
앞장서	-10398
양승태	-10399
언젠가	-10400
엑스선	-10401
여름철	-10402
연세대	-10403
였으며	-10404
영양소	-10405
운영비	-10406
원산지	-10407
위장관	-10408
의료인	-10409
이동성	-10410
일랜드	-10411
임산부	-10412
전립선	-10413
조양호	-10414
중앙값	-10415
지닌다	-10416
지방분	-10417
지켜야	-10418
최우선	-10419
출발점	-10420
출입국	-10421
카트리	-10422
케이싱	-10423
콜라겐	-10424
타이머	-10425
페널티	-10426
폐경기	-10427
할게요	-10428
혈당증	-10429
▁강점기	-10430
▁교과서	-10431
▁다면서	-10432
▁드레스	-10433
▁비디오	-10434
▁아파트	-10435
▁준다는	-10436
▁캠퍼스	-10437
▁터미널	-10438
▁텔레콤	-10439
▁플러스	-10440
▁할까요	-10441
고속도로	-10442
다릅니다	-10443
못한다는	-10444
사각지대	-10445
선보인다	-10446
원합니다	-10447
자치단체	-10448
줄기세포	-10449
청소년기	-10450
케스트라	-10451
한꺼번에	-10452
▁_109	-10453
▁_138	-10454
▁_145	-10455
▁_175	-10456
▁_304	-10457
▁_322	-10458
▁_370	-10459
▁더라고요	-10460
▁아카데미	-10461
업그레이드	-10462
▁_1400	-10463
▁_1500	-10464
AG	-10465
GP	-10466
HI	-10467
IA	-10468
NC	-10469
OF	-10470
RP	-10471
VO	-10472
WP	-10473
to	-10474
▁겸	-10475
▁룸	-10476
▁슬	-10477
▁쿼	-10478
▁탁	-10479
▁퓨	-10480
가래	-10481
가역	-10482
가짐	-10483
간장	-10484
간절	-10485
간직	-10486
간판	-10487
감쇠	-10488
감추	-10489
강해	-10490
개장	-10491
개질	-10492
계급	-10493
계발	-10494
계측	-10495
고난	-10496
고래	-10497
고압	-10498
고착	-10499
고취	-10500
골라	-10501
공백	-10502
공법	-10503
과신	-10504
과언	-10505
광복	-10506
교황	-10507
구름	-10508
구직	-10509
권선	-10510
그거	-10511
긍심	-10512
김부	-10513
김수	-10514
꾸며	-10515
나간	-10516
날개	-10517
남측	-10518
낭독	-10519
내국	-10520
내주	-10521
내피	-10522
냉기	-10523
노리	-10524
노숙	-10525
농구	-10526
달콤	-10527
대등	-10528
던져	-10529
도봉	-10530
도울	-10531
도장	-10532
독거	-10533
독도	-10534
동선	-10535
두꺼	-10536
둥근	-10537
듀얼	-10538
득표	-10539
따지	-10540
래도	-10541
랭크	-10542
로딩	-10543
릿수	-10544
막판	-10545
만연	-10546
만이	-10547
면모	-10548
명소	-10549
명제	-10550
모금	-10551
모른	-10552
모세	-10553
몰아	-10554
문언	-10555
민영	-10556
바우	-10557
반찬	-10558
방대	-10559
벤션	-10560
변론	-10561
변신	-10562
병대	-10563
보물	-10564
복음	-10565
본딩	-10566
본청	-10567
부임	-10568
분과	-10569
분권	-10570
분량	-10571
분쇄	-10572
불길	-10573
블룸	-10574
빗물	-10575
사소	-10576
사임	-10577
사채	-10578
상원	-10579
상의	-10580
선다	-10581
세이	-10582
셀러	-10583
소용	-10584
수중	-10585
숨기	-10586
슬리	-10587
시골	-10588
시킬	-10589
신조	-10590
신진	-10591
실형	-10592
심미	-10593
심전	-10594
아님	-10595
아바	-10596
아연	-10597
아인	-10598
악보	-10599
양립	-10600
언더	-10601
역행	-10602
연맹	-10603
예우	-10604
오바	-10605
욕설	-10606
용적	-10607
우라	-10608
운임	-10609
워킹	-10610
원시	-10611
유교	-10612
유언	-10613
유착	-10614
유쾌	-10615
음반	-10616
의안	-10617
의정	-10618
의조	-10619
이병	-10620
이진	-10621
이태	-10622
잃어	-10623
자석	-10624
잔존	-10625
저리	-10626
전설	-10627
제사	-10628
증세	-10629
지날	-10630
질산	-10631
초록	-10632
초안	-10633
추첨	-10634
출원	-10635
친숙	-10636
캄보	-10637
커녕	-10638
콘트	-10639
쿠르	-10640
타결	-10641
탈모	-10642
탈취	-10643
테르	-10644
통관	-10645
튀김	-10646
트레	-10647
특구	-10648
티드	-10649
파울	-10650
포터	-10651
필러	-10652
하여	-10653
하청	-10654
항변	-10655
해변	-10656
핸들	-10657
행성	-10658
향기	-10659
호가	-10660
호평	-10661
홀더	-10662
홍영	-10663
화두	-10664
화석	-10665
후퇴	-10666
훈장	-10667
휩싸	-10668
히드	-10669
힐링	-10670
CNN	-10671
CSI	-10672
ETF	-10673
FEV	-10674
KBO	-10675
MOU	-10676
MTB	-10677
TNF	-10678
ram	-10679
▁32	-10680
▁33	-10681
▁38	-10682
▁70	-10683
▁갈등	-10684
▁검증	-10685
▁고는	-10686
▁구부	-10687
▁기초	-10688
▁납부	-10689
▁농도	-10690
▁대장	-10691
▁더블	-10692
▁모터	-10693
▁방해	-10694
▁배치	-10695
▁밸리	-10696
▁부부	-10697
▁블록	-10698
▁선형	-10699
▁소증	-10700
▁수록	-10701
▁스런	-10702
▁스토	-10703
▁시절	-10704
▁식물	-10705
▁역사	-10706
▁요청	-10707
▁우위	-10708
▁유가	-10709
▁유출	-10710
▁으실	-10711
▁음식	-10712
▁응답	-10713
▁이드	-10714
▁이자	-10715
▁이터	-10716
▁적용	-10717
▁전처	-10718
▁정형	-10719
▁제시	-10720
▁제출	-10721
▁증대	-10722
▁진학	-10723
▁철학	-10724
▁총장	-10725
▁출력	-10726
▁충분	-10727
▁특이	-10728
▁포르	-10729
▁포스	-10730
▁현금	-10731
▁형식	-10732
▁횟수	-10733
▁흡수	-10734
가톨릭	-10735
거꾸로	-10736
결혼식	-10737
계약금	-10738
교수자	-10739
구속력	-10740
그림자	-10741
금속판	-10742
기술자	-10743
노년기	-10744
노동부	-10745
느낀다	-10746
다항식	-10747
대사관	-10748
대역폭	-10749
드래그	-10750
디폴트	-10751
레이더	-10752
레인지	-10753
로버트	-10754
마이클	-10755
메르스	-10756
모여서	-10757
배임죄	-10758
베어링	-10759
보증금	-10760
부사장	-10761
부작위	-10762
불명확	-10763
붙잡혔	-10764
사무관	-10765
선교사	-10766
성북구	-10767
소비량	-10768
스크롤	-10769
스테인	-10770
스파이	-10771
슬러리	-10772
시드니	-10773
실생활	-10774
아크릴	-10775
앙상블	-10776
업로드	-10777
엇갈리	-10778
영화관	-10779
예술인	-10780
올라오	-10781
용의자	-10782
일본군	-10783
자긍심	-10784
장난감	-10785
저질렀	-10786
전해액	-10787
조건부	-10788
존재감	-10789
중심지	-10790
중위수	-10791
지나친	-10792
지상파	-10793
지역구	-10794
지지율	-10795
창업자	-10796
책임지	-10797
천안시	-10798
청문회	-10799
체육관	-10800
칩니다	-10801
크루즈	-10802
클리닉	-10803
타이거	-10804
통일부	-10805
파일럿	-10806
평택항	-10807
표지판	-10808
한동안	-10809
화요일	-10810
황의조	-10811
▁300	-10812
▁건축물	-10813
▁교육감	-10814
▁네이트	-10815
▁다시피	-10816
▁드라마	-10817
▁만족도	-10818
▁사업장	-10819
▁수수료	-10820
▁시설물	-10821
▁어서다	-10822
▁장려금	-10823
▁책임자	-10824
▁포스트	-10825
▁화합물	-10826
간경변증	-10827
날카로운	-10828
대검찰청	-10829
들여다보	-10830
랜드마크	-10831
로지스틱	-10832
마그네슘	-10833
메타분석	-10834
빌리루빈	-10835
서대문구	-10836
스케줄링	-10837
신용카드	-10838
아무래도	-10839
에피소드	-10840
유전자형	-10841
의료관광	-10842
정사각형	-10843
지방세법	-10844
지주회사	-10845
천연가스	-10846
카트리지	-10847
캄보디아	-10848
탄화수소	-10849
▁_147	-10850
▁_156	-10851
▁_181	-10852
▁_184	-10853
▁_185	-10854
▁_205	-10855
▁_321	-10856
▁_413	-10857
다문화가정	-10858
월스트리트	-10859
▁_1930	-10860
▁_1999	-10861
AN	-10862
EF	-10863
FD	-10864
GV	-10865
LO	-10866
NI	-10867
SG	-10868
Se	-10869
Sp	-10870
Wh	-10871
if	-10872
sh	-10873
sp	-10874
tv	-10875
▁F	-10876
▁규	-10877
▁델	-10878
▁렐	-10879
▁롤	-10880
▁먹	-10881
▁슈	-10882
▁쌍	-10883
▁젝	-10884
▁젠	-10885
▁찬	-10886
▁큐	-10887
▁푸	-10888
▁픽	-10889
▁히	-10890
가명	-10891
가옥	-10892
가파	-10893
각광	-10894
각색	-10895
각오	-10896
갈색	-10897
감경	-10898
개그	-10899
결선	-10900
겹쳐	-10901
경련	-10902
고갈	-10903
공주	-10904
교민	-10905
구금	-10906
구토	-10907
국채	-10908
궁중	-10909
그라	-10910
그렸	-10911
금방	-10912
금품	-10913
급감	-10914
급부	-10915
기말	-10916
기적	-10917
긴다	-10918
김소	-10919
김연	-10920
끔찍	-10921
낙상	-10922
날레	-10923
남경	-10924
납입	-10925
낮출	-10926
농담	-10927
뉴런	-10928
늘릴	-10929
다변	-10930
다치	-10931
단락	-10932
단량	-10933
단차	-10934
답방	-10935
당권	-10936
당내	-10937
대동	-10938
대치	-10939
덮개	-10940
독소	-10941
동계	-10942
동요	-10943
동태	-10944
디움	-10945
떠날	-10946
뜨겁	-10947
래스	-10948
레나	-10949
로켓	-10950
마법	-10951
마토	-10952
면밀	-10953
모시	-10954
목욕	-10955
몰래	-10956
무더	-10957
물권	-10958
물산	-10959
미분	-10960
미투	-10961
밀어	-10962
바빠	-10963
박정	-10964
배부	-10965
배지	-10966
백제	-10967
벅스	-10968
베타	-10969
변비	-10970
복장	-10971
복통	-10972
부적	-10973
분단	-10974
불문	-10975
불복	-10976
불참	-10977
빠질	-10978
삭감	-10979
상방	-10980
상봉	-10981
상식	-10982
샤오	-10983
서해	-10984
선의	-10985
설렘	-10986
성동	-10987
성악	-10988
셔널	-10989
셔틀	-10990
소량	-10991
소주	-10992
수계	-10993
수납	-10994
순응	-10995
스윙	-10996
스탬	-10997
시비	-10998
신혼	-10999
실상	-11000
심상	-11001
심신	-11002
싱크	-11003
쌓여	-11004
어로	-11005
어학	-11006
엣지	-11007
연안	-11008
연이	-11009
열망	-11010
염려	-11011
염료	-11012
영감	-11013
예년	-11014
오락	-11015
요원	-11016
요철	-11017
용서	-11018
원단	-11019
유상	-11020
유역	-11021
유휴	-11022
은닉	-11023
은색	-11024
음수	-11025
의과	-11026
이과	-11027
이월	-11028
이화	-11029
인내	-11030
자르	-11031
잔액	-11032
재계	-11033
재범	-11034
재외	-11035
점도	-11036
정극	-11037
제빙	-11038
제의	-11039
조력	-11040
중공	-11041
즈니	-11042
증감	-11043
증빙	-11044
증설	-11045
지낸	-11046
지노	-11047
지오	-11048
지평	-11049
지환	-11050
직물	-11051
집광	-11052
차감	-11053
차주	-11054
착륙	-11055
챙기	-11056
천재	-11057
출수	-11058
치르	-11059
치솟	-11060
친밀	-11061
칼라	-11062
캡슐	-11063
케미	-11064
클라	-11065
키워	-11066
타깃	-11067
터지	-11068
테일	-11069
투사	-11070
투숙	-11071
투영	-11072
특사	-11073
파기	-11074
펠러	-11075
펼칠	-11076
포천	-11077
폭풍	-11078
표집	-11079
풀어	-11080
풍력	-11081
풍속	-11082
피복	-11083
학부	-11084
한방	-11085
항구	-11086
해온	-11087
해커	-11088
향유	-11089
호환	-11090
혼동	-11091
혼잡	-11092
홍채	-11093
화기	-11094
확고	-11095
환산	-11096
환전	-11097
황제	-11098
휴게	-11099
흡인	-11100
흥분	-11101
AST	-11102
CLK	-11103
EAM	-11104
FET	-11105
FFF	-11106
KTX	-11107
LCD	-11108
LNG	-11109
MPa	-11110
QOL	-11111
SEM	-11112
ost	-11113
ppm	-11114
val	-11115
▁42	-11116
▁가수	-11117
▁검토	-11118
▁계좌	-11119
▁골격	-11120
▁공고	-11121
▁관은	-11122
▁기일	-11123
▁나마	-11124
▁대화	-11125
▁등기	-11126
▁매매	-11127
▁매치	-11128
▁맥주	-11129
▁무대	-11130
▁문단	-11131
▁방학	-11132
▁배경	-11133
▁배우	-11134
▁버렸	-11135
▁법안	-11136
▁볼루	-11137
▁비행	-11138
▁설명	-11139
▁소통	-11140
▁수립	-11141
▁수명	-11142
▁시스	-11143
▁식당	-11144
▁안건	-11145
▁암종	-11146
▁양태	-11147
▁완화	-11148
▁요령	-11149
▁용선	-11150
▁으론	-11151
▁의미	-11152
▁인회	-11153
▁일부	-11154
▁입원	-11155
▁자문	-11156
▁재원	-11157
▁재활	-11158
▁저널	-11159
▁전담	-11160
▁절부	-11161
▁제작	-11162
▁조선	-11163
▁종류	-11164
▁줘서	-11165
▁증명	-11166
▁증상	-11167
▁직업	-11168
▁차관	-11169
▁추구	-11170
▁취약	-11171
▁칼슘	-11172
▁테러	-11173
▁향상	-11174
▁화장	-11175
▁확률	-11176
▁회기	-11177
▁후보	-11178
거슬러	-11179
게이션	-11180
경로당	-11181
고마워	-11182
공격수	-11183
공진기	-11184
괴롭힘	-11185
교과목	-11186
교육비	-11187
국어과	-11188
국정원	-11189
귀여운	-11190
급속히	-11191
기판력	-11192
김경수	-11193
놀로지	-11194
다녀왔	-11195
단량체	-11196
달라진	-11197
더욱더	-11198
도자기	-11199
돌파구	-11200
동대문	-11201
되풀이	-11202
됩니까	-11203
들어올	-11204
떠오른	-11205
라오스	-11206
머무르	-11207
미스터	-11208
미지수	-11209
민간인	-11210
반지름	-11211
발열체	-11212
방송국	-11213
방송인	-11214
벗어난	-11215
변호인	-11216
봅니다	-11217
부르크	-11218
부인과	-11219
사생활	-11220
색다른	-11221
서서히	-11222
선보인	-11223
선착순	-11224
성장기	-11225
소방서	-11226
소식통	-11227
수강료	-11228
수혜자	-11229
숨겨진	-11230
시멘트	-11231
실리카	-11232
심부전	-11233
아래쪽	-11234
아쉬운	-11235
아우르	-11236
안산시	-11237
여행지	-11238
연구실	-11239
연출가	-11240
오사카	-11241
옥수수	-11242
유도체	-11243
일본어	-11244
일으켜	-11245
일제히	-11246
장례식	-11247
전문직	-11248
좀처럼	-11249
주니어	-11250
주유소	-11251
집중력	-11252
취업률	-11253
킵니다	-11254
타이어	-11255
태권도	-11256
통계량	-11257
티셔츠	-11258
평면도	-11259
하도급	-11260
해준다	-11261
헤드셋	-11262
호산구	-11263
횡단면	-11264
휘발유	-11265
ator	-11266
▁110	-11267
▁_04	-11268
▁_09	-11269
▁구성원	-11270
▁마티스	-11271
▁미사일	-11272
▁부동산	-11273
▁사이클	-11274
▁선거법	-11275
▁소프트	-11276
▁신다면	-11277
교통안전	-11278
그리하여	-11279
기말고사	-11280
기본소득	-11281
돌아다니	-11282
레이아웃	-11283
레지스트	-11284
미성년자	-11285
보였으며	-11286
삼성물산	-11287
안전교육	-11288
전통문화	-11289
증강현실	-11290
펼쳐진다	-11291
▁2000	-11292
▁_137	-11293
▁_159	-11294
▁_253	-11295
▁_421	-11296
▁_502	-11297
▁_660	-11298
▁_840	-11299
▁_870	-11300
▁_930	-11301
▁mmHg	-11302
▁관광공사	-11303
▁중소기업	-11304
▁프로젝트	-11305
내비게이션	-11306
바르셀로나	-11307
아르바이트	-11308
▁_1210	-11309
▁_1991	-11310
포토레지스트	-11311
Ab	-11312
Ex	-11313
JT	-11314
NB	-11315
NH	-11316
NM	-11317
PV	-11318
QR	-11319
RB	-11320
So	-11321
UL	-11322
ai	-11323
aw	-11324
cr	-11325
hn	-11326
se	-11327
tr	-11328
ud	-11329
yc	-11330
▁p	-11331
▁굿	-11332
▁놨	-11333
▁뇨	-11334
▁둥	-11335
▁밥	-11336
▁벤	-11337
▁욕	-11338
▁익	-11339
▁턱	-11340
가드	-11341
가평	-11342
간소	-11343
개도	-11344
객석	-11345
거장	-11346
건국	-11347
경추	-11348
경희	-11349
공방	-11350
관문	-11351
광경	-11352
광도	-11353
교안	-11354
교인	-11355
국기	-11356
국영	-11357
극성	-11358
글씨	-11359
기생	-11360
기운	-11361
길러	-11362
김광	-11363
꺼리	-11364
나비	-11365
남미	-11366
내기	-11367
내생	-11368
내전	-11369
노스	-11370
노총	-11371
논평	-11372
농악	-11373
농협	-11374
누워	-11375
니체	-11376
단열	-11377
단풍	-11378
달력	-11379
답장	-11380
대미	-11381
도매	-11382
도자	-11383
도청	-11384
독재	-11385
동거	-11386
동서	-11387
동질	-11388
뒤편	-11389
든든	-11390
듬해	-11391
뜨거	-11392
러운	-11393
로기	-11394
리프	-11395
마쳤	-11396
매몰	-11397
명부	-11398
명창	-11399
명할	-11400
모둠	-11401
모사	-11402
모유	-11403
모음	-11404
몬드	-11405
몰수	-11406
무실	-11407
문명	-11408
문양	-11409
미묘	-11410
미약	-11411
미쳐	-11412
바위	-11413
배액	-11414
버거	-11415
버섯	-11416
베리	-11417
베인	-11418
변질	-11419
변해	-11420
보살	-11421
북상	-11422
블럭	-11423
비관	-11424
비준	-11425
사당	-11426
사방	-11427
사출	-11428
상주	-11429
색채	-11430
선로	-11431
세심	-11432
소련	-11433
속속	-11434
수건	-11435
수은	-11436
수혈	-11437
쉼터	-11438
스리	-11439
슬림	-11440
승점	-11441
실려	-11442
십자	-11443
쌍방	-11444
알선	-11445
어시	-11446
얽혀	-11447
에듀	-11448
에버	-11449
여인	-11450
연명	-11451
연상	-11452
연신	-11453
연정	-11454
연초	-11455
열매	-11456
엿볼	-11457
영미	-11458
영변	-11459
예민	-11460
오산	-11461
온갖	-11462
와중	-11463
우물	-11464
우세	-11465
워너	-11466
위염	-11467
위쪽	-11468
윌리	-11469
유머	-11470
유압	-11471
유진	-11472
의례	-11473
이노	-11474
이데	-11475
이뤘	-11476
이리	-11477
이체	-11478
인보	-11479
인삼	-11480
일가	-11481
자꾸	-11482
자막	-11483
자백	-11484
자선	-11485
저널	-11486
저밀	-11487
전교	-11488
전량	-11489
전례	-11490
전속	-11491
절로	-11492
정합	-11493
제척	-11494
제철	-11495
조종	-11496
존속	-11497
주당	-11498
증서	-11499
지갑	-11500
지남	-11501
지탱	-11502
차려	-11503
차체	-11504
창호	-11505
처우	-11506
청탁	-11507
체어	-11508
체온	-11509
추어	-11510
출품	-11511
취한	-11512
취했	-11513
치밀	-11514
치중	-11515
친근	-11516
침착	-11517
카라	-11518
카본	-11519
쾌락	-11520
키즈	-11521
타지	-11522
탈퇴	-11523
터져	-11524
토닌	-11525
통학	-11526
특권	-11527
파격	-11528
파노	-11529
파도	-11530
파우	-11531
판교	-11532
평일	-11533
표방	-11534
품종	-11535
풍선	-11536
피질	-11537
픽업	-11538
하강	-11539
하인	-11540
하자	-11541
하한	-11542
한중	-11543
할까	-11544
할리	-11545
함정	-11546
항해	-11547
현물	-11548
형질	-11549
혜경	-11550
호박	-11551
호황	-11552
화가	-11553
황달	-11554
흉수	-11555
흐른	-11556
희정	-11557
ACK	-11558
ARD	-11559
CAP	-11560
CDM	-11561
CRC	-11562
EUS	-11563
ILD	-11564
RAS	-11565
TiO	-11566
VIP	-11567
ber	-11568
net	-11569
ode	-11570
tvN	-11571
ype	-11572
▁ml	-11573
▁가입	-11574
▁게끔	-11575
▁경화	-11576
▁공식	-11577
▁관찰	-11578
▁권익	-11579
▁기부	-11580
▁기어	-11581
▁다리	-11582
▁다양	-11583
▁단자	-11584
▁단절	-11585
▁당한	-11586
▁대리	-11587
▁도덕	-11588
▁도우	-11589
▁동포	-11590
▁돼요	-11591
▁레벨	-11592
▁모집	-11593
▁물량	-11594
▁바디	-11595
▁방사	-11596
▁배관	-11597
▁벅스	-11598
▁변색	-11599
▁보이	-11600
▁보존	-11601
▁부과	-11602
▁부여	-11603
▁부지	-11604
▁분할	-11605
▁빈도	-11606
▁삭스	-11607
▁서열	-11608
▁설치	-11609
▁성실	-11610
▁소매	-11611
▁소수	-11612
▁수처	-11613
▁시책	-11614
▁언스	-11615
▁업소	-11616
▁여라	-11617
▁연장	-11618
▁오버	-11619
▁완전	-11620
▁우선	-11621
▁의존	-11622
▁인도	-11623
▁작성	-11624
▁저항	-11625
▁전증	-11626
▁절감	-11627
▁조세	-11628
▁중량	-11629
▁중재	-11630
▁증서	-11631
▁지정	-11632
▁진화	-11633
▁체중	-11634
▁출산	-11635
▁클럽	-11636
▁토지	-11637
▁투과	-11638
▁특위	-11639
▁펀딩	-11640
▁평생	-11641
▁포트	-11642
▁학력	-11643
▁할까	-11644
▁합부	-11645
▁험자	-11646
▁화부	-11647
▁화재	-11648
가속도	-11649
개막식	-11650
거주지	-11651
걸린다	-11652
게이지	-11653
경계선	-11654
경사면	-11655
계약자	-11656
고전압	-11657
곰팡이	-11658
관련자	-11659
그레이	-11660
글로빈	-11661
글리세	-11662
기록물	-11663
남경필	-11664
내용물	-11665
니아주	-11666
다각형	-11667
다큐멘	-11668
담아내	-11669
더해져	-11670
데스크	-11671
돌아갈	-11672
동성애	-11673
라인드	-11674
루푸스	-11675
마음껏	-11676
매수인	-11677
명백히	-11678
무너지	-11679
무한히	-11680
물놀이	-11681
바라볼	-11682
발걸음	-11683
밝힌다	-11684
법인격	-11685
베이터	-11686
보상금	-11687
부서장	-11688
분리기	-11689
분석기	-11690
분자량	-11691
비정질	-11692
사무소	-11693
상황실	-11694
설계자	-11695
스미스	-11696
식민지	-11697
신속히	-11698
심리학	-11699
쏟아져	-11700
아니할	-11701
알려야	-11702
에이스	-11703
엔날레	-11704
여배우	-11705
열전달	-11706
오리지	-11707
오바마	-11708
온전히	-11709
원활히	-11710
위법성	-11711
이듬해	-11712
이룬다	-11713
이뤄져	-11714
이용료	-11715
이해력	-11716
임대차	-11717
자연수	-11718
정류장	-11719
제작사	-11720
조용히	-11721
주머니	-11722
중심부	-11723
지배력	-11724
지휘자	-11725
차가운	-11726
차라리	-11727
청구인	-11728
최상위	-11729
출산율	-11730
친수성	-11731
카지노	-11732
커진다	-11733
컷오프	-11734
코스트	-11735
클리드	-11736
키보드	-11737
특허청	-11738
펼쳐졌	-11739
폴란드	-11740
플로우	-11741
함유량	-11742
해산물	-11743
핵무기	-11744
화살표	-11745
희망자	-11746
ESRD	-11747
ight	-11748
▁간담회	-11749
▁개발비	-11750
▁교부세	-11751
▁교육법	-11752
▁레이팅	-11753
▁브랜드	-11754
▁산화물	-11755
▁채권자	-11756
▁체육회	-11757
▁파운드	-11758
▁합니까	-11759
▁회의실	-11760
거시경제	-11761
경상남도	-11762
교섭단체	-11763
떨어뜨리	-11764
마일리지	-11765
모글로빈	-11766
블룸버그	-11767
스티어링	-11768
아일랜드	-11769
어우러져	-11770
여기저기	-11771
이산가족	-11772
인과관계	-11773
임상시험	-11774
자궁경부	-11775
조선일보	-11776
STEAM	-11777
▁_139	-11778
▁_183	-11779
▁_224	-11780
▁_332	-11781
▁_351	-11782
▁_380	-11783
▁_460	-11784
▁_521	-11785
▁_601	-11786
▁_611	-11787
▁국제공항	-11788
▁어린이집	-11789
▁이야말로	-11790
나타났으며	-11791
다큐멘터리	-11792
메타데이터	-11793
지방소비세	-11794
▁_1110	-11795
▁_1988	-11796
▁_1989	-11797
AL	-11798
Am	-11799
BH	-11800
ED	-11801
EQ	-11802
En	-11803
GE	-11804
MF	-11805
Mo	-11806
Pr	-11807
UF	-11808
bu	-11809
dr	-11810
ge	-11811
me	-11812
ps	-11813
ss	-11814
▁i	-11815
▁깅	-11816
▁납	-11817
▁돈	-11818
▁머	-11819
▁믹	-11820
▁벨	-11821
▁캡	-11822
▁탕	-11823
▁혁	-11824
▁혜	-11825
▁혼	-11826
▁희	-11827
가꾸	-11828
간병	-11829
거둘	-11830
거스	-11831
거칠	-11832
겨운	-11833
결석	-11834
결재	-11835
고구	-11836
고부	-11837
고심	-11838
고졸	-11839
골자	-11840
공룡	-11841
공매	-11842
공세	-11843
과립	-11844
과점	-11845
과표	-11846
관청	-11847
광전	-11848
교향	-11849
구나	-11850
구세	-11851
구워	-11852
구했	-11853
굽힘	-11854
균질	-11855
극도	-11856
급한	-11857
기류	-11858
기밀	-11859
기뻐	-11860
기승	-11861
기압	-11862
김명	-11863
김승	-11864
깜짝	-11865
끝났	-11866
낙연	-11867
낙하	-11868
남양	-11869
납득	-11870
낮춰	-11871
노회	-11872
논하	-11873
느려	-11874
다녔	-11875
다자	-11876
담체	-11877
당원	-11878
대물	-11879
덤핑	-11880
도표	-11881
독감	-11882
동강	-11883
동사	-11884
동점	-11885
되게	-11886
두르	-11887
랑이	-11888
렘방	-11889
를린	-11890
리사	-11891
리치	-11892
마드	-11893
마운	-11894
마포	-11895
막이	-11896
막히	-11897
만지	-11898
맛볼	-11899
망치	-11900
맥스	-11901
메디	-11902
몰딩	-11903
몰린	-11904
몸짓	-11905
무당	-11906
물통	-11907
미달	-11908
미르	-11909
미비	-11910
미화	-11911
민요	-11912
민중	-11913
밀라	-11914
밀양	-11915
박용	-11916
반갑	-11917
발부	-11918
방성	-11919
방아	-11920
방점	-11921
방제	-11922
배추	-11923
백인	-11924
번갈	-11925
범인	-11926
베토	-11927
보름	-11928
복도	-11929
복막	-11930
본성	-11931
부른	-11932
불소	-11933
불쾌	-11934
브레	-11935
블로	-11936
비결	-11937
뿌듯	-11938
사모	-11939
사영	-11940
사흘	-11941
서기	-11942
섞여	-11943
선체	-11944
성금	-11945
성탄	-11946
세팅	-11947
셉트	-11948
손금	-11949
송출	-11950
쇼트	-11951
수험	-11952
숙달	-11953
숨겨	-11954
쉬워	-11955
스레	-11956
스승	-11957
스킨	-11958
스틸	-11959
슬픔	-11960
승격	-11961
시킨	-11962
실전	-11963
심폐	-11964
싸우	-11965
써서	-11966
쓰여	-11967
아민	-11968
아스	-11969
아키	-11970
안경	-11971
안료	-11972
알람	-11973
알렉	-11974
알맞	-11975
앰프	-11976
양사	-11977
어렸	-11978
어림	-11979
어찌	-11980
어차	-11981
억압	-11982
엔자	-11983
여겼	-11984
여백	-11985
여신	-11986
연민	-11987
연어	-11988
연하	-11989
영하	-11990
예탁	-11991
완결	-11992
요산	-11993
욕장	-11994
용돈	-11995
우레	-11996
우아	-11997
원위	-11998
월급	-11999
유보	-12000
유희	-12001
의석	-12002
의왕	-12003
이별	-12004
이브	-12005
인계	-12006
일터	-12007
임박	-12008
자제	-12009
잠복	-12010
잠실	-12011
장갑	-12012
장인	-12013
적성	-12014
전두	-12015
전락	-12016
전증	-12017
절곡	-12018
절삭	-12019
정세	-12020
정통	-12021
조상	-12022
주연	-12023
주춤	-12024
즉흥	-12025
지냈	-12026
징벌	-12027
착각	-12028
참전	-12029
채울	-12030
책상	-12031
청도	-12032
초보	-12033
초상	-12034
초중	-12035
축사	-12036
춘향	-12037
충원	-12038
치렀	-12039
카풀	-12040
크스	-12041
키스	-12042
타워	-12043
토스	-12044
토의	-12045
통영	-12046
퇴장	-12047
팀원	-12048
파수	-12049
파스	-12050
팝업	-12051
패배	-12052
패소	-12053
팽팽	-12054
페리	-12055
편평	-12056
편한	-12057
펼친	-12058
폐색	-12059
포탈	-12060
폭탄	-12061
표결	-12062
품격	-12063
피난	-12064
피처	-12065
하류	-12066
하차	-12067
한껏	-12068
한약	-12069
함침	-12070
합창	-12071
항균	-12072
해경	-12073
향수	-12074
현명	-12075
호선	-12076
혼돈	-12077
화질	-12078
확진	-12079
회부	-12080
휩쓸	-12081
AMP	-12082
API	-12083
Con	-12084
ESS	-12085
GDM	-12086
PTC	-12087
Pro	-12088
ROM	-12089
THA	-12090
ath	-12091
eck	-12092
onb	-12093
ree	-12094
son	-12095
und	-12096
▁63	-12097
▁90	-12098
▁_×	-12099
▁mL	-12100
▁각도	-12101
▁간다	-12102
▁간호	-12103
▁감시	-12104
▁강당	-12105
▁검장	-12106
▁고교	-12107
▁고리	-12108
▁고법	-12109
▁고지	-12110
▁골프	-12111
▁공공	-12112
▁관념	-12113
▁관제	-12114
▁금고	-12115
▁다이	-12116
▁단기	-12117
▁단의	-12118
▁담배	-12119
▁대왕	-12120
▁동부	-12121
▁롤러	-12122
▁리더	-12123
▁리버	-12124
▁마당	-12125
▁마취	-12126
▁마커	-12127
▁면담	-12128
▁배선	-12129
▁번역	-12130
▁벡터	-12131
▁부를	-12132
▁부모	-12133
▁산소	-12134
▁세법	-12135
▁소스	-12136
▁손상	-12137
▁손해	-12138
▁스키	-12139
▁시터	-12140
▁식사	-12141
▁아니	-12142
▁여고	-12143
▁원부	-12144
▁유도	-12145
▁이동	-12146
▁인자	-12147
▁일자	-12148
▁전도	-12149
▁절염	-12150
▁점포	-12151
▁조약	-12152
▁조작	-12153
▁주가	-12154
▁주인	-12155
▁진출	-12156
▁추정	-12157
▁추천	-12158
▁탱크	-12159
▁트랜	-12160
▁패드	-12161
▁품안	-12162
▁학대	-12163
▁학위	-12164
▁회원	-12165
▁후군	-12166
가로수	-12167
가르침	-12168
가습기	-12169
가져온	-12170
강점기	-12171
거듭나	-12172
건축가	-12173
겨울철	-12174
골드만	-12175
관찰자	-12176
교육학	-12177
교직원	-12178
기념일	-12179
기원전	-12180
김병준	-12181
김성태	-12182
나경원	-12183
내셔널	-12184
다가올	-12185
달라졌	-12186
대동맥	-12187
드레스	-12188
뛰어들	-12189
리서치	-12190
리소스	-12191
릴레이	-12192
매티스	-12193
머물러	-12194
무증상	-12195
바구니	-12196
박원순	-12197
발생기	-12198
베를린	-12199
베이비	-12200
베토벤	-12201
봅시다	-12202
부호화	-12203
새로이	-12204
샌프란	-12205
생태계	-12206
선수단	-12207
성실히	-12208
성황리	-12209
수사관	-12210
수용성	-12211
순천시	-12212
스캐너	-12213
스태프	-12214
시스코	-12215
아메리	-12216
아몬드	-12217
안보리	-12218
암세포	-12219
양수인	-12220
업무상	-12221
엑스포	-12222
올로기	-12223
운동장	-12224
이낙연	-12225
일회성	-12226
자릿수	-12227
자성체	-12228
재판관	-12229
전시장	-12230
절연체	-12231
정말로	-12232
정보원	-12233
제자리	-12234
제작진	-12235
조형물	-12236
주민세	-12237
증거인	-12238
지난번	-12239
직간접	-12240
체육회	-12241
초계기	-12242
축산물	-12243
케이터	-12244
크리스	-12245
토출구	-12246
파주시	-12247
팔렘방	-12248
퍼텐셜	-12249
편광판	-12250
평택시	-12251
플렉스	-12252
필요시	-12253
학술지	-12254
한국학	-12255
홍영표	-12256
황교안	-12257
후보자	-12258
후보지	-12259
후유증	-12260
휠체어	-12261
흐른다	-12262
JTBC	-12263
▁골격계	-12264
▁관리관	-12265
▁될수록	-12266
▁레이터	-12267
▁반도체	-12268
▁백화점	-12269
▁보증금	-12270
▁부총리	-12271
▁사령부	-12272
▁연구회	-12273
▁인프라	-12274
▁잖아요	-12275
▁졌으며	-12276
▁준다고	-12277
▁컨설팅	-12278
▁통신망	-12279
▁페이지	-12280
▁해본다	-12281
가리킨다	-12282
고등교육	-12283
교통수단	-12284
구성요건	-12285
기업지배	-12286
나옵니다	-12287
대시보드	-12288
드릴까요	-12289
문화재청	-12290
물리학자	-12291
받아들였	-12292
법인세법	-12293
보냅니다	-12294
보인다는	-12295
보험계약	-12296
부동산세	-12297
블라인드	-12298
산부인과	-12299
세포독성	-12300
스트로겐	-12301
시내버스	-12302
신한은행	-12303
연료전지	-12304
유클리드	-12305
자연재해	-12306
자연환경	-12307
줄어든다	-12308
집행유예	-12309
프로필렌	-12310
플루엔자	-12311
ystem	-12312
▁_146	-12313
▁_157	-12314
▁_178	-12315
▁_186	-12316
▁_187	-12317
▁_206	-12318
▁_209	-12319
▁_233	-12320
▁_244	-12321
▁_313	-12322
▁_324	-12323
▁_333	-12324
▁_414	-12325
▁_512	-12326
▁_612	-12327
▁_740	-12328
▁_750	-12329
▁_820	-12330
▁_850	-12331
바이오매스	-12332
아인슈타인	-12333
에스트로겐	-12334
헤모글로빈	-12335
▁_1300	-12336
▁_1920	-12337
▁_1978	-12338
▁_1984	-12339
▁_1993	-12340
기업지배구조	-12341
부탁드립니다	-12342
샌프란시스코	-12343
코르티코스테로이드	-12344
Au	-12345
Br	-12346
FL	-12347
GL	-12348
GN	-12349
Ga	-12350
HM	-12351
NK	-12352
OA	-12353
ON	-12354
Pa	-12355
Ro	-12356
SB	-12357
Sc	-12358
We	-12359
XR	-12360
bo	-12361
ie	-12362
ml	-12363
po	-12364
▁논	-12365
▁닷	-12366
▁맨	-12367
▁묘	-12368
▁벌	-12369
▁빈	-12370
▁셉	-12371
▁셜	-12372
▁솔	-12373
▁쇄	-12374
▁숙	-12375
▁윤	-12376
▁퇴	-12377
▁튜	-12378
▁활	-12379
▁획	-12380
▁효	-12381
가닥	-12382
가야	-12383
가혹	-12384
각계	-12385
간질	-12386
간혹	-12387
갈아	-12388
강국	-12389
강했	-12390
개요	-12391
개조	-12392
거북	-12393
겨레	-12394
견디	-12395
결성	-12396
경색	-12397
경선	-12398
경직	-12399
경청	-12400
계란	-12401
계선	-12402
계신	-12403
고고	-12404
고창	-12405
곡률	-12406
골관	-12407
공극	-12408
공범	-12409
공복	-12410
과천	-12411
관제	-12412
광물	-12413
교내	-12414
구가	-12415
구로	-12416
구문	-12417
구절	-12418
국수	-12419
군요	-12420
귀하	-12421
급변	-12422
기용	-12423
기입	-12424
기포	-12425
김의	-12426
까닭	-12427
끼친	-12428
낙후	-12429
날리	-12430
납기	-12431
납원	-12432
내열	-12433
넓혀	-12434
넘쳐	-12435
노브	-12436
노소	-12437
농장	-12438
누스	-12439
늦춰	-12440
니코	-12441
다스	-12442
달래	-12443
달린	-12444
달했	-12445
담석	-12446
대졸	-12447
대지	-12448
데일	-12449
도발	-12450
도왔	-12451
도파	-12452
독보	-12453
돌린	-12454
동방	-12455
되찾	-12456
될까	-12457
두루	-12458
두통	-12459
등재	-12460
떠났	-12461
라운	-12462
로보	-12463
로움	-12464
론트	-12465
루스	-12466
리안	-12467
리츠	-12468
마두	-12469
마루	-12470
마셨	-12471
마진	-12472
마킹	-12473
막말	-12474
막연	-12475
말리	-12476
매운	-12477
매질	-12478
멜로	-12479
모를	-12480
모수	-12481
무개	-12482
무난	-12483
문인	-12484
미연	-12485
미주	-12486
미처	-12487
미학	-12488
미혼	-12489
박영	-12490
박자	-12491
박해	-12492
반론	-12493
방조	-12494
방콕	-12495
배신	-12496
배후	-12497
백서	-12498
뱅킹	-12499
버린	-12500
버티	-12501
번식	-12502
벌크	-12503
법치	-12504
베젤	-12505
벤츠	-12506
변별	-12507
변할	-12508
본관	-12509
본연	-12510
부트	-12511
분주	-12512
빨대	-12513
사귀	-12514
사본	-12515
사위	-12516
사육	-12517
사해	-12518
산단	-12519
산은	-12520
새우	-12521
생쥐	-12522
서귀	-12523
서정	-12524
선미	-12525
선분	-12526
성관	-12527
성패	-12528
세련	-12529
셰프	-12530
소나	-12531
송달	-12532
수득	-12533
수열	-12534
숙명	-12535
쉴드	-12536
스쿨	-12537
시력	-12538
신예	-12539
신주	-12540
실명	-12541
싫어	-12542
십이	-12543
쌓이	-12544
쓰인	-12545
아산	-12546
아테	-12547
알도	-12548
알라	-12549
암종	-12550
앞뒤	-12551
앞면	-12552
앵커	-12553
야마	-12554
억울	-12555
에릭	-12556
연고	-12557
연골	-12558
연마	-12559
연차	-12560
연히	-12561
예견	-12562
예멘	-12563
오븐	-12564
옥상	-12565
완만	-12566
왕실	-12567
외기	-12568
외벽	-12569
원점	-12570
원조	-12571
원했	-12572
유속	-12573
육박	-12574
응모	-12575
이광	-12576
이끈	-12577
이모	-12578
이색	-12579
이소	-12580
이양	-12581
이치	-12582
인조	-12583
일곱	-12584
일생	-12585
일예	-12586
일이	-12587
일자	-12588
일행	-12589
임하	-12590
입술	-12591
자수	-12592
잘라	-12593
잡혀	-12594
장력	-12595
장사	-12596
재건	-12597
재선	-12598
저면	-12599
저명	-12600
전장	-12601
절기	-12602
정년	-12603
정준	-12604
정했	-12605
조경	-12606
조서	-12607
종신	-12608
중생	-12609
중세	-12610
중형	-12611
즈음	-12612
지가	-12613
지뢰	-12614
지부	-12615
지혈	-12616
직속	-12617
질화	-12618
찬반	-12619
참사	-12620
천국	-12621
청력	-12622
청문	-12623
청자	-12624
초석	-12625
총기	-12626
추운	-12627
칸트	-12628
커진	-12629
커트	-12630
코칭	-12631
콜롬	-12632
퀴즈	-12633
키움	-12634
키퍼	-12635
타리	-12636
탄압	-12637
탈세	-12638
테면	-12639
토로	-12640
특목	-12641
파문	-12642
판명	-12643
펀딩	-12644
평점	-12645
평활	-12646
포섭	-12647
포진	-12648
퓨즈	-12649
피리	-12650
한눈	-12651
한라	-12652
한은	-12653
한참	-12654
할로	-12655
함몰	-12656
합당	-12657
합작	-12658
해촉	-12659
행할	-12660
헤어	-12661
헤지	-12662
후문	-12663
AKI	-12664
BBC	-12665
CCH	-12666
CRM	-12667
Com	-12668
DPP	-12669
GLP	-12670
HBs	-12671
HMD	-12672
LDL	-12673
NCS	-12674
OTT	-12675
UAV	-12676
WTO	-12677
ace	-12678
ale	-12679
ans	-12680
ark	-12681
ish	-12682
ric	-12683
ult	-12684
▁35	-12685
▁44	-12686
▁48	-12687
▁_∼	-12688
▁가공	-12689
▁개방	-12690
▁개시	-12691
▁개편	-12692
▁경학	-12693
▁고사	-12694
▁고정	-12695
▁관장	-12696
▁구도	-12697
▁구축	-12698
▁권리	-12699
▁노위	-12700
▁달장	-12701
▁담회	-12702
▁더러	-12703
▁도청	-12704
▁동향	-12705
▁렀다	-12706
▁렌즈	-12707
▁리빙	-12708
▁리스	-12709
▁리타	-12710
▁메틸	-12711
▁모스	-12712
▁발달	-12713
▁방위	-12714
▁부착	-12715
▁비린	-12716
▁선생	-12717
▁세수	-12718
▁셔도	-12719
▁시위	-12720
▁실리	-12721
▁심의	-12722
▁압력	-12723
▁약관	-12724
▁양육	-12725
▁여량	-12726
▁연계	-12727
▁예금	-12728
▁유산	-12729
▁응력	-12730
▁자발	-12731
▁장단	-12732
▁저하	-12733
▁전기	-12734
▁접근	-12735
▁정리	-12736
▁정범	-12737
▁제거	-12738
▁제약	-12739
▁중계	-12740
▁증자	-12741
▁지휘	-12742
▁질병	-12743
▁차익	-12744
▁청산	-12745
▁취득	-12746
▁카페	-12747
▁캐피	-12748
▁크류	-12749
▁터닝	-12750
▁통장	-12751
▁투석	-12752
▁투스	-12753
▁특구	-12754
▁포장	-12755
▁표지	-12756
▁플랫	-12757
▁피싱	-12758
▁하위	-12759
▁하이	-12760
▁협동	-12761
가리키	-12762
가처분	-12763
결정립	-12764
경동맥	-12765
고용부	-12766
공사장	-12767
과체중	-12768
광촉매	-12769
그랜드	-12770
그려진	-12771
그림책	-12772
글라스	-12773
글루코	-12774
기다릴	-12775
길거리	-12776
김동연	-12777
김영철	-12778
김현미	-12779
끊임없	-12780
나와서	-12781
낙동강	-12782
내려놓	-12783
넘어선	-12784
노회찬	-12785
늘어남	-12786
단체장	-12787
대상물	-12788
대장암	-12789
대화방	-12790
돌아올	-12791
동맥류	-12792
동반자	-12793
동일시	-12794
디즈니	-12795
떠올랐	-12796
떠올리	-12797
라이너	-12798
류현진	-12799
머니즘	-12800
메탄올	-12801
멘토링	-12802
무궁화	-12803
백혈구	-12804
법률안	-12805
벗어날	-12806
보증인	-12807
보험업	-12808
보호막	-12809
부통령	-12810
불가결	-12811
브라운	-12812
비대증	-12813
사령관	-12814
사회학	-12815
산화제	-12816
상하이	-12817
성동구	-12818
소시지	-12819
수산부	-12820
수술실	-12821
수출액	-12822
스토어	-12823
스트립	-12824
슬레이	-12825
시공사	-12826
실무자	-12827
실업자	-12828
심박수	-12829
아리랑	-12830
아바타	-12831
안희정	-12832
어울려	-12833
엄청나	-12834
연극제	-12835
연장선	-12836
왔으며	-12837
으므로	-12838
음료수	-12839
음악회	-12840
응축기	-12841
이내믹	-12842
이재민	-12843
인해서	-12844
일일이	-12845
전도도	-12846
제작자	-12847
종량제	-12848
중간층	-12849
즐거워	-12850
지방채	-12851
지켜볼	-12852
찾아오	-12853
찾아온	-12854
최우수	-12855
출판사	-12856
측정값	-12857
컨벤션	-12858
케이티	-12859
콘셉트	-12860
크리트	-12861
토론토	-12862
파운드	-12863
패리티	-12864
팬클럽	-12865
포항시	-12866
핀란드	-12867
한마디	-12868
할수록	-12869
합창단	-12870
현수막	-12871
혈전증	-12872
후원금	-12873
후처리	-12874
흡입구	-12875
CMOS	-12876
FIFA	-12877
ject	-12878
ment	-12879
▁관리자	-12880
▁구조물	-12881
▁기관장	-12882
▁느냐는	-12883
▁단백질	-12884
▁도우미	-12885
▁됐으나	-12886
▁문화재	-12887
▁미술관	-12888
▁바이저	-12889
▁변호사	-12890
▁보좌관	-12891
▁스토어	-12892
▁십니까	-12893
▁쓰레기	-12894
▁아무개	-12895
▁원자력	-12896
▁이야기	-12897
▁중개사	-12898
▁증명서	-12899
▁학기제	-12900
▁활성제	-12901
가로질러	-12902
고해상도	-12903
기울여야	-12904
까다로운	-12905
남녀노소	-12906
동대문구	-12907
들어간다	-12908
레퍼런스	-12909
메이크업	-12910
받아들인	-12911
북한이탈	-12912
심리치료	-12913
십이지장	-12914
어우러진	-12915
오리지널	-12916
와이파이	-12917
움직인다	-12918
이를테면	-12919
자유구역	-12920
콜롬비아	-12921
페널티킥	-12922
페이스트	-12923
Cronb	-12924
▁1000	-12925
▁8000	-12926
▁_148	-12927
▁_158	-12928
▁_255	-12929
▁_262	-12930
▁_331	-12931
▁_416	-12932
▁_503	-12933
▁_680	-12934
▁_901	-12935
▁시킵니다	-12936
▁회귀분석	-12937
강남스타일	-12938
블랙리스트	-12939
알도스테론	-12940
엘리베이터	-12941
이데올로기	-12942
▁_1986	-12943
▁_2200	-12944
▁트랜지스터	-12945
북한이탈주민	-12946
코르티코이드	-12947
Cronbach	-12948
65	-12949
DD	-12950
DO	-12951
Fr	-12952
Gy	-12953
He	-12954
KA	-12955
KE	-12956
NT	-12957
PW	-12958
ck	-12959
fl	-12960
he	-12961
▁n	-12962
▁김	-12963
▁덕	-12964
▁딘	-12965
▁랜	-12966
▁밀	-12967
▁및	-12968
▁벡	-12969
▁빗	-12970
▁샵	-12971
▁숲	-12972
▁융	-12973
▁쿨	-12974
▁텔	-12975
▁풀	-12976
가라	-12977
가미	-12978
각지	-12979
감마	-12980
강당	-12981
강진	-12982
개미	-12983
거센	-12984
거창	-12985
검열	-12986
견학	-12987
겸직	-12988
고른	-12989
고비	-12990
고쳐	-12991
고추	-12992
고치	-12993
고혈	-12994
곧장	-12995
과업	-12996
구르	-12997
구슬	-12998
구장	-12999
구치	-13000
구해	-13001
국왕	-13002
국유	-13003
귀추	-13004
그해	-13005
기세	-13006
김대	-13007
김희	-13008
꼽혔	-13009
끌려	-13010
나들	-13011
날아	-13012
남구	-13013
냉방	-13014
너머	-13015
너비	-13016
넓힐	-13017
년기	-13018
노멀	-13019
노예	-13020
놀랐	-13021
놓였	-13022
누이	-13023
다닐	-13024
다뤄	-13025
다짐	-13026
닥터	-13027
달아	-13028
담아	-13029
담화	-13030
당대	-13031
대관	-13032
대림	-13033
대마	-13034
대접	-13035
댐퍼	-13036
데스	-13037
델라	-13038
도가	-13039
도르	-13040
도마	-13041
도제	-13042
돌렸	-13043
동공	-13044
동독	-13045
동량	-13046
동명	-13047
둔부	-13048
듀티	-13049
드렸	-13050
들인	-13051
듯이	-13052
등식	-13053
등지	-13054
딩스	-13055
딸기	-13056
랙션	-13057
렌지	-13058
마라	-13059
마실	-13060
만만	-13061
망막	-13062
망이	-13063
머릿	-13064
메가	-13065
모스	-13066
목격	-13067
몰렸	-13068
무진	-13069
미진	-13070
미충	-13071
바나	-13072
박상	-13073
박종	-13074
발암	-13075
발족	-13076
발트	-13077
방광	-13078
방화	-13079
배척	-13080
백업	-13081
벌여	-13082
베어	-13083
변주	-13084
별세	-13085
병동	-13086
보기	-13087
보람	-13088
보석	-13089
보직	-13090
복소	-13091
본명	-13092
부록	-13093
부직	-13094
분광	-13095
분절	-13096
분홍	-13097
붙인	-13098
블러	-13099
사멸	-13100
살균	-13101
상근	-13102
색조	-13103
생후	-13104
서지	-13105
석면	-13106
선포	-13107
설교	-13108
성기	-13109
세르	-13110
소오	-13111
소파	-13112
속해	-13113
송장	-13114
송환	-13115
쇠퇴	-13116
수교	-13117
수차	-13118
수취	-13119
숙지	-13120
쉬프	-13121
스톡	-13122
실란	-13123
실링	-13124
실사	-13125
심방	-13126
심원	-13127
아데	-13128
안구	-13129
안동	-13130
알릴	-13131
압통	-13132
어묵	-13133
어요	-13134
어퍼	-13135
에너	-13136
엘지	-13137
여왕	-13138
역류	-13139
염수	-13140
영남	-13141
예제	-13142
온열	-13143
온전	-13144
올레	-13145
와야	-13146
욕심	-13147
우저	-13148
운서	-13149
울리	-13150
울음	-13151
원금	-13152
원지	-13153
위력	-13154
유세	-13155
은수	-13156
음란	-13157
의전	-13158
이길	-13159
이니	-13160
이대	-13161
이젠	-13162
일명	-13163
일지	-13164
잇달	-13165
잉글	-13166
자명	-13167
자생	-13168
자정	-13169
자활	-13170
잡혔	-13171
잡히	-13172
장성	-13173
재연	-13174
재임	-13175
재킷	-13176
적재	-13177
전가	-13178
전소	-13179
전열	-13180
절박	-13181
점프	-13182
접대	-13183
정범	-13184
정장	-13185
제네	-13186
제대	-13187
제습	-13188
조밀	-13189
조원	-13190
종로	-13191
주역	-13192
줄곧	-13193
줄인	-13194
줘서	-13195
직각	-13196
직진	-13197
집약	-13198
집어	-13199
짜증	-13200
차로	-13201
차액	-13202
처하	-13203
처해	-13204
천지	-13205
청춘	-13206
초당	-13207
총격	-13208
최우	-13209
추궁	-13210
축원	-13211
출소	-13212
치성	-13213
친한	-13214
컨셉	-13215
컴퍼	-13216
클록	-13217
클립	-13218
탐침	-13219
토너	-13220
토르	-13221
토사	-13222
통용	-13223
퇴적	-13224
트릭	-13225
튼튼	-13226
파단	-13227
파지	-13228
페달	-13229
페어	-13230
폐해	-13231
표절	-13232
피우	-13233
핑크	-13234
하버	-13235
하트	-13236
학식	-13237
한양	-13238
한파	-13239
해역	-13240
해이	-13241
허벅	-13242
호감	-13243
호재	-13244
혼재	-13245
홍반	-13246
화음	-13247
환형	-13248
활짝	-13249
황사	-13250
회관	-13251
회색	-13252
회현	-13253
후대	-13254
후진	-13255
휴먼	-13256
흔치	-13257
ANO	-13258
ARQ	-13259
ATC	-13260
COS	-13261
ECC	-13262
EGR	-13263
ETV	-13264
GUI	-13265
Gro	-13266
HBe	-13267
IFN	-13268
MIT	-13269
MSC	-13270
OOO	-13271
Pan	-13272
RAF	-13273
RFA	-13274
RGB	-13275
SUB	-13276
TGF	-13277
TSH	-13278
The	-13279
WSJ	-13280
ade	-13281
ian	-13282
ier	-13283
ith	-13284
mon	-13285
rol	-13286
▁37	-13287
▁53	-13288
▁Hz	-13289
▁감면	-13290
▁감염	-13291
▁걸음	-13292
▁공예	-13293
▁관세	-13294
▁귀식	-13295
▁근육	-13296
▁남부	-13297
▁납세	-13298
▁노선	-13299
▁농장	-13300
▁누리	-13301
▁담사	-13302
▁대역	-13303
▁대체	-13304
▁도어	-13305
▁득점	-13306
▁디포	-13307
▁레저	-13308
▁로움	-13309
▁마이	-13310
▁면은	-13311
▁반고	-13312
▁발명	-13313
▁부위	-13314
▁분담	-13315
▁비밀	-13316
▁비서	-13317
▁빈곤	-13318
▁산단	-13319
▁산림	-13320
▁산염	-13321
▁산화	-13322
▁상국	-13323
▁선부	-13324
▁설립	-13325
▁소개	-13326
▁소생	-13327
▁소속	-13328
▁속성	-13329
▁수상	-13330
▁수유	-13331
▁수정	-13332
▁에스	-13333
▁연료	-13334
▁연설	-13335
▁염색	-13336
▁염증	-13337
▁외교	-13338
▁용기	-13339
▁원단	-13340
▁유체	-13341
▁자기	-13342
▁자체	-13343
▁전통	-13344
▁절연	-13345
▁접촉	-13346
▁종결	-13347
▁주거	-13348
▁주관	-13349
▁줄게	-13350
▁증과	-13351
▁증도	-13352
▁지질	-13353
▁진영	-13354
▁진증	-13355
▁차단	-13356
▁차시	-13357
▁차장	-13358
▁충격	-13359
▁탐구	-13360
▁테마	-13361
▁특정	-13362
▁펀트	-13363
▁플랜	-13364
▁한도	-13365
▁항암	-13366
▁행복	-13367
▁행태	-13368
▁호기	-13369
▁확산	-13370
▁훼손	-13371
▁휴가	-13372
가라앉	-13373
가산기	-13374
간문맥	-13375
개인전	-13376
결승전	-13377
경기력	-13378
계엄령	-13379
고학년	-13380
골키퍼	-13381
공휴일	-13382
과거사	-13383
관측자	-13384
교차로	-13385
그다지	-13386
그려졌	-13387
기내식	-13388
기념품	-13389
기준점	-13390
김포시	-13391
나이트	-13392
내려진	-13393
내세워	-13394
농작물	-13395
눈여겨	-13396
뉴타운	-13397
니코틴	-13398
대용량	-13399
데려다	-13400
델파이	-13401
돌려받	-13402
두꺼운	-13403
드린다	-13404
레이스	-13405
루이스	-13406
림프종	-13407
마니아	-13408
마땅히	-13409
마인드	-13410
마크롱	-13411
맞물려	-13412
매크로	-13413
면역력	-13414
모국어	-13415
모티브	-13416
발사체	-13417
밝혀진	-13418
백분율	-13419
벌어질	-13420
부산물	-13421
불분명	-13422
블랙홀	-13423
사업주	-13424
산책로	-13425
살아갈	-13426
살아나	-13427
삽입부	-13428
새겨진	-13429
생산품	-13430
선거법	-13431
선거제	-13432
성장률	-13433
세서리	-13434
소송물	-13435
스캐닝	-13436
스테르	-13437
슬로건	-13438
시카고	-13439
시킨다	-13440
시프트	-13441
신분증	-13442
아이러	-13443
악순환	-13444
알파벳	-13445
양천구	-13446
어차피	-13447
언론사	-13448
엄격히	-13449
엔지니	-13450
여대생	-13451
연결망	-13452
연산자	-13453
열분해	-13454
오렌지	-13455
오스트	-13456
온종일	-13457
용인시	-13458
우레탄	-13459
우승자	-13460
원발성	-13461
원어민	-13462
으면서	-13463
음악가	-13464
의뢰인	-13465
의무자	-13466
이해찬	-13467
인산염	-13468
일부러	-13469
일용직	-13470
임시직	-13471
입주민	-13472
자본금	-13473
자연어	-13474
자이로	-13475
재판소	-13476
저지르	-13477
저학년	-13478
적립금	-13479
전염병	-13480
절대로	-13481
제거율	-13482
제안서	-13483
조속히	-13484
주거지	-13485
주소지	-13486
주어졌	-13487
중심축	-13488
지역민	-13489
진정한	-13490
창원시	-13491
찾아왔	-13492
초미세	-13493
최대치	-13494
취약점	-13495
치러진	-13496
침출수	-13497
컨디션	-13498
컴퍼니	-13499
투과성	-13500
투숙객	-13501
페르마	-13502
펼쳐질	-13503
표면적	-13504
프리즘	-13505
플라틴	-13506
플로팅	-13507
학자금	-13508
합니까	-13509
홍보물	-13510
회사채	-13511
후원자	-13512
BCLC	-13513
ICBM	-13514
MELD	-13515
NASH	-13516
ence	-13517
vice	-13518
▁500	-13519
▁600	-13520
▁MHz	-13521
▁경기장	-13522
▁기념관	-13523
▁답니다	-13524
▁라이트	-13525
▁병리학	-13526
▁스턴스	-13527
▁실래요	-13528
▁으리라	-13529
▁자치회	-13530
▁출납원	-13531
▁치료사	-13532
▁카메라	-13533
▁커머스	-13534
▁통계학	-13535
▁한다며	-13536
갑작스럽	-13537
공기조화	-13538
광역버스	-13539
국제기구	-13540
균형발전	-13541
그야말로	-13542
떨어진다	-13543
미칩니다	-13544
민간단체	-13545
베이커리	-13546
보인다고	-13547
부갑상선	-13548
브라우저	-13549
상관관계	-13550
스타디움	-13551
스페이스	-13552
스프레이	-13553
액세서리	-13554
인터랙션	-13555
일으킨다	-13556
전라북도	-13557
중등학교	-13558
컨퍼런스	-13559
파노라마	-13560
평화통일	-13561
프로모션	-13562
HBeAg	-13563
HBsAg	-13564
▁7000	-13565
▁_174	-13566
▁_207	-13567
▁_305	-13568
▁_405	-13569
▁_415	-13570
▁_423	-13571
▁_513	-13572
▁_603	-13573
▁_670	-13574
▁_711	-13575
▁_802	-13576
▁_811	-13577
▁다이오드	-13578
▁대표소송	-13579
▁민주주의	-13580
게이트웨이	-13581
슈퍼주니어	-13582
스타일러스	-13583
스테인리스	-13584
시스플라틴	-13585
오케스트라	-13586
인디케이터	-13587
테크놀로지	-13588
해양수산부	-13589
▁_1220	-13590
▁_1320	-13591
▁_1975	-13592
▁_2025	-13593
▁_6000	-13594
종합부동산세	-13595
캘리포니아주	-13596
글루코코르티코이드	-13597
21	-13598
75	-13599
AU	-13600
Bo	-13601
Ge	-13602
Go	-13603
Jo	-13604
KS	-13605
LI	-13606
LM	-13607
Pd	-13608
Pt	-13609
Qu	-13610
SV	-13611
Tg	-13612
YG	-13613
be	-13614
cc	-13615
ep	-13616
ev	-13617
gr	-13618
ke	-13619
ma	-13620
ov	-13621
tt	-13622
wh	-13623
▁W	-13624
▁s	-13625
▁걸	-13626
▁꽃	-13627
▁낭	-13628
▁냉	-13629
▁녀	-13630
▁녹	-13631
▁럼	-13632
▁림	-13633
▁맘	-13634
▁맹	-13635
▁새	-13636
▁섬	-13637
▁틸	-13638
▁힘	-13639
가문	-13640
각인	-13641
간성	-13642
감리	-13643
감산	-13644
감속	-13645
감작	-13646
감찰	-13647
강대	-13648
강동	-13649
강물	-13650
강호	-13651
개업	-13652
개학	-13653
거름	-13654
거지	-13655
건네	-13656
걸러	-13657
걸로	-13658
검경	-13659
결말	-13660
경성	-13661
경시	-13662
경증	-13663
경질	-13664
경총	-13665
경품	-13666
계파	-13667
고단	-13668
고작	-13669
고집	-13670
고층	-13671
공구	-13672
공서	-13673
공안	-13674
공적	-13675
공전	-13676
과오	-13677
관능	-13678
관음	-13679
관전	-13680
괄호	-13681
광양	-13682
교구	-13683
교착	-13684
구보	-13685
구실	-13686
구운	-13687
권법	-13688
귀찮	-13689
균주	-13690
그루	-13691
그분	-13692
근속	-13693
금기	-13694
급기	-13695
기동	-13696
기미	-13697
김순	-13698
김주	-13699
깔려	-13700
꾸려	-13701
꿈치	-13702
끝단	-13703
나물	-13704
나쁨	-13705
남길	-13706
낸드	-13707
네상	-13708
능선	-13709
니솔	-13710
다듬	-13711
다쳐	-13712
단선	-13713
달해	-13714
당산	-13715
당위	-13716
던졌	-13717
던진	-13718
도난	-13719
도리	-13720
도예	-13721
동굴	-13722
동두	-13723
동아	-13724
동월	-13725
동자	-13726
동치	-13727
두어	-13728
뒤쪽	-13729
드린	-13730
들썩	-13731
등판	-13732
때리	-13733
라만	-13734
라삐	-13735
라클	-13736
래그	-13737
런트	-13738
레마	-13739
레몬	-13740
레알	-13741
루트	-13742
리딩	-13743
리본	-13744
린지	-13745
만두	-13746
만취	-13747
맛집	-13748
망원	-13749
맞대	-13750
맞췄	-13751
매치	-13752
메우	-13753
멜론	-13754
명하	-13755
무겁	-13756
무스	-13757
문신	-13758
문체	-13759
문호	-13760
물결	-13761
물음	-13762
미트	-13763
바꿈	-13764
바랄	-13765
반주	-13766
발동	-13767
발렌	-13768
발작	-13769
발포	-13770
밤새	-13771
방범	-13772
백성	-13773
범용	-13774
벤투	-13775
변모	-13776
별장	-13777
보훈	-13778
본국	-13779
볼턴	-13780
봐요	-13781
부로	-13782
부추	-13783
부친	-13784
분별	-13785
불능	-13786
불평	-13787
비단	-13788
비약	-13789
빌딩	-13790
빛나	-13791
뿌려	-13792
산다	-13793
살린	-13794
삼국	-13795
삼자	-13796
삼현	-13797
상륙	-13798
서방	-13799
서점	-13800
석출	-13801
선하	-13802
설날	-13803
설레	-13804
설탕	-13805
성균	-13806
성당	-13807
세관	-13808
세동	-13809
세점	-13810
셀룰	-13811
셔야	-13812
소양	-13813
손길	-13814
쇼크	-13815
수법	-13816
수선	-13817
수액	-13818
수일	-13819
수임	-13820
슈팅	-13821
시노	-13822
시집	-13823
신구	-13824
신변	-13825
심문	-13826
심부	-13827
심심	-13828
심야	-13829
쌓인	-13830
씨름	-13831
아릴	-13832
안목	-13833
알킬	-13834
암기	-13835
압출	-13836
앞쪽	-13837
야권	-13838
약세	-13839
양구	-13840
양동	-13841
양치	-13842
어둠	-13843
어젯	-13844
얼른	-13845
엄밀	-13846
에드	-13847
여럿	-13848
역세	-13849
연가	-13850
연립	-13851
연중	-13852
열광	-13853
열등	-13854
영문	-13855
예기	-13856
예치	-13857
오세	-13858
옮긴	-13859
왜란	-13860
외장	-13861
욕실	-13862
용제	-13863
원로	-13864
원만	-13865
원상	-13866
원수	-13867
원안	-13868
원정	-13869
원할	-13870
월간	-13871
월등	-13872
위례	-13873
유급	-13874
유창	-13875
은산	-13876
음량	-13877
이겼	-13878
이션	-13879
인영	-13880
일당	-13881
입소	-13882
자락	-13883
작아	-13884
작정	-13885
잔금	-13886
잠수	-13887
장로	-13888
장세	-13889
재기	-13890
재즈	-13891
저우	-13892
전념	-13893
전학	-13894
점선	-13895
점토	-13896
정격	-13897
정조	-13898
제니	-13899
제천	-13900
조식	-13901
조카	-13902
종점	-13903
주교	-13904
주무	-13905
주심	-13906
주저	-13907
죽이	-13908
줄였	-13909
중장	-13910
지영	-13911
지친	-13912
진열	-13913
집필	-13914
찬양	-13915
채운	-13916
천동	-13917
천사	-13918
체스	-13919
촘촘	-13920
추격	-13921
추리	-13922
축복	-13923
춘기	-13924
출사	-13925
출처	-13926
춤추	-13927
췌관	-13928
침식	-13929
카락	-13930
쿠션	-13931
크랙	-13932
킬로	-13933
타선	-13934
타율	-13935
택지	-13936
템포	-13937
토니	-13938
퇴계	-13939
퇴임	-13940
특강	-13941
틀린	-13942
틈새	-13943
퍼드	-13944
퍼트	-13945
펜스	-13946
포수	-13947
폭락	-13948
푸르	-13949
푸시	-13950
풍물	-13951
풍성	-13952
하프	-13953
한옥	-13954
한잔	-13955
합헌	-13956
항일	-13957
햇빛	-13958
허술	-13959
허약	-13960
헤치	-13961
혈구	-13962
화보	-13963
화사	-13964
활기	-13965
황산	-13966
황색	-13967
획일	-13968
흘리	-13969
희귀	-13970
ACT	-13971
ALT	-13972
BRT	-13973
COV	-13974
CSF	-13975
DCI	-13976
Fed	-13977
INH	-13978
IPA	-13979
ISP	-13980
KIA	-13981
KOS	-13982
Med	-13983
NDA	-13984
NTM	-13985
PAN	-13986
PAR	-13987
PET	-13988
PFS	-13989
RCT	-13990
RRC	-13991
SCH	-13992
SNP	-13993
SSL	-13994
ZnS	-13995
are	-13996
ata	-13997
cal	-13998
cle	-13999
col	-14000
ert	-14001
gen	-14002
ite	-14003
lan	-14004
log	-14005
low	-14006
max	-14007
ole	-14008
ory	-14009
rom	-14010
ron	-14011
▁51	-14012
▁55	-14013
▁68	-14014
▁ha	-14015
▁가설	-14016
▁간격	-14017
▁강좌	-14018
▁개년	-14019
▁개입	-14020
▁개척	-14021
▁거의	-14022
▁경관	-14023
▁계산	-14024
▁교대	-14025
▁교원	-14026
▁국립	-14027
▁군수	-14028
▁근거	-14029
▁기증	-14030
▁노트	-14031
▁단가	-14032
▁단속	-14033
▁당했	-14034
▁동작	-14035
▁드려	-14036
▁란스	-14037
▁래요	-14038
▁려던	-14039
▁로울	-14040
▁리조	-14041
▁맥스	-14042
▁머니	-14043
▁면역	-14044
▁면접	-14045
▁모씨	-14046
▁민국	-14047
▁버튼	-14048
▁번지	-14049
▁병리	-14050
▁복구	-14051
▁부도	-14052
▁부들	-14053
▁부하	-14054
▁분자	-14055
▁붕괴	-14056
▁비상	-14057
▁빌딩	-14058
▁사슬	-14059
▁상자	-14060
▁선물	-14061
▁설과	-14062
▁수송	-14063
▁수용	-14064
▁스테	-14065
▁스톱	-14066
▁시료	-14067
▁시정	-14068
▁심판	-14069
▁아웃	-14070
▁약자	-14071
▁양자	-14072
▁엑스	-14073
▁여단	-14074
▁연기	-14075
▁연속	-14076
▁영제	-14077
▁용지	-14078
▁우수	-14079
▁운행	-14080
▁웨이	-14081
▁이유	-14082
▁인간	-14083
▁인척	-14084
▁입량	-14085
▁입부	-14086
▁장학	-14087
▁재배	-14088
▁전용	-14089
▁전원	-14090
▁정수	-14091
▁정화	-14092
▁조명	-14093
▁조영	-14094
▁증이	-14095
▁지연	-14096
▁직접	-14097
▁첨단	-14098
▁청년	-14099
▁축물	-14100
▁충전	-14101
▁치유	-14102
▁커싱	-14103
▁택시	-14104
▁특허	-14105
▁패션	-14106
▁페어	-14107
▁편익	-14108
▁폐지	-14109
▁표면	-14110
▁필드	-14111
▁학부	-14112
▁할게	-14113
▁현대	-14114
▁형제	-14115
▁홍보	-14116
▁화물	-14117
가족력	-14118
강수량	-14119
개최지	-14120
걸쳐서	-14121
곁들여	-14122
고려대	-14123
골목길	-14124
공공재	-14125
공권력	-14126
공산당	-14127
공화국	-14128
관리비	-14129
교수법	-14130
교육장	-14131
교향곡	-14132
구급차	-14133
권리금	-14134
그루브	-14135
금메달	-14136
금융업	-14137
기아차	-14138
김대중	-14139
김정숙	-14140
까다롭	-14141
꼼꼼히	-14142
낙태죄	-14143
남다른	-14144
남대문	-14145
냉난방	-14146
네상스	-14147
노년층	-14148
노사정	-14149
노숙인	-14150
늘려야	-14151
니솔론	-14152
다룬다	-14153
다시금	-14154
단면적	-14155
당사국	-14156
당선인	-14157
대상지	-14158
대장균	-14159
데려가	-14160
도시락	-14161
동반성	-14162
되돌려	-14163
들어섰	-14164
들으며	-14165
디아라	-14166
똑같이	-14167
라삐룬	-14168
라인업	-14169
레코드	-14170
로드맵	-14171
로스쿨	-14172
마리아	-14173
마운드	-14174
맞벌이	-14175
머릿속	-14176
멤버십	-14177
모노머	-14178
모비스	-14179
목표치	-14180
무리수	-14181
무사히	-14182
무형식	-14183
문화원	-14184
민영화	-14185
바빠서	-14186
반대편	-14187
반비례	-14188
반응물	-14189
발생량	-14190
발전량	-14191
방망이	-14192
배워야	-14193
백혈병	-14194
보통법	-14195
복막염	-14196
복소수	-14197
부여받	-14198
부직포	-14199
브리지	-14200
사거리	-14201
상무부	-14202
샤오미	-14203
서귀포	-14204
세계인	-14205
소고기	-14206
소나무	-14207
소집단	-14208
솔직히	-14209
수용액	-14210
수익금	-14211
스터디	-14212
시야각	-14213
시작점	-14214
시험관	-14215
식염수	-14216
신축성	-14217
쌍방향	-14218
쏠린다	-14219
쓰러졌	-14220
아세틸	-14221
안내문	-14222
안무가	-14223
앞당겨	-14224
어느새	-14225
어려서	-14226
어려우	-14227
어젯밤	-14228
에어로	-14229
에어백	-14230
연면적	-14231
열역학	-14232
영상물	-14233
오버랩	-14234
오일러	-14235
올라간	-14236
왔으나	-14237
원거리	-14238
원동력	-14239
위탁자	-14240
유산소	-14241
은평구	-14242
의구심	-14243
이동과	-14244
이마트	-14245
이소성	-14246
이용한	-14247
인사말	-14248
인코더	-14249
일찍이	-14250
임신부	-14251
자연인	-14252
재취업	-14253
저탄소	-14254
저혈압	-14255
전해져	-14256
정밀도	-14257
정수기	-14258
정해져	-14259
제곱근	-14260
줄여야	-14261
줄줄이	-14262
중소형	-14263
즐거웠	-14264
지하수	-14265
천연물	-14266
체납액	-14267
체지방	-14268
충실하	-14269
치우쳐	-14270
콩쿠르	-14271
키패드	-14272
탑승자	-14273
태극기	-14274
토마토	-14275
판결문	-14276
판타지	-14277
패혈증	-14278
페어링	-14279
펩티드	-14280
폴리아	-14281
플라이	-14282
피스톤	-14283
하와이	-14284
한겨레	-14285
함부로	-14286
행복감	-14287
허벅지	-14288
현대인	-14289
회의실	-14290
회전력	-14291
회전수	-14292
후반기	-14293
흔들림	-14294
HARQ	-14295
PMOS	-14296
▁공기업	-14297
▁내시경	-14298
▁는커녕	-14299
▁대법원	-14300
▁마스크	-14301
▁메시지	-14302
▁면세점	-14303
▁베스트	-14304
▁부평구	-14305
▁소방서	-14306
▁스크린	-14307
▁십니다	-14308
▁알코올	-14309
▁채무자	-14310
▁콘서트	-14311
▁테크노	-14312
▁특별법	-14313
▁피부염	-14314
▁피해자	-14315
▁활동비	-14316
가진다고	-14317
갑작스런	-14318
공소시효	-14319
관리본부	-14320
그러니까	-14321
남한산성	-14322
돼지고기	-14323
드니솔론	-14324
머리카락	-14325
못합니다	-14326
방사선학	-14327
부대시설	-14328
쁘라삐룬	-14329
사교육비	-14330
샌드박스	-14331
샌드위치	-14332
세로토닌	-14333
시가총액	-14334
신진대사	-14335
아리스토	-14336
아마추어	-14337
아메리카	-14338
안타까운	-14339
이뤄져야	-14340
자매결연	-14341
지날수록	-14342
체크아웃	-14343
콘크리트	-14344
크리스티	-14345
탄수화물	-14346
파키스탄	-14347
프리미어	-14348
하나하나	-14349
한국노총	-14350
할지라도	-14351
행동주의	-14352
행정소송	-14353
휴머니즘	-14354
Panel	-14355
▁_129	-14356
▁_173	-14357
▁_234	-14358
▁_243	-14359
▁_261	-14360
▁_271	-14361
▁_303	-14362
▁_315	-14363
▁_365	-14364
▁_390	-14365
▁_403	-14366
▁_411	-14367
▁_522	-14368
▁_523	-14369
▁문화유산	-14370
▁사회단체	-14371
▁어셈블리	-14372
▁플레이트	-14373
다이아몬드	-14374
디아라비아	-14375
베스트셀러	-14376
블라디미르	-14377
이해관계인	-14378
중앙아시아	-14379
폴리에틸렌	-14380
▁_1130	-14381
▁_1800	-14382
▁_1919	-14383
▁_1945	-14384
▁_1982	-14385
▁_2021	-14386
▁디스플레이	-14387
사우디아라비아	-14388
13	-14389
62	-14390
AB	-14391
Be	-14392
CQ	-14393
Fi	-14394
Gr	-14395
HE	-14396
KC	-14397
Ko	-14398
LH	-14399
MW	-14400
NR	-14401
On	-14402
Sr	-14403
Wi	-14404
XA	-14405
ds	-14406
ky	-14407
yn	-14408
▁f	-14409
▁x	-14410
▁놀	-14411
▁닐	-14412
▁닙	-14413
▁댐	-14414
▁랄	-14415
▁램	-14416
▁련	-14417
▁봄	-14418
▁쉽	-14419
▁웨	-14420
▁읍	-14421
▁즘	-14422
▁팁	-14423
가결	-14424
가부	-14425
가세	-14426
가솔	-14427
가위	-14428
각선	-14429
간결	-14430
간선	-14431
간행	-14432
갈래	-14433
감응	-14434
감탄	-14435
거미	-14436
검지	-14437
게놈	-14438
겨루	-14439
결집	-14440
겹살	-14441
경골	-14442
경인	-14443
계조	-14444
고공	-14445
고농	-14446
고로	-14447
고종	-14448
곤충	-14449
공문	-14450
관례	-14451
광이	-14452
괴물	-14453
교무	-14454
교제	-14455
교훈	-14456
구면	-14457
구술	-14458
구전	-14459
국물	-14460
귀중	-14461
규소	-14462
규약	-14463
글쓴	-14464
금년	-14465
급하	-14466
급히	-14467
기꺼	-14468
기약	-14469
기종	-14470
긴축	-14471
길항	-14472
김윤	-14473
김일	-14474
김제	-14475
김창	-14476
꺼지	-14477
끄럽	-14478
난관	-14479
날두	-14480
날로	-14481
날인	-14482
남아	-14483
내달	-14484
넉넉	-14485
넘긴	-14486
네마	-14487
누공	-14488
누나	-14489
능숙	-14490
니들	-14491
단초	-14492
단호	-14493
달렸	-14494
담장	-14495
답한	-14496
당진	-14497
대열	-14498
대용	-14499
대포	-14500
댓값	-14501
도날	-14502
도농	-14503
돌릴	-14504
동감	-14505
동경	-14506
동상	-14507
동인	-14508
동창	-14509
돼야	-14510
뒤덮	-14511
등등	-14512
뜻깊	-14513
럭스	-14514
로브	-14515
로시	-14516
로워	-14517
룩스	-14518
리닝	-14519
리버	-14520
릿지	-14521
마신	-14522
만금	-14523
만전	-14524
맛보	-14525
명세	-14526
모닝	-14527
모레	-14528
모발	-14529
모성	-14530
모차	-14531
목조	-14532
무결	-14533
무방	-14534
무섭	-14535
물들	-14536
미네	-14537
미량	-14538
미인	-14539
밀레	-14540
박명	-14541
박은	-14542
반포	-14543
발길	-14544
발레	-14545
방류	-14546
배럴	-14547
배석	-14548
배역	-14549
백금	-14550
백자	-14551
버설	-14552
벌레	-14553
법상	-14554
베테	-14555
벽돌	-14556
벽화	-14557
변량	-14558
변성	-14559
변천	-14560
병사	-14561
병증	-14562
보궐	-14563
보리	-14564
보임	-14565
볶음	-14566
본능	-14567
봉제	-14568
봉합	-14569
부동	-14570
부연	-14571
부제	-14572
분무	-14573
분임	-14574
불로	-14575
불빛	-14576
불펜	-14577
불허	-14578
붙였	-14579
브스	-14580
비강	-14581
비뇨	-14582
비염	-14583
비티	-14584
빌릴	-14585
사격	-14586
사마	-14587
사칭	-14588
서스	-14589
서영	-14590
섞인	-14591
선관	-14592
선반	-14593
선입	-14594
선장	-14595
선한	-14596
섭외	-14597
성령	-14598
성주	-14599
세원	-14600
세일	-14601
세전	-14602
셔서	-14603
소포	-14604
손자	-14605
송부	-14606
수락	-14607
수협	-14608
순진	-14609
스와	-14610
스폰	-14611
스플	-14612
슬립	-14613
시켰	-14614
시프	-14615
시합	-14616
신도	-14617
신병	-14618
신영	-14619
실로	-14620
아뇨	-14621
아미	-14622
아치	-14623
아쿠	-14624
악단	-14625
악의	-14626
안도	-14627
안면	-14628
암동	-14629
애완	-14630
야근	-14631
양복	-14632
양분	-14633
양파	-14634
양평	-14635
어마	-14636
어색	-14637
어졌	-14638
엔딩	-14639
여력	-14640
여보	-14641
여의	-14642
여전	-14643
연탄	-14644
염원	-14645
염화	-14646
영종	-14647
예쁘	-14648
오름	-14649
왕자	-14650
외연	-14651
우뚝	-14652
워진	-14653
원서	-14654
유두	-14655
유람	-14656
유영	-14657
유천	-14658
육안	-14659
육종	-14660
육지	-14661
은하	-14662
음영	-14663
의대	-14664
이라	-14665
이분	-14666
일감	-14667
일별	-14668
일조	-14669
자장	-14670
자폐	-14671
장마	-14672
재물	-14673
재일	-14674
저변	-14675
저압	-14676
적폐	-14677
전경	-14678
전곡	-14679
전구	-14680
전리	-14681
전보	-14682
전철	-14683
절도	-14684
절망	-14685
접시	-14686
정국	-14687
정재	-14688
제명	-14689
제물	-14690
제치	-14691
조제	-14692
조지	-14693
종국	-14694
주범	-14695
즈키	-14696
즉석	-14697
증오	-14698
지단	-14699
지반	-14700
지필	-14701
직영	-14702
집속	-14703
찌개	-14704
차리	-14705
창기	-14706
책자	-14707
챙긴	-14708
첨도	-14709
청결	-14710
초급	-14711
총무	-14712
총점	-14713
총칙	-14714
최단	-14715
출금	-14716
충주	-14717
측량	-14718
치른	-14719
친분	-14720
친형	-14721
카바	-14722
카스	-14723
칼륨	-14724
쿠바	-14725
타구	-14726
타늄	-14727
탈의	-14728
탈장	-14729
택하	-14730
텐트	-14731
토목	-14732
통산	-14733
통칭	-14734
투광	-14735
트윈	-14736
특감	-14737
특기	-14738
특집	-14739
티지	-14740
파고	-14741
판촉	-14742
팔리	-14743
패권	-14744
팬덤	-14745
편중	-14746
평년	-14747
평론	-14748
평정	-14749
포드	-14750
포커	-14751
폴더	-14752
폴드	-14753
푸리	-14754
풍토	-14755
피오	-14756
피임	-14757
피폭	-14758
필락	-14759
한결	-14760
합주	-14761
합하	-14762
항고	-14763
핵산	-14764
행안	-14765
향했	-14766
헌장	-14767
헤이	-14768
협소	-14769
호모	-14770
혹독	-14771
홍삼	-14772
화력	-14773
회기	-14774
획정	-14775
후단	-14776
후행	-14777
흉막	-14778
흔했	-14779
히토	-14780
힘쓰	-14781
ADA	-14782
ATP	-14783
CAD	-14784
CEA	-14785
EXO	-14786
Kim	-14787
NRS	-14788
PAD	-14789
RAM	-14790
SIB	-14791
SnO	-14792
USA	-14793
VAR	-14794
XRD	-14795
ant	-14796
bps	-14797
day	-14798
ign	-14799
ime	-14800
ium	-14801
mat	-14802
ral	-14803
ull	-14804
▁43	-14805
▁74	-14806
▁84	-14807
▁93	-14808
▁IU	-14809
▁ng	-14810
▁가단	-14811
▁간부	-14812
▁간접	-14813
▁감도	-14814
▁감리	-14815
▁감찰	-14816
▁강의	-14817
▁개인	-14818
▁건조	-14819
▁경연	-14820
▁경우	-14821
▁고속	-14822
▁관한	-14823
▁구호	-14824
▁구획	-14825
▁근종	-14826
▁기상	-14827
▁기억	-14828
▁기조	-14829
▁노드	-14830
▁노출	-14831
▁노포	-14832
▁논의	-14833
▁농구	-14834
▁단말	-14835
▁단층	-14836
▁대교	-14837
▁대수	-14838
▁데이	-14839
▁도전	-14840
▁동시	-14841
▁동원	-14842
▁돼왔	-14843
▁따라	-14844
▁라이	-14845
▁력사	-14846
▁로드	-14847
▁루타	-14848
▁마디	-14849
▁매장	-14850
▁명소	-14851
▁문자	-14852
▁물가	-14853
▁뮤직	-14854
▁미만	-14855
▁발굴	-14856
▁방전	-14857
▁버린	-14858
▁법제	-14859
▁변형	-14860
▁보트	-14861
▁상부	-14862
▁상수	-14863
▁상학	-14864
▁서버	-14865
▁세무	-14866
▁수수	-14867
▁스리	-14868
▁시립	-14869
▁신뢰	-14870
▁실점	-14871
▁야드	-14872
▁양상	-14873
▁어치	-14874
▁엔진	-14875
▁여름	-14876
▁연관	-14877
▁영양	-14878
▁예정	-14879
▁오픈	-14880
▁우리	-14881
▁원대	-14882
▁원소	-14883
▁원전	-14884
▁위주	-14885
▁위한	-14886
▁위해	-14887
▁유입	-14888
▁유자	-14889
▁을래	-14890
▁인재	-14891
▁인조	-14892
▁일수	-14893
▁입시	-14894
▁재의	-14895
▁저감	-14896
▁적자	-14897
▁적절	-14898
▁전선	-14899
▁접속	-14900
▁정액	-14901
▁정체	-14902
▁조서	-14903
▁존중	-14904
▁줘요	-14905
▁지능	-14906
▁진입	-14907
▁질문	-14908
▁집회	-14909
▁징용	-14910
▁창구	-14911
▁체인	-14912
▁총액	-14913
▁추출	-14914
▁취업	-14915
▁타입	-14916
▁타자	-14917
▁타점	-14918
▁터부	-14919
▁테이	-14920
▁통증	-14921
▁투쟁	-14922
▁파트	-14923
▁폐부	-14924
▁프라	-14925
▁프리	-14926
▁학당	-14927
▁학제	-14928
▁허용	-14929
▁형상	-14930
▁홈런	-14931
▁확보	-14932
▁환율	-14933
가까울	-14934
가르칠	-14935
가솔린	-14936
가압류	-14937
가야금	-14938
가용성	-14939
가해진	-14940
강력히	-14941
개그맨	-14942
거래량	-14943
건설사	-14944
걸림돌	-14945
게시물	-14946
경쟁사	-14947
경쟁자	-14948
골격근	-14949
과민성	-14950
광섬유	-14951
구심점	-14952
국제법	-14953
그런지	-14954
그려지	-14955
글쓴이	-14956
급성장	-14957
기꺼이	-14958
기울였	-14959
긴밀히	-14960
김부선	-14961
나간다	-14962
나타남	-14963
남긴다	-14964
남동생	-14965
내려오	-14966
내려졌	-14967
냉동실	-14968
넘겨진	-14969
노래방	-14970
농경지	-14971
누리꾼	-14972
눈높이	-14973
달러화	-14974
담당관	-14975
대전시	-14976
도봉구	-14977
동시대	-14978
들려주	-14979
디렉터	-14980
딜레마	-14981
라미드	-14982
라이나	-14983
로오스	-14984
리비아	-14985
매립지	-14986
메트로	-14987
멜로디	-14988
면서도	-14989
면역학	-14990
모스크	-14991
몰라서	-14992
몰라요	-14993
몰려들	-14994
몸무게	-14995
무너졌	-14996
무서운	-14997
무용수	-14998
뮤지션	-14999
미용실	-15000
바닷가	-15001
바라본	-15002
반가운	-15003
반덤핑	-15004
발라드	-15005
번호판	-15006
베이션	-15007
보낸다	-15008
보스토	-15009
보여서	-15010
보호법	-15011
부적응	-15012
분위수	-15013
분홍색	-15014
사다리	-15015
사라질	-15016
상변화	-15017
새만금	-15018
생겨서	-15019
생명체	-15020
서둘러	-15021
선택지	-15022
섬유질	-15023
성과급	-15024
성균관	-15025
성적표	-15026
세로축	-15027
세워진	-15028
세입자	-15029
센트럴	-15030
소극장	-15031
소크라	-15032
소홀히	-15033
수직선	-15034
스코어	-15035
스탬프	-15036
시간대	-15037
시니어	-15038
신경전	-15039
신의칙	-15040
쓰러져	-15041
아동학	-15042
애리조	-15043
어울릴	-15044
엔트리	-15045
여겨졌	-15046
여동생	-15047
연주회	-15048
열대야	-15049
온다면	-15050
올라갈	-15051
올라갔	-15052
용해도	-15053
운동량	-15054
울타리	-15055
원자로	-15056
원해요	-15057
위상차	-15058
윌리엄	-15059
유공자	-15060
유기체	-15061
유산균	-15062
의견서	-15063
이대로	-15064
이동식	-15065
이주민	-15066
인증서	-15067
임종헌	-15068
자위대	-15069
장단점	-15070
재전송	-15071
전두환	-15072
전문점	-15073
접촉면	-15074
정맥류	-15075
제약사	-15076
조영제	-15077
조인트	-15078
조현우	-15079
준다는	-15080
중성자	-15081
중환자	-15082
증류수	-15083
지부장	-15084
지지자	-15085
진다면	-15086
진동수	-15087
집행부	-15088
창의력	-15089
창작자	-15090
청구서	-15091
초창기	-15092
출입구	-15093
측정기	-15094
코발트	-15095
크레인	-15096
탈바꿈	-15097
털어놓	-15098
털어놨	-15099
텔레스	-15100
투명도	-15101
특목고	-15102
특산물	-15103
특징지	-15104
파이버	-15105
파이어	-15106
펼쳐진	-15107
폐쇄성	-15108
포르투	-15109
포인터	-15110
폴리에	-15111
프론트	-15112
하모니	-15113
하수도	-15114
할까요	-15115
항암제	-15116
해운대	-15117
호날두	-15118
회복세	-15119
BRAF	-15120
EGFR	-15121
IPTV	-15122
Kore	-15123
LDLT	-15124
NACK	-15125
OFDM	-15126
amin	-15127
ency	-15128
ical	-15129
lect	-15130
▁210	-15131
▁가입자	-15132
▁공직자	-15133
▁나트륨	-15134
▁대사관	-15135
▁라면서	-15136
▁라이드	-15137
▁라이프	-15138
▁려고요	-15139
▁리스트	-15140
▁리조트	-15141
▁법인세	-15142
▁부회장	-15143
▁비서관	-15144
▁솔루션	-15145
▁스타트	-15146
▁시켜서	-15147
▁아시아	-15148
▁어서요	-15149
▁억제제	-15150
▁요구서	-15151
▁위생법	-15152
▁인데요	-15153
▁장애인	-15154
▁주차장	-15155
▁주파수	-15156
▁처리장	-15157
▁총생산	-15158
▁태평양	-15159
▁패키지	-15160
▁폐쇄성	-15161
▁홀딩스	-15162
▁화장실	-15163
▁회의소	-15164
▁회의장	-15165
가로지르	-15166
강원랜드	-15167
경상북도	-15168
경정예산	-15169
경제학자	-15170
구석구석	-15171
국제공항	-15172
두드러졌	-15173
드라마틱	-15174
르네상스	-15175
마드리드	-15176
모른다는	-15177
무상급식	-15178
바이올린	-15179
보스토크	-15180
부정행위	-15181
블랙박스	-15182
비상근무	-15183
빠져나가	-15184
사물놀이	-15185
소용돌이	-15186
스크리닝	-15187
스튜어드	-15188
스트레인	-15189
슬레이브	-15190
아나필락	-15191
에너지원	-15192
오토바이	-15193
요구사항	-15194
이뤄지기	-15195
임진왜란	-15196
잉글랜드	-15197
정당방위	-15198
정형외과	-15199
젠테이션	-15200
토너먼트	-15201
퍼레이드	-15202
하이드로	-15203
해수욕장	-15204
ELISA	-15205
Inter	-15206
ector	-15207
value	-15208
▁2018	-15209
▁_168	-15210
▁_169	-15211
▁_208	-15212
▁_218	-15213
▁_228	-15214
▁_237	-15215
▁_242	-15216
▁_291	-15217
▁_308	-15218
▁_323	-15219
▁_404	-15220
▁_602	-15221
▁_722	-15222
▁노동조합	-15223
▁시킨다고	-15224
▁협동조합	-15225
국군기무사	-15226
라이브러리	-15227
소크라테스	-15228
오스트리아	-15229
인플루엔자	-15230
채무불이행	-15231
획기적으로	-15232
System	-15233
ersion	-15234
▁_1962	-15235
▁_1965	-15236
▁_1985	-15237
▁_1987	-15238
▁_2023	-15239
▁_3100	-15240
아나필락시스	-15241
질병관리본부	-15242
추가경정예산	-15243
블라디보스토크	-15244
아리스토텔레스	-15245
32	-15246
AH	-15247
BE	-15248
BF	-15249
BW	-15250
Bl	-15251
DN	-15252
DQ	-15253
DV	-15254
Da	-15255
EG	-15256
Ed	-15257
FN	-15258
IE	-15259
Im	-15260
KR	-15261
MU	-15262
Mn	-15263
PJ	-15264
QT	-15265
Un	-15266
WO	-15267
WW	-15268
do	-15269
km	-15270
ly	-15271
ok	-15272
ux	-15273
▁v	-15274
▁객	-15275
▁겐	-15276
▁끝	-15277
▁둔	-15278
▁럭	-15279
▁렛	-15280
▁맛	-15281
▁멀	-15282
▁뷰	-15283
▁샷	-15284
▁싶	-15285
▁웃	-15286
▁젤	-15287
▁친	-15288
▁탭	-15289
▁턴	-15290
▁헬	-15291
▁휠	-15292
가급	-15293
가연	-15294
가창	-15295
간내	-15296
간이	-15297
갈증	-15298
감옥	-15299
강압	-15300
강우	-15301
강판	-15302
갖췄	-15303
개골	-15304
개진	-15305
개회	-15306
갱이	-15307
거액	-15308
걸맞	-15309
검침	-15310
게르	-15311
격화	-15312
경마	-15313
경복	-15314
경작	-15315
경치	-15316
고율	-15317
공대	-15318
공석	-15319
공신	-15320
과기	-15321
과속	-15322
관서	-15323
관철	-15324
교단	-15325
교모	-15326
국책	-15327
궁전	-15328
귀환	-15329
그네	-15330
그늘	-15331
그쪽	-15332
그쳐	-15333
그친	-15334
근래	-15335
글리	-15336
금식	-15337
금천	-15338
급금	-15339
기무	-15340
기일	-15341
기표	-15342
김은	-15343
김인	-15344
김준	-15345
꺼졌	-15346
꺼풀	-15347
꼬집	-15348
나드	-15349
나흘	-15350
낙인	-15351
난항	-15352
남동	-15353
납치	-15354
낭만	-15355
내막	-15356
내실	-15357
냅스	-15358
냉전	-15359
넘길	-15360
넘버	-15361
네스	-15362
넥슨	-15363
노르	-15364
논술	-15365
농기	-15366
농부	-15367
놓이	-15368
뇌파	-15369
누렸	-15370
눈금	-15371
눈앞	-15372
느슨	-15373
니즈	-15374
니혼	-15375
닛산	-15376
다보	-15377
다원	-15378
다친	-15379
단결	-15380
단언	-15381
닫힌	-15382
담판	-15383
당화	-15384
덕목	-15385
덜미	-15386
도화	-15387
독해	-15388
동위	-15389
동축	-15390
두른	-15391
드름	-15392
드민	-15393
들렸	-15394
들릴	-15395
딜리	-15396
래퍼	-15397
랜서	-15398
레바	-15399
레칭	-15400
레트	-15401
렌트	-15402
로고	-15403
록시	-15404
료품	-15405
루이	-15406
리빙	-15407
리소	-15408
마늄	-15409
마마	-15410
마칠	-15411
막힌	-15412
만능	-15413
만세	-15414
만찬	-15415
맡길	-15416
매기	-15417
매너	-15418
머문	-15419
먹방	-15420
멋지	-15421
메카	-15422
면체	-15423
멸실	-15424
명사	-15425
모녀	-15426
모재	-15427
목동	-15428
몸매	-15429
묘지	-15430
무명	-15431
무색	-15432
묶여	-15433
문식	-15434
물감	-15435
뭉치	-15436
뮬러	-15437
미숙	-15438
미자	-15439
민석	-15440
민심	-15441
바둑	-15442
바텀	-15443
박병	-15444
박주	-15445
반등	-15446
반원	-15447
반죽	-15448
반짝	-15449
방임	-15450
번들	-15451
벌리	-15452
법전	-15453
베일	-15454
벤젠	-15455
변상	-15456
변했	-15457
변혁	-15458
보라	-15459
보형	-15460
복강	-15461
본점	-15462
본회	-15463
부도	-15464
분지	-15465
분진	-15466
분투	-15467
불명	-15468
불화	-15469
비빔	-15470
비식	-15471
비콘	-15472
비틀	-15473
빌드	-15474
빠짐	-15475
사냥	-15476
사면	-15477
사뭇	-15478
사스	-15479
사역	-15480
사적	-15481
산적	-15482
살림	-15483
살필	-15484
상각	-15485
상공	-15486
상도	-15487
상소	-15488
상조	-15489
새기	-15490
생필	-15491
서문	-15492
서산	-15493
서적	-15494
서핑	-15495
석회	-15496
석희	-15497
선결	-15498
선동	-15499
선례	-15500
선종	-15501
선회	-15502
성원	-15503
세례	-15504
세븐	-15505
세지	-15506
섹터	-15507
셔터	-15508
소동	-15509
소생	-15510
소켓	-15511
손톱	-15512
수경	-15513
수만	-15514
수배	-15515
수온	-15516
수표	-15517
순도	-15518
순방	-15519
순회	-15520
스킬	-15521
스톤	-15522
시달	-15523
시속	-15524
시식	-15525
시조	-15526
시찰	-15527
시판	-15528
시한	-15529
시황	-15530
식감	-15531
신상	-15532
신안	-15533
신작	-15534
신혜	-15535
실록	-15536
실익	-15537
실조	-15538
실존	-15539
실책	-15540
실크	-15541
심경	-15542
싱어	-15543
아디	-15544
악곡	-15545
안겼	-15546
안주	-15547
안티	-15548
알바	-15549
암묵	-15550
압착	-15551
애매	-15552
애틀	-15553
약사	-15554
약재	-15555
양반	-15556
어음	-15557
언덕	-15558
언스	-15559
엑셀	-15560
여분	-15561
역내	-15562
역습	-15563
연꽃	-15564
연희	-15565
열사	-15566
열연	-15567
염산	-15568
영속	-15569
영암	-15570
영유	-15571
예언	-15572
오롱	-15573
오만	-15574
온건	-15575
온몸	-15576
와도	-15577
완수	-15578
왜도	-15579
외력	-15580
요통	-15581
용사	-15582
웃돌	-15583
웅장	-15584
워야	-15585
워지	-15586
워커	-15587
원론	-15588
원치	-15589
위급	-15590
위도	-15591
유서	-15592
유승	-15593
유흥	-15594
은유	-15595
음형	-15596
의외	-15597
의용	-15598
이경	-15599
이국	-15600
이뇨	-15601
이덕	-15602
이석	-15603
이희	-15604
인서	-15605
인선	-15606
인입	-15607
일깨	-15608
일컬	-15609
일탈	-15610
일화	-15611
임부	-15612
입맛	-15613
입문	-15614
입상	-15615
입안	-15616
잊어	-15617
자화	-15618
잔치	-15619
장군	-15620
장미	-15621
재앙	-15622
저서	-15623
전과	-15624
전입	-15625
전진	-15626
전폭	-15627
전한	-15628
점용	-15629
정계	-15630
정례	-15631
정영	-15632
정진	-15633
정태	-15634
제리	-15635
제법	-15636
제비	-15637
제압	-15638
젠더	-15639
좁혀	-15640
좌파	-15641
주둔	-15642
주상	-15643
주안	-15644
주전	-15645
주조	-15646
준법	-15647
줄지	-15648
중산	-15649
지그	-15650
직계	-15651
직급	-15652
진국	-15653
진작	-15654
진해	-15655
차상	-15656
차수	-15657
찬스	-15658
채굴	-15659
채식	-15660
천명	-15661
철새	-15662
청중	-15663
체외	-15664
체형	-15665
초임	-15666
총알	-15667
최강	-15668
출납	-15669
출루	-15670
취합	-15671
층위	-15672
치주	-15673
친척	-15674
캐디	-15675
커져	-15676
커짐	-15677
컴백	-15678
코코	-15679
코티	-15680
콜로	-15681
쿠버	-15682
크다	-15683
크론	-15684
크롬	-15685
클레	-15686
키웠	-15687
타개	-15688
탁구	-15689
탈수	-15690
태화	-15691
테헤	-15692
토종	-15693
통설	-15694
퇴사	-15695
퇴치	-15696
투병	-15697
튜너	-15698
특급	-15699
특약	-15700
틀렸	-15701
티티	-15702
파린	-15703
파쇄	-15704
패했	-15705
팩트	-15706
폐사	-15707
포물	-15708
포일	-15709
포크	-15710
포폴	-15711
폰산	-15712
풍자	-15713
프탈	-15714
피막	-15715
피터	-15716
필립	-15717
하급	-15718
하라	-15719
하물	-15720
하브	-15721
하층	-15722
학령	-15723
학살	-15724
한두	-15725
합숙	-15726
해금	-15727
해답	-15728
해독	-15729
해치	-15730
행장	-15731
향토	-15732
허점	-15733
헤르	-15734
헬륨	-15735
혜원	-15736
혜진	-15737
호조	-15738
호칭	-15739
혼선	-15740
홍대	-15741
화염	-15742
황화	-15743
후두	-15744
훌쩍	-15745
휴지	-15746
휴직	-15747
흐려	-15748
흡기	-15749
힌트	-15750
BLB	-15751
BLK	-15752
CAN	-15753
CCA	-15754
CES	-15755
CIN	-15756
DTC	-15757
ECG	-15758
FGF	-15759
FPG	-15760
HER	-15761
IPO	-15762
PBS	-15763
PLA	-15764
PMI	-15765
PTH	-15766
PVD	-15767
ROC	-15768
SPA	-15769
SPC	-15770
Ser	-15771
TLR	-15772
TRA	-15773
UAE	-15774
VSS	-15775
Wat	-15776
ain	-15777
ake	-15778
ane	-15779
ech	-15780
eff	-15781
ene	-15782
erg	-15783
ick	-15784
ics	-15785
ile	-15786
met	-15787
mol	-15788
ney	-15789
off	-15790
oph	-15791
ork	-15792
our	-15793
out	-15794
pol	-15795
ref	-15796
set	-15797
the	-15798
ugh	-15799
ust	-15800
▁41	-15801
▁49	-15802
▁wt	-15803
▁각부	-15804
▁건대	-15805
▁검정	-15806
▁계정	-15807
▁공구	-15808
▁공모	-15809
▁관염	-15810
▁권단	-15811
▁그루	-15812
▁기대	-15813
▁길래	-15814
▁니스	-15815
▁닷컴	-15816
▁대별	-15817
▁더리	-15818
▁돌기	-15819
▁동맹	-15820
▁때문	-15821
▁라니	-15822
▁라든	-15823
▁레일	-15824
▁려다	-15825
▁령부	-15826
▁리아	-15827
▁리어	-15828
▁리터	-15829
▁마련	-15830
▁매트	-15831
▁면부	-15832
▁명사	-15833
▁모니	-15834
▁목부	-15835
▁무기	-15836
▁물건	-15837
▁발견	-15838
▁발급	-15839
▁벨트	-15840
▁보완	-15841
▁부업	-15842
▁분산	-15843
▁분양	-15844
▁비아	-15845
▁비즈	-15846
▁사면	-15847
▁사자	-15848
▁사정	-15849
▁사태	-15850
▁상업	-15851
▁생각	-15852
▁선량	-15853
▁성공	-15854
▁성기	-15855
▁성명	-15856
▁성형	-15857
▁소녀	-15858
▁소추	-15859
▁수력	-15860
▁수면	-15861
▁수법	-15862
▁수영	-15863
▁수원	-15864
▁순서	-15865
▁스쿨	-15866
▁스파	-15867
▁식이	-15868
▁신단	-15869
▁실질	-15870
▁실행	-15871
▁안내	-15872
▁압류	-15873
▁양수	-15874
▁어선	-15875
▁억제	-15876
▁언더	-15877
▁업인	-15878
▁역할	-15879
▁연락	-15880
▁예약	-15881
▁예측	-15882
▁오스	-15883
▁요리	-15884
▁우편	-15885
▁운전	-15886
▁음주	-15887
▁이징	-15888
▁이크	-15889
▁이행	-15890
▁인방	-15891
▁인용	-15892
▁인하	-15893
▁임용	-15894
▁임원	-15895
▁입찰	-15896
▁자석	-15897
▁전망	-15898
▁전소	-15899
▁정확	-15900
▁제소	-15901
▁조부	-15902
▁조회	-15903
▁종목	-15904
▁중립	-15905
▁지분	-15906
▁지속	-15907
▁직무	-15908
▁질소	-15909
▁차선	-15910
▁차트	-15911
▁초과	-15912
▁추적	-15913
▁취지	-15914
▁카운	-15915
▁커플	-15916
▁콜라	-15917
▁쿼터	-15918
▁태세	-15919
▁터널	-15920
▁테일	-15921
▁튜버	-15922
▁판정	-15923
▁펌프	-15924
▁편감	-15925
▁편식	-15926
▁포함	-15927
▁폭부	-15928
▁플리	-15929
▁하수	-15930
▁한국	-15931
▁합치	-15932
▁해라	-15933
▁해짐	-15934
▁행법	-15935
▁헬스	-15936
▁현실	-15937
▁화소	-15938
▁활력	-15939
▁회수	-15940
▁후생	-15941
▁휴직	-15942
가급적	-15943
간호학	-15944
갈라지	-15945
감사관	-15946
감소량	-15947
감염자	-15948
감지기	-15949
강릉시	-15950
개구리	-15951
개도국	-15952
개막전	-15953
건너편	-15954
건축법	-15955
결합제	-15956
경희대	-15957
계획안	-15958
고려인	-15959
고소장	-15960
고용주	-15961
고지방	-15962
공급원	-15963
공매도	-15964
공영주	-15965
과부하	-15966
과산화	-15967
관공서	-15968
광고주	-15969
구동력	-15970
국제선	-15971
그래야	-15972
급매물	-15973
기관사	-15974
기록관	-15975
기본급	-15976
기저귀	-15977
김일성	-15978
김지은	-15979
김현수	-15980
꼭지점	-15981
나이지	-15982
난치성	-15983
내려앉	-15984
넘어간	-15985
노란색	-15986
놀이터	-15987
뇌혈관	-15988
누리집	-15989
누진제	-15990
다가온	-15991
단단히	-15992
단일팀	-15993
달한다	-15994
대각선	-15995
대나무	-15996
대표제	-15997
더더욱	-15998
데일리	-15999
덴마크	-16000
도날드	-16001
도우미	-16002
도파관	-16003
도플러	-16004
돌려주	-16005
동식물	-16006
동의서	-16007
뒤따르	-16008
드로잉	-16009
드민턴	-16010
들어선	-16011
들어설	-16012
들이받	-16013
라운지	-16014
레바논	-16015
리포트	-16016
립스틱	-16017
맹활약	-16018
메뉴판	-16019
모세포	-16020
모여들	-16021
모우라	-16022
목격자	-16023
무슬림	-16024
무인기	-16025
무작정	-16026
물동량	-16027
물려받	-16028
미적분	-16029
미지급	-16030
미화원	-16031
바닷물	-16032
반대쪽	-16033
반송파	-16034
발표회	-16035
버스트	-16036
보스턴	-16037
보좌관	-16038
복용량	-16039
볼거리	-16040
부산대	-16041
부상자	-16042
부조리	-16043
부지런	-16044
북한산	-16045
브레인	-16046
비서관	-16047
사라져	-16048
사명감	-16049
사우스	-16050
사춘기	-16051
삼겹살	-16052
새겨져	-16053
생겨나	-16054
생리학	-16055
생필품	-16056
선천성	-16057
성취감	-16058
성탄절	-16059
소방차	-16060
소재지	-16061
손꼽히	-16062
손바닥	-16063
수료생	-16064
수백만	-16065
수산화	-16066
수십만	-16067
수입품	-16068
수정안	-16069
스코틀	-16070
스코프	-16071
슬란드	-16072
시냅스	-16073
시험지	-16074
신년사	-16075
신문사	-16076
실마리	-16077
실정법	-16078
아데노	-16079
아로마	-16080
아테네	-16081
알리바	-16082
압박감	-16083
애널리	-16084
양이온	-16085
어때요	-16086
억지로	-16087
언론인	-16088
에센스	-16089
엘리트	-16090
여객선	-16091
여행길	-16092
여행자	-16093
연기자	-16094
염색체	-16095
영양사	-16096
오른손	-16097
오산시	-16098
오프닝	-16099
올라온	-16100
올바르	-16101
완성도	-16102
외무성	-16103
요금제	-16104
용이성	-16105
우선시	-16106
우주선	-16107
울산시	-16108
원재료	-16109
유람선	-16110
유소년	-16111
이동하	-16112
이스터	-16113
일교차	-16114
일회용	-16115
잇따랐	-16116
작아지	-16117
장자연	-16118
재판장	-16119
저절로	-16120
전시관	-16121
전시실	-16122
전투기	-16123
전화기	-16124
정해인	-16125
제삼자	-16126
조사단	-16127
조선업	-16128
조수석	-16129
조직원	-16130
존엄성	-16131
주거비	-16132
주사기	-16133
주의자	-16134
준거법	-16135
중간재	-16136
중남미	-16137
중도금	-16138
증명서	-16139
지리산	-16140
직거래	-16141
진동판	-16142
진술문	-16143
진에어	-16144
청정기	-16145
체육계	-16146
초상화	-16147
총파업	-16148
출근길	-16149
출퇴근	-16150
취소권	-16151
취임식	-16152
치른다	-16153
친밀감	-16154
카타르	-16155
캐비닛	-16156
커플러	-16157
커피숍	-16158
코멘트	-16159
코오롱	-16160
클램프	-16161
키오스	-16162
터뜨렸	-16163
턱없이	-16164
테헤란	-16165
통찰력	-16166
투과도	-16167
트래킹	-16168
트레드	-16169
티미터	-16170
팔레스	-16171
패션쇼	-16172
퍼센트	-16173
페이징	-16174
페인트	-16175
포상금	-16176
포장재	-16177
프레이	-16178
플라톤	-16179
플로리	-16180
피로감	-16181
학생회	-16182
한다며	-16183
할인율	-16184
합격자	-16185
항공편	-16186
해로운	-16187
해병대	-16188
햄버거	-16189
했으며	-16190
헤어지	-16191
현기증	-16192
현대사	-16193
혐기성	-16194
형태학	-16195
호랑이	-16196
확인서	-16197
회계사	-16198
회전자	-16199
휴게소	-16200
흔들릴	-16201
히어로	-16202
Case	-16203
Cont	-16204
ECMO	-16205
ERCP	-16206
IFRS	-16207
LTBI	-16208
NMOS	-16209
Stat	-16210
UEFA	-16211
reat	-16212
▁140	-16213
▁개정안	-16214
▁계약서	-16215
▁공제액	-16216
▁관광객	-16217
▁글로벌	-16218
▁네이션	-16219
▁동아리	-16220
▁디스크	-16221
▁리라는	-16222
▁물리학	-16223
▁방사선	-16224
▁보건소	-16225
▁보일러	-16226
▁사업비	-16227
▁사회학	-16228
▁순이익	-16229
▁스러웠	-16230
▁신가요	-16231
▁심의회	-16232
▁어린이	-16233
▁운동장	-16234
▁이나마	-16235
▁재판관	-16236
▁재판부	-16237
▁저작물	-16238
▁줄게요	-16239
▁지도자	-16240
▁지배력	-16241
▁테스트	-16242
▁통계량	-16243
▁혈소판	-16244
갑상선암	-16245
게르마늄	-16246
광역시장	-16247
기념행사	-16248
기울어진	-16249
끌어올리	-16250
다이내믹	-16251
델라웨어	-16252
동물보호	-16253
두드러진	-16254
두려워하	-16255
등장인물	-16256
레버리지	-16257
르노삼성	-16258
마음대로	-16259
만듭니다	-16260
모스크바	-16261
모아진다	-16262
모의재판	-16263
보드게임	-16264
보호법익	-16265
비엔날레	-16266
사채권자	-16267
산업은행	-16268
삼성그룹	-16269
스케이트	-16270
스트레칭	-16271
스파이크	-16272
아나운서	-16273
아라비아	-16274
아이러니	-16275
열에너지	-16276
올라간다	-16277
올라이트	-16278
원한다면	-16279
유니버설	-16280
잃어버렸	-16281
자동차세	-16282
자산관리	-16283
장례식장	-16284
저혈당증	-16285
지지부진	-16286
직업훈련	-16287
집중호우	-16288
충청남도	-16289
코스트코	-16290
특별회계	-16291
파트너십	-16292
포르투갈	-16293
프로포폴	-16294
피라미드	-16295
할리우드	-16296
ANOVA	-16297
COVID	-16298
Group	-16299
KOSPI	-16300
PDCCH	-16301
ement	-16302
inter	-16303
▁2019	-16304
▁_177	-16305
▁_179	-16306
▁_216	-16307
▁_217	-16308
▁_245	-16309
▁_252	-16310
▁_314	-16311
▁_406	-16312
▁_426	-16313
▁_431	-16314
▁_490	-16315
▁_515	-16316
▁_532	-16317
▁_580	-16318
▁_625	-16319
▁_760	-16320
▁_860	-16321
▁디자이너	-16322
▁일지라도	-16323
갑작스러운	-16324
강원도지사	-16325
관리위원회	-16326
나이지리아	-16327
다이어그램	-16328
무형문화재	-16329
비례대표제	-16330
비트스트림	-16331
셀룰로오스	-16332
스코틀랜드	-16333
아이스크림	-16334
아이슬란드	-16335
자궁경부암	-16336
파이프라인	-16337
팔레스타인	-16338
페널티킥을	-16339
현대모비스	-16340
▁_1020	-16341
▁_1230	-16342
▁_1610	-16343
▁_1620	-16344
▁_1963	-16345
▁_1977	-16346
▁_1979	-16347
▁_2040	-16348
광역자치단체	-16349
기초자치단체	-16350
프레젠테이션	-16351
15	-16352
22	-16353
49	-16354
89	-16355
90	-16356
98	-16357
AO	-16358
Ad	-16359
BT	-16360
CY	-16361
Ce	-16362
Cp	-16363
DG	-16364
DT	-16365
GC	-16366
GW	-16367
IZ	-16368
MV	-16369
My	-16370
NY	-16371
PN	-16372
Pl	-16373
RI	-16374
Sm	-16375
VH	-16376
WT	-16377
ZR	-16378
di	-16379
fe	-16380
ou	-16381
si	-16382
uk	-16383
▁Y	-16384
▁l	-16385
▁r	-16386
▁β	-16387
▁널	-16388
▁뇌	-16389
▁덴	-16390
▁득	-16391
▁딜	-16392
▁따	-16393
▁롬	-16394
▁몬	-16395
▁밴	-16396
▁빛	-16397
▁슛	-16398
▁앞	-16399
▁앰	-16400
▁윈	-16401
▁잠	-16402
▁찌	-16403
▁찰	-16404
▁캔	-16405
▁캠	-16406
▁퀴	-16407
▁톱	-16408
▁푼	-16409
▁흐	-16410
▁흡	-16411
가곡	-16412
가디	-16413
가할	-16414
간신	-16415
간지	-16416
갇혀	-16417
갈음	-16418
감내	-16419
강북	-16420
강인	-16421
강철	-16422
개량	-16423
거제	-16424
거침	-16425
건선	-16426
건식	-16427
검수	-16428
게을	-16429
겸손	-16430
경진	-16431
고군	-16432
고독	-16433
고분	-16434
고요	-16435
곡점	-16436
골문	-16437
곱한	-16438
공분	-16439
공습	-16440
공천	-16441
과이	-16442
관대	-16443
관로	-16444
관영	-16445
광대	-16446
광산	-16447
광의	-16448
교동	-16449
교묘	-16450
교외	-16451
구내	-16452
구배	-16453
국감	-16454
국극	-16455
국지	-16456
군민	-16457
군부	-16458
군자	-16459
굳건	-16460
굴러	-16461
굵기	-16462
귀가	-16463
귀엽	-16464
그립	-16465
기립	-16466
기수	-16467
김도	-16468
김선	-16469
김우	-16470
김한	-16471
김형	-16472
깨진	-16473
꼬마	-16474
꼭짓	-16475
꾸미	-16476
끝점	-16477
끼칠	-16478
나르	-16479
나일	-16480
나주	-16481
난색	-16482
남원	-16483
낯설	-16484
내림	-16485
내연	-16486
네거	-16487
념물	-16488
노고	-16489
노벨	-16490
녹여	-16491
녹조	-16492
농경	-16493
높인	-16494
는데	-16495
는점	-16496
다나	-16497
담백	-16498
당면	-16499
당업	-16500
당정	-16501
대국	-16502
대담	-16503
대란	-16504
대웅	-16505
대차	-16506
더러	-16507
데시	-16508
데타	-16509
도둑	-16510
도료	-16511
도비	-16512
도식	-16513
도요	-16514
도용	-16515
도저	-16516
도통	-16517
돌봐	-16518
동국	-16519
동주	-16520
동탄	-16521
두뇌	-16522
드럼	-16523
드롭	-16524
때려	-16525
뜨릴	-16526
라지	-16527
란다	-16528
랑카	-16529
러미	-16530
레디	-16531
레미	-16532
레슨	-16533
렐라	-16534
로펌	-16535
로하	-16536
루머	-16537
릅쓰	-16538
리벳	-16539
리파	-16540
리페	-16541
마른	-16542
막강	-16543
막론	-16544
만감	-16545
말린	-16546
말미	-16547
망명	-16548
망설	-16549
매사	-16550
맨체	-16551
멈출	-16552
메밀	-16553
멜라	-16554
면상	-16555
멸종	-16556
모던	-16557
몰두	-16558
못함	-16559
묘역	-16560
무심	-16561
무안	-16562
무일	-16563
무혐	-16564
묶음	-16565
문리	-16566
묻혀	-16567
물자	-16568
뭉침	-16569
므누	-16570
미경	-16571
미추	-16572
미침	-16573
민수	-16574
밀링	-16575
바보	-16576
박이	-16577
반출	-16578
반향	-16579
발췌	-16580
발탁	-16581
방증	-16582
방진	-16583
방청	-16584
배아	-16585
배차	-16586
백범	-16587
백지	-16588
버릴	-16589
번영	-16590
범람	-16591
변증	-16592
변한	-16593
보습	-16594
복권	-16595
본안	-16596
볼펜	-16597
봄철	-16598
봉화	-16599
봐서	-16600
부검	-16601
부영	-16602
부쩍	-16603
부탄	-16604
분모	-16605
분청	-16606
불린	-16607
불릴	-16608
불발	-16609
불변	-16610
불식	-16611
불용	-16612
불타	-16613
불황	-16614
뷔페	-16615
비누	-16616
비르	-16617
비비	-16618
비소	-16619
비지	-16620
빌라	-16621
빔포	-16622
빨래	-16623
사도	-16624
사비	-16625
사의	-16626
사익	-16627
사촌	-16628
산도	-16629
산품	-16630
상설	-16631
상쾌	-16632
새삼	-16633
새싹	-16634
생전	-16635
서남	-16636
서당	-16637
서운	-16638
서재	-16639
석사	-16640
선뜻	-16641
선방	-16642
선주	-16643
성부	-16644
성함	-16645
성행	-16646
성환	-16647
세습	-16648
세외	-16649
셔도	-16650
소강	-16651
소사	-16652
소작	-16653
소프	-16654
속여	-16655
속출	-16656
손학	-16657
솟값	-16658
쇼어	-16659
수순	-16660
수제	-16661
수해	-16662
숙고	-16663
순조	-16664
순종	-16665
순찰	-16666
스가	-16667
스냅	-16668
스무	-16669
스턴	-16670
슬기	-16671
습기	-16672
습지	-16673
승려	-16674
승마	-16675
승산	-16676
승선	-16677
승환	-16678
승희	-16679
시수	-16680
시외	-16681
시체	-16682
식기	-16683
식탁	-16684
신사	-16685
신수	-16686
신자	-16687
신차	-16688
신태	-16689
실거	-16690
실추	-16691
심산	-16692
심증	-16693
심초	-16694
심플	-16695
쌓았	-16696
쓴다	-16697
아랫	-16698
아밀	-16699
아카	-16700
악마	-16701
암석	-16702
암흑	-16703
압연	-16704
애도	-16705
액자	-16706
액티	-16707
야경	-16708
야수	-16709
야심	-16710
약액	-16711
약학	-16712
양념	-16713
양천	-16714
어야	-16715
어포	-16716
어필	-16717
억류	-16718
억지	-16719
얼리	-16720
엄정	-16721
에프	-16722
여긴	-16723
여아	-16724
여진	-16725
역외	-16726
역임	-16727
연례	-16728
열창	-16729
영산	-16730
오인	-16731
오퍼	-16732
옮겼	-16733
왼손	-16734
요골	-16735
요령	-16736
요시	-16737
요지	-16738
요추	-16739
용무	-16740
우상	-16741
우트	-16742
운수	-16743
원룸	-16744
원문	-16745
원용	-16746
유네	-16747
유라	-16748
유실	-16749
유재	-16750
유화	-16751
육각	-16752
윤활	-16753
융통	-16754
음독	-16755
음미	-16756
의복	-16757
이만	-16758
이세	-16759
이적	-16760
이춘	-16761
이항	-16762
이환	-16763
인대	-16764
인파	-16765
일군	-16766
일드	-16767
일률	-16768
일식	-16769
입대	-16770
자조	-16771
자처	-16772
잠겨	-16773
잡아	-16774
장골	-16775
장담	-16776
장승	-16777
장외	-16778
재욱	-16779
재인	-16780
저씨	-16781
저쪽	-16782
적잖	-16783
전결	-16784
전등	-16785
전래	-16786
절정	-16787
점액	-16788
점주	-16789
접안	-16790
정문	-16791
정액	-16792
정월	-16793
정은	-16794
정희	-16795
젖산	-16796
제왕	-16797
조개	-16798
조산	-16799
좁히	-16800
종말	-16801
종자	-16802
주선	-16803
준표	-16804
준호	-16805
중과	-16806
증분	-16807
증정	-16808
지울	-16809
지켰	-16810
직항	-16811
진척	-16812
진통	-16813
차종	-16814
창안	-16815
처했	-16816
천만	-16817
체면	-16818
쳐서	-16819
초빙	-16820
초속	-16821
초유	-16822
최재	-16823
추종	-16824
축합	-16825
충만	-16826
충무	-16827
침몰	-16828
카리	-16829
카톡	-16830
콘택	-16831
쿠키	-16832
쿠터	-16833
쿼크	-16834
큐어	-16835
클락	-16836
키울	-16837
타고	-16838
타주	-16839
탁자	-16840
탄도	-16841
탈구	-16842
태안	-16843
태운	-16844
태워	-16845
터스	-16846
테라	-16847
토글	-16848
토끼	-16849
토착	-16850
토핑	-16851
통부	-16852
투신	-16853
트램	-16854
특단	-16855
특활	-16856
틀어	-16857
티오	-16858
티즘	-16859
틸팅	-16860
파면	-16861
파월	-16862
파종	-16863
팔찌	-16864
팬텀	-16865
편도	-16866
평회	-16867
폐합	-16868
포로	-16869
포문	-16870
포석	-16871
포승	-16872
폭스	-16873
풍미	-16874
풍습	-16875
플레	-16876
플롯	-16877
피니	-16878
핑계	-16879
하방	-16880
한우	-16881
함성	-16882
항력	-16883
해내	-16884
해녀	-16885
해저	-16886
해충	-16887
해피	-16888
행방	-16889
행적	-16890
헌혈	-16891
헐리	-16892
호반	-16893
화나	-16894
화랑	-16895
화주	-16896
환하	-16897
회자	-16898
효성	-16899
후크	-16900
훈육	-16901
휴업	-16902
흐를	-16903
흑백	-16904
흘렀	-16905
흠집	-16906
흡광	-16907
흡충	-16908
AAP	-16909
ABC	-16910
AIC	-16911
AID	-16912
ATM	-16913
Act	-16914
BTD	-16915
CAR	-16916
CDS	-16917
CQI	-16918
Cox	-16919
ESD	-16920
FDA	-16921
Fre	-16922
GaN	-16923
HDE	-16924
HEV	-16925
HPV	-16926
IBD	-16927
ICA	-16928
INR	-16929
ISO	-16930
ITC	-16931
IVC	-16932
Lee	-16933
Lev	-16934
MBS	-16935
Mod	-16936
NLR	-16937
Net	-16938
PBL	-16939
POS	-16940
RMS	-16941
SBA	-16942
SMS	-16943
Sch	-16944
SoC	-16945
TFT	-16946
TMP	-16947
VAS	-16948
arm	-16949
arr	-16950
dis	-16951
eng	-16952
ern	-16953
ies	-16954
iew	-16955
kin	-16956
miR	-16957
ock	-16958
ori	-16959
pre	-16960
ser	-16961
str	-16962
unt	-16963
win	-16964
▁61	-16965
▁64	-16966
▁65	-16967
▁71	-16968
▁72	-16969
▁IC	-16970
▁가소	-16971
▁강전	-16972
▁개술	-16973
▁검출	-16974
▁결권	-16975
▁결력	-16976
▁결석	-16977
▁결핵	-16978
▁결혼	-16979
▁경협	-16980
▁계통	-16981
▁고시	-16982
▁공선	-16983
▁공판	-16984
▁교양	-16985
▁교정	-16986
▁교체	-16987
▁구균	-16988
▁구청	-16989
▁국사	-16990
▁국세	-16991
▁국판	-16992
▁군인	-16993
▁권력	-16994
▁균일	-16995
▁기후	-16996
▁나미	-16997
▁나오	-16998
▁낭비	-16999
▁내부	-17000
▁니다	-17001
▁니즘	-17002
▁단과	-17003
▁당뇨	-17004
▁대원	-17005
▁독립	-17006
▁둔화	-17007
▁드린	-17008
▁디아	-17009
▁루프	-17010
▁류량	-17011
▁리라	-17012
▁리티	-17013
▁마비	-17014
▁만들	-17015
▁매립	-17016
▁머리	-17017
▁명부	-17018
▁미드	-17019
▁미팅	-17020
▁민법	-17021
▁민속	-17022
▁박사	-17023
▁반사	-17024
▁발언	-17025
▁방재	-17026
▁방침	-17027
▁배수	-17028
▁베르	-17029
▁베리	-17030
▁베이	-17031
▁벤트	-17032
▁변상	-17033
▁보관	-17034
▁보단	-17035
▁보드	-17036
▁보훈	-17037
▁분립	-17038
▁블루	-17039
▁비교	-17040
▁비시	-17041
▁사안	-17042
▁사찰	-17043
▁상인	-17044
▁서로	-17045
▁선교	-17046
▁선위	-17047
▁성모	-17048
▁성찰	-17049
▁세상	-17050
▁소진	-17051
▁소충	-17052
▁수렴	-17053
▁수리	-17054
▁수분	-17055
▁수설	-17056
▁수역	-17057
▁시내	-17058
▁시아	-17059
▁신데	-17060
▁신학	-17061
▁실업	-17062
▁아산	-17063
▁안심	-17064
▁었었	-17065
▁여론	-17066
▁여종	-17067
▁연방	-17068
▁열부	-17069
▁열차	-17070
▁염소	-17071
▁예비	-17072
▁외부	-17073
▁욕구	-17074
▁우승	-17075
▁우터	-17076
▁유기	-17077
▁유전	-17078
▁유합	-17079
▁유해	-17080
▁음료	-17081
▁음파	-17082
▁응집	-17083
▁의결	-17084
▁의제	-17085
▁이루	-17086
▁이브	-17087
▁이하	-17088
▁인민	-17089
▁자니	-17090
▁자식	-17091
▁자연	-17092
▁자임	-17093
▁잔액	-17094
▁장터	-17095
▁재해	-17096
▁전법	-17097
▁전적	-17098
▁접수	-17099
▁접합	-17100
▁제조	-17101
▁조화	-17102
▁종료	-17103
▁종이	-17104
▁좌표	-17105
▁주변	-17106
▁주치	-17107
▁중국	-17108
▁중도	-17109
▁중지	-17110
▁증거	-17111
▁증장	-17112
▁지국	-17113
▁지시	-17114
▁지와	-17115
▁진술	-17116
▁질량	-17117
▁집권	-17118
▁체조	-17119
▁초점	-17120
▁추행	-17121
▁출판	-17122
▁충돌	-17123
▁충족	-17124
▁코어	-17125
▁쿨러	-17126
▁타이	-17127
▁탐색	-17128
▁토시	-17129
▁통일	-17130
▁투여	-17131
▁트레	-17132
▁티티	-17133
▁패스	-17134
▁폐수	-17135
▁폭행	-17136
▁플로	-17137
▁핑장	-17138
▁학점	-17139
▁한계	-17140
▁항의	-17141
▁해냈	-17142
▁해소	-17143
▁혈액	-17144
▁형사	-17145
▁홀더	-17146
▁화력	-17147
▁환원	-17148
▁흡입	-17149
가격대	-17150
가교제	-17151
가로막	-17152
가로축	-17153
각속도	-17154
간동맥	-17155
간행물	-17156
갖춰져	-17157
개회식	-17158
거래법	-17159
거래처	-17160
검은색	-17161
결정체	-17162
경복궁	-17163
경제력	-17164
경향성	-17165
경화성	-17166
계산서	-17167
고정층	-17168
고조파	-17169
고지서	-17170
관리인	-17171
교육법	-17172
구독자	-17173
구해야	-17174
국내법	-17175
극작가	-17176
급기야	-17177
급부상	-17178
급속도	-17179
기울여	-17180
기초선	-17181
길항제	-17182
김연아	-17183
김재욱	-17184
김재환	-17185
김종민	-17186
꼭대기	-17187
꼭짓점	-17188
내다보	-17189
내마모	-17190
내열성	-17191
넷마블	-17192
눈동자	-17193
느껴질	-17194
다각화	-17195
다녀온	-17196
다름없	-17197
다양체	-17198
다자녀	-17199
단결정	-17200
달려들	-17201
닭고기	-17202
대졸자	-17203
대표작	-17204
덴티티	-17205
도가니	-17206
도함수	-17207
독수리	-17208
돌아갔	-17209
돌아섰	-17210
동메달	-17211
동일인	-17212
동호회	-17213
드려요	-17214
등방성	-17215
딜레이	-17216
똑바로	-17217
라이온	-17218
리티시	-17219
린다고	-17220
마그넷	-17221
맞춘다	-17222
맞춰서	-17223
맞춰져	-17224
머물렀	-17225
메틸화	-17226
몸싸움	-17227
못해요	-17228
무너진	-17229
무더기	-17230
무력감	-17231
무릅쓰	-17232
무주택	-17233
무한대	-17234
문자열	-17235
물러나	-17236
물러났	-17237
밀라노	-17238
밑거름	-17239
바깥쪽	-17240
바나나	-17241
바우처	-17242
바코드	-17243
방사능	-17244
방위비	-17245
배기관	-17246
배심원	-17247
배출구	-17248
백두산	-17249
버퍼링	-17250
번역가	-17251
벌인다	-17252
베테랑	-17253
변곡점	-17254
변한다	-17255
보너스	-17256
부끄러	-17257
부분군	-17258
부산항	-17259
부정맥	-17260
분담금	-17261
불가역	-17262
브로드	-17263
브릿지	-17264
비관세	-17265
비바람	-17266
비빔밥	-17267
빈곤층	-17268
빌리티	-17269
빌보드	-17270
빔포밍	-17271
빨라질	-17272
사계절	-17273
사령부	-17274
사무처	-17275
살펴야	-17276
상거래	-17277
상수도	-17278
상수원	-17279
상임위	-17280
생명력	-17281
서포터	-17282
선거구	-17283
설계사	-17284
성수기	-17285
세탁기	-17286
세포학	-17287
소수점	-17288
소유주	-17289
손학규	-17290
손혜원	-17291
송영무	-17292
수개월	-17293
수비수	-17294
수십억	-17295
숙박업	-17296
순이익	-17297
스즈키	-17298
스카이	-17299
스카프	-17300
스티렌	-17301
스핀들	-17302
시흥시	-17303
식료품	-17304
식음료	-17305
신태용	-17306
심청가	-17307
십자가	-17308
아레나	-17309
아세트	-17310
아카이	-17311
안전띠	-17312
암호문	-17313
야구장	-17314
양식장	-17315
양전자	-17316
어긋나	-17317
어리석	-17318
어진다	-17319
여객기	-17320
역기능	-17321
연기금	-17322
연소실	-17323
연예계	-17324
연천군	-17325
영등포	-17326
영사관	-17327
예술단	-17328
오른발	-17329
오리엔	-17330
옮겨졌	-17331
완벽히	-17332
외분비	-17333
요컨대	-17334
운전기	-17335
운전석	-17336
움직여	-17337
위자료	-17338
유병률	-17339
유적지	-17340
육면체	-17341
은메달	-17342
의료법	-17343
이광수	-17344
이승우	-17345
이태원	-17346
인구수	-17347
인권위	-17348
인도적	-17349
인원수	-17350
인허가	-17351
일함수	-17352
임대인	-17353
임진강	-17354
임펠러	-17355
입법부	-17356
입소문	-17357
입장권	-17358
입장료	-17359
자본재	-17360
자아내	-17361
자아냈	-17362
자이언	-17363
자존심	-17364
자치회	-17365
작업장	-17366
작용기	-17367
재가동	-17368
재수사	-17369
재조합	-17370
저성장	-17371
저장실	-17372
저항기	-17373
적격성	-17374
전달식	-17375
전라도	-17376
절연성	-17377
정거장	-17378
정준영	-17379
정치학	-17380
젤레스	-17381
조선인	-17382
종아리	-17383
주무관	-17384
주문서	-17385
준비물	-17386
줄게요	-17387
줄인다	-17388
중간체	-17389
중고차	-17390
중심가	-17391
증거물	-17392
지구촌	-17393
지극히	-17394
지급액	-17395
지배주	-17396
지지대	-17397
지켜본	-17398
진단서	-17399
진천군	-17400
진행자	-17401
차단기	-17402
착공식	-17403
청주시	-17404
총담관	-17405
추신수	-17406
춘향가	-17407
춤사위	-17408
취해야	-17409
측면도	-17410
카르노	-17411
칸막이	-17412
케이지	-17413
콘택트	-17414
콜라보	-17415
클러치	-17416
킨텍스	-17417
탈의실	-17418
태어났	-17419
테니스	-17420
테스토	-17421
테슬라	-17422
텍사스	-17423
퇴직금	-17424
튀어나	-17425
트리스	-17426
특발성	-17427
파라핀	-17428
파울루	-17429
팔꿈치	-17430
펼친다	-17431
평상시	-17432
평행선	-17433
폐질환	-17434
푸른색	-17435
플라크	-17436
플래닝	-17437
플랜지	-17438
플럭스	-17439
피아니	-17440
하버드	-17441
하수체	-17442
하이퍼	-17443
한의사	-17444
한한다	-17445
할로겐	-17446
합격률	-17447
합법화	-17448
현상액	-17449
협동심	-17450
호중구	-17451
혼합기	-17452
홍남기	-17453
후반부	-17454
휩싸였	-17455
흑색종	-17456
히스토	-17457
APEC	-17458
GOLD	-17459
SGLT	-17460
TIPS	-17461
WWTP	-17462
ance	-17463
cDNA	-17464
port	-17465
rate	-17466
type	-17467
ward	-17468
ysis	-17469
▁103	-17470
▁104	-17471
▁120	-17472
▁_..	-17473
▁감시원	-17474
▁거래세	-17475
▁관리비	-17476
▁교육사	-17477
▁그래피	-17478
▁기록부	-17479
▁나이트	-17480
▁농산물	-17481
▁는구나	-17482
▁는군요	-17483
▁대주주	-17484
▁등록증	-17485
▁라서요	-17486
▁로페이	-17487
▁리무스	-17488
▁마케팅	-17489
▁보험법	-17490
▁보호관	-17491
▁부담금	-17492
▁상황실	-17493
▁서부터	-17494
▁스타일	-17495
▁신다고	-17496
▁안전망	-17497
▁야말로	-17498
▁외국인	-17499
▁용선자	-17500
▁의료비	-17501
▁의약품	-17502
▁일까요	-17503
▁자산세	-17504
▁자회사	-17505
▁정통부	-17506
▁종사자	-17507
▁지만은	-17508
▁지자체	-17509
▁치료제	-17510
▁캐피털	-17511
▁커넥터	-17512
▁클래스	-17513
▁타이드	-17514
▁통지서	-17515
▁표준액	-17516
▁플랜트	-17517
▁항공사	-17518
▁해져서	-17519
▁현미경	-17520
가정폭력	-17521
가져다주	-17522
강제집행	-17523
고군분투	-17524
고마워요	-17525
고혈당증	-17526
공명영상	-17527
공시지가	-17528
끌어들이	-17529
남양주시	-17530
내마모성	-17531
네거티브	-17532
농수산물	-17533
느껴진다	-17534
늘어난다	-17535
대학원생	-17536
대한축구	-17537
되돌아보	-17538
둘러싸여	-17539
듀레이션	-17540
들으면서	-17541
맥도날드	-17542
맨체스터	-17543
명예훼손	-17544
모릅니다	-17545
무역기구	-17546
보여진다	-17547
보증기금	-17548
보호관찰	-17549
브리티시	-17550
사고방식	-17551
사분위수	-17552
사회생활	-17553
서스펜션	-17554
셔틀버스	-17555
솜방망이	-17556
쇼트트랙	-17557
스리랑카	-17558
스테레오	-17559
스테이크	-17560
스트로크	-17561
슬라이스	-17562
액티비티	-17563
어포던스	-17564
엔지니어	-17565
연기념물	-17566
열경화성	-17567
영양실조	-17568
오버레이	-17569
운전기사	-17570
유네스코	-17571
은행나무	-17572
일회용품	-17573
자연스레	-17574
자유주의	-17575
저작권법	-17576
정해진다	-17577
주주명부	-17578
지켜봐야	-17579
축구연맹	-17580
컨설턴트	-17581
크리스천	-17582
프리랜서	-17583
플레이스	-17584
한국전력	-17585
합성수지	-17586
Korea	-17587
scale	-17588
▁3000	-17589
▁_...	-17590
▁_149	-17591
▁_166	-17592
▁_167	-17593
▁_229	-17594
▁_254	-17595
▁_256	-17596
▁_325	-17597
▁_341	-17598
▁_409	-17599
▁_432	-17600
▁_480	-17601
▁_604	-17602
▁_621	-17603
▁_690	-17604
▁_701	-17605
▁_712	-17606
▁성모병원	-17607
▁으리라는	-17608
▁페스티벌	-17609
▁하이닉스	-17610
글리세리드	-17611
나타납니다	-17612
나타났으나	-17613
불러일으키	-17614
소송대리인	-17615
제올라이트	-17616
캘리포니아	-17617
커패시턴스	-17618
크리에이터	-17619
탄화수소기	-17620
패스트푸드	-17621
포스코건설	-17622
프레임워크	-17623
프로토타입	-17624
플레이오프	-17625
하이라이트	-17626
히스토그램	-17627
▁_1030	-17628
▁_1101	-17629
▁_1301	-17630
▁_1430	-17631
▁_1700	-17632
▁_1938	-17633
▁_1955	-17634
▁_1973	-17635
▁_2100	-17636
▁_2210	-17637
경제자유구역	-17638
대한축구협회	-17639
세계무역기구	-17640
자기공명영상	-17641
테스토스테론	-17642
ational	-17643
version	-17644
트리글리세리드	-17645
34	-17646
71	-17647
85	-17648
BK	-17649
BN	-17650
CX	-17651
EW	-17652
Ne	-17653
OT	-17654
Or	-17655
RN	-17656
TL	-17657
TN	-17658
Te	-17659
VB	-17660
VF	-17661
VT	-17662
WF	-17663
WI	-17664
ZD	-17665
cu	-17666
mT	-17667
pm	-17668
ry	-17669
we	-17670
yd	-17671
▁J	-17672
▁Q	-17673
▁o	-17674
▁겔	-17675
▁격	-17676
▁꺼	-17677
▁넣	-17678
▁높	-17679
▁늄	-17680
▁돔	-17681
▁뒀	-17682
▁랍	-17683
▁랭	-17684
▁많	-17685
▁밤	-17686
▁샘	-17687
▁샤	-17688
▁썸	-17689
▁엘	-17690
▁웹	-17691
▁윌	-17692
▁읽	-17693
▁쥐	-17694
▁칠	-17695
▁킷	-17696
▁핸	-17697
▁홍	-17698
가나	-17699
가벌	-17700
가업	-17701
가온	-17702
각막	-17703
각심	-17704
각하	-17705
간증	-17706
갈리	-17707
값싼	-17708
강단	-17709
강등	-17710
강습	-17711
개강	-17712
객담	-17713
건우	-17714
걸까	-17715
걸스	-17716
겠다	-17717
격렬	-17718
견줘	-17719
결부	-17720
경쾌	-17721
계류	-17722
계명	-17723
계몽	-17724
고귀	-17725
고를	-17726
고름	-17727
고선	-17728
고질	-17729
곡동	-17730
곡절	-17731
곱해	-17732
공실	-17733
공여	-17734
공짜	-17735
공해	-17736
관성	-17737
관현	-17738
광활	-17739
교두	-17740
교리	-17741
교보	-17742
구명	-17743
구애	-17744
구연	-17745
구태	-17746
군데	-17747
굽히	-17748
권영	-17749
권했	-17750
귀신	-17751
귀착	-17752
귀책	-17753
규탄	-17754
그랑	-17755
그물	-17756
극자	-17757
근막	-17758
근방	-17759
근황	-17760
금산	-17761
급박	-17762
급진	-17763
기를	-17764
기망	-17765
기정	-17766
기혼	-17767
길드	-17768
김구	-17769
김규	-17770
김원	-17771
김유	-17772
깔때	-17773
꺼려	-17774
끝낸	-17775
끼니	-17776
나날	-17777
나리	-17778
나믹	-17779
난감	-17780
난동	-17781
난수	-17782
난해	-17783
난화	-17784
날려	-17785
낭포	-17786
낮췄	-17787
내걸	-17788
내무	-17789
냉면	-17790
노골	-17791
노려	-17792
논점	-17793
농양	-17794
누계	-17795
눈가	-17796
눌렀	-17797
뉴딜	-17798
늘렸	-17799
늦추	-17800
다단	-17801
다산	-17802
다정	-17803
다크	-17804
단숨	-17805
단추	-17806
단핵	-17807
달달	-17808
달할	-17809
담길	-17810
당근	-17811
당동	-17812
당론	-17813
대손	-17814
대의	-17815
덕산	-17816
덕션	-17817
덱사	-17818
도광	-17819
도말	-17820
도수	-17821
도주	-17822
도호	-17823
독촉	-17824
돌풍	-17825
동그	-17826
동정	-17827
되짚	-17828
두근	-17829
듀서	-17830
듀오	-17831
드롬	-17832
들러	-17833
등가	-17834
등극	-17835
등온	-17836
등용	-17837
딜러	-17838
딱딱	-17839
때론	-17840
떠돌	-17841
떨리	-17842
똑똑	-17843
뜨려	-17844
라니	-17845
라비	-17846
라파	-17847
랑크	-17848
런저	-17849
레그	-17850
레반	-17851
렌치	-17852
렴도	-17853
로또	-17854
로렌	-17855
로폼	-17856
로프	-17857
루엣	-17858
류지	-17859
류허	-17860
리베	-17861
리시	-17862
리우	-17863
리저	-17864
리처	-17865
리허	-17866
마냥	-17867
마녀	-17868
마사	-17869
말려	-17870
망라	-17871
맞닥	-17872
맞닿	-17873
맞출	-17874
매실	-17875
매해	-17876
매화	-17877
맥파	-17878
메드	-17879
명상	-17880
명심	-17881
모독	-17882
모종	-17883
목시	-17884
묘한	-17885
무가	-17886
무고	-17887
문고	-17888
문맹	-17889
문희	-17890
미도	-17891
미역	-17892
민자	-17893
밀수	-17894
바비	-17895
바울	-17896
바움	-17897
박모	-17898
반문	-17899
반월	-17900
받쳐	-17901
발발	-17902
발제	-17903
밝힐	-17904
방산	-17905
방패	-17906
배급	-17907
배낭	-17908
배설	-17909
백두	-17910
밸류	-17911
버너	-17912
범칙	-17913
법문	-17914
베개	-17915
베드	-17916
베스	-17917
벤더	-17918
벽지	-17919
변기	-17920
변종	-17921
병인	-17922
보아	-17923
보컬	-17924
복셀	-17925
복습	-17926
봉산	-17927
부녀	-17928
부디	-17929
부렸	-17930
부류	-17931
부조	-17932
부평	-17933
부흥	-17934
북동	-17935
북방	-17936
분극	-17937
분업	-17938
분출	-17939
불렸	-17940
불상	-17941
불응	-17942
브러	-17943
브이	-17944
블라	-17945
블락	-17946
비근	-17947
비료	-17948
비수	-17949
빈맥	-17950
빌미	-17951
빚어	-17952
사노	-17953
사범	-17954
사사	-17955
사죄	-17956
사치	-17957
산악	-17958
산타	-17959
살라	-17960
삼중	-17961
삼촌	-17962
상지	-17963
상통	-17964
서독	-17965
서론	-17966
서약	-17967
서희	-17968
석류	-17969
석탑	-17970
선단	-17971
선조	-17972
설시	-17973
설화	-17974
섬기	-17975
성대	-17976
성체	-17977
세간	-17978
세리	-17979
세미	-17980
세세	-17981
세자	-17982
세화	-17983
셀렉	-17984
소공	-17985
소기	-17986
소니	-17987
소소	-17988
소연	-17989
소영	-17990
소울	-17991
소인	-17992
소추	-17993
소품	-17994
속담	-17995
송구	-17996
송수	-17997
쇄신	-17998
쇼팽	-17999
수갑	-18000
수광	-18001
수묵	-18002
수미	-18003
수현	-18004
순직	-18005
술집	-18006
숭고	-18007
숭이	-18008
쉬울	-18009
스님	-18010
스페	-18011
슬프	-18012
습식	-18013
승합	-18014
승화	-18015
시립	-18016
시종	-18017
시화	-18018
식수	-18019
식욕	-18020
신명	-18021
신민	-18022
신봉	-18023
신빙	-18024
신일	-18025
신제	-18026
실버	-18027
실소	-18028
실점	-18029
심벌	-18030
심정	-18031
심할	-18032
싸인	-18033
쌍용	-18034
아담	-18035
아사	-18036
아악	-18037
아현	-18038
악구	-18039
악령	-18040
악절	-18041
안개	-18042
안드	-18043
알데	-18044
암울	-18045
애인	-18046
앵글	-18047
양재	-18048
어딘	-18049
어미	-18050
어째	-18051
어항	-18052
엄지	-18053
업주	-18054
엑소	-18055
여주	-18056
역경	-18057
연매	-18058
연사	-18059
연한	-18060
연회	-18061
열가	-18062
열렬	-18063
열흘	-18064
엽산	-18065
영농	-18066
영예	-18067
영치	-18068
영희	-18069
예규	-18070
오갈	-18071
오갔	-18072
오너	-18073
오명	-18074
오방	-18075
오신	-18076
오이	-18077
오찬	-18078
오키	-18079
오타	-18080
옥신	-18081
옥외	-18082
온천	-18083
왕래	-18084
왕성	-18085
왕조	-18086
외경	-18087
외생	-18088
외우	-18089
외향	-18090
요한	-18091
용납	-18092
용종	-18093
우기	-18094
우여	-18095
울렸	-18096
원생	-18097
원희	-18098
월별	-18099
위태	-18100
유비	-18101
유약	-18102
유혹	-18103
윤모	-18104
음계	-18105
음모	-18106
음속	-18107
의붓	-18108
의성	-18109
이남	-18110
이범	-18111
이불	-18112
이순	-18113
이연	-18114
이율	-18115
이인	-18116
이장	-18117
이학	-18118
익산	-18119
인광	-18120
인데	-18121
인스	-18122
일거	-18123
입항	-18124
자구	-18125
자랐	-18126
자보	-18127
자서	-18128
자속	-18129
자책	-18130
자해	-18131
작별	-18132
잠들	-18133
잡이	-18134
장어	-18135
재적	-18136
재회	-18137
쟁이	-18138
저가	-18139
저당	-18140
저혈	-18141
적대	-18142
적벽	-18143
전매	-18144
전업	-18145
전작	-18146
전조	-18147
전차	-18148
전치	-18149
절벽	-18150
절전	-18151
점거	-18152
정경	-18153
정박	-18154
정선	-18155
제단	-18156
제때	-18157
제발	-18158
제트	-18159
제형	-18160
젝터	-18161
젤리	-18162
존스	-18163
존슨	-18164
졸음	-18165
종식	-18166
종횡	-18167
좌상	-18168
좌익	-18169
주미	-18170
주일	-18171
주중	-18172
줄게	-18173
중분	-18174
지녔	-18175
지워	-18176
지회	-18177
진천	-18178
질주	-18179
집진	-18180
짜릿	-18181
짝수	-18182
차실	-18183
차후	-18184
착한	-18185
찬사	-18186
참모	-18187
창동	-18188
창자	-18189
채웠	-18190
챙겼	-18191
천정	-18192
첩보	-18193
첫해	-18194
청백	-18195
청크	-18196
체증	-18197
체질	-18198
체코	-18199
촉감	-18200
촉촉	-18201
총론	-18202
축약	-18203
출항	-18204
충제	-18205
취사	-18206
취학	-18207
측근	-18208
측은	-18209
치기	-18210
치닫	-18211
치마	-18212
치민	-18213
치부	-18214
칠곡	-18215
칠성	-18216
카레	-18217
카보	-18218
카슈	-18219
카탈	-18220
카트	-18221
카피	-18222
케빈	-18223
코디	-18224
코르	-18225
코믹	-18226
코프	-18227
콘솔	-18228
콜리	-18229
쿠싱	-18230
쿼드	-18231
큰일	-18232
키아	-18233
타크	-18234
탄불	-18235
탄식	-18236
태세	-18237
터전	-18238
토막	-18239
토픽	-18240
톡톡	-18241
통통	-18242
통할	-18243
퇴비	-18244
투시	-18245
트러	-18246
트립	-18247
트인	-18248
특위	-18249
티노	-18250
티저	-18251
파인	-18252
판재	-18253
패닉	-18254
패딩	-18255
패자	-18256
패킹	-18257
퍼즐	-18258
페닐	-18259
페일	-18260
편곡	-18261
편제	-18262
편찬	-18263
평안	-18264
폐포	-18265
폭언	-18266
표식	-18267
풀린	-18268
풍요	-18269
풍조	-18270
프터	-18271
프팅	-18272
피검	-18273
피소	-18274
필더	-18275
하순	-18276
학동	-18277
학적	-18278
학창	-18279
한림	-18280
항쟁	-18281
해남	-18282
해주	-18283
허무	-18284
허물	-18285
헌정	-18286
헤딩	-18287
헬싱	-18288
현판	-18289
혈종	-18290
형량	-18291
호프	-18292
홍익	-18293
화답	-18294
화분	-18295
화자	-18296
화평	-18297
환대	-18298
환류	-18299
후천	-18300
후학	-18301
휴면	-18302
흉터	-18303
흉통	-18304
흡습	-18305
희소	-18306
히팅	-18307
ALP	-18308
ATA	-18309
AUC	-18310
App	-18311
BLE	-18312
CAC	-18313
CIR	-18314
CMD	-18315
CMV	-18316
CRT	-18317
CSC	-18318
Cor	-18319
CpG	-18320
DAC	-18321
Des	-18322
EAN	-18323
EBP	-18324
EBS	-18325
EPS	-18326
FVC	-18327
HTN	-18328
IGF	-18329
ILO	-18330
IMC	-18331
INT	-18332
JSA	-18333
KDI	-18334
Kap	-18335
LAM	-18336
LPG	-18337
Lab	-18338
MCA	-18339
MPD	-18340
MTC	-18341
Man	-18342
NAC	-18343
NOx	-18344
OSA	-18345
OUT	-18346
PAC	-18347
PAH	-18348
PPG	-18349
PPI	-18350
Pre	-18351
RPM	-18352
SAE	-18353
SEC	-18354
SEL	-18355
SSC	-18356
SWE	-18357
Set	-18358
SiO	-18359
URL	-18360
WBC	-18361
air	-18362
app	-18363
box	-18364
dop	-18365
ild	-18366
ins	-18367
ior	-18368
iss	-18369
lex	-18370
lin	-18371
lit	-18372
ong	-18373
ous	-18374
per	-18375
ual	-18376
ung	-18377
vel	-18378
way	-18379
▁47	-18380
▁52	-18381
▁56	-18382
▁67	-18383
▁77	-18384
▁82	-18385
▁97	-18386
▁IV	-18387
▁dB	-18388
▁ms	-18389
▁간탄	-18390
▁감정	-18391
▁거니	-18392
▁거주	-18393
▁검색	-18394
▁검체	-18395
▁결의	-18396
▁경정	-18397
▁고발	-18398
▁공조	-18399
▁광원	-18400
▁교시	-18401
▁구동	-18402
▁국과	-18403
▁국면	-18404
▁국어	-18405
▁국외	-18406
▁군사	-18407
▁권역	-18408
▁그린	-18409
▁글로	-18410
▁금전	-18411
▁기강	-18412
▁기독	-18413
▁기여	-18414
▁기재	-18415
▁나기	-18416
▁납금	-18417
▁내륙	-18418
▁노력	-18419
▁논리	-18420
▁뇌증	-18421
▁니얼	-18422
▁단면	-18423
▁당과	-18424
▁대기	-18425
▁대우	-18426
▁댄스	-18427
▁돼도	-18428
▁돼서	-18429
▁로웠	-18430
▁루머	-18431
▁리가	-18432
▁만료	-18433
▁매출	-18434
▁메라	-18435
▁목록	-18436
▁목회	-18437
▁바다	-18438
▁박막	-18439
▁반환	-18440
▁발열	-18441
▁발현	-18442
▁방역	-18443
▁버퍼	-18444
▁법정	-18445
▁병변	-18446
▁보육	-18447
▁봐도	-18448
▁봐요	-18449
▁부감	-18450
▁부종	-18451
▁부청	-18452
▁부호	-18453
▁분수	-18454
▁브라	-18455
▁브로	-18456
▁사망	-18457
▁사범	-18458
▁사인	-18459
▁사제	-18460
▁사채	-18461
▁산품	-18462
▁산행	-18463
▁삽입	-18464
▁상면	-18465
▁선박	-18466
▁선임	-18467
▁세관	-18468
▁센트	-18469
▁소견	-18470
▁소년	-18471
▁소멸	-18472
▁소음	-18473
▁송부	-18474
▁송치	-18475
▁수목	-18476
▁수치	-18477
▁스쳐	-18478
▁스터	-18479
▁실무	-18480
▁실사	-18481
▁아들	-18482
▁악기	-18483
▁악화	-18484
▁애착	-18485
▁약정	-18486
▁어업	-18487
▁어의	-18488
▁언론	-18489
▁역대	-18490
▁열람	-18491
▁외곽	-18492
▁외상	-18493
▁용매	-18494
▁위성	-18495
▁유사	-18496
▁유역	-18497
▁유효	-18498
▁이민	-18499
▁이식	-18500
▁이양	-18501
▁일시	-18502
▁자립	-18503
▁자며	-18504
▁작전	-18505
▁장도	-18506
▁장률	-18507
▁장사	-18508
▁재고	-18509
▁재무	-18510
▁재편	-18511
▁저런	-18512
▁저축	-18513
▁전단	-18514
▁전당	-18515
▁전반	-18516
▁전철	-18517
▁전한	-18518
▁절약	-18519
▁정권	-18520
▁정기	-18521
▁정렬	-18522
▁정류	-18523
▁정맥	-18524
▁정성	-18525
▁제원	-18526
▁져요	-18527
▁조기	-18528
▁주량	-18529
▁주소	-18530
▁주차	-18531
▁주한	-18532
▁줄기	-18533
▁지드	-18534
▁지불	-18535
▁지청	-18536
▁지킴	-18537
▁집합	-18538
▁차입	-18539
▁차지	-18540
▁참사	-18541
▁창작	-18542
▁체하	-18543
▁총괄	-18544
▁출장	-18545
▁출채	-18546
▁출혈	-18547
▁코스	-18548
▁코인	-18549
▁클러	-18550
▁클리	-18551
▁터치	-18552
▁토크	-18553
▁통행	-18554
▁투기	-18555
▁트랩	-18556
▁특수	-18557
▁특화	-18558
▁파워	-18559
▁파이	-18560
▁파티	-18561
▁페닙	-18562
▁포구	-18563
▁포식	-18564
▁품목	-18565
▁필지	-18566
▁핑크	-18567
▁함량	-18568
▁항체	-18569
▁해고	-18570
▁해낼	-18571
▁해방	-18572
▁해변	-18573
▁행렬	-18574
▁헤드	-18575
▁확장	-18576
▁회가	-18577
▁회생	-18578
가로등	-18579
가르쳤	-18580
가부키	-18581
가상각	-18582
간신히	-18583
간절히	-18584
감수성	-18585
강의실	-18586
개발비	-18587
갱년기	-18588
거친다	-18589
건전지	-18590
걸어서	-18591
걸어온	-18592
견적서	-18593
결론지	-18594
결산서	-18595
경각심	-18596
경사지	-18597
경영학	-18598
경주시	-18599
경화제	-18600
계양구	-18601
고구려	-18602
고구마	-18603
고마움	-18604
고성군	-18605
고형분	-18606
공격자	-18607
공정성	-18608
과도기	-18609
과실범	-18610
관능기	-18611
관람료	-18612
관세청	-18613
광학계	-18614
교환기	-18615
교황청	-18616
구도심	-18617
구한다	-18618
군사분	-18619
귀금속	-18620
근무자	-18621
근육통	-18622
급상승	-18623
긍정성	-18624
기억력	-18625
기울일	-18626
기장군	-18627
기획사	-18628
김명수	-18629
김부겸	-18630
김태우	-18631
깔때기	-18632
깨달음	-18633
나아졌	-18634
나일론	-18635
남다르	-18636
남해안	-18637
내려온	-18638
내려와	-18639
내려지	-18640
내보내	-18641
내세운	-18642
내세웠	-18643
내화성	-18644
넘나드	-18645
넘어갔	-18646
넘어설	-18647
넘어졌	-18648
노동계	-18649
노동법	-18650
노이드	-18651
놀라움	-18652
뇌종양	-18653
다기관	-18654
다녀오	-18655
다리기	-18656
다섯째	-18657
다이얼	-18658
단숨에	-18659
단열재	-18660
달라서	-18661
담보물	-18662
당첨자	-18663
대내외	-18664
대분류	-18665
대타협	-18666
대피소	-18667
던진다	-18668
덧배기	-18669
덧붙여	-18670
데카르	-18671
도대체	-18672
도와야	-18673
돈가스	-18674
돈스코	-18675
돌이켜	-18676
동두천	-18677
동맹국	-18678
동물원	-18679
동역학	-18680
두려워	-18681
뒷좌석	-18682
드래곤	-18683
드레싱	-18684
들린다	-18685
등기부	-18686
등록금	-18687
디테일	-18688
떠올릴	-18689
라우마	-18690
로맨틱	-18691
로스앤	-18692
로저스	-18693
루브산	-18694
리버풀	-18695
리처드	-18696
리커트	-18697
리허설	-18698
마라톤	-18699
마스킹	-18700
만난다	-18701
망원경	-18702
머티즘	-18703
메르켈	-18704
메시징	-18705
메타손	-18706
며느리	-18707
면허증	-18708
모인다	-18709
목걸이	-18710
무분별	-18711
무수히	-18712
물리치	-18713
므누신	-18714
미끄러	-18715
미추홀	-18716
발맞춰	-18717
발명자	-18718
밝혀내	-18719
밝혀냈	-18720
배당금	-18721
버린다	-18722
버텍스	-18723
법체계	-18724
베이어	-18725
변별력	-18726
변속기	-18727
변조기	-18728
별정직	-18729
보고회	-18730
보관함	-18731
보통주	-18732
본다고	-18733
봉사자	-18734
부과액	-18735
분류기	-18736
불기소	-18737
불러오	-18738
불활성	-18739
붉은색	-18740
브로커	-18741
블로킹	-18742
비가역	-18743
비틀림	-18744
빈자리	-18745
사구체	-18746
사무국	-18747
산림청	-18748
상고심	-18749
색전술	-18750
생각나	-18751
생산물	-18752
생식기	-18753
서유럽	-18754
서커스	-18755
선관위	-18756
선인장	-18757
선입견	-18758
세균성	-18759
세이프	-18760
소나기	-18761
소속감	-18762
소송법	-18763
소수성	-18764
소수자	-18765
수도권	-18766
수증기	-18767
수출상	-18768
순기능	-18769
술자리	-18770
스폰서	-18771
스플릿	-18772
승강장	-18773
시네마	-18774
시위대	-18775
신드롬	-18776
신입생	-18777
신호등	-18778
신호선	-18779
실루엣	-18780
싫어하	-18781
십니다	-18782
쓰인다	-18783
아세요	-18784
아우라	-18785
아저씨	-18786
아티아	-18787
아파서	-18788
안성시	-18789
알아내	-18790
알아듣	-18791
알아본	-18792
알아볼	-18793
알킬기	-18794
압구정	-18795
앞세운	-18796
약리학	-18797
약해진	-18798
엄밀히	-18799
에디션	-18800
여고생	-18801
역부족	-18802
연구관	-18803
연구비	-18804
연구회	-18805
연기력	-18806
연령층	-18807
연소기	-18808
연수생	-18809
연습생	-18810
연합군	-18811
영업권	-18812
영원히	-18813
오염원	-18814
옮겨져	-18815
와파린	-18816
용선자	-18817
용접부	-18818
우라늄	-18819
울릉도	-18820
원기둥	-18821
원리금	-18822
원주민	-18823
원피스	-18824
원한다	-18825
원희룡	-18826
월등히	-18827
웨이보	-18828
웨이트	-18829
위약금	-18830
윗부분	-18831
유대인	-18832
유시민	-18833
유전율	-18834
을지로	-18835
이동한	-18836
이라크	-18837
이승만	-18838
이원화	-18839
이재성	-18840
이제야	-18841
이행기	-18842
인구학	-18843
인스트	-18844
일어서	-18845
읽힌다	-18846
임시회	-18847
입법안	-18848
입출금	-18849
자유도	-18850
작사가	-18851
작성자	-18852
장학생	-18853
재협상	-18854
저전압	-18855
적나라	-18856
적혈구	-18857
전교조	-18858
전환점	-18859
절실히	-18860
정동영	-18861
정류소	-18862
정반대	-18863
정우영	-18864
정전기	-18865
제각각	-18866
조력자	-18867
조리실	-18868
좌심실	-18869
주안점	-18870
주의보	-18871
준다면	-18872
줄거리	-18873
중개자	-18874
중독자	-18875
중서부	-18876
중앙부	-18877
지금껏	-18878
지나갈	-18879
지도록	-18880
지식인	-18881
지자기	-18882
지휘관	-18883
집어넣	-18884
징역형	-18885
차단제	-18886
차려입	-18887
착색제	-18888
찾아올	-18889
찾아와	-18890
채워져	-18891
채워진	-18892
처한다	-18893
천문학	-18894
천주교	-18895
첨가물	-18896
최솟값	-18897
추진력	-18898
출범식	-18899
출연진	-18900
출입문	-18901
출판물	-18902
치료비	-18903
치료사	-18904
침전물	-18905
카르복	-18906
카운티	-18907
카페인	-18908
캔버스	-18909
커리어	-18910
컬렉션	-18911
코리안	-18912
클레오	-18913
타니아	-18914
탄성체	-18915
탈수소	-18916
터뜨리	-18917
테이퍼	-18918
퇴직자	-18919
투자액	-18920
트로트	-18921
특산품	-18922
파스타	-18923
파헤치	-18924
페이팔	-18925
편광기	-18926
편두통	-18927
평균치	-18928
폐결핵	-18929
포장지	-18930
표기법	-18931
품평회	-18932
프랑크	-18933
프리킥	-18934
플랜트	-18935
플런저	-18936
피타고	-18937
필수품	-18938
하얀색	-18939
한양대	-18940
한정판	-18941
합성물	-18942
핵분열	-18943
행정관	-18944
행정법	-18945
행해졌	-18946
혈관종	-18947
혈색소	-18948
형사법	-18949
혼합형	-18950
홍준표	-18951
회담장	-18952
회현동	-18953
휘두른	-18954
희소성	-18955
AMPK	-18956
DATA	-18957
EBUS	-18958
GAAP	-18959
LDPC	-18960
Mann	-18961
PTFE	-18962
RFID	-18963
TBLB	-18964
Whit	-18965
cell	-18966
eGFR	-18967
form	-18968
mTOR	-18969
mmol	-18970
proc	-18971
ster	-18972
umab	-18973
▁203	-18974
▁310	-18975
▁530	-18976
▁700	-18977
▁ppm	-18978
▁검찰청	-18979
▁게이트	-18980
▁과학부	-18981
▁근무자	-18982
▁기업인	-18983
▁는지요	-18984
▁다니엘	-18985
▁다지만	-18986
▁단말기	-18987
▁당사자	-18988
▁대리인	-18989
▁대변인	-18990
▁더라면	-18991
▁리더십	-18992
▁리라고	-18993
▁마이신	-18994
▁메모리	-18995
▁보안법	-18996
▁볼게요	-18997
▁부서장	-18998
▁불가결	-18999
▁사이드	-19000
▁색전증	-19001
▁성형술	-19002
▁소매업	-19003
▁스러움	-19004
▁스턴트	-19005
▁스피어	-19006
▁승무원	-19007
▁시공사	-19008
▁시베이	-19009
▁시오스	-19010
▁실리콘	-19011
▁심리학	-19012
▁엑스포	-19013
▁엔지니	-19014
▁여행자	-19015
▁예술단	-19016
▁와이어	-19017
▁으라고	-19018
▁으라는	-19019
▁을게요	-19020
▁이라도	-19021
▁주의보	-19022
▁중학교	-19023
▁지방세	-19024
▁진다고	-19025
▁진다면	-19026
▁참가자	-19027
▁청렴도	-19028
▁카비르	-19029
▁컴퍼니	-19030
▁투자가	-19031
▁한데요	-19032
▁환경청	-19033
▁활동가	-19034
▁활물질	-19035
가르쳐야	-19036
가시광선	-19037
감가상각	-19038
걸립니다	-19039
검정고시	-19040
공산주의	-19041
공익사업	-19042
공항공사	-19043
국민은행	-19044
국제통화	-19045
그린벨트	-19046
근로복지	-19047
기관지경	-19048
기다려야	-19049
다이나믹	-19050
대표소송	-19051
데이비드	-19052
데카르트	-19053
도로공사	-19054
돈스코이	-19055
둘러싸인	-19056
딜리버리	-19057
라스베이	-19058
라이온즈	-19059
리파아제	-19060
마이스터	-19061
매트리스	-19062
모빌리티	-19063
모의실험	-19064
무너뜨리	-19065
미드필더	-19066
미적분학	-19067
발렌타인	-19068
배드민턴	-19069
법무법인	-19070
보증채무	-19071
부분집합	-19072
분청사기	-19073
불법체류	-19074
브루나이	-19075
빠짐없이	-19076
서울청사	-19077
세계유산	-19078
수석대표	-19079
스카우트	-19080
스톡옵션	-19081
스퍼터링	-19082
심방세동	-19083
쓰레기통	-19084
아닌가요	-19085
알리바바	-19086
알아본다	-19087
어우러지	-19088
에어로졸	-19089
엑스레이	-19090
열가소성	-19091
열립니다	-19092
엿보인다	-19093
오키나와	-19094
우여곡절	-19095
이스탄불	-19096
이화여대	-19097
전립선암	-19098
정상회의	-19099
제국주의	-19100
제네시스	-19101
줄다리기	-19102
중환자실	-19103
직선거리	-19104
콘퍼런스	-19105
타이거즈	-19106
트라우마	-19107
트레일러	-19108
포지티브	-19109
프라이머	-19110
프로듀서	-19111
프로펠러	-19112
플로리다	-19113
하루빨리	-19114
허리둘레	-19115
황화수소	-19116
흘러나오	-19117
히어로즈	-19118
DMARD	-19119
Model	-19120
PDSCH	-19121
asvir	-19122
buvir	-19123
ction	-19124
cycle	-19125
doped	-19126
▁6000	-19127
▁_176	-19128
▁_219	-19129
▁_226	-19130
▁_227	-19131
▁_273	-19132
▁_277	-19133
▁_281	-19134
▁_282	-19135
▁_306	-19136
▁_317	-19137
▁_335	-19138
▁_336	-19139
▁_337	-19140
▁_339	-19141
▁_354	-19142
▁_443	-19143
▁_465	-19144
▁_504	-19145
▁_505	-19146
▁_507	-19147
▁_516	-19148
▁_524	-19149
▁_560	-19150
▁_570	-19151
▁_632	-19152
▁_714	-19153
▁_731	-19154
▁_780	-19155
▁_801	-19156
▁보험가액	-19157
▁센티미터	-19158
▁였으므로	-19159
▁자유주의	-19160
▁탄수화물	-19161
▁특별회계	-19162
▁프리미엄	-19163
▁합니다만	-19164
가까울수록	-19165
군사분계선	-19166
남아프리카	-19167
대한체육회	-19168
덱사메타손	-19169
델라웨어주	-19170
떨어진다는	-19171
리소그래피	-19172
바이러스제	-19173
바이러스학	-19174
아이덴티티	-19175
안드로이드	-19176
이뤄지도록	-19177
인터내셔널	-19178
전자레인지	-19179
천연기념물	-19180
크로아티아	-19181
폴리아미드	-19182
피아니스트	-19183
피타고라스	-19184
환경미화원	-19185
Kaplan	-19186
entral	-19187
▁_1011	-19188
▁_1240	-19189
▁_1420	-19190
▁_1520	-19191
▁_1946	-19192
▁_1951	-19193
▁_1958	-19194
▁_1967	-19195
▁_1969	-19196
▁_1974	-19197
▁_2300	-19198
▁_3200	-19199
국제축구연맹	-19200
국제통화기금	-19201
근로복지공단	-19202
라스베이거스	-19203
로스앤젤레스	-19204
인천광역시장	-19205
정부서울청사	-19206
폴리프로필렌	-19207
항바이러스제	-19208
Control	-19209
Whitney	-19210
ulation	-19211
17	-19212
24	-19213
39	-19214
91	-19215
94	-19216
AX	-19217
BJ	-19218
Bi	-19219
DH	-19220
DU	-19221
EK	-19222
HN	-19223
HV	-19224
IH	-19225
La	-19226
MN	-19227
MX	-19228
MY	-19229
No	-19230
OG	-19231
Op	-19232
Os	-19233
Pb	-19234
Pe	-19235
Ph	-19236
QD	-19237
RG	-19238
RV	-19239
TX	-19240
UA	-19241
VL	-19242
XO	-19243
ba	-19244
fr	-19245
gl	-19246
hr	-19247
hs	-19248
ms	-19249
ne	-19250
nt	-19251
oS	-19252
va	-19253
ww	-19254
▁(	-19255
▁갑	-19256
▁돕	-19257
▁람	-19258
▁렉	-19259
▁렴	-19260
▁몸	-19261
▁밭	-19262
▁솜	-19263
▁쏘	-19264
▁웰	-19265
▁좋	-19266
▁찾	-19267
▁충	-19268
▁컷	-19269
▁켄	-19270
▁탐	-19271
▁털	-19272
▁톡	-19273
가금	-19274
가칭	-19275
각료	-19276
각양	-19277
각질	-19278
각축	-19279
간곡	-19280
갇히	-19281
감금	-19282
감미	-19283
감전	-19284
강민	-19285
강자	-19286
갖출	-19287
개당	-19288
개항	-19289
갯짓	-19290
갱생	-19291
거룩	-19292
게양	-19293
격상	-19294
격탄	-19295
견과	-19296
견본	-19297
견지	-19298
경리	-19299
경멸	-19300
경안	-19301
경의	-19302
경이	-19303
계도	-19304
계리	-19305
계보	-19306
계상	-19307
계인	-19308
계장	-19309
고배	-19310
고영	-19311
고은	-19312
곤두	-19313
공과	-19314
공상	-19315
공수	-19316
공작	-19317
공증	-19318
공허	-19319
과수	-19320
과외	-19321
관류	-19322
괄목	-19323
광택	-19324
광희	-19325
교가	-19326
교권	-19327
구독	-19328
구식	-19329
구출	-19330
국보	-19331
국사	-19332
국화	-19333
군복	-19334
군지	-19335
군포	-19336
군함	-19337
궐련	-19338
귀납	-19339
귀무	-19340
귀한	-19341
그중	-19342
그칠	-19343
극소	-19344
극우	-19345
글라	-19346
글스	-19347
금색	-19348
금세	-19349
급전	-19350
기고	-19351
기득	-19352
기명	-19353
기묘	-19354
기발	-19355
기복	-19356
기쁜	-19357
기산	-19358
기습	-19359
기악	-19360
기와	-19361
기이	-19362
기출	-19363
김새	-19364
김세	-19365
김신	-19366
김혜	-19367
깨지	-19368
꺾인	-19369
꽃잎	-19370
끊기	-19371
끼움	-19372
끼쳐	-19373
나돌	-19374
나스	-19375
나위	-19376
나치	-19377
나프	-19378
낙수	-19379
난간	-19380
난히	-19381
남대	-19382
남짓	-19383
남춘	-19384
내사	-19385
냄비	-19386
냉소	-19387
너트	-19388
넓혔	-19389
네코	-19390
노점	-19391
농성	-19392
농약	-19393
놓친	-19394
뇌사	-19395
능률	-19396
니트	-19397
닐라	-19398
다닌	-19399
다뤘	-19400
다오	-19401
다인	-19402
다져	-19403
단골	-19404
단과	-19405
단상	-19406
단수	-19407
단연	-19408
단조	-19409
달빛	-19410
당할	-19411
대성	-19412
대충	-19413
더디	-19414
더운	-19415
더워	-19416
덕수	-19417
덕이	-19418
던트	-19419
덧셈	-19420
덩치	-19421
델리	-19422
도갑	-19423
도그	-19424
도립	-19425
도맡	-19426
도미	-19427
도외	-19428
도쿠	-19429
도트	-19430
도피	-19431
돌발	-19432
동래	-19433
동석	-19434
동제	-19435
동학	-19436
된장	-19437
둔갑	-19438
둥글	-19439
뒤엉	-19440
듀이	-19441
드기	-19442
들였	-19443
따질	-19444
떠안	-19445
뜻밖	-19446
럭셔	-19447
레전	-19448
레진	-19449
렌식	-19450
렌터	-19451
려서	-19452
로션	-19453
로어	-19454
로울	-19455
로코	-19456
로페	-19457
루살	-19458
류학	-19459
르기	-19460
르단	-19461
르츠	-19462
리만	-19463
리투	-19464
린더	-19465
림동	-19466
마오	-19467
마차	-19468
마티	-19469
막상	-19470
막중	-19471
만곡	-19472
만장	-19473
만져	-19474
만주	-19475
망간	-19476
망상	-19477
망언	-19478
맞붙	-19479
맞아	-19480
맞은	-19481
맞잡	-19482
맡긴	-19483
매겨	-19484
매긴	-19485
맥박	-19486
머금	-19487
멋있	-19488
메스	-19489
면증	-19490
명기	-19491
명맥	-19492
명함	-19493
명화	-19494
모어	-19495
모을	-19496
몰릴	-19497
몸살	-19498
무라	-19499
무성	-19500
무예	-19501
묶인	-19502
문종	-19503
문트	-19504
물놀	-19505
물살	-19506
물성	-19507
물의	-19508
미란	-19509
미룰	-19510
미백	-19511
미쓰	-19512
미아	-19513
미어	-19514
미온	-19515
미지	-19516
밀크	-19517
바야	-19518
바치	-19519
박진	-19520
반감	-19521
반구	-19522
반시	-19523
반점	-19524
반증	-19525
반지	-19526
발단	-19527
발문	-19528
발원	-19529
발하	-19530
방심	-19531
배변	-19532
배합	-19533
버금	-19534
버디	-19535
버킷	-19536
번번	-19537
벌일	-19538
범퍼	-19539
범하	-19540
벗겨	-19541
벤져	-19542
벼락	-19543
변강	-19544
변명	-19545
변색	-19546
변압	-19547
별명	-19548
병상	-19549
병용	-19550
병자	-19551
보잉	-19552
보청	-19553
보태	-19554
보합	-19555
복식	-19556
복약	-19557
복조	-19558
봉쇄	-19559
부관	-19560
부존	-19561
북경	-19562
북극	-19563
분뇨	-19564
분면	-19565
분분	-19566
불씨	-19567
붙일	-19568
브래	-19569
블렛	-19570
비석	-19571
비속	-19572
비열	-19573
비점	-19574
비좁	-19575
비품	-19576
빈부	-19577
빈소	-19578
빗발	-19579
빙빙	-19580
빙상	-19581
빛났	-19582
빵집	-19583
뽑혔	-19584
뽑힌	-19585
사르	-19586
사막	-19587
사산	-19588
사색	-19589
사키	-19590
산술	-19591
산욕	-19592
살포	-19593
삼면	-19594
삼진	-19595
상규	-19596
상병	-19597
상보	-19598
상복	-19599
상존	-19600
상체	-19601
상큼	-19602
상훈	-19603
색감	-19604
색역	-19605
생보	-19606
생수	-19607
생육	-19608
서두	-19609
서랍	-19610
서른	-19611
서원	-19612
석가	-19613
선우	-19614
선처	-19615
선폭	-19616
선후	-19617
설상	-19618
설파	-19619
성막	-19620
성문	-19621
성상	-19622
성서	-19623
성수	-19624
세브	-19625
섹시	-19626
셔스	-19627
소박	-19628
소분	-19629
속옷	-19630
송이	-19631
송재	-19632
쇄골	-19633
쇠약	-19634
수고	-19635
수두	-19636
수범	-19637
수심	-19638
수억	-19639
수연	-19640
수의	-19641
수족	-19642
수퍼	-19643
수포	-19644
수프	-19645
숙의	-19646
순교	-19647
스며	-19648
스모	-19649
스킵	-19650
승수	-19651
승호	-19652
시마	-19653
시우	-19654
시추	-19655
식성	-19656
식후	-19657
신교	-19658
신데	-19659
신전	-19660
신종	-19661
신학	-19662
실과	-19663
실렸	-19664
실선	-19665
실은	-19666
심뇌	-19667
쌀밥	-19668
쌍곡	-19669
아낌	-19670
아보	-19671
아실	-19672
아형	-19673
악장	-19674
안마	-19675
안부	-19676
안치	-19677
애로	-19678
야드	-19679
약수	-19680
약효	-19681
양안	-19682
어냈	-19683
어붙	-19684
어장	-19685
어짐	-19686
어처	-19687
언행	-19688
얽매	-19689
엄연	-19690
여태	-19691
역기	-19692
역삼	-19693
역점	-19694
연약	-19695
연유	-19696
연필	-19697
연화	-19698
엽수	-19699
엿새	-19700
영사	-19701
영창	-19702
예단	-19703
예열	-19704
오선	-19705
오진	-19706
오판	-19707
옥살	-19708
옥시	-19709
완주	-19710
왕비	-19711
왜관	-19712
외감	-19713
왼발	-19714
요가	-19715
요새	-19716
요식	-19717
용의	-19718
용체	-19719
우량	-19720
우며	-19721
우발	-19722
우크	-19723
울림	-19724
웅진	-19725
원대	-19726
원망	-19727
원성	-19728
위세	-19729
위크	-19730
유념	-19731
유능	-19732
유수	-19733
유합	-19734
육류	-19735
육수	-19736
은은	-19737
은희	-19738
을지	-19739
의논	-19740
의약	-19741
이닝	-19742
이따	-19743
이럴	-19744
이룩	-19745
이북	-19746
이오	-19747
이왕	-19748
이을	-19749
이음	-19750
이쪽	-19751
이호	-19752
익혀	-19753
익힌	-19754
인신	-19755
인질	-19756
일몰	-19757
일사	-19758
일손	-19759
일어	-19760
일인	-19761
일축	-19762
임새	-19763
입방	-19764
입직	-19765
입혔	-19766
입히	-19767
자네	-19768
자루	-19769
자민	-19770
자비	-19771
자작	-19772
자취	-19773
작도	-19774
작문	-19775
잔인	-19776
잠적	-19777
장구	-19778
장월	-19779
장중	-19780
장차	-19781
장터	-19782
장하	-19783
장흥	-19784
재그	-19785
재담	-19786
재력	-19787
재우	-19788
재치	-19789
쟁송	-19790
쟁의	-19791
저것	-19792
저력	-19793
저역	-19794
저울	-19795
저촉	-19796
적산	-19797
적조	-19798
전관	-19799
전광	-19800
전복	-19801
전월	-19802
전인	-19803
전할	-19804
절묘	-19805
절친	-19806
점군	-19807
점하	-19808
접한	-19809
정돈	-19810
정병	-19811
정숙	-19812
정오	-19813
정품	-19814
정현	-19815
정호	-19816
제너	-19817
제련	-19818
제프	-19819
조끼	-19820
조롱	-19821
조폭	-19822
조희	-19823
존치	-19824
종지	-19825
죄인	-19826
주스	-19827
주영	-19828
주점	-19829
주총	-19830
중수	-19831
즐비	-19832
지낼	-19833
지닐	-19834
지킨	-19835
지킬	-19836
직설	-19837
진찰	-19838
진한	-19839
질권	-19840
질타	-19841
집결	-19842
짝퉁	-19843
찌르	-19844
찍힌	-19845
차근	-19846
차용	-19847
차차	-19848
착상	-19849
착안	-19850
착취	-19851
참견	-19852
창회	-19853
찾기	-19854
처짐	-19855
철원	-19856
철제	-19857
철판	-19858
철폐	-19859
청계	-19860
청량	-19861
청진	-19862
체른	-19863
초연	-19864
초저	-19865
초코	-19866
총대	-19867
총통	-19868
최순	-19869
최영	-19870
최원	-19871
최진	-19872
최후	-19873
추방	-19874
추인	-19875
충고	-19876
측도	-19877
친목	-19878
친선	-19879
친일	-19880
친자	-19881
친정	-19882
친족	-19883
친하	-19884
침구	-19885
칫솔	-19886
카메	-19887
칸디	-19888
칼날	-19889
캐슬	-19890
캐피	-19891
캡처	-19892
커팅	-19893
코카	-19894
쿠라	-19895
쿼리	-19896
클렌	-19897
킨슨	-19898
타기	-19899
탁도	-19900
탈황	-19901
탐욕	-19902
태생	-19903
태종	-19904
택한	-19905
터보	-19906
터졌	-19907
텍처	-19908
토류	-19909
토익	-19910
통전	-19911
퇴진	-19912
투리	-19913
튀긴	-19914
트림	-19915
틀리	-19916
파타	-19917
파탄	-19918
팔당	-19919
팔뚝	-19920
팔려	-19921
팝콘	-19922
팽배	-19923
페미	-19924
펠라	-19925
편해	-19926
평상	-19927
평수	-19928
평했	-19929
폐막	-19930
포름	-19931
폭주	-19932
폭포	-19933
폰트	-19934
품위	-19935
품절	-19936
프러	-19937
프스	-19938
피시	-19939
피워	-19940
피켓	-19941
피트	-19942
필로	-19943
필사	-19944
필지	-19945
학장	-19946
학제	-19947
학파	-19948
한숨	-19949
한적	-19950
한태	-19951
할랄	-19952
할애	-19953
함축	-19954
합참	-19955
합한	-19956
항로	-19957
해발	-19958
햇살	-19959
행인	-19960
행한	-19961
향교	-19962
허수	-19963
헤쳐	-19964
헬리	-19965
형국	-19966
호국	-19967
호두	-19968
호인	-19969
호혜	-19970
혼수	-19971
혼용	-19972
혼전	-19973
홀리	-19974
홀수	-19975
홀트	-19976
화각	-19977
화산	-19978
환부	-19979
환한	-19980
회당	-19981
회선	-19982
후드	-19983
후예	-19984
후임	-19985
후지	-19986
훈령	-19987
휠라	-19988
휴관	-19989
[...]
