<unk>	0
<s>	0
</s>	0
▁이	-0
▁.	-1
▁에	-2
▁다	-3
▁는	-4
▁의	-5
▁을	-6
▁하	-7
▁가	-8
▁한	-9
▁있	-10
▁은	-11
▁,	-12
▁를	-13
▁수	-14
▁고	-15
▁기	-16
▁지	-17
▁으	-18
▁으로	-19
▁1	-20
▁(	-21
▁)	-22
▁적	-23
▁대	-24
▁도	-25
▁에서	-26
▁사	-27
▁인	-28
▁과	-29
▁제	-30
▁시	-31
▁로	-32
▁들	-33
▁2	-34
▁전	-35
▁할	-36
▁어	-37
▁되	-38
▁것	-39
▁여	-40
▁상	-41
▁보	-42
▁된	-43
▁일	-44
▁자	-45
▁위	-46
▁경	-47
▁정	-48
▁그	-49
▁해	-50
▁부	-51
▁주	-52
▁관	-53
▁와	-54
▁한다	-55
▁아	-56
▁나	-57
▁연	-58
▁성	-59
▁중	-60
▁조	-61
▁했	-62
▁공	-63
▁개	-64
▁게	-65
▁구	-66
▁었	-67
▁면	-68
▁유	-69
▁등	-70
▁3	-71
▁비	-72
니다	-73
▁실	-74
▁만	-75
▁발	-76
▁라	-77
▁방	-78
▁분	-79
▁예	-80
▁모	-81
▁교	-82
▁소	-83
▁내	-84
▁따	-85
▁장	-86
▁통	-87
▁영	-88
▁결	-89
▁및	-90
▁서	-91
▁신	-92
▁될	-93
▁동	-94
▁였	-95
▁미	-96
▁않	-97
▁세	-98
▁단	-99
▁국	-100
▁학	-101
▁선	-102
▁화	-103
▁문	-104
▁대한	-105
▁생	-106
▁우	-107
▁4	-108
▁된다	-109
▁포	-110
▁차	-111
▁때	-112
▁거	-113
▁20	-114
▁년	-115
▁원	-116
▁회	-117
▁5	-118
▁연구	-119
▁없	-120
▁마	-121
▁특	-122
▁입	-123
▁진	-124
▁형	-125
▁오	-126
▁습	-127
▁경우	-128
▁사용	-129
▁상기	-130
▁명	-131
▁본	-132
▁스	-133
▁재	-134
▁계	-135
▁감	-136
▁또	-137
▁습니다	-138
▁요	-139
▁설	-140
▁당	-141
▁현	-142
▁더	-143
▁10	-144
▁반	-145
▁배	-146
▁바	-147
▁같	-148
▁확	-149
▁변	-150
▁필	-151
▁안	-152
▁증	-153
▁최	-154
▁저	-155
▁간	-156
▁추	-157
▁따라	-158
▁환	-159
▁무	-160
▁평	-161
▁‘	-162
▁활	-163
▁·	-164
▁노	-165
▁강	-166
▁받	-167
▁에게	-168
▁며	-169
▁포함	-170
▁표	-171
▁’	-172
▁법	-173
▁위해	-174
▁불	-175
▁6	-176
▁행	-177
▁후	-178
▁함	-179
▁%	-180
▁데	-181
▁교육	-182
▁“	-183
▁았	-184
▁필요	-185
▁각	-186
▁높	-187
▁많	-188
▁프	-189
▁처	-190
▁점	-191
▁매	-192
▁검	-193
▁우리	-194
▁-	-195
▁다는	-196
▁다고	-197
▁말	-198
▁결과	-199
▁규	-200
▁알	-201
▁건	-202
▁작	-203
▁참	-204
▁정보	-205
▁운	-206
▁”	-207
▁합	-208
▁직	-209
▁산	-210
▁실시	-211
▁까	-212
▁나타	-213
▁가능	-214
▁한국	-215
▁관련	-216
▁7	-217
▁물	-218
▁까지	-219
▁지만	-220
▁금	-221
▁통해	-222
▁또는	-223
▁"	-224
▁월	-225
▁음	-226
▁두	-227
▁출	-228
▁던	-229
▁외	-230
▁장치	-231
▁판	-232
▁임	-233
▁보다	-234
▁권	-235
▁다른	-236
▁역	-237
▁양	-238
▁치	-239
▁복	-240
▁효	-241
▁도록	-242
▁체	-243
▁?	-244
▁심	-245
▁8	-246
▁A	-247
▁위한	-248
▁분석	-249
▁시간	-250
▁종	-251
▁투	-252
▁문제	-253
▁파	-254
▁피	-255
▁측	-256
▁때문	-257
▁초	-258
▁C	-259
▁201	-260
▁호	-261
▁열	-262
▁남	-263
▁집	-264
▁청	-265
▁항	-266
▁기업	-267
▁S	-268
▁라고	-269
00	-270
▁김	-271
▁대해	-272
▁환자	-273
▁9	-274
▁목	-275
▁관계	-276
▁면서	-277
▁따른	-278
▁지역	-279
▁프로	-280
▁용	-281
▁달	-282
▁위원	-283
▁이용	-284
▁경기	-285
▁11	-286
▁질	-287
▁아니	-288
▁사회	-289
▁사업	-290
▁12	-291
▁발생	-292
▁이러	-293
▁디	-294
▁이상	-295
▁메	-296
▁크	-297
▁지원	-298
▁대상	-299
▁업	-300
▁근	-301
▁구성	-302
이터	-303
▁다양	-304
▁절	-305
▁방법	-306
▁협	-307
▁사람	-308
▁별	-309
▁과정	-310
▁드	-311
▁제공	-312
▁하나	-313
▁라는	-314
▁부터	-315
▁영향	-316
▁지난	-317
▁'	-318
▁약	-319
▁증가	-320
▁리	-321
▁패	-322
▁광	-323
레이	-324
▁됐	-325
▁가지	-326
▁P	-327
▁민	-328
▁평가	-329
▁데이터	-330
▁채	-331
▁가장	-332
▁번	-333
▁확인	-334
▁겠	-335
▁취	-336
▁다음	-337
▁접	-338
▁타	-339
▁관리	-340
▁식	-341
▁총	-342
▁층	-343
▁사이	-344
▁형성	-345
▁영역	-346
▁결정	-347
▁시장	-348
▁해야	-349
▁경제	-350
▁는데	-351
▁못	-352
▁올	-353
▁효과	-354
▁좋	-355
▁100	-356
▁학생	-357
▁논	-358
▁센	-359
▁충	-360
▁진행	-361
▁수행	-362
▁0	-363
▁기술	-364
▁조사	-365
▁발명	-366
▁기준	-367
▁살	-368
▁새	-369
▁활동	-370
▁이나	-371
▁D	-372
▁정부	-373
▁200	-374
▁코	-375
▁온	-376
▁19	-377
▁트	-378
▁담	-379
▁속	-380
▁I	-381
▁T	-382
▁어요	-383
▁설명	-384
▁밝	-385
▁함께	-386
▁편	-387
▁중요	-388
▁범	-389
▁미국	-390
▁손	-391
부터	-392
▁서울	-393
▁네	-394
▁문화	-395
▁앞	-396
▁치료	-397
▁변화	-398
▁생각	-399
▁기관	-400
▁박	-401
▁내용	-402
▁거나	-403
▁의해	-404
▁북	-405
▁B	-406
▁카	-407
▁운영	-408
▁학교	-409
▁신호	-410
▁독	-411
▁13	-412
▁당신	-413
▁참여	-414
▁상태	-415
▁/	-416
▁적용	-417
▁전자	-418
▁의미	-419
▁향	-420
▁수준	-421
▁학습	-422
▁순	-423
▁상황	-424
▁개발	-425
▁합니다	-426
비스	-427
▁구조	-428
▁농	-429
▁줄	-430
▁병	-431
▁입니다	-432
▁으며	-433
▁맞	-434
▁이후	-435
▁완	-436
▁서비스	-437
▁15	-438
▁정책	-439
▁준	-440
▁해당	-441
▁M	-442
▁큰	-443
▁창	-444
▁모두	-445
▁는다	-446
▁국가	-447
▁억	-448
▁같이	-449
▁현재	-450
▁잘	-451
▁특히	-452
▁단계	-453
▁언	-454
▁모든	-455
▁지방	-456
▁커	-457
▁토	-458
▁플	-459
▁낮	-460
▁시스	-461
▁갖	-462
▁도시	-463
▁대표	-464
▁야	-465
▁산업	-466
▁선택	-467
▁기능	-468
▁경기도	-469
이스	-470
▁는지	-471
▁이미	-472
▁즉	-473
▁H	-474
▁볼	-475
▁존	-476
▁군	-477
▁규정	-478
▁활용	-479
▁시스템	-480
▁시작	-481
▁일반	-482
▁투자	-483
▁이번	-484
▁자신	-485
▁값	-486
▁위치	-487
▁30	-488
▁여야	-489
▁중국	-490
▁일부	-491
▁m	-492
▁축	-493
▁전문	-494
▁측정	-495
▁방향	-496
▁연결	-497
▁L	-498
▁관한	-499
▁따르	-500
▁환경	-501
▁14	-502
▁급	-503
▁이루	-504
▁정도	-505
▁처리	-506
▁어서	-507
▁차이	-508
▁감소	-509
스트	-510
▁방식	-511
▁태	-512
▁책	-513
▁씨	-514
▁부분	-515
▁최근	-516
▁기간	-517
▁영상	-518
▁혈	-519
▁표시	-520
▁그러	-521
▁대학	-522
▁계획	-523
▁제어	-524
▁돌	-525
▁폐	-526
▁국내	-527
▁사실	-528
▁길	-529
▁위원회	-530
▁버	-531
▁세계	-532
▁또한	-533
▁나타났	-534
▁찾	-535
▁판단	-536
▁동안	-537
▁특성	-538
▁블	-539
▁그룹	-540
▁너	-541
▁밝혔	-542
▁응	-543
▁고려	-544
▁R	-545
▁금융	-546
그램	-547
▁친	-548
▁자료	-549
▁F	-550
▁터	-551
▁개인	-552
▁승	-553
▁각각	-554
▁보여	-555
▁비교	-556
▁N	-557
▁시키	-558
▁목적	-559
▁회사	-560
▁통신	-561
▁교사	-562
10	-563
▁아이	-564
▁G	-565
▁여성	-566
▁여기	-567
▁제도	-568
▁전체	-569
▁위험	-570
▁폭	-571
▁이해	-572
▁새로	-573
▁직접	-574
▁프로그램	-575
▁중심	-576
▁입력	-577
▁만들	-578
▁E	-579
▁로부터	-580
▁려	-581
▁추가	-582
▁돼	-583
▁제시	-584
▁시설	-585
통령	-586
▁경험	-587
▁검사	-588
▁어야	-589
▁형태	-590
▁걸	-591
▁인식	-592
▁테	-593
▁대통령	-594
▁막	-595
▁경찰	-596
▁이하	-597
▁동작	-598
▁곳	-599
▁천	-600
▁허	-601
▁률	-602
▁그리	-603
▁개선	-604
▁글	-605
▁이유	-606
▁구청	-607
▁다시	-608
▁존재	-609
▁알려	-610
▁18	-611
▁소득	-612
▁요구	-613
▁누	-614
▁뒤	-615
▁골	-616
▁a	-617
▁설정	-618
▁인터	-619
▁16	-620
▁해서	-621
▁실제	-622
▁보호	-623
▁위하	-624
20	-625
▁제품	-626
▁건강	-627
▁압	-628
▁송	-629
▁여러	-630
▁로서	-631
▁일본	-632
▁구청장	-633
▁삼	-634
▁요인	-635
▁니	-636
▁베	-637
▁시행	-638
▁사항	-639
▁어려	-640
▁느	-641
▁반응	-642
▁행위	-643
▁레	-644
▁뿐	-645
▁많이	-646
▁새로운	-647
▁지속	-648
▁공간	-649
▁인지	-650
▁극	-651
▁동일	-652
▁설치	-653
▁매우	-654
▁브	-655
▁능	-656
인다	-657
▁날	-658
▁고자	-659
▁율	-660
▁생산	-661
▁발전	-662
▁수업	-663
▁조직	-664
▁관심	-665
▁유지	-666
▁규모	-667
▁평균	-668
▁한다는	-669
▁보험	-670
▁으면	-671
▁따라서	-672
▁소비	-673
▁K	-674
▁배치	-675
▁이어	-676
▁역할	-677
▁싶	-678
▁클	-679
▁기대	-680
▁생성	-681
▁행사	-682
▁팀	-683
▁위해서	-684
▁단체	-685
▁지금	-686
▁페	-687
▁성장	-688
▁요소	-689
▁이루어	-690
▁첫	-691
▁가치	-692
▁안전	-693
▁사건	-694
▁장애	-695
▁넘	-696
▁비용	-697
▁상대	-698
▁이동	-699
▁어떤	-700
▁디스	-701
▁수신	-702
▁그것	-703
▁나라	-704
▁정상	-705
▁공급	-706
▁분야	-707
▁범위	-708
▁의료	-709
운데	-710
▁기존	-711
▁침	-712
▁추진	-713
▁째	-714
▁노동	-715
▁암	-716
▁복수	-717
▁미치	-718
▁생활	-719
▁이미지	-720
▁대해서	-721
▁17	-722
▁마련	-723
▁차량	-724
이트	-725
▁대응	-726
▁가격	-727
▁센터	-728
▁전극	-729
▁처럼	-730
▁기반	-731
▁변수	-732
▁가운데	-733
▁거래	-734
▁기본	-735
▁업무	-736
플레이	-737
▁백	-738
▁활성	-739
▁서로	-740
▁인정	-741
▁유의	-742
▁탄	-743
▁난	-744
▁보이	-745
▁관광	-746
▁국민	-747
▁애	-748
▁저장	-749
▁먼	-750
▁힘	-751
진다	-752
▁확대	-753
▁계약	-754
▁얻	-755
▁50	-756
▁출력	-757
▁공동	-758
▁행정	-759
▁해결	-760
▁북한	-761
▁측면	-762
▁대부	-763
▁정의	-764
▁25	-765
▁주요	-766
▁갈	-767
▁외부	-768
▁센서	-769
▁특별	-770
▁여부	-771
▁으로써	-772
▁컨	-773
▁디스플레이	-774
▁주장	-775
▁늘	-776
▁제한	-777
▁이전	-778
▁21	-779
▁보인다	-780
▁왔	-781
▁공정	-782
시아	-783
▁피해	-784
▁액	-785
▁능력	-786
▁패턴	-787
▁대부분	-788
▁비율	-789
▁책임	-790
▁표현	-791
▁구체	-792
▁대하	-793
▁그리고	-794
▁기록	-795
▁기초	-796
▁키	-797
▁얼	-798
▁모델	-799
▁사고	-800
▁콘	-801
▁예정	-802
▁23	-803
▁없이	-804
▁V	-805
▁개념	-806
▁자유	-807
▁내부	-808
▁국제	-809
▁물질	-810
▁세요	-811
▁주민	-812
▁수학	-813
▁특정	-814
▁의원	-815
▁논의	-816
▁운동	-817
▁노력	-818
▁러	-819
▁혼	-820
▁악	-821
▁자기	-822
▁방문	-823
▁다만	-824
▁자동	-825
▁메모	-826
▁빠	-827
▁24	-828
너지	-829
▁사례	-830
▁눈	-831
▁위원장	-832
▁의한	-833
▁살펴	-834
으며	-835
▁비해	-836
▁엔	-837
▁밖	-838
▁40	-839
▁영화	-840
▁110	-841
▁철	-842
▁O	-843
▁홍	-844
▁프로세	-845
▁제조	-846
▁흡	-847
▁기판	-848
▁조건	-849
▁더욱	-850
▁한다고	-851
▁올해	-852
▁나요	-853
▁들어	-854
▁오늘	-855
▁공개	-856
▁핵	-857
므로	-858
▁감사	-859
▁효율	-860
▁가족	-861
▁전기	-862
▁진단	-863
▁한편	-864
▁현장	-865
▁회로	-866
▁신청	-867
▁경쟁	-868
▁해석	-869
▁세포	-870
▁120	-871
▁의사	-872
▁특징	-873
▁다면	-874
▁만큼	-875
▁이런	-876
▁결합	-877
▁나타내	-878
▁먹	-879
▁메모리	-880
▁혁	-881
▁행동	-882
▁부담	-883
▁조정	-884
▁크기	-885
▁안정	-886
▁끝	-887
▁처음	-888
▁블록	-889
▁절차	-890
▁강화	-891
▁모습	-892
▁최대	-893
▁발견	-894
▁발표	-895
▁주택	-896
▁당시	-897
▁교수	-898
▁실험	-899
▁목표	-900
케이	-901
▁22	-902
▁업체	-903
▁지난해	-904
▁모듈	-905
▁밀	-906
▁도입	-907
▁c	-908
▁쓰	-909
▁변경	-910
▁둘	-911
▁수사	-912
▁향상	-913
▁인해	-914
▁요청	-915
▁공연	-916
000	-917
▁촉	-918
▁어느	-919
▁못하	-920
▁어떻	-921
▁전달	-922
▁이것	-923
▁일정	-924
▁인간	-925
▁시민	-926
▁관계자	-927
▁수술	-928
▁집단	-929
▁그러나	-930
▁준비	-931
▁해요	-932
▁상품	-933
▁바이	-934
▁예상	-935
▁예산	-936
▁사진	-937
▁바람	-938
▁병원	-939
▁에너지	-940
▁선정	-941
▁의견	-942
▁아닌	-943
▁b	-944
▁잠	-945
▁냉	-946
▁먼저	-947
▁추정	-948
▁그렇	-949
▁자체	-950
▁온도	-951
▁벌	-952
▁작업	-953
▁휴	-954
▁삶	-955
▁검토	-956
▁전압	-957
in	-958
▁예측	-959
▁조성	-960
수록	-961
▁규제	-962
▁체계	-963
▁지적	-964
▁전송	-965
▁작용	-966
▁음악	-967
▁회의	-968
▁판매	-969
▁고객	-970
▁단말	-971
▁만족	-972
▁납	-973
▁∼	-974
▁그림	-975
▁지급	-976
▁몇	-977
▁협력	-978
▁이날	-979
▁정확	-980
이드	-981
▁개월	-982
▁반영	-983
▁몰	-984
▁어부	-985
▁징	-986
▁<	-987
▁방송	-988
▁외국	-989
▁재정	-990
▁공공	-991
▁쉽	-992
▁개정	-993
▁란	-994
▁그래	-995
▁캐	-996
▁계속	-997
▁님	-998
▁잡	-999
▁질환	-1000
▁우선	-1001
▁품	-1002
▁감독	-1003
▁통계	-1004
▁강조	-1005
▁근로	-1006
▁입장	-1007
▁계산	-1008
▁민주	-1009
▁제외	-1010
▁유사	-1011
▁친구	-1012
▁염	-1013
▁자리	-1014
▁복지	-1015
▁어떻게	-1016
▁컴	-1017
▁교과	-1018
▁유형	-1019
▁가진	-1020
▁고용	-1021
어나	-1022
▁긴	-1023
▁장기	-1024
▁원인	-1025
전히	-1026
▁배우	-1027
▁으로서	-1028
▁적어	-1029
▁시킬	-1030
▁시험	-1031
▁가정	-1032
▁조절	-1033
무원	-1034
▁흐	-1035
▁청소	-1036
▁보였	-1037
▁정치	-1038
▁상당	-1039
스터	-1040
▁>	-1041
▁「	-1042
▁제안	-1043
▁」	-1044
▁적극	-1045
▁예술	-1046
▁작품	-1047
▁적어도	-1048
▁확보	-1049
▁조례	-1050
▁촬	-1051
▁역시	-1052
▁경영	-1053
▁빈	-1054
▁제작	-1055
▁상승	-1056
▁아직	-1057
▁접근	-1058
▁이야	-1059
▁무엇	-1060
주의	-1061
▁너무	-1062
▁방안	-1063
▁관찰	-1064
▁어렵	-1065
▁은행	-1066
▁자치	-1067
대로	-1068
▁전략	-1069
▁부재	-1070
텐츠	-1071
▁에요	-1072
▁자원	-1073
▁거리	-1074
▁구분	-1075
▁도움	-1076
▁전력	-1077
▁파악	-1078
▁선수	-1079
▁성공	-1080
▁프로세서	-1081
▁귀	-1082
▁~	-1083
▁부족	-1084
▁중앙	-1085
▁국회	-1086
▁모형	-1087
▁전문가	-1088
▁이야기	-1089
▁해외	-1090
▁미래	-1091
▁으로부터	-1092
▁객	-1093
▁육	-1094
▁이론	-1095
▁희	-1096
▁동시	-1097
er	-1098
▁자연	-1099
▁촬영	-1100
▁획	-1101
▁지식	-1102
▁지지	-1103
▁담당	-1104
▁성과	-1105
▁차원	-1106
전자	-1107
▁제기	-1108
▁p	-1109
▁속도	-1110
▁탈	-1111
▁조치	-1112
▁라인	-1113
▁집중	-1114
▁법률	-1115
▁인가	-1116
▁전망	-1117
▁혹	-1118
▁31	-1119
▁이익	-1120
자리	-1121
마트	-1122
▁법인	-1123
▁셀	-1124
▁참가	-1125
▁상호	-1126
▁보고	-1127
▁등록	-1128
▁설계	-1129
▁U	-1130
▁검출	-1131
▁과학	-1132
▁봉	-1133
▁공기	-1134
라도	-1135
▁고정	-1136
▁듯	-1137
▁의무	-1138
▁현실	-1139
▁참석	-1140
도체	-1141
▁법원	-1142
▁놓	-1143
▁공무원	-1144
▁내지	-1145
▁반면	-1146
▁의하	-1147
▁터치	-1148
▁충분	-1149
▁통합	-1150
▁균	-1151
▁지정	-1152
▁소비자	-1153
30	-1154
▁다가	-1155
▁현상	-1156
라인	-1157
▁근거	-1158
▁분리	-1159
▁신고	-1160
▁격	-1161
▁긍	-1162
▁음식	-1163
▁바로	-1164
▁조세	-1165
▁대비	-1166
▁분류	-1167
▁60	-1168
▁뉴	-1169
▁스타	-1170
▁머	-1171
랜드	-1172
▁사망	-1173
▁임상	-1174
▁초기	-1175
▁적절	-1176
▁여행	-1177
▁전환	-1178
▁재산	-1179
▁나타낸	-1180
▁원칙	-1181
워크	-1182
▁부산	-1183
▁긍정	-1184
▁그런	-1185
▁섬	-1186
▁W	-1187
▁지도	-1188
▁130	-1189
한다	-1190
▁주변	-1191
▁견	-1192
▁예방	-1193
▁게임	-1194
▁나타나	-1195
▁300	-1196
▁마다	-1197
▁현지	-1198
▁헌	-1199
▁물론	-1200
▁좀	-1201
▁재판	-1202
▁전국	-1203
▁노인	-1204
▁스마트	-1205
▁신뢰	-1206
▁수요	-1207
▁혁신	-1208
▁바람직	-1209
▁기회	-1210
▁보조	-1211
아가	-1212
▁26	-1213
▁왜	-1214
▁표면	-1215
▁마음	-1216
▁제출	-1217
▁독립	-1218
▁좌	-1219
▁탐	-1220
▁교통	-1221
▁떨	-1222
▁색	-1223
▁반도체	-1224
▁자동차	-1225
▁답	-1226
▁27	-1227
▁엄	-1228
▁인한	-1229
▁전통	-1230
▁시대	-1231
▁윤	-1232
▁실행	-1233
▁역사	-1234
▁높이	-1235
▁달리	-1236
▁살펴보	-1237
▁제거	-1238
▁홀	-1239
▁인구	-1240
▁채널	-1241
▁착	-1242
▁최소	-1243
▁공유	-1244
▁보내	-1245
▁모드	-1246
▁주로	-1247
▁참조	-1248
on	-1249
▁최종	-1250
▁단위	-1251
▁통한	-1252
▁개최	-1253
▁오후	-1254
▁청소년	-1255
▁풍	-1256
▁금속	-1257
▁감지	-1258
▁소송	-1259
▁아래	-1260
▁부정	-1261
▁그녀	-1262
▁검찰	-1263
▁직원	-1264
▁한계	-1265
▁홈	-1266
레스	-1267
▁장관	-1268
디어	-1269
▁사전	-1270
지사	-1271
▁이사	-1272
▁청구	-1273
▁핵심	-1274
▁차지	-1275
▁가스	-1276
▁합의	-1277
▁우려	-1278
▁어린	-1279
▁상관	-1280
▁과거	-1281
▁AA	-1282
▁범죄	-1283
▁역량	-1284
▁레이	-1285
▁몸	-1286
▁최고	-1287
▁자본	-1288
▁다르	-1289
▁열린	-1290
▁후보	-1291
▁움	-1292
▁대회	-1293
▁종합	-1294
▁획득	-1295
▁응답	-1296
▁즐	-1297
▁주제	-1298
▁주식	-1299
▁메시	-1300
▁스트	-1301
▁수익	-1302
▁석	-1303
▁든	-1304
▁표준	-1305
▁수용	-1306
▁000	-1307
▁팬	-1308
▁보장	-1309
▁삼성	-1310
▁앞서	-1311
▁드러	-1312
▁컴퓨	-1313
▁마지	-1314
니까	-1315
▁과세	-1316
▁방지	-1317
▁자산	-1318
▁거의	-1319
▁우수	-1320
▁황	-1321
▁k	-1322
▁작성	-1323
▁떨어	-1324
▁디바	-1325
▁구현	-1326
▁수출	-1327
▁관점	-1328
▁마지막	-1329
▁회담	-1330
▁흥	-1331
▁구동	-1332
▁협의	-1333
▁프레	-1334
▁시기	-1335
▁슬	-1336
▁비롯	-1337
▁디바이스	-1338
▁더라도	-1339
▁유기	-1340
▁주주	-1341
▁현대	-1342
▁됩	-1343
▁네트	-1344
▁인터넷	-1345
▁풀	-1346
▁28	-1347
▁구축	-1348
▁심사	-1349
▁사무	-1350
▁남성	-1351
▁티	-1352
▁사랑	-1353
▁으나	-1354
▁일자리	-1355
▁링	-1356
▁대체	-1357
▁정신	-1358
▁인증	-1359
▁메시지	-1360
▁혐	-1361
▁연령	-1362
▁단순	-1363
▁므로	-1364
▁점수	-1365
▁중소	-1366
▁구매	-1367
▁AAA	-1368
▁곡	-1369
▁서버	-1370
▁주목	-1371
▁가구	-1372
▁나오	-1373
▁통하	-1374
▁수집	-1375
▁연관	-1376
학교	-1377
▁패널	-1378
▁깊	-1379
▁권리	-1380
▁질문	-1381
▁됩니다	-1382
▁2018	-1383
▁체험	-1384
▁임금	-1385
▁놀	-1386
▁회전	-1387
▁발광	-1388
▁얼마	-1389
▁이렇	-1390
▁2015	-1391
▁전반	-1392
▁과제	-1393
▁달러	-1394
▁검증	-1395
▁케	-1396
▁졌	-1397
▁비중	-1398
▁흐름	-1399
▁떠	-1400
▁택	-1401
▁당뇨	-1402
▁도면	-1403
▁가질	-1404
▁부모	-1405
▁소자	-1406
▁언급	-1407
▁시킨	-1408
▁움직	-1409
사자	-1410
▁사용자	-1411
▁아동	-1412
▁인천	-1413
▁개별	-1414
▁훈	-1415
▁화면	-1416
▁회장	-1417
▁시도	-1418
▁첨	-1419
▁대출	-1420
▁루	-1421
▁독일	-1422
▁네트워크	-1423
▁2016	-1424
▁맥	-1425
▁보건	-1426
▁글로	-1427
▁나온	-1428
▁영어	-1429
▁갑	-1430
▁규칙	-1431
▁초등	-1432
▁종류	-1433
▁도전	-1434
▁콘텐츠	-1435
▁건설	-1436
▁소개	-1437
▁퇴	-1438
▁선거	-1439
▁보유	-1440
▁시켜	-1441
▁정리	-1442
럼프	-1443
▁증상	-1444
an	-1445
이지	-1446
▁아요	-1447
▁화학	-1448
동산	-1449
▁이뤄	-1450
▁트럼프	-1451
▁반대	-1452
▁민간	-1453
▁폴	-1454
메라	-1455
▁바탕	-1456
▁n	-1457
▁판결	-1458
▁아야	-1459
▁다수	-1460
▁공사	-1461
리아	-1462
▁퍼	-1463
▁마을	-1464
▁인사	-1465
▁시점	-1466
▁연장	-1467
▁글로벌	-1468
지만	-1469
▁199	-1470
50	-1471
▁2017	-1472
▁위기	-1473
▁자금	-1474
디오	-1475
케이션	-1476
▁70	-1477
▁오전	-1478
▁실질	-1479
▁t	-1480
▁소속	-1481
▁헤	-1482
▁기기	-1483
▁향후	-1484
▁농도	-1485
▁카메라	-1486
▁보도	-1487
▁무선	-1488
▁감염	-1489
▁인상	-1490
▁디자	-1491
▁형상	-1492
젝트	-1493
▁경로	-1494
▁부동산	-1495
▁수입	-1496
▁남북	-1497
▁재료	-1498
▁s	-1499
▁반복	-1500
▁불구	-1501
▁저항	-1502
▁혐의	-1503
▁심의	-1504
▁이름	-1505
▁노출	-1506
▁무역	-1507
▁도로	-1508
▁채권	-1509
▁게이트	-1510
다는	-1511
▁지수	-1512
▁흔	-1513
▁비판	-1514
▁녹	-1515
▁읽	-1516
le	-1517
▁돈	-1518
▁프레임	-1519
▁드라	-1520
▁입자	-1521
▁통제	-1522
▁이제	-1523
▁숙	-1524
▁고등	-1525
▁유도	-1526
CC	-1527
▁복합	-1528
▁대상자	-1529
▁150	-1530
▁마이	-1531
▁대로	-1532
▁여자	-1533
▁워	-1534
▁직업	-1535
동안	-1536
▁29	-1537
▁전시	-1538
▁시각	-1539
▁500	-1540
▁감정	-1541
▁려는	-1542
▁기여	-1543
▁d	-1544
▁만나	-1545
▁추출	-1546
▁잔	-1547
▁해도	-1548
▁구비	-1549
▁확장	-1550
▁전류	-1551
▁태도	-1552
▁결국	-1553
▁취업	-1554
▁디지	-1555
▁실제로	-1556
▁양성	-1557
▁여전히	-1558
▁쇼	-1559
▁당뇨병	-1560
▁외국인	-1561
▁맡	-1562
▁소재	-1563
▁교환	-1564
▁이루어지	-1565
▁억제	-1566
▁금액	-1567
▁이내	-1568
▁디지털	-1569
▁컴퓨터	-1570
▁각종	-1571
▁어려움	-1572
기업	-1573
▁유치	-1574
▁이렇게	-1575
▁80	-1576
▁심리	-1577
▁32	-1578
▁영업	-1579
▁뇌	-1580
▁변환	-1581
▁전화	-1582
▁어린이	-1583
▁섬유	-1584
▁중간	-1585
▁미세	-1586
▁수정	-1587
▁전원	-1588
▁헌법	-1589
▁수단	-1590
▁대책	-1591
▁아무	-1592
▁장소	-1593
▁카드	-1594
▁려고	-1595
▁신체	-1596
▁지나	-1597
▁수치	-1598
▁합병	-1599
▁인데	-1600
▁직무	-1601
▁못했	-1602
▁뜻	-1603
▁선행	-1604
학생	-1605
▁정말	-1606
▁논란	-1607
▁상부	-1608
▁소유	-1609
▁인기	-1610
▁부과	-1611
re	-1612
플리	-1613
at	-1614
▁확산	-1615
▁씩	-1616
▁지표	-1617
▁부서	-1618
▁물리	-1619
▁처분	-1620
▁혹은	-1621
▁유럽	-1622
▁훈련	-1623
▁상담	-1624
▁온라인	-1625
▁의도	-1626
까요	-1627
▁이때	-1628
▁조금	-1629
▁140	-1630
▁디자인	-1631
▁명령	-1632
▁적합	-1633
▁논문	-1634
▁언어	-1635
▁증거	-1636
▁팔	-1637
▁어려운	-1638
터리	-1639
▁동기	-1640
▁근무	-1641
▁별도	-1642
웨어	-1643
▁위반	-1644
▁학년	-1645
▁사유	-1646
▁허용	-1647
▁벤	-1648
▁경향	-1649
▁융	-1650
▁종양	-1651
▁인도	-1652
▁중소기업	-1653
▁축제	-1654
▁주도	-1655
플리케이션	-1656
▁충전	-1657
▁전해	-1658
▁자율	-1659
스로	-1660
▁필터	-1661
▁겪	-1662
▁트랜	-1663
▁대화	-1664
▁둔	-1665
▁조선	-1666
▁부여	-1667
스크	-1668
▁분위	-1669
▁호텔	-1670
▁행복	-1671
▁도지사	-1672
▁승인	-1673
▁하지만	-1674
▁가상	-1675
40	-1676
▁주문	-1677
▁협상	-1678
▁항목	-1679
▁버스	-1680
▁집행	-1681
▁미술	-1682
▁회복	-1683
▁210	-1684
▁배출	-1685
▁스스로	-1686
en	-1687
▁심각	-1688
▁자녀	-1689
▁가져	-1690
▁인력	-1691
▁조합	-1692
▁폐기	-1693
▁부문	-1694
▁항공	-1695
▁하부	-1696
▁지출	-1697
▁대신	-1698
▁맛	-1699
▁금리	-1700
▁명확	-1701
▁도구	-1702
▁접촉	-1703
▁건물	-1704
▁질병	-1705
▁영국	-1706
▁근로자	-1707
▁인공	-1708
▁폼	-1709
▁청년	-1710
▁펼	-1711
▁의회	-1712
▁금지	-1713
▁달라	-1714
호사	-1715
▁공식	-1716
▁주체	-1717
으나	-1718
특별	-1719
소리	-1720
al	-1721
▁죽	-1722
▁손해	-1723
▁분포	-1724
▁비트	-1725
▁주관	-1726
▁광주	-1727
▁기계	-1728
▁식별	-1729
▁400	-1730
▁연속	-1731
▁하루	-1732
▁는가	-1733
▁시사	-1734
러스	-1735
▁의식	-1736
▁량	-1737
▁밖에	-1738
▁입법	-1739
▁제주	-1740
▁기획	-1741
어난	-1742
▁조제	-1743
특별시	-1744
▁서울특별시	-1745
▁울	-1746
▁언제	-1747
▁변동	-1748
▁술	-1749
▁가입	-1750
▁완화	-1751
▁가까	-1752
▁등장	-1753
▁보상	-1754
▁나왔	-1755
▁동물	-1756
프트	-1757
▁신경	-1758
▁더불	-1759
▁라면	-1760
▁정하	-1761
▁브랜드	-1762
▁유닛	-1763
▁위탁	-1764
▁차별	-1765
▁방사	-1766
▁청와	-1767
페이스	-1768
▁청와대	-1769
▁미리	-1770
▁일치	-1771
▁빨	-1772
ar	-1773
▁광고	-1774
▁품질	-1775
▁불법	-1776
▁특수	-1777
▁결제	-1778
▁수립	-1779
▁최초	-1780
▁피부	-1781
▁:	-1782
▁궁	-1783
▁두께	-1784
▁생존	-1785
가지	-1786
▁나가	-1787
▁대법	-1788
지스터	-1789
▁보고서	-1790
▁왕	-1791
▁연계	-1792
▁기자	-1793
▁90	-1794
▁점검	-1795
▁정당	-1796
▁아서	-1797
▁못한	-1798
▁창업	-1799
▁유발	-1800
▁자세	-1801
▁무대	-1802
▁평화	-1803
▁36	-1804
▁절연	-1805
▁아파	-1806
▁°	-1807
▁배터리	-1808
▁척	-1809
▁동의	-1810
▁피해자	-1811
▁확정	-1812
▁나타난	-1813
▁체결	-1814
▁보안	-1815
▁남자	-1816
▁확실	-1817
▁배경	-1818
▁추천	-1819
▁의혹	-1820
▁타당	-1821
▁샘	-1822
▁통과	-1823
▁끌	-1824
준다	-1825
▁발달	-1826
▁미만	-1827
▁넓	-1828
▁기억	-1829
▁달성	-1830
▁숨	-1831
▁스위	-1832
▁압력	-1833
▁식품	-1834
▁소리	-1835
▁됨	-1836
▁구간	-1837
▁공부	-1838
▁설립	-1839
▁단지	-1840
▁망	-1841
▁내년	-1842
▁죄	-1843
▁거쳐	-1844
▁프리	-1845
▁수지	-1846
▁거주	-1847
▁도출	-1848
▁당국	-1849
▁싱	-1850
▁나누	-1851
▁요건	-1852
▁유리	-1853
▁형식	-1854
▁멀	-1855
▁단일	-1856
▁일상	-1857
▁돌아	-1858
▁성격	-1859
벤트	-1860
▁중단	-1861
▁취소	-1862
▁이벤트	-1863
▁계층	-1864
▁대사	-1865
▁최저	-1866
▁33	-1867
▁+	-1868
▁쪽	-1869
▁사법	-1870
▁꾸	-1871
▁지사	-1872
▁함수	-1873
▁35	-1874
▁2014	-1875
▁네요	-1876
▁세대	-1877
▁저희	-1878
▁가이드	-1879
▁민주당	-1880
▁사업자	-1881
▁보수	-1882
다고	-1883
▁완료	-1884
요일	-1885
▁인하	-1886
▁음성	-1887
▁신용	-1888
▁렌	-1889
▁류	-1890
▁면역	-1891
▁인터페이스	-1892
▁하락	-1893
▁갈등	-1894
▁코드	-1895
▁mm	-1896
▁연극	-1897
or	-1898
▁시청	-1899
▁건축	-1900
▁투자자	-1901
▁셔	-1902
▁연금	-1903
▁산화	-1904
▁작동	-1905
▁X	-1906
라이	-1907
▁시켰	-1908
▁차례	-1909
▁제대로	-1910
▁운용	-1911
▁취득	-1912
▁어디	-1913
▁회피	-1914
▁께	-1915
▁송신	-1916
▁회계	-1917
ig	-1918
▁샘플	-1919
▁드라마	-1920
▁뛰	-1921
머니	-1922
▁히	-1923
▁케이	-1924
▁객체	-1925
▁분위기	-1926
▁등급	-1927
▁결론	-1928
▁된다는	-1929
▁언론	-1930
▁증명	-1931
합물	-1932
▁비슷	-1933
▁촉진	-1934
▁드리	-1935
▁매출	-1936
▁쉬	-1937
▁론	-1938
▁통일	-1939
▁믿	-1940
▁주파	-1941
▁단말기	-1942
▁그럼	-1943
▁대중	-1944
▁프로젝트	-1945
▁공장	-1946
▁나타낸다	-1947
▁확률	-1948
▁계수	-1949
▁했으며	-1950
▁연기	-1951
▁그동안	-1952
▁성능	-1953
▁찾아	-1954
▁요법	-1955
▁플랫	-1956
▁캠	-1957
▁개혁	-1958
▁올라	-1959
▁알려져	-1960
▁아시아	-1961
▁본다	-1962
▁마찬	-1963
▁마찬가지	-1964
▁설문	-1965
▁41	-1966
▁진로	-1967
▁체육	-1968
▁삽	-1969
▁다루	-1970
▁매체	-1971
▁문항	-1972
▁이르	-1973
▁약물	-1974
▁콜	-1975
거리	-1976
▁만든	-1977
▁g	-1978
▁낙	-1979
▁에는	-1980
▁수도	-1981
▁얼마나	-1982
▁붙	-1983
▁아파트	-1984
▁본격	-1985
▁기념	-1986
▁분명	-1987
▁장점	-1988
▁트랜지스터	-1989
▁업계	-1990
▁주파수	-1991
▁교과서	-1992
▁공격	-1993
▁연락	-1994
▁주의	-1995
▁오히	-1996
없이	-1997
▁오히려	-1998
▁바라	-1999
▁레벨	-2000
▁누구	-2001
▁테스트	-2002
▁기지	-2003
▁소방	-2004
▁인권	-2005
▁체제	-2006
▁파일	-2007
▁한다면	-2008
▁어떠	-2009
▁균형	-2010
▁성분	-2011
▁하우	-2012
▁러시아	-2013
▁빔	-2014
▁개시	-2015
▁문제점	-2016
▁연구자	-2017
▁기금	-2018
▁투명	-2019
▁교회	-2020
▁초과	-2021
▁플레이	-2022
▁커버	-2023
▁칼	-2024
▁선호	-2025
▁모바	-2026
▁빛	-2027
▁모르	-2028
▁홍보	-2029
▁하위	-2030
▁모바일	-2031
▁문재	-2032
▁롭	-2033
▁빠르	-2034
▁서식	-2035
▁미디어	-2036
▁지배	-2037
it	-2038
▁십	-2039
▁42	-2040
▁채무	-2041
▁임대	-2042
▁검색	-2043
▁창출	-2044
▁혜	-2045
▁초점	-2046
▁e	-2047
▁텍	-2048
▁실천	-2049
▁산출	-2050
▁이행	-2051
▁표본	-2052
▁항상	-2053
▁마이크	-2054
▁당사자	-2055
▁대법원	-2056
▁생명	-2057
▁소통	-2058
▁개방	-2059
▁공통	-2060
▁220	-2061
▁다이	-2062
▁자격	-2063
▁이외	-2064
▁움직임	-2065
▁번호	-2066
▁주기	-2067
▁빌	-2068
▁결혼	-2069
▁세기	-2070
▁매년	-2071
▁권한	-2072
▁편의	-2073
▁픽	-2074
▁공동체	-2075
▁관객	-2076
▁IC	-2077
▁도덕	-2078
▁신장	-2079
▁회원	-2080
▁희망	-2081
▁교류	-2082
▁토론	-2083
▁넣	-2084
▁구속	-2085
▁만약	-2086
▁노래	-2087
▁장비	-2088
▁본부	-2089
▁형사	-2090
▁지시	-2091
▁진출	-2092
▁2019	-2093
▁통해서	-2094
▁밤	-2095
▁통화	-2096
▁봤	-2097
▁전쟁	-2098
▁충분히	-2099
▁부위	-2100
▁기타	-2101
▁복잡	-2102
▁겨	-2103
▁종료	-2104
▁프랑	-2105
▁서브	-2106
▁지구	-2107
▁_	-2108
▁보여준다	-2109
▁유명	-2110
▁대학교	-2111
▁암호	-2112
▁오른	-2113
▁기사	-2114
▁처벌	-2115
▁불안	-2116
▁합리	-2117
▁깨	-2118
▁솔	-2119
▁꿈	-2120
▁려면	-2121
▁운전	-2122
▁순서	-2123
▁101	-2124
▁투입	-2125
▁강원	-2126
▁보완	-2127
▁스트레스	-2128
▁나온다	-2129
▁스크	-2130
▁지연	-2131
▁내려	-2132
▁최적	-2133
▁공원	-2134
▁이온	-2135
▁180	-2136
▁34	-2137
▁대형	-2138
▁유통	-2139
▁이어지	-2140
▁자주	-2141
▁제재	-2142
▁바이오	-2143
▁완전	-2144
▁길이	-2145
▁발행	-2146
▁실적	-2147
▁예시	-2148
▁노드	-2149
▁베트	-2150
▁느끼	-2151
▁폐기물	-2152
▁다소	-2153
▁덕	-2154
▁입원	-2155
▁국무	-2156
▁논리	-2157
▁라이	-2158
▁예요	-2159
▁그대로	-2160
▁줄어	-2161
▁된다고	-2162
▁베트남	-2163
▁알려졌	-2164
▁벗	-2165
▁신규	-2166
▁라도	-2167
▁졸	-2168
교육	-2169
드시	-2170
▁재생	-2171
▁쌍	-2172
▁기구	-2173
▁스마트폰	-2174
▁냉각	-2175
▁라며	-2176
▁예비	-2177
▁51	-2178
▁면적	-2179
▁펀	-2180
▁욕	-2181
▁봐	-2182
▁불편	-2183
▁주행	-2184
▁DM	-2185
▁플라	-2186
▁나노	-2187
▁순위	-2188
▁증권	-2189
▁소스	-2190
▁프랑스	-2191
▁고등학교	-2192
▁성적	-2193
▁침해	-2194
▁유입	-2195
▁실무	-2196
▁도착	-2197
▁스러	-2198
▁나아가	-2199
▁손상	-2200
▁익	-2201
▁힘들	-2202
▁도서	-2203
▁전부	-2204
▁안내	-2205
▁전지	-2206
▁허가	-2207
▁반드시	-2208
▁농업	-2209
▁조작	-2210
▁필수	-2211
▁지점	-2212
▁혈관	-2213
▁젊	-2214
▁의존	-2215
▁줄이	-2216
▁끼	-2217
▁벽	-2218
▁섭	-2219
▁탑	-2220
▁개입	-2221
▁2013	-2222
운드	-2223
▁성인	-2224
▁단백	-2225
▁공항	-2226
▁악화	-2227
▁핀	-2228
▁학부	-2229
▁실현	-2230
NA	-2231
고리	-2232
▁추세	-2233
▁찬	-2234
st	-2235
▁추적	-2236
▁오염	-2237
▁분기	-2238
▁늦	-2239
▁찍	-2240
▁강도	-2241
▁협회	-2242
▁밝혀	-2243
▁기다	-2244
▁납세	-2245
▁참가자	-2246
▁세부	-2247
▁탄소	-2248
▁모니	-2249
▁푸	-2250
▁절제	-2251
▁잘못	-2252
▁시킨다	-2253
▁45	-2254
▁임의	-2255
▁변형	-2256
▁양자	-2257
▁목소리	-2258
▁듣	-2259
▁휴대	-2260
▁알아	-2261
▁지난달	-2262
▁곧	-2263
▁잠재	-2264
▁반사	-2265
▁2000	-2266
▁스테	-2267
립니다	-2268
▁가수	-2269
▁160	-2270
▁강력	-2271
▁전하	-2272
▁곤	-2273
▁셨	-2274
▁고령	-2275
▁기재	-2276
▁폴리	-2277
▁였으며	-2278
▁모집	-2279
▁한류	-2280
▁분산	-2281
▁작가	-2282
▁채용	-2283
▁보통	-2284
▁만성	-2285
회사	-2286
▁우울	-2287
▁중재	-2288
▁고민	-2289
▁HCC	-2290
▁모니터	-2291
▁납부	-2292
▁짧	-2293
▁강제	-2294
▁나이	-2295
▁유동	-2296
▁주차	-2297
▁미칠	-2298
▁198	-2299
ic	-2300
▁낸	-2301
▁관절	-2302
▁얼굴	-2303
▁매개	-2304
▁별지	-2305
▁토지	-2306
▁만드	-2307
▁징수	-2308
▁관광객	-2309
▁유전자	-2310
▁예약	-2311
▁지하	-2312
70	-2313
▁전혀	-2314
▁전했	-2315
▁컬	-2316
▁상이	-2317
민국	-2318
▁순환	-2319
▁스럽	-2320
▁통상	-2321
▁틀	-2322
▁염증	-2323
▁밸	-2324
▁협약	-2325
▁훨	-2326
▁52	-2327
▁충격	-2328
▁둘러	-2329
▁로봇	-2330
▁훨씬	-2331
▁유용	-2332
▁서류	-2333
▁들어가	-2334
▁대구	-2335
▁취약	-2336
린다	-2337
▁선언	-2338
▁도내	-2339
▁실패	-2340
▁대한민국	-2341
▁용량	-2342
▁손실	-2343
▁연구원	-2344
▁PC	-2345
▁은데	-2346
▁내일	-2347
▁압축	-2348
▁소프트	-2349
▁성취	-2350
▁실리	-2351
▁흡수	-2352
▁죠	-2353
▁구역	-2354
▁수소	-2355
웨이	-2356
▁유효	-2357
▁흥미	-2358
▁생체	-2359
▁J	-2360
아들	-2361
▁저하	-2362
▁전면	-2363
▁화소	-2364
▁강남	-2365
▁패드	-2366
▁머리	-2367
▁활발	-2368
가요	-2369
▁거부	-2370
▁김정	-2371
▁모양	-2372
▁수상	-2373
▁시즌	-2374
▁슈	-2375
▁삽입	-2376
▁완전히	-2377
▁열리	-2378
▁통증	-2379
▁본인	-2380
▁성별	-2381
▁스포	-2382
▁참고	-2383
▁동반	-2384
▁노동자	-2385
▁영양	-2386
▁부품	-2387
▁&	-2388
▁강한	-2389
▁호흡	-2390
▁스토	-2391
▁연료	-2392
▁인근	-2393
▁사이트	-2394
▁나머	-2395
▁세상	-2396
▁재단	-2397
▁평등	-2398
▁장면	-2399
▁관하	-2400
▁대기	-2401
▁나머지	-2402
▁출신	-2403
▁추구	-2404
▁바이러스	-2405
▁대안	-2406
▁경쟁력	-2407
▁구성원	-2408
▁불과	-2409
▁현행	-2410
▁단백질	-2411
▁쯤	-2412
▁정서	-2413
▁차단	-2414
▁문서	-2415
▁수직	-2416
▁일으	-2417
인트	-2418
▁타이	-2419
▁비행	-2420
▁이곳	-2421
▁접수	-2422
▁초음	-2423
ol	-2424
▁빅	-2425
▁완성	-2426
▁계기	-2427
▁과목	-2428
▁혈청	-2429
▁냐	-2430
▁주어	-2431
▁화합물	-2432
▁오래	-2433
▁접속	-2434
▁=	-2435
게요	-2436
▁의심	-2437
▁전공	-2438
▁문재인	-2439
▁분할	-2440
▁주인	-2441
▁일어나	-2442
▁꼭	-2443
▁당연	-2444
▁이식	-2445
▁소식	-2446
▁중구	-2447
▁지침	-2448
▁TV	-2449
▁과장	-2450
▁초음파	-2451
핵화	-2452
▁토대	-2453
▁혼합	-2454
▁증진	-2455
▁비핵화	-2456
▁지방세	-2457
롤러	-2458
▁취지	-2459
튜브	-2460
▁컨트	-2461
▁화재	-2462
▁재난	-2463
▁춤	-2464
▁의지	-2465
▁축구	-2466
▁운송	-2467
▁해소	-2468
▁으므로	-2469
▁배상	-2470
▁습니까	-2471
▁진다	-2472
컨대	-2473
▁투여	-2474
▁상세	-2475
▁합병증	-2476
▁2012	-2477
▁칩	-2478
op	-2479
▁부채	-2480
▁어도	-2481
▁이끌	-2482
버지	-2483
리스	-2484
▁조항	-2485
▁배제	-2486
▁소수	-2487
▁받아들	-2488
▁선발	-2489
▁흉	-2490
▁얘	-2491
▁맥락	-2492
▁입증	-2493
▁갔	-2494
▁38	-2495
▁기울	-2496
▁원리	-2497
▁공감	-2498
▁화장	-2499
▁을수록	-2500
▁아주	-2501
▁혈액	-2502
▁기부	-2503
▁육성	-2504
▁다며	-2505
▁방사선	-2506
▁적응	-2507
▁출연	-2508
▁기지국	-2509
▁오프	-2510
반기	-2511
역시	-2512
▁진술	-2513
▁인물	-2514
▁정비	-2515
▁에선	-2516
▁f	-2517
▁원장	-2518
▁이란	-2519
▁스포츠	-2520
▁웹	-2521
▁챔	-2522
▁mg	-2523
▁여름	-2524
▁혜택	-2525
▁옥	-2526
▁필름	-2527
▁정체	-2528
▁이용자	-2529
▁제약	-2530
▁변호사	-2531
▁져	-2532
▁태양	-2533
▁하우징	-2534
▁굴	-2535
▁말씀	-2536
▁부상	-2537
▁수수	-2538
▁310	-2539
▁멤	-2540
▁학부모	-2541
▁2010	-2542
▁CT	-2543
▁경계	-2544
▁뒷	-2545
▁상당히	-2546
▁얘기	-2547
▁첫째	-2548
ab	-2549
세포	-2550
▁선박	-2551
▁듯이	-2552
▁부탁	-2553
▁정규	-2554
▁합성	-2555
▁170	-2556
체인	-2557
el	-2558
▁선보	-2559
▁도와	-2560
▁생태	-2561
▁블록체인	-2562
▁넘어	-2563
▁발현	-2564
▁걸쳐	-2565
▁서울시	-2566
▁단기	-2567
▁주거	-2568
▁만족도	-2569
▁Fig	-2570
▁빈도	-2571
▁진동	-2572
▁준다	-2573
▁원자	-2574
▁앱	-2575
▁견해	-2576
▁자극	-2577
NS	-2578
▁II	-2579
▁충족	-2580
▁아마	-2581
▁윤리	-2582
▁기법	-2583
▁셋	-2584
▁쇼핑	-2585
▁아름	-2586
▁걱	-2587
▁CO	-2588
▁끊	-2589
▁간주	-2590
▁걱정	-2591
▁전이	-2592
▁인터뷰	-2593
▁의장	-2594
▁체중	-2595
▁혁명	-2596
영상	-2597
▁연도	-2598
▁μ	-2599
▁절대	-2600
▁관측	-2601
▁픽셀	-2602
▁AI	-2603
▁계열	-2604
▁43	-2605
▁둘째	-2606
▁탐색	-2607
랍니다	-2608
▁깊이	-2609
▁조기	-2610
▁회귀	-2611
▁1000	-2612
▁대리	-2613
▁대전	-2614
▁피드	-2615
et	-2616
▁65	-2617
▁cm	-2618
▁창의	-2619
▁특허	-2620
▁용어	-2621
▁의결	-2622
▁한정	-2623
▁예컨대	-2624
미터	-2625
▁37	-2626
▁무기	-2627
▁경력	-2628
▁재발	-2629
▁국토	-2630
▁미친	-2631
▁방침	-2632
▁이른	-2633
▁노조	-2634
▁인수	-2635
▁교체	-2636
▁지향	-2637
▁출시	-2638
▁해제	-2639
▁전형	-2640
▁후속	-2641
▁잃	-2642
▁230	-2643
▁간단	-2644
▁건조	-2645
▁리그	-2646
▁제정	-2647
▁로운	-2648
▁실증	-2649
▁물건	-2650
▁교육청	-2651
▁휘	-2652
▁삭	-2653
먼지	-2654
▁48	-2655
▁민원	-2656
▁현황	-2657
▁화폐	-2658
▁한국어	-2659
▁직장	-2660
▁바랍니다	-2661
▁브라	-2662
▁렌즈	-2663
▁보관	-2664
▁정기	-2665
▁잇	-2666
▁저녁	-2667
▁미세먼지	-2668
▁링크	-2669
▁불가	-2670
▁연수	-2671
▁발언	-2672
▁부작	-2673
▁선물	-2674
▁전제	-2675
▁담보	-2676
▁유치원	-2677
▁부착	-2678
▁골절	-2679
▁력	-2680
페인	-2681
▁요금	-2682
▁싸	-2683
▁코팅	-2684
▁실장	-2685
▁재무	-2686
▁고유	-2687
▁사상	-2688
▁관람	-2689
▁점차	-2690
▁공시	-2691
▁모터	-2692
▁선생	-2693
▁사라	-2694
▁NA	-2695
▁성향	-2696
▁명시	-2697
▁국당	-2698
▁순간	-2699
as	-2700
▁나섰	-2701
▁봉사	-2702
▁진정	-2703
▁가르	-2704
▁혹시	-2705
▁600	-2706
▁국립	-2707
▁진료	-2708
▁급여	-2709
▁보존	-2710
▁동영상	-2711
▁낭	-2712
▁엘	-2713
▁신문	-2714
▁외교	-2715
▁지능	-2716
▁현금	-2717
▁숫	-2718
▁간격	-2719
▁속성	-2720
▁선고	-2721
BS	-2722
▁빠른	-2723
▁피드백	-2724
▁하이	-2725
▁2011	-2726
▁정지	-2727
▁할지	-2728
▁을지	-2729
▁널	-2730
▁그래서	-2731
▁겸	-2732
▁주입	-2733
▁췌	-2734
▁강하	-2735
▁지자	-2736
▁출발	-2737
▁테이	-2738
▁애플리케이션	-2739
▁웃	-2740
▁판례	-2741
▁꾸준	-2742
▁세무	-2743
▁연합	-2744
▁접착	-2745
▁채택	-2746
▁커지	-2747
▁덧	-2748
▁취하	-2749
▁가진다	-2750
▁장부	-2751
▁모니터링	-2752
▁민감	-2753
▁숫자	-2754
▁지위	-2755
▁폭력	-2756
▁사장	-2757
▁아침	-2758
▁극복	-2759
슐린	-2760
▁학업	-2761
▁인슐린	-2762
▁메뉴	-2763
▁갖추	-2764
▁맞추	-2765
▁시트	-2766
▁진입	-2767
▁그래프	-2768
▁격차	-2769
▁인쇄	-2770
반도	-2771
▁전술	-2772
▁세금	-2773
▁딸	-2774
▁드릴	-2775
60	-2776
▁Y	-2777
▁배선	-2778
▁분자	-2779
▁충돌	-2780
▁옮	-2781
▁분쟁	-2782
▁조성물	-2783
▁도서관	-2784
▁케이스	-2785
▁한국인	-2786
▁융합	-2787
▁이루어질	-2788
▁문자	-2789
▁컨텐츠	-2790
▁승리	-2791
▁장착	-2792
▁객관	-2793
▁뉴스	-2794
▁월드	-2795
▁112	-2796
▁그렇게	-2797
▁강의	-2798
▁위촉	-2799
▁평생	-2800
▁파라	-2801
▁55	-2802
▁부가	-2803
▁44	-2804
▁투표	-2805
▁사안	-2806
▁시절	-2807
▁소프트웨어	-2808
▁개편	-2809
▁임신	-2810
▁피고	-2811
▁관해	-2812
▁정해	-2813
▁졸업	-2814
▁알고리	-2815
▁신속	-2816
▁2009	-2817
시경	-2818
▁BM	-2819
▁조명	-2820
▁주소	-2821
▁각도	-2822
▁간접	-2823
▁불리	-2824
▁유전	-2825
▁감시	-2826
▁는다는	-2827
▁대학생	-2828
▁리더	-2829
▁한반도	-2830
▁쿠	-2831
▁나선	-2832
▁인자	-2833
▁텐	-2834
▁임시	-2835
▁출산	-2836
▁알고리즘	-2837
PS	-2838
▁핑	-2839
▁부당	-2840
▁양상	-2841
▁202	-2842
▁스크린	-2843
▁상장	-2844
▁일단	-2845
▁국방	-2846
▁내리	-2847
▁실내	-2848
▁총회	-2849
▁약속	-2850
▁인접	-2851
▁Q	-2852
▁가중	-2853
▁택시	-2854
▁도민	-2855
▁보증	-2856
▁공제	-2857
▁유아	-2858
▁뜨	-2859
이션	-2860
▁용이	-2861
▁래	-2862
▁텍스트	-2863
▁드립니다	-2864
▁유출	-2865
▁축소	-2866
▁줘	-2867
▁여건	-2868
▁권고	-2869
▁전개	-2870
▁느냐	-2871
▁초래	-2872
▁평면	-2873
▁흡연	-2874
▁성립	-2875
▁지자체	-2876
▁협의회	-2877
▁h	-2878
▁수탁	-2879
▁버퍼	-2880
▁산정	-2881
▁펜	-2882
▁자아	-2883
▁묻	-2884
▁캡	-2885
▁빨리	-2886
▁늘어나	-2887
▁입주	-2888
▁형법	-2889
▁북미	-2890
▁원고	-2891
▁나와	-2892
ing	-2893
▁부인	-2894
ro	-2895
티브	-2896
▁아버지	-2897
▁괜	-2898
▁멤버	-2899
▁연산	-2900
▁오류	-2901
▁단면	-2902
LD	-2903
▁경남	-2904
▁소요	-2905
▁엔진	-2906
▁종교	-2907
▁±	-2908
▁개수	-2909
ac	-2910
테나	-2911
▁111	-2912
▁마치	-2913
▁부작용	-2914
▁꽃	-2915
▁맺	-2916
▁돕	-2917
ion	-2918
▁연주	-2919
▁운행	-2920
▁어플리케이션	-2921
▁검정	-2922
▁이중	-2923
▁아이디어	-2924
▁앞두	-2925
▁한테	-2926
리지	-2927
▁39	-2928
▁가공	-2929
▁롯	-2930
▁옷	-2931
▁벌어	-2932
▁삼성전자	-2933
▁단어	-2934
▁분해	-2935
▁자문	-2936
▁]	-2937
▁53	-2938
▁실리콘	-2939
▁통신부	-2940
▁포인트	-2941
▁[	-2942
▁상술	-2943
▁페이	-2944
▁분배	-2945
▁연간	-2946
▁전도	-2947
▁해양	-2948
▁괴	-2949
▁섭취	-2950
▁페이지	-2951
▁따로	-2952
▁센싱	-2953
▁유일	-2954
▁자살	-2955
AC	-2956
▁설비	-2957
▁61	-2958
▁뮤	-2959
▁꼽	-2960
▁알리	-2961
▁트리	-2962
▁스위치	-2963
▁보조금	-2964
EC	-2965
▁급격	-2966
▁국장	-2967
▁대장	-2968
▁광학	-2969
▁본질	-2970
▁혈압	-2971
▁새롭	-2972
▁헬	-2973
▁소정	-2974
▁간호	-2975
▁소득세	-2976
▁맞춰	-2977
▁무료	-2978
▁비례	-2979
▁법령	-2980
▁영장	-2981
▁메인	-2982
▁재미	-2983
▁유의미	-2984
▁폐지	-2985
▁오랜	-2986
▁안테나	-2987
▁320	-2988
▁으면서	-2989
▁벡	-2990
▁곡선	-2991
▁로써	-2992
▁용액	-2993
▁물품	-2994
▁영향력	-2995
소득	-2996
▁연막	-2997
▁롯데	-2998
▁스피	-2999
▁상속	-3000
▁올리	-3001
▁지문	-3002
▁수수료	-3003
▁산소	-3004
▁IT	-3005
▁췌장	-3006
▁km	-3007
▁겨울	-3008
무리	-3009
is	-3010
▁근육	-3011
▁이슈	-3012
▁전용	-3013
▁세트	-3014
▁PD	-3015
▁괜찮	-3016
▁펼쳐	-3017
▁홍콩	-3018
▁식사	-3019
▁할인	-3020
▁410	-3021
▁마케	-3022
▁범주	-3023
▁유체	-3024
▁알려진	-3025
▁75	-3026
▁구별	-3027
▁구하	-3028
▁밀도	-3029
▁버튼	-3030
▁통지	-3031
▁함유	-3032
▁레이저	-3033
▁어제	-3034
▁다중	-3035
▁바꾸	-3036
▁심장	-3037
▁요즘	-3038
BC	-3039
▁묘	-3040
▁고양	-3041
▁궁금	-3042
▁이루어져	-3043
▁도달	-3044
▁스러운	-3045
▁을까요	-3046
▁코스	-3047
▁어머니	-3048
▁왼	-3049
▁펀드	-3050
▁살펴본	-3051
▁주가	-3052
▁흡착	-3053
▁옆	-3054
▁연방	-3055
▁유로	-3056
▁과도	-3057
▁청장	-3058
▁덮	-3059
▁감안	-3060
▁매일	-3061
▁베이스	-3062
▁션	-3063
▁마무리	-3064
▁마케팅	-3065
프라	-3066
▁수원	-3067
▁극장	-3068
▁중학교	-3069
▁비상	-3070
▁가설	-3071
▁커피	-3072
▁플레이트	-3073
▁배송	-3074
▁아들	-3075
▁엄마	-3076
▁비디오	-3077
▁빼	-3078
▁근본	-3079
▁다니	-3080
▁생기	-3081
▁촉매	-3082
▁강원도	-3083
▁x	-3084
▁쌓	-3085
▁관세	-3086
▁공모	-3087
▁요리	-3088
▁지켜	-3089
▁121	-3090
산물	-3091
▁발굴	-3092
▁수당	-3093
스틱	-3094
▁적정	-3095
▁으니	-3096
거운	-3097
▁가열	-3098
▁무용	-3099
▁사후	-3100
▁절반	-3101
▁주사	-3102
▁효능	-3103
▁나서	-3104
▁발병	-3105
뮤니	-3106
▁공단	-3107
▁동료	-3108
▁을까	-3109
▁아름다	-3110
▁커뮤니	-3111
▁Z	-3112
▁짐	-3113
▁단자	-3114
▁250	-3115
▁지분	-3116
▁민족	-3117
▁총리	-3118
▁컨트롤러	-3119
니스	-3120
▁매력	-3121
▁밝히	-3122
▁쟁	-3123
▁위상	-3124
▁투과	-3125
▁SNS	-3126
▁페이스	-3127
▁프로세스	-3128
▁고위	-3129
▁단독	-3130
▁단원	-3131
▁문헌	-3132
▁생물	-3133
▁62	-3134
▁용기	-3135
▁답변	-3136
▁사정	-3137
▁원내	-3138
▁점점	-3139
▁법정	-3140
▁현저	-3141
▁맞춤	-3142
▁업종	-3143
▁연출	-3144
▁위협	-3145
▁군사	-3146
▁내놓	-3147
▁대변	-3148
▁부장	-3149
▁놀이	-3150
▁상위	-3151
은행	-3152
▁판사	-3153
▁림	-3154
▁뉴욕	-3155
▁방출	-3156
▁실정	-3157
▁전년	-3158
▁나타난다	-3159
▁CC	-3160
▁코일	-3161
▁엑	-3162
▁북부	-3163
▁오디오	-3164
▁kg	-3165
▁독자	-3166
▁조군	-3167
▁횟	-3168
▁71	-3169
▁이자	-3170
▁경북	-3171
▁타인	-3172
▁운전자	-3173
▁HB	-3174
▁경비	-3175
▁마스크	-3176
▁바뀌	-3177
▁돌출	-3178
▁홈페	-3179
▁102	-3180
▁홈페이지	-3181
▁밴	-3182
▁포도	-3183
리어	-3184
▁사태	-3185
▁횡	-3186
▁실시간	-3187
▁메타	-3188
▁혼자	-3189
▁줬	-3190
▁긴급	-3191
▁회수	-3192
▁떨어지	-3193
▁느낌	-3194
▁앉	-3195
▁최선	-3196
▁내시경	-3197
지능	-3198
▁상법	-3199
▁가까운	-3200
▁인공지능	-3201
어날	-3202
▁자발	-3203
ED	-3204
▁핸	-3205
▁약간	-3206
▁우승	-3207
▁단순히	-3208
▁출석	-3209
▁부부	-3210
▁이탈	-3211
▁첨가	-3212
▁횟수	-3213
▁2008	-3214
▁방해	-3215
▁탄력	-3216
▁그런데	-3217
TA	-3218
▁비밀	-3219
▁일관	-3220
▁관통	-3221
▁배열	-3222
▁오브	-3223
▁임기	-3224
▁에게서	-3225
OS	-3226
▁샤	-3227
▁응급	-3228
▁가계	-3229
▁증후	-3230
▁첨부	-3231
▁모색	-3232
▁바디	-3233
리오	-3234
▁54	-3235
▁포괄	-3236
▁공인	-3237
▁덧붙	-3238
▁모여	-3239
▁랑	-3240
▁인프라	-3241
▁95	-3242
▁시료	-3243
▁증후군	-3244
▁가로	-3245
▁구민	-3246
▁나무	-3247
▁남편	-3248
▁파장	-3249
▁기상	-3250
▁우주	-3251
광역시	-3252
▁선형	-3253
▁강사	-3254
▁매장	-3255
▁테러	-3256
▁한지	-3257
나라	-3258
정식	-3259
▁EU	-3260
▁조달	-3261
▁스캔	-3262
▁보정	-3263
▁해상	-3264
▁세율	-3265
▁스케	-3266
▁이뤄지	-3267
▁도어	-3268
▁원래	-3269
▁폐쇄	-3270
▁벨	-3271
▁셈	-3272
▁국세	-3273
▁박막	-3274
▁상상	-3275
▁증폭	-3276
▁할당	-3277
▁에어	-3278
▁파라미터	-3279
▁몇몇	-3280
포르	-3281
▁벤처	-3282
▁오르	-3283
대표	-3284
▁혈당	-3285
▁벗어나	-3286
니즘	-3287
▁특이	-3288
▁밸브	-3289
▁파이	-3290
▁r	-3291
▁옵	-3292
▁호주	-3293
▁덜	-3294
우스	-3295
▁꾸준히	-3296
널드	-3297
▁신부	-3298
▁풍부	-3299
▁주최	-3300
상선	-3301
▁니까	-3302
▁창조	-3303
▁오른쪽	-3304
▁뚜	-3305
▁가해	-3306
▁줄어들	-3307
▁겁	-3308
▁시선	-3309
▁철학	-3310
▁흑	-3311
▁병변	-3312
▁여론	-3313
▁땅	-3314
▁고통	-3315
▁교실	-3316
▁일시	-3317
▁싱가	-3318
▁컬러	-3319
▁학자	-3320
▁교육감	-3321
▁싱가포르	-3322
▁쏟	-3323
▁그만	-3324
▁원활	-3325
▁식당	-3326
▁대만	-3327
▁음주	-3328
▁교부	-3329
▁면담	-3330
▁창작	-3331
able	-3332
환경	-3333
▁제일	-3334
▁여러분	-3335
▁법안	-3336
▁철도	-3337
▁항체	-3338
▁부처	-3339
▁아울	-3340
ST	-3341
▁흘	-3342
▁72	-3343
▁AP	-3344
▁가속	-3345
가락	-3346
▁46	-3347
▁와이	-3348
▁성폭	-3349
각형	-3350
심히	-3351
▁240	-3352
▁바닥	-3353
▁선임	-3354
▁방정식	-3355
▁탐구	-3356
▁불러	-3357
▁저작	-3358
▁47	-3359
▁전방	-3360
▁채권자	-3361
▁요약	-3362
▁통보	-3363
▁도널드	-3364
▁하나님	-3365
▁실습	-3366
▁・	-3367
▁여지	-3368
▁코딩	-3369
▁포기	-3370
SA	-3371
▁제고	-3372
▁함량	-3373
▁49	-3374
▁신설	-3375
▁CD	-3376
▁멀티	-3377
훼손	-3378
▁벡터	-3379
▁편리	-3380
▁개정안	-3381
▁이루어진	-3382
▁구입	-3383
▁블랙	-3384
▁재원	-3385
▁삭제	-3386
▁유연	-3387
▁즉시	-3388
▁증대	-3389
▁상징	-3390
▁인과	-3391
▁진흥	-3392
▁집합	-3393
il	-3394
▁주말	-3395
▁국정	-3396
▁주일	-3397
▁펌	-3398
▁가량	-3399
▁알아보	-3400
▁제조업	-3401
▁편성	-3402
▁2007	-3403
▁별로	-3404
▁타입	-3405
▁팽	-3406
▁널리	-3407
▁포장	-3408
▁절제술	-3409
▁챔버	-3410
▁였을	-3411
▁떠나	-3412
▁질량	-3413
▁튜브	-3414
▁예외	-3415
어났	-3416
▁최대한	-3417
am	-3418
▁지닌	-3419
▁유병	-3420
DP	-3421
▁윈	-3422
▁좁	-3423
▁상면	-3424
▁세액	-3425
▁잉	-3426
▁경화	-3427
▁의문	-3428
▁자는	-3429
▁비하	-3430
▁써	-3431
▁배당	-3432
▁동아	-3433
▁선진	-3434
▁적층	-3435
▁보편	-3436
▁가동	-3437
▁수많	-3438
▁이재	-3439
▁어레이	-3440
AR	-3441
▁규범	-3442
▁죄송	-3443
▁사실상	-3444
▁짜	-3445
른다	-3446
▁베이	-3447
▁실태	-3448
▁협조	-3449
▁개구	-3450
▁시행령	-3451
▁보급	-3452
▁인원	-3453
▁임명	-3454
▁학기	-3455
▁연구소	-3456
▁문학	-3457
▁상환	-3458
▁완벽	-3459
▁으려	-3460
▁직후	-3461
니아	-3462
릭터	-3463
▁명예	-3464
▁캐릭터	-3465
▁국어	-3466
▁발급	-3467
▁했으나	-3468
▁걷	-3469
코올	-3470
▁보일	-3471
▁부진	-3472
▁분양	-3473
▁원하	-3474
▁개소	-3475
▁경과	-3476
▁민법	-3477
ed	-3478
산화	-3479
▁메이	-3480
▁서명	-3481
▁학원	-3482
▁대체로	-3483
▁감각	-3484
▁포트	-3485
▁유해	-3486
▁동맥	-3487
▁비대	-3488
▁시술	-3489
▁양식	-3490
▁단부	-3491
▁중량	-3492
▁척도	-3493
▁셔서	-3494
▁열심히	-3495
▁의해서	-3496
험자	-3497
▁소장	-3498
▁Table	-3499
AS	-3500
es	-3501
▁경사	-3502
▁문장	-3503
▁나타냈	-3504
▁무한	-3505
▁지각	-3506
나다	-3507
▁권력	-3508
▁스타일	-3509
▁누적	-3510
▁대역	-3511
▁실수	-3512
▁못한다	-3513
▁인재	-3514
▁저자	-3515
▁아울러	-3516
자기	-3517
▁대북	-3518
▁밝힌	-3519
▁간호사	-3520
▁알코올	-3521
▁간염	-3522
▁번역	-3523
▁화상	-3524
▁효력	-3525
▁관리자	-3526
드러	-3527
리학	-3528
서트	-3529
▁교육부	-3530
▁63	-3531
▁부르	-3532
▁어려워	-3533
▁l	-3534
▁된다면	-3535
▁평소	-3536
▁갑상선	-3537
▁오늘날	-3538
▁기소	-3539
▁아도	-3540
▁왼쪽	-3541
▁께서	-3542
▁압박	-3543
▁하드	-3544
▁짓	-3545
▁심화	-3546
▁액체	-3547
총리	-3548
▁착용	-3549
▁훼손	-3550
▁리스트	-3551
▁반환	-3552
▁사기	-3553
▁는다고	-3554
▁간경	-3555
▁기하	-3556
▁캐나다	-3557
▁콘서트	-3558
▁뷰	-3559
▁날씨	-3560
▁중독	-3561
▁후반	-3562
생활	-3563
▁몽	-3564
▁개국	-3565
▁임원	-3566
▁담당자	-3567
▁고속	-3568
▁인용	-3569
▁의학	-3570
▁탄성	-3571
▁꺼	-3572
▁안보	-3573
▁연습	-3574
▁가졌	-3575
▁인가요	-3576
▁올림	-3577
▁점유	-3578
▁122	-3579
▁연대	-3580
로이드	-3581
▁700	-3582
▁이루어진다	-3583
▁IP	-3584
▁메커	-3585
▁바란	-3586
▁음향	-3587
▁전남	-3588
▁냈	-3589
관계	-3590
▁변인	-3591
▁신탁	-3592
▁치매	-3593
▁봄	-3594
▁기다리	-3595
▁관여	-3596
▁체크	-3597
물관	-3598
▁뿌	-3599
▁펄	-3600
▁소견	-3601
▁수평	-3602
▁의뢰	-3603
▁폭행	-3604
▁수급	-3605
▁희생	-3606
▁계좌	-3607
▁다운	-3608
▁득	-3609
공사	-3610
▁코어	-3611
▁메커니즘	-3612
▁낼	-3613
▁관할	-3614
▁CE	-3615
▁다리	-3616
▁림프	-3617
▁입학	-3618
▁축적	-3619
▁테이블	-3620
소통	-3621
▁대처	-3622
▁왜냐	-3623
▁평양	-3624
▁의사소통	-3625
여금	-3626
워드	-3627
▁오픈	-3628
▁카페	-3629
▁팝	-3630
세요	-3631
우드	-3632
▁덧붙였	-3633
▁본체	-3634
id	-3635
조합	-3636
▁LG	-3637
▁돌봄	-3638
▁학문	-3639
▁매매	-3640
▁존중	-3641
▁경영자	-3642
키지	-3643
▁출혈	-3644
▁부적	-3645
▁조화	-3646
▁공익	-3647
▁리부	-3648
▁중점	-3649
▁131	-3650
▁패키지	-3651
임금	-3652
▁긴장	-3653
▁멘	-3654
▁광역	-3655
▁엄격	-3656
▁이어질	-3657
om	-3658
▁바른	-3659
▁법무	-3660
▁부합	-3661
▁아프	-3662
▁전후	-3663
▁박물관	-3664
▁족	-3665
▁64	-3666
▁수면	-3667
▁양극	-3668
▁경고	-3669
▁냉장	-3670
▁맵	-3671
▁갖춘	-3672
▁수석	-3673
▁절감	-3674
▁효소	-3675
▁190	-3676
▁원내대표	-3677
▁CS	-3678
▁수리	-3679
▁진화	-3680
스코	-3681
▁기분	-3682
▁시범	-3683
▁일제	-3684
▁게시	-3685
▁골프	-3686
▁원격	-3687
▁정착	-3688
▁가시	-3689
▁취급	-3690
▁좋아	-3691
▁질서	-3692
▁고분	-3693
▁끝난	-3694
▁무게	-3695
▁상업	-3696
▁폭발	-3697
▁물류	-3698
▁복원	-3699
▁거기	-3700
▁나갈	-3701
▁무리	-3702
▁바다	-3703
▁사물	-3704
▁예고	-3705
▁향해	-3706
▁420	-3707
▁구조물	-3708
▁냉매	-3709
▁이격	-3710
▁정한	-3711
▁트렌	-3712
▁아니하	-3713
▁쓴	-3714
▁교차	-3715
▁울산	-3716
▁복용	-3717
▁파트	-3718
▁무슨	-3719
▁부하	-3720
▁양국	-3721
하면	-3722
▁56	-3723
▁메일	-3724
▁모임	-3725
▁위주	-3726
▁보험료	-3727
▁끈	-3728
아지	-3729
▁57	-3730
▁CR	-3731
▁그때	-3732
▁무작	-3733
▁임계	-3734
▁촉구	-3735
▁73	-3736
▁매수	-3737
▁밀접	-3738
▁스타트	-3739
▁2020	-3740
▁오브젝트	-3741
▁앨	-3742
▁인생	-3743
ir	-3744
▁사과	-3745
▁죽음	-3746
▁상대방	-3747
▁구제	-3748
▁아르	-3749
▁양도	-3750
▁옵션	-3751
▁즐기	-3752
▁스피커	-3753
▁그린	-3754
▁박스	-3755
▁수강	-3756
▁정맥	-3757
▁좌표	-3758
▁드러나	-3759
오드	-3760
▁중복	-3761
▁동력	-3762
▁올림픽	-3763
TV	-3764
▁위법	-3765
▁주년	-3766
▁지니	-3767
▁사업장	-3768
▁HC	-3769
▁곱	-3770
▁담배	-3771
▁면접	-3772
▁물가	-3773
▁배분	-3774
▁지불	-3775
▁w	-3776
▁배양	-3777
▁유가	-3778
▁극단	-3779
▁지체	-3780
▁학술	-3781
▁330	-3782
▁납세자	-3783
▁수탁자	-3784
▁아이콘	-3785
▁스프	-3786
▁가득	-3787
▁단축	-3788
▁드레	-3789
▁조립	-3790
▁197	-3791
▁800	-3792
▁뱅	-3793
▁기에	-3794
▁물체	-3795
▁반발	-3796
▁보육	-3797
▁타임	-3798
▁담긴	-3799
▁출판	-3800
▁넷	-3801
▁뼈	-3802
▁후원	-3803
▁월드컵	-3804
▁왜냐하면	-3805
▁빠져	-3806
문화	-3807
▁단점	-3808
▁정권	-3809
▁헤드	-3810
▁고지	-3811
▁비즈	-3812
▁맨	-3813
▁SK	-3814
▁다를	-3815
▁뚜렷	-3816
▁여겨	-3817
▁천만	-3818
▁기온	-3819
▁농가	-3820
▁색상	-3821
▁야기	-3822
▁호소	-3823
▁친환경	-3824
▁최저임금	-3825
▁58	-3826
▁규명	-3827
▁바란다	-3828
▁단속	-3829
▁야구	-3830
▁여서	-3831
▁건가요	-3832
▁정확히	-3833
▁듀	-3834
▁포도당	-3835
▁00	-3836
▁국내외	-3837
▁지하철	-3838
세서	-3839
▁밴드	-3840
▁중첩	-3841
▁겁니다	-3842
ch	-3843
▁81	-3844
▁AC	-3845
▁업데	-3846
▁철저	-3847
▁업데이트	-3848
▁났	-3849
▁85	-3850
▁기도	-3851
▁느껴	-3852
▁체납	-3853
▁보전	-3854
▁피하	-3855
▁텔	-3856
▁핸드	-3857
▁탁	-3858
▁연소	-3859
▁직경	-3860
에도	-3861
▁인성	-3862
▁뭐	-3863
▁건전	-3864
▁교원	-3865
▁대행	-3866
▁당해	-3867
▁재질	-3868
▁정수	-3869
▁종종	-3870
▁따른다	-3871
▁법인세	-3872
▁킹	-3873
리드	-3874
▁RF	-3875
▁그냥	-3876
▁나올	-3877
▁자전	-3878
▁무작위	-3879
▁토출	-3880
▁파괴	-3881
▁유무	-3882
ou	-3883
▁녹색	-3884
▁대조	-3885
네시아	-3886
▁런	-3887
타민	-3888
▁셋째	-3889
▁마리	-3890
▁성질	-3891
▁곳곳	-3892
▁궤	-3893
▁끝나	-3894
▁지키	-3895
▁컨설	-3896
▁프린	-3897
▁인도네시아	-3898
처리	-3899
▁mL	-3900
▁출입	-3901
▁소화	-3902
▁판정	-3903
▁쟁점	-3904
▁정원	-3905
▁밥	-3906
▁저렴	-3907
▁주간	-3908
레이션	-3909
▁시사점	-3910
▁법칙	-3911
▁조차	-3912
▁흡입	-3913
의자	-3914
이버	-3915
▁59	-3916
▁계정	-3917
▁그려	-3918
▁실업	-3919
▁역학	-3920
▁멕	-3921
▁광범	-3922
▁근처	-3923
▁용매	-3924
▁억제제	-3925
▁각자	-3926
▁부호	-3927
▁전날	-3928
SC	-3929
의원	-3930
▁드러났	-3931
▁로드	-3932
▁모아	-3933
▁무관	-3934
▁개설	-3935
▁결함	-3936
▁농촌	-3937
▁작년	-3938
▁응용	-3939
가스	-3940
리카	-3941
▁아내	-3942
▁변하	-3943
▁성형	-3944
▁시정	-3945
▁부피	-3946
▁플라스틱	-3947
▁목록	-3948
▁한데	-3949
▁팩	-3950
받침	-3951
▁PA	-3952
▁위임	-3953
▁이웃	-3954
▁폭염	-3955
▁움직이	-3956
▁종사자	-3957
▁인천광역시	-3958
▁복부	-3959
▁종래	-3960
▁v	-3961
▁리튬	-3962
▁생긴	-3963
▁그러면	-3964
▁똑	-3965
스토	-3966
▁수렴	-3967
▁종이	-3968
▁앤	-3969
▁노선	-3970
▁엄청	-3971
▁α	-3972
시코	-3973
주시	-3974
▁KT	-3975
▁요양	-3976
▁자궁	-3977
▁톤	-3978
▁조리	-3979
▁주인공	-3980
▁뽑	-3981
▁가리	-3982
▁종목	-3983
▁혼란	-3984
▁광범위	-3985
▁아이템	-3986
▁nm	-3987
▁눈길	-3988
▁러닝	-3989
▁정밀	-3990
▁제스	-3991
▁지휘	-3992
▁나타낼	-3993
▁페이스북	-3994
▁컵	-3995
버스	-3996
▁감면	-3997
▁서술	-3998
▁접합	-3999
▁클라	-4000
▁뒷받침	-4001
▁사이클	-4002
▁부대	-4003
▁충남	-4004
▁맛있	-4005
▁발열	-4006
▁DNA	-4007
▁소유자	-4008
▁걸리	-4009
▁힘든	-4010
▁자전거	-4011
▁자회사	-4012
시안	-4013
▁곤란	-4014
▁열렸	-4015
im	-4016
▁쓸	-4017
로그	-4018
직원	-4019
▁DC	-4020
▁남녀	-4021
▁스페인	-4022
메일	-4023
▁CP	-4024
▁권장	-4025
▁채무자	-4026
▁BB	-4027
▁간담	-4028
▁고도	-4029
▁손가락	-4030
▁비즈니스	-4031
▁즈	-4032
▁거듭	-4033
▁대가	-4034
▁안건	-4035
▁용도	-4036
▁시청자	-4037
▁이메일	-4038
▁MR	-4039
▁비전	-4040
▁전신	-4041
▁종속	-4042
▁멕시코	-4043
▁2006	-4044
이너	-4045
▁원천	-4046
▁편집	-4047
▁기본법	-4048
▁가요	-4049
▁비난	-4050
▁비록	-4051
▁환율	-4052
회장	-4053
▁DA	-4054
▁선별	-4055
▁목사	-4056
▁안타	-4057
▁이력	-4058
외선	-4059
▁보행	-4060
▁협정	-4061
▁소멸	-4062
▁주위	-4063
▁건축물	-4064
▁RA	-4065
▁공학	-4066
▁기한	-4067
▁필드	-4068
TC	-4069
▁살아	-4070
▁클럽	-4071
▁발휘	-4072
▁부지	-4073
▁신분	-4074
▁즐길	-4075
▁펄스	-4076
▁그럼에도	-4077
▁탓	-4078
▁광원	-4079
▁김영	-4080
▁무시	-4081
▁바라보	-4082
▁컴퓨팅	-4083
▁높일	-4084
▁68	-4085
▁AD	-4086
▁기인	-4087
▁남용	-4088
▁불량	-4089
▁주어진	-4090
▁밑	-4091
▁잊	-4092
▁에이	-4093
▁화제	-4094
▁거치	-4095
▁고발	-4096
▁끌어	-4097
▁순수	-4098
▁퇴직	-4099
▁품목	-4100
▁어린이집	-4101
▁82	-4102
▁개성	-4103
▁예후	-4104
▁유엔	-4105
▁의약	-4106
▁일체	-4107
▁조각	-4108
베이스	-4109
▁못해	-4110
▁수분	-4111
▁이득	-4112
▁할수록	-4113
▁아름다운	-4114
▁91	-4115
▁고전	-4116
▁더미	-4117
▁상하	-4118
▁해졌	-4119
▁사이즈	-4120
▁총괄	-4121
▁간담회	-4122
▁패션	-4123
▁고분자	-4124
▁나타날	-4125
▁산화물	-4126
▁도모	-4127
▁시계	-4128
▁2005	-4129
▁배정	-4130
▁비서	-4131
▁이민	-4132
레이드	-4133
▁데이터베이스	-4134
▁옛	-4135
먼트	-4136
▁몰입	-4137
▁쓰레	-4138
▁코리아	-4139
카오	-4140
▁간섭	-4141
▁진학	-4142
▁총장	-4143
▁휴가	-4144
▁우리나라	-4145
▁붕	-4146
▁빚	-4147
▁태국	-4148
▁확립	-4149
▁제주도	-4150
▁프리미	-4151
▁PE	-4152
▁그간	-4153
▁매칭	-4154
▁적발	-4155
▁커뮤니티	-4156
▁넥	-4157
스타	-4158
▁매트	-4159
▁불만	-4160
▁수명	-4161
▁151	-4162
▁칭	-4163
▁중합	-4164
▁저소득	-4165
고기	-4166
▁결의	-4167
▁중개	-4168
▁학급	-4169
▁ICT	-4170
▁가까이	-4171
▁달라질	-4172
▁67	-4173
▁개략	-4174
▁상향	-4175
▁칸	-4176
▁결핵	-4177
▁매각	-4178
▁못할	-4179
▁돌아가	-4180
▁리스크	-4181
다면	-4182
▁든지	-4183
▁웨이	-4184
▁좌우	-4185
▁아시안	-4186
▁특별히	-4187
▁스타트업	-4188
거래	-4189
▁노후	-4190
▁행렬	-4191
▁국방부	-4192
스탄	-4193
▁가을	-4194
▁검진	-4195
▁공직	-4196
▁전담	-4197
▁증착	-4198
▁이어졌	-4199
um	-4200
▁챙	-4201
ent	-4202
▁면제	-4203
▁시군	-4204
▁510	-4205
▁대변인	-4206
▁균일	-4207
▁식물	-4208
▁99	-4209
▁CI	-4210
▁누리	-4211
▁앨범	-4212
▁협업	-4213
로드	-4214
▁가변	-4215
▁보충	-4216
▁유인	-4217
▁진실	-4218
PD	-4219
▁가맹	-4220
▁노사	-4221
▁심판	-4222
▁교환기	-4223
▁불가피	-4224
▁동향	-4225
▁마시	-4226
ap	-4227
▁소셜	-4228
▁가입자	-4229
▁쓰레기	-4230
▁르	-4231
버터	-4232
▁둔화	-4233
▁띄	-4234
▁CH	-4235
▁설득	-4236
▁수영	-4237
▁올랐	-4238
▁올바	-4239
▁용접	-4240
▁전파	-4241
▁클러	-4242
▁실력	-4243
▁어려울	-4244
▁효능감	-4245
▁갤	-4246
▁틴	-4247
레인	-4248
패시	-4249
▁교정	-4250
▁전해졌	-4251
▁커패시	-4252
▁욕구	-4253
▁학과	-4254
▁회견	-4255
▁건수	-4256
▁압수	-4257
▁고찰	-4258
▁기증	-4259
▁사립	-4260
▁증발	-4261
▁훌	-4262
나무	-4263
▁사료	-4264
▁윈도	-4265
▁장르	-4266
▁지상	-4267
▁스토리	-4268
▁양측	-4269
ad	-4270
▁컸	-4271
▁거짓	-4272
▁논쟁	-4273
▁보냈	-4274
▁사시	-4275
▁화물	-4276
▁난민	-4277
▁용역	-4278
▁파워	-4279
줍니다	-4280
▁돌연	-4281
▁비타민	-4282
▁무효	-4283
nd	-4284
▁거대	-4285
▁경상	-4286
▁양육	-4287
▁리더십	-4288
▁사망률	-4289
▁피고인	-4290
▁감성	-4291
▁그곳	-4292
▁잇따	-4293
▁주석	-4294
▁펌프	-4295
란드	-4296
▁과실	-4297
▁기원	-4298
▁추론	-4299
▁고리	-4300
▁낮추	-4301
▁슈퍼	-4302
▁이달	-4303
▁컨설팅	-4304
▁공중	-4305
▁기체	-4306
▁복구	-4307
▁소지	-4308
▁일종	-4309
▁국회의원	-4310
▁쏠	-4311
▁고급	-4312
▁느낄	-4313
▁보인	-4314
▁시위	-4315
▁입사	-4316
▁포럼	-4317
▁아무런	-4318
▁갱	-4319
▁CA	-4320
▁누가	-4321
▁독서	-4322
▁전시회	-4323
od	-4324
사고	-4325
▁벌이	-4326
▁시리	-4327
▁청원	-4328
▁갑자기	-4329
▁i	-4330
▁싫	-4331
릭스	-4332
▁심지	-4333
▁징계	-4334
▁하반기	-4335
다가	-4336
▁왜곡	-4337
▁비행기	-4338
▁동원	-4339
▁대략	-4340
▁화성	-4341
▁GDP	-4342
▁VR	-4343
▁광장	-4344
▁비만	-4345
▁엘리	-4346
▁투어	-4347
▁향하	-4348
▁ᆞ	-4349
▁상용	-4350
▁재판소	-4351
▁치료법	-4352
▁꼬	-4353
▁잠시	-4354
▁돼야	-4355
▁순차	-4356
▁초청	-4357
▁196	-4358
▁부회장	-4359
▁고장	-4360
▁드물	-4361
▁뮤지	-4362
▁HBV	-4363
▁민주주의	-4364
▁굳	-4365
▁누군	-4366
▁워드	-4367
▁태풍	-4368
▁스위칭	-4369
▁최소한	-4370
▁멋	-4371
▁국악	-4372
▁미군	-4373
▁여가	-4374
▁출범	-4375
루미	-4376
▁AR	-4377
▁습관	-4378
▁지질	-4379
▁초대	-4380
▁따뜻	-4381
▁첨단	-4382
▁흔들	-4383
▁제스처	-4384
단체	-4385
▁배려	-4386
▁차관	-4387
▁클래	-4388
▁문화재	-4389
▁명칭	-4390
▁이사장	-4391
▁프로토	-4392
ay	-4393
ot	-4394
▁겟	-4395
관절	-4396
▁ST	-4397
▁장벽	-4398
▁옮겨	-4399
▁신청서	-4400
▁응답자	-4401
▁호스트	-4402
us	-4403
▁속하	-4404
▁장기간	-4405
GF	-4406
▁놀라	-4407
▁뱅크	-4408
▁상반기	-4409
▁의약품	-4410
▁내렸	-4411
▁이어서	-4412
▁카카오	-4413
MS	-4414
▁급증	-4415
▁상실	-4416
▁전해질	-4417
▁IL	-4418
▁냐는	-4419
▁변량	-4420
▁아닐	-4421
▁응원	-4422
▁취임	-4423
▁이른바	-4424
▁줄일	-4425
▁LA	-4426
▁근접	-4427
▁마주	-4428
▁비리	-4429
▁이성	-4430
▁BBB	-4431
▁선진국	-4432
분석	-4433
스테	-4434
▁별표	-4435
▁복귀	-4436
▁새벽	-4437
▁징역	-4438
▁사무실	-4439
▁융자	-4440
▁다섯	-4441
▁담겨	-4442
▁특례	-4443
▁CN	-4444
▁ID	-4445
▁기후	-4446
▁생겨	-4447
▁성실	-4448
▁심한	-4449
▁중대	-4450
▁출장	-4451
▁했었	-4452
행위	-4453
▁나중	-4454
▁우측	-4455
▁제목	-4456
▁출전	-4457
▁포토	-4458
▁윈도우	-4459
▁인정받	-4460
▁버전	-4461
▁수비	-4462
▁라즈	-4463
▁음료	-4464
▁방전	-4465
▁풀이	-4466
▁필리	-4467
▁시내	-4468
▁테크	-4469
▁주차장	-4470
▁83	-4471
▁92	-4472
▁강점	-4473
▁굿	-4474
▁66	-4475
▁당부	-4476
▁경찰서	-4477
▁사시도	-4478
▁멈	-4479
▁팅	-4480
▁서구	-4481
▁원형	-4482
▁처방	-4483
▁초반	-4484
▁치열	-4485
▁협동	-4486
▁둘러싼	-4487
학자	-4488
▁리드	-4489
▁심혈	-4490
▁필자	-4491
▁심지어	-4492
▁클라우드	-4493
페이	-4494
▁기각	-4495
▁빈곤	-4496
▁생겼	-4497
▁서면	-4498
▁층간	-4499
▁사이버	-4500
▁크리스	-4501
다른	-4502
▁74	-4503
▁건립	-4504
▁수록	-4505
▁수십	-4506
▁직선	-4507
▁114	-4508
▁브라질	-4509
▁굉	-4510
▁과연	-4511
▁침체	-4512
▁팽창	-4513
▁학회	-4514
▁하여금	-4515
▁아쉬	-4516
▁엑스	-4517
▁워크	-4518
ec	-4519
▁식이	-4520
▁로직	-4521
▁면허	-4522
▁미흡	-4523
▁의의	-4524
OC	-4525
간다	-4526
▁84	-4527
▁표지	-4528
▁흐르	-4529
▁늘리	-4530
▁아세	-4531
▁급성	-4532
▁상처	-4533
▁연동	-4534
▁축하	-4535
▁기대감	-4536
▁기독	-4537
▁머물	-4538
▁작곡	-4539
▁크로	-4540
▁명확히	-4541
▁우울증	-4542
▁화장품	-4543
▁간사	-4544
▁구글	-4545
▁만남	-4546
▁성찰	-4547
▁실효	-4548
▁열전	-4549
▁지진	-4550
▁늘어난	-4551
▁각국	-4552
▁기호	-4553
▁도심	-4554
▁마약	-4555
▁산림	-4556
▁시급	-4557
▁탄생	-4558
▁1990	-4559
▁SE	-4560
▁극대	-4561
▁로그	-4562
▁만난	-4563
▁숙박	-4564
▁이송	-4565
▁거래소	-4566
▁제어기	-4567
▁마커	-4568
▁법제	-4569
▁세제	-4570
▁송수	-4571
▁성폭력	-4572
▁항공사	-4573
▁구상	-4574
▁박람	-4575
▁본사	-4576
▁소년	-4577
▁알루미	-4578
▁얇	-4579
▁MC	-4580
▁굉장	-4581
▁당장	-4582
▁미사	-4583
▁소형	-4584
▁약화	-4585
▁종전	-4586
▁진보	-4587
▁터키	-4588
▁트레이	-4589
러리	-4590
▁05	-4591
▁공진	-4592
▁분명히	-4593
▁좋아하	-4594
▁낳	-4595
▁댄	-4596
파이	-4597
▁독특	-4598
▁시뮬	-4599
▁일찍	-4600
▁캠프	-4601
▁누군가	-4602
SS	-4603
▁묵	-4604
▁132	-4605
▁간세포	-4606
▁냉장고	-4607
▁만날	-4608
▁방어	-4609
▁소설	-4610
▁샌	-4611
▁사원	-4612
▁세수	-4613
▁신중	-4614
▁장려	-4615
▁정전	-4616
▁가중치	-4617
▁케이블	-4618
어링	-4619
▁민사	-4620
▁위생	-4621
▁저감	-4622
▁후술	-4623
▁필리핀	-4624
▁뛰어	-4625
▁부실	-4626
▁알레	-4627
▁예전	-4628
▁추후	-4629
▁구멍	-4630
▁허위	-4631
대문	-4632
▁버리	-4633
▁업자	-4634
▁지내	-4635
▁지부	-4636
▁집계	-4637
▁커패시터	-4638
▁350	-4639
▁갈수록	-4640
▁부총리	-4641
▁줍니다	-4642
▁묶	-4643
▁덕분	-4644
▁소음	-4645
▁스펙	-4646
▁인문	-4647
▁합동	-4648
▁말레이	-4649
▁쥐	-4650
▁78	-4651
▁Si	-4652
▁모으	-4653
▁충실	-4654
▁학력	-4655
▁그만큼	-4656
▁병리학	-4657
▁o	-4658
동맥	-4659
▁카운	-4660
▁토크	-4661
▁104	-4662
▁123	-4663
▁초등학생	-4664
▁쾌	-4665
이즈	-4666
▁물량	-4667
▁선도	-4668
▁시공	-4669
▁증여	-4670
▁탑승	-4671
▁찾아가	-4672
▁에서부터	-4673
▁턴	-4674
▁자랑	-4675
▁관광지	-4676
▁정한다	-4677
▁당선	-4678
▁똑같	-4679
▁성부	-4680
▁시티	-4681
▁연예	-4682
▁플로	-4683
▁시설물	-4684
발성	-4685
세대	-4686
▁급속	-4687
▁대금	-4688
▁상수	-4689
▁위축	-4690
▁인체	-4691
▁진공	-4692
▁그리스	-4693
▁밝혀졌	-4694
▁대퇴	-4695
▁사용료	-4696
LT	-4697
▁칠	-4698
▁몽골	-4699
▁고의	-4700
▁단층	-4701
▁박사	-4702
▁수송	-4703
▁시나	-4704
▁어울	-4705
▁위안	-4706
▁자국	-4707
▁명세서	-4708
▁내성	-4709
▁미안	-4710
▁역대	-4711
▁파티	-4712
▁열린다	-4713
▁궁극	-4714
▁준수	-4715
▁115	-4716
▁다이오드	-4717
EA	-4718
ID	-4719
▁감상	-4720
▁보낸	-4721
▁상응	-4722
▁표기	-4723
▁표정	-4724
▁확충	-4725
▁후면	-4726
▁NAF	-4727
▁재미있	-4728
▁미쳤	-4729
▁와서	-4730
▁항소	-4731
▁산하	-4732
▁재개	-4733
▁둘러싸	-4734
FC	-4735
화점	-4736
▁76	-4737
▁IV	-4738
▁대폭	-4739
▁명백	-4740
▁외측	-4741
▁일대	-4742
▁일련	-4743
▁105	-4744
▁430	-4745
IC	-4746
▁롤	-4747
▁AS	-4748
▁가슴	-4749
▁국외	-4750
▁비정	-4751
▁수반	-4752
▁진전	-4753
▁박람회	-4754
▁일어난	-4755
▁쌀	-4756
▁마크	-4757
▁정량	-4758
▁키우	-4759
▁하늘	-4760
▁말레이시아	-4761
ECD	-4762
▁부각	-4763
▁폐렴	-4764
▁합격	-4765
DA	-4766
▁델	-4767
물질	-4768
▁공고	-4769
▁세월	-4770
▁활약	-4771
▁520	-4772
▁OECD	-4773
▁배기	-4774
▁법관	-4775
▁양쪽	-4776
▁자영	-4777
▁매출액	-4778
▁프로토콜	-4779
LC	-4780
르기	-4781
▁매입	-4782
▁일방	-4783
▁뛰어난	-4784
▁접근성	-4785
▁고교	-4786
▁수능	-4787
▁재배	-4788
▁β	-4789
▁숲	-4790
스티	-4791
▁찬성	-4792
▁휴식	-4793
▁지나치	-4794
▁화장실	-4795
ag	-4796
▁구리	-4797
▁군수	-4798
▁근대	-4799
▁김문	-4800
▁맞이	-4801
▁시상	-4802
▁즐거	-4803
▁BMI	-4804
▁폰	-4805
▁당초	-4806
▁대립	-4807
▁살인	-4808
▁주력	-4809
▁일으키	-4810
▁대량	-4811
▁올려	-4812
▁장식	-4813
▁진짜	-4814
▁폐경	-4815
▁113	-4816
▁남부	-4817
os	-4818
▁야당	-4819
▁집회	-4820
▁치환	-4821
▁강남구	-4822
▁두드러	-4823
▁시리즈	-4824
▁IR	-4825
▁거론	-4826
▁문건	-4827
▁교통부	-4828
다수	-4829
▁법리	-4830
▁상영	-4831
▁세력	-4832
▁유량	-4833
▁피크	-4834
▁141	-4835
▁등기	-4836
▁소아	-4837
▁굉장히	-4838
▁무상	-4839
MA	-4840
▁개막	-4841
▁조영	-4842
▁이수	-4843
▁접종	-4844
▁정렬	-4845
▁겹	-4846
▁선출	-4847
▁질소	-4848
▁영화제	-4849
▁자영업	-4850
▁재판부	-4851
▁공포	-4852
▁뿌리	-4853
▁세법	-4854
▁소위	-4855
▁편차	-4856
▁훌륭	-4857
▁103	-4858
▁125	-4859
▁그래픽	-4860
▁BL	-4861
▁범행	-4862
▁서부	-4863
▁한도	-4864
▁들어오	-4865
▁96	-4866
▁소외	-4867
▁용인	-4868
▁지도자	-4869
▁날짜	-4870
▁정황	-4871
▁동아리	-4872
▁바이어	-4873
▁고체	-4874
▁천안	-4875
▁관람객	-4876
▁드러내	-4877
em	-4878
라스	-4879
▁두려	-4880
▁아기	-4881
▁음극	-4882
▁청정	-4883
▁설문지	-4884
▁랜	-4885
▁SP	-4886
▁당일	-4887
▁조체	-4888
▁텔레	-4889
▁허리	-4890
▁당연히	-4891
▁드릴게요	-4892
▁NAFLD	-4893
▁다행	-4894
▁먼지	-4895
▁면세	-4896
▁발송	-4897
▁배달	-4898
▁일원	-4899
▁준용	-4900
▁플래	-4901
ul	-4902
변이	-4903
▁69	-4904
▁식각	-4905
▁익숙	-4906
▁추측	-4907
▁행정부	-4908
▁돌연변이	-4909
▁저지	-4910
▁평택	-4911
▁그래도	-4912
▁시나리오	-4913
▁더라	-4914
▁드론	-4915
▁여유	-4916
▁열정	-4917
▁지리	-4918
▁지주	-4919
▁태양광	-4920
▁웨	-4921
▁87	-4922
▁벌금	-4923
▁보강	-4924
▁수시	-4925
▁알루미늄	-4926
▁LT	-4927
▁성숙	-4928
▁심층	-4929
▁오랫	-4930
RA	-4931
▁상단	-4932
▁중지	-4933
▁패킷	-4934
▁포착	-4935
▁기독교	-4936
▁깔	-4937
▁닫	-4938
▁빗	-4939
그래	-4940
▁춘	-4941
▁77	-4942
▁파견	-4943
▁패스	-4944
▁유튜브	-4945
블리	-4946
피스	-4947
▁대칭	-4948
▁올렸	-4949
▁원소	-4950
▁유행	-4951
▁재고	-4952
▁천식	-4953
▁환불	-4954
▁떨어져	-4955
▁오랫동안	-4956
▁시뮬레이션	-4957
▁큐	-4958
▁서양	-4959
▁영리	-4960
▁입지	-4961
▁직전	-4962
▁통로	-4963
▁스케줄	-4964
▁가게	-4965
▁내장	-4966
▁붕괴	-4967
▁석유	-4968
▁여과	-4969
▁142	-4970
▁게다가	-4971
▁클러스터	-4972
▁하드웨어	-4973
▁상공	-4974
▁여의	-4975
▁증시	-4976
▁카테	-4977
▁해질	-4978
▁는데요	-4979
▁쳐	-4980
▁단장	-4981
▁코호	-4982
▁편광	-4983
▁194	-4984
▁간경변	-4985
▁매니	-4986
▁발사	-4987
▁병행	-4988
▁될까요	-4989
시오	-4990
▁관행	-4991
▁흔한	-4992
ation	-4993
▁받아들이	-4994
▁무형	-4995
▁배우자	-4996
▁살펴볼	-4997
▁–	-4998
항공	-4999
▁PT	-5000
▁박근	-5001
▁합금	-5002
▁가액	-5003
▁중증	-5004
▁흔히	-5005
▁대다수	-5006
▁압축기	-5007
▁SS	-5008
▁스티	-5009
▁투석	-5010
▁였으나	-5011
▁이탈리아	-5012
▁다녀	-5013
▁쉬운	-5014
▁알림	-5015
▁이스	-5016
▁한글	-5017
▁가르치	-5018
▁김성	-5019
▁독성	-5020
▁신생	-5021
▁이주	-5022
▁피의자	-5023
▁할머니	-5024
▁고기	-5025
▁달려	-5026
▁막대	-5027
▁소녀	-5028
▁연말	-5029
▁입시	-5030
▁천연	-5031
▁전도성	-5032
카드	-5033
▁DP	-5034
▁아트	-5035
▁위장	-5036
▁이틀	-5037
▁확신	-5038
▁회관	-5039
▁떨어진	-5040
▁코호트	-5041
▁경기도지사	-5042
▁상생	-5043
▁플렉	-5044
MP	-5045
센트	-5046
▁법규	-5047
▁커플	-5048
▁화려	-5049
▁경찰청	-5050
▁이루어져야	-5051
▁봐야	-5052
▁세종	-5053
▁염색	-5054
▁웃음	-5055
▁재해	-5056
▁펼치	-5057
▁김문수	-5058
▁랩	-5059
▁당했	-5060
▁예금	-5061
▁좌측	-5062
▁포스트	-5063
▁y	-5064
▁딩	-5065
▁실체	-5066
▁클럭	-5067
▁와이어	-5068
▁HD	-5069
▁SC	-5070
▁빈번	-5071
현실	-5072
▁SW	-5073
▁고온	-5074
▁둔다	-5075
▁라서	-5076
▁향한	-5077
▁내측	-5078
▁들여	-5079
▁묘사	-5080
▁재현	-5081
▁후방	-5082
▁프리미엄	-5083
RS	-5084
ur	-5085
탱크	-5086
▁노원	-5087
▁떠오	-5088
▁상임	-5089
▁하향	-5090
평가	-5091
▁Al	-5092
▁바꿔	-5093
▁올바른	-5094
▁일수록	-5095
리티	-5096
▁달하	-5097
▁마감	-5098
▁생략	-5099
▁시책	-5100
▁조약	-5101
▁키워드	-5102
▁파이프	-5103
▁98	-5104
▁돌파	-5105
▁양호	-5106
▁195	-5107
▁항공기	-5108
▁댓	-5109
▁돼지	-5110
▁변조	-5111
▁정류	-5112
▁충북	-5113
▁학대	-5114
▁호르	-5115
▁콩	-5116
바이	-5117
▁88	-5118
▁SD	-5119
▁기어	-5120
▁김정은	-5121
▁뜨거운	-5122
▁아이돌	-5123
▁자세히	-5124
▁01	-5125
▁전북	-5126
▁조언	-5127
▁흉부	-5128
▁211	-5129
▁610	-5130
단지	-5131
▁고시	-5132
▁수여	-5133
▁수축	-5134
▁압류	-5135
▁청사	-5136
▁최우	-5137
▁취재	-5138
▁흘러	-5139
▁레이어	-5140
▁노트	-5141
▁일환	-5142
▁입찰	-5143
▁체포	-5144
▁송수신	-5145
소년	-5146
▁HCV	-5147
생물	-5148
▁CV	-5149
▁PO	-5150
▁재활	-5151
▁출생	-5152
▁신뢰도	-5153
▁올라가	-5154
iv	-5155
▁93	-5156
▁SL	-5157
▁끊임	-5158
▁유산	-5159
▁점심	-5160
▁편지	-5161
▁현안	-5162
▁이점	-5163
▁정적	-5164
▁직면	-5165
▁260	-5166
코더	-5167
▁돌기	-5168
▁수동	-5169
▁오버	-5170
▁이건	-5171
라이언	-5172
▁미사일	-5173
▁EC	-5174
▁IS	-5175
▁과태	-5176
▁무릎	-5177
▁승객	-5178
▁아웃	-5179
▁어려웠	-5180
멘트	-5181
▁간편	-5182
▁강좌	-5183
▁루프	-5184
▁여당	-5185
▁인종	-5186
▁편안	-5187
▁고관절	-5188
▁대학원	-5189
▁살아가	-5190
▁알레르기	-5191
▁명의	-5192
▁불거	-5193
▁기관지	-5194
보드	-5195
트로	-5196
▁내재	-5197
▁동적	-5198
▁상자	-5199
▁신념	-5200
▁육아	-5201
▁팀장	-5202
▁경기장	-5203
▁과태료	-5204
un	-5205
▁맥주	-5206
▁분비	-5207
▁인류	-5208
▁박근혜	-5209
▁정해진	-5210
▁시퀀	-5211
▁추상	-5212
▁출부	-5213
▁임직원	-5214
▁발효	-5215
▁성남	-5216
▁소중	-5217
▁습득	-5218
▁원가	-5219
▁자면	-5220
▁포항	-5221
▁폼페이	-5222
▁79	-5223
▁선사	-5224
▁올린	-5225
▁저축	-5226
▁치유	-5227
▁!	-5228
▁가사	-5229
▁추석	-5230
▁는다면	-5231
▁정확도	-5232
▁대법원장	-5233
▁활물질	-5234
▁1980	-5235
▁2004	-5236
RT	-5237
▁되게	-5238
▁수량	-5239
▁흥원	-5240
▁뮤지컬	-5241
▁미친다	-5242
▁법무부	-5243
▁피험자	-5244
▁나눠	-5245
▁댓글	-5246
▁세라	-5247
▁수령	-5248
▁여도	-5249
▁백화점	-5250
▁멜	-5251
▁빙	-5252
▁선교	-5253
▁착수	-5254
▁생물학	-5255
▁딱	-5256
▁군요	-5257
▁입구	-5258
▁전사	-5259
▁출자	-5260
▁행태	-5261
▁호르몬	-5262
▁강연	-5263
▁약정	-5264
▁차트	-5265
▁형광	-5266
▁900	-5267
▁더욱이	-5268
▁동남	-5269
▁이끄	-5270
▁이래	-5271
▁항생	-5272
ure	-5273
▁강릉	-5274
▁데뷔	-5275
▁동네	-5276
▁산불	-5277
▁일례	-5278
▁트랙	-5279
▁파손	-5280
▁한인	-5281
▁LED	-5282
▁딜	-5283
▁PP	-5284
▁스튜	-5285
▁으시	-5286
▁임차	-5287
▁포상	-5288
▁경제학	-5289
▁달라지	-5290
▁사라지	-5291
▁과잉	-5292
▁독점	-5293
▁사로	-5294
▁운반	-5295
▁침투	-5296
▁티켓	-5297
▁현예	-5298
▁호기	-5299
▁450	-5300
▁휠	-5301
평균	-5302
▁in	-5303
▁공화	-5304
▁수질	-5305
▁아티	-5306
▁직관	-5307
▁PM	-5308
▁가깝	-5309
▁다룬	-5310
▁선량	-5311
▁혈증	-5312
▁환원	-5313
▁270	-5314
▁실험실	-5315
▁띠	-5316
▁맹	-5317
▁대단	-5318
▁친화	-5319
▁급격히	-5320
▁마우스	-5321
▁파트너	-5322
▁;	-5323
▁섹	-5324
런스	-5325
▁기조	-5326
▁대외	-5327
▁댄스	-5328
▁실용	-5329
▁양태	-5330
▁예의	-5331
▁받아들여	-5332
란히	-5333
포구	-5334
▁마저	-5335
▁세워	-5336
▁적자	-5337
▁테마	-5338
▁이해관계	-5339
리트	-5340
▁가방	-5341
▁규율	-5342
▁내역	-5343
▁돌려	-5344
▁반성	-5345
▁오직	-5346
▁우연	-5347
▁임무	-5348
▁호전	-5349
▁목적지	-5350
▁털	-5351
▁86	-5352
▁격자	-5353
▁높여	-5354
▁세우	-5355
▁특화	-5356
▁Pop	-5357
▁앓	-5358
▁잖	-5359
▁결코	-5360
▁지대	-5361
▁하단	-5362
▁아무리	-5363
▁관계없이	-5364
▁⋅	-5365
▁구단	-5366
▁무인	-5367
▁일차	-5368
▁체육관	-5369
▁그러므로	-5370
▁햅	-5371
▁UI	-5372
▁공정위	-5373
▁2002	-5374
▁dL	-5375
▁기저	-5376
▁세입	-5377
▁어깨	-5378
▁징후	-5379
▁선보이	-5380
▁이뤄졌	-5381
▁×	-5382
▁가산	-5383
▁에스	-5384
▁이념	-5385
▁III	-5386
▁프라이	-5387
비아	-5388
▁감수	-5389
▁떠올	-5390
▁예수	-5391
▁기상청	-5392
▁마스터	-5393
져야	-5394
▁소모	-5395
▁아미	-5396
▁의정	-5397
▁장단	-5398
▁재학	-5399
▁히터	-5400
▁미생물	-5401
▁항생제	-5402
▁능동	-5403
▁당한	-5404
▁문의	-5405
▁사령	-5406
▁전산	-5407
▁드러난	-5408
▁사로잡	-5409
▁상세히	-5410
▁골격	-5411
▁원료	-5412
▁이랑	-5413
▁증례	-5414
▁챔피	-5415
▁발전소	-5416
▁저항성	-5417
▁캠페인	-5418
▁토요일	-5419
IS	-5420
▁계절	-5421
▁또래	-5422
▁상인	-5423
▁소집	-5424
▁커넥	-5425
▁수용체	-5426
▁장애인	-5427
RC	-5428
▁금감	-5429
▁금연	-5430
▁매립	-5431
▁약관	-5432
▁Ch	-5433
▁시편	-5434
▁열차	-5435
▁접하	-5436
세스	-5437
흥민	-5438
▁대답	-5439
▁위성	-5440
▁장학	-5441
▁텐트	-5442
▁사업비	-5443
▁손흥민	-5444
▁순서도	-5445
놀이	-5446
▁당하	-5447
▁본고	-5448
▁유학	-5449
▁창원	-5450
▁커질	-5451
▁340	-5452
▁연결부	-5453
▁현대차	-5454
▁그라	-5455
▁도포	-5456
▁동부	-5457
▁최신	-5458
▁터미	-5459
▁광주시	-5460
▁들어갔	-5461
▁보험금	-5462
▁언제나	-5463
▁해진다	-5464
▁호흡기	-5465
화물	-5466
▁케어	-5467
▁햅틱	-5468
가치	-5469
▁내린	-5470
▁분말	-5471
▁우즈	-5472
▁혼합물	-5473
ut	-5474
▁돋	-5475
▁엠	-5476
덱스	-5477
성장	-5478
▁ES	-5479
▁영재	-5480
▁유력	-5481
▁임용	-5482
▁저해	-5483
▁제곱	-5484
▁증강	-5485
▁컴포	-5486
▁트위	-5487
▁함양	-5488
▁대리인	-5489
▁서울대	-5490
▁줄어든	-5491
▁스테로이드	-5492
▁댐	-5493
▁귀속	-5494
▁재량	-5495
▁즉각	-5496
▁결과물	-5497
▁의결권	-5498
PA	-5499
▁St	-5500
▁관장	-5501
▁기공	-5502
▁사우	-5503
▁유한	-5504
▁중립	-5505
▁106	-5506
▁터미널	-5507
▁금전	-5508
▁눈물	-5509
▁방학	-5510
▁속한	-5511
▁외환	-5512
▁우위	-5513
▁척추	-5514
▁투수	-5515
▁191	-5516
▁의료비	-5517
▁5000	-5518
ET	-5519
▁그램	-5520
▁지명	-5521
넌트	-5522
루션	-5523
▁89	-5524
▁결절	-5525
▁고소	-5526
▁국한	-5527
▁대선	-5528
▁대우	-5529
▁돼요	-5530
▁득점	-5531
▁만료	-5532
▁멀리	-5533
▁암시	-5534
▁약제	-5535
▁중도	-5536
▁관해서	-5537
던스	-5538
로구	-5539
▁간부	-5540
▁감동	-5541
▁결핍	-5542
▁부스	-5543
▁캘	-5544
▁PL	-5545
▁교재	-5546
▁벌써	-5547
▁흰	-5548
▁힐	-5549
▁매도	-5550
▁바르	-5551
▁별개	-5552
▁어르	-5553
▁입체	-5554
▁평행	-5555
▁호응	-5556
▁가맹점	-5557
▁금감원	-5558
▁여의도	-5559
▁오프라인	-5560
▁가이드라인	-5561
▁룸	-5562
▁썼	-5563
▁TB	-5564
▁에러	-5565
▁영구	-5566
▁입니까	-5567
▁공지	-5568
▁나쁜	-5569
▁사단	-5570
▁애플	-5571
▁절단	-5572
▁철회	-5573
▁타격	-5574
▁타자	-5575
▁한화	-5576
▁행하	-5577
▁교섭	-5578
▁느꼈	-5579
▁빠지	-5580
▁성명	-5581
▁소극	-5582
▁연휴	-5583
▁편향	-5584
▁레이트	-5585
로나	-5586
▁LC	-5587
▁블루	-5588
▁전역	-5589
▁들어서	-5590
▁짝	-5591
로운	-5592
▁심하	-5593
▁열람	-5594
▁측벽	-5595
▁편익	-5596
▁한식	-5597
▁경찰관	-5598
▁대퇴골	-5599
▁상당수	-5600
▁재정부	-5601
겨진	-5602
▁외래	-5603
▁지칭	-5604
▁패러	-5605
▁라운드	-5606
▁사교육	-5607
▁지원금	-5608
▁섞	-5609
▁고문	-5610
▁국소	-5611
▁학계	-5612
▁판소리	-5613
▁퓨	-5614
니어	-5615
▁OS	-5616
▁반려	-5617
▁용산	-5618
▁형평	-5619
▁계열사	-5620
▁시퀀스	-5621
▁산업단지	-5622
아웃	-5623
▁고조	-5624
▁레드	-5625
▁분사	-5626
▁탑재	-5627
▁사업체	-5628
▁타이밍	-5629
남도	-5630
▁가끔	-5631
▁가압	-5632
▁대수	-5633
▁발주	-5634
▁체류	-5635
▁360	-5636
▁2003	-5637
▁고등학생	-5638
▁부가가치	-5639
ip	-5640
▁엉	-5641
▁갱신	-5642
▁공약	-5643
▁내면	-5644
▁몰려	-5645
▁일실	-5646
▁될지	-5647
▁소관	-5648
▁송금	-5649
▁접지	-5650
▁중계	-5651
▁후자	-5652
▁변동성	-5653
▁정규직	-5654
▁파산	-5655
▁모델링	-5656
▁컴포넌트	-5657
▁김치	-5658
▁백신	-5659
▁실종	-5660
▁양수	-5661
▁용해	-5662
▁줄기	-5663
▁채워	-5664
▁FTA	-5665
▁치료제	-5666
▁특별시	-5667
▁pH	-5668
▁급식	-5669
▁나눔	-5670
▁복무	-5671
▁예능	-5672
▁인격	-5673
▁일지	-5674
▁정식	-5675
▁홀로	-5676
스티벌	-5677
▁일반인	-5678
▁페이서	-5679
▁페스티벌	-5680
▁거친	-5681
▁김동	-5682
▁세로	-5683
▁이승	-5684
▁책임자	-5685
▁립	-5686
▁94	-5687
▁고혈	-5688
▁국경	-5689
▁분수	-5690
▁연맹	-5691
▁오일	-5692
미나	-5693
▁내세	-5694
▁도금	-5695
▁병역	-5696
▁수백	-5697
▁기부금	-5698
▁하우스	-5699
og	-5700
▁냄	-5701
▁SU	-5702
▁계면	-5703
▁관내	-5704
▁용품	-5705
▁노동부	-5706
▁수신기	-5707
▁아니한다	-5708
▁아프리카	-5709
▁옳	-5710
▁요원	-5711
▁우편	-5712
▁탱크	-5713
▁플랜	-5714
▁스펙트	-5715
▁어르신	-5716
FA	-5717
▁뭔	-5718
규직	-5719
소드	-5720
▁복사	-5721
▁아빠	-5722
▁웨어	-5723
▁점포	-5724
▁기하학	-5725
▁됐으며	-5726
▁이산화	-5727
▁비정규직	-5728
oc	-5729
로지	-5730
▁생일	-5731
▁파동	-5732
▁쇼핑몰	-5733
▁액세스	-5734
ow	-5735
▁램	-5736
▁원심	-5737
▁중공	-5738
▁채취	-5739
▁항암	-5740
▁530	-5741
▁광역시	-5742
▁금요일	-5743
▁벌어지	-5744
트리	-5745
▁ET	-5746
▁가하	-5747
▁경구	-5748
▁고서	-5749
▁방탄	-5750
▁파크	-5751
▁해진	-5752
▁보호법	-5753
▁스펙트럼	-5754
DM	-5755
▁공존	-5756
▁그치	-5757
▁마친	-5758
▁시인	-5759
▁아마도	-5760
바로	-5761
ter	-5762
▁배관	-5763
▁청문	-5764
▁한층	-5765
▁가해자	-5766
▁마이크로	-5767
▁린	-5768
▁멸	-5769
▁97	-5770
▁무자	-5771
▁부패	-5772
▁승계	-5773
▁축산	-5774
▁칼슘	-5775
▁124	-5776
동구	-5777
▁CM	-5778
▁SA	-5779
▁US	-5780
▁모호	-5781
▁불순	-5782
▁상금	-5783
▁생리	-5784
▁135	-5785
▁152	-5786
▁적절히	-5787
▁그게	-5788
▁스웨	-5789
▁어셈	-5790
▁여권	-5791
▁유방	-5792
▁출근	-5793
▁계약서	-5794
▁발병률	-5795
▁십시오	-5796
▁반전	-5797
▁백악	-5798
▁보드	-5799
▁상한	-5800
▁상해	-5801
▁셔야	-5802
▁소변	-5803
▁정립	-5804
▁중성	-5805
▁농산물	-5806
▁다이어	-5807
▁어셈블리	-5808
▁앙	-5809
탄올	-5810
▁고향	-5811
▁되돌	-5812
▁분과	-5813
▁이기	-5814
▁전세	-5815
▁피아	-5816
▁편의점	-5817
▁2001	-5818
관리	-5819
▁AF	-5820
▁IM	-5821
▁레지	-5822
▁상가	-5823
▁혈전	-5824
▁인덱스	-5825
▁Co	-5826
▁OL	-5827
▁가전	-5828
▁결승	-5829
▁관상	-5830
▁더니	-5831
▁후기	-5832
▁133	-5833
▁거절	-5834
▁매주	-5835
▁분노	-5836
▁원전	-5837
▁이목	-5838
▁퇴원	-5839
▁포스	-5840
▁기다려	-5841
▁예술가	-5842
▁락	-5843
은이	-5844
회의	-5845
▁다공	-5846
▁대목	-5847
▁메틸	-5848
▁서민	-5849
▁시예	-5850
▁실린	-5851
▁애니	-5852
▁코치	-5853
▁CCTV	-5854
르트	-5855
운동	-5856
▁국면	-5857
▁마당	-5858
▁명절	-5859
▁엔터	-5860
▁소상	-5861
▁오차	-5862
▁유저	-5863
▁119	-5864
▁솔루션	-5865
▁회귀분석	-5866
▁도중	-5867
▁도쿄	-5868
▁법상	-5869
▁비치	-5870
▁열처리	-5871
▁현저히	-5872
▁닝	-5873
▁웰	-5874
▁객실	-5875
▁살해	-5876
▁줄여	-5877
▁표적	-5878
▁엄청난	-5879
▁노동조합	-5880
▁록	-5881
베이	-5882
▁Hb	-5883
▁감도	-5884
▁구직	-5885
▁깨끗	-5886
▁서초	-5887
▁출동	-5888
▁212	-5889
▁백악관	-5890
▁수학자	-5891
▁여학생	-5892
▁매트릭스	-5893
▁깜	-5894
바지	-5895
시간	-5896
▁AT	-5897
▁내외	-5898
▁일자	-5899
▁종결	-5900
▁중시	-5901
시다	-5902
증권	-5903
▁CK	-5904
▁난소	-5905
▁안착	-5906
▁항원	-5907
▁라이브	-5908
ine	-5909
▁수색	-5910
▁이질	-5911
▁잠금	-5912
▁정형	-5913
▁조용	-5914
휘발성	-5915
▁고양이	-5916
▁관절염	-5917
▁연합회	-5918
▁SV	-5919
▁둘레	-5920
▁벤딩	-5921
▁상정	-5922
▁앞둔	-5923
▁중력	-5924
메이션	-5925
▁들어간	-5926
▁동등	-5927
▁명단	-5928
▁문구	-5929
▁안녕	-5930
▁휴대폰	-5931
▁아티스트	-5932
▁MP	-5933
▁TF	-5934
▁세라믹	-5935
est	-5936
▁개체	-5937
▁공헌	-5938
▁국적	-5939
▁느낀	-5940
▁만일	-5941
▁오해	-5942
▁현직	-5943
▁일어날	-5944
▁활발히	-5945
▁쿼	-5946
▁보낼	-5947
▁사인	-5948
▁청약	-5949
▁활력	-5950
▁사운드	-5951
▁저소득층	-5952
권자	-5953
▁잖아	-5954
▁전위	-5955
▁음식점	-5956
▁자기장	-5957
▁틈	-5958
▁롤러	-5959
▁봉지	-5960
▁비아	-5961
▁교통사고	-5962
▁살펴본다	-5963
미경	-5964
퍼스	-5965
▁게재	-5966
▁명회	-5967
▁은퇴	-5968
▁회생	-5969
▁SO	-5970
▁모범	-5971
▁유니	-5972
▁응력	-5973
레스테	-5974
디션	-5975
▁Ig	-5976
▁방치	-5977
▁보좌	-5978
▁신발	-5979
▁재능	-5980
▁탐지	-5981
▁스웨덴	-5982
마스	-5983
▁구도	-5984
▁마찰	-5985
▁몸체	-5986
▁세분	-5987
▁신선	-5988
▁아날	-5989
▁유관	-5990
▁임피	-5991
▁파리	-5992
▁환영	-5993
▁콜레스테	-5994
▁KB	-5995
▁강서	-5996
▁거두	-5997
▁분권	-5998
▁분담	-5999
활성	-6000
▁DR	-6001
▁공조	-6002
▁투쟁	-6003
▁형벌	-6004
▁라이프	-6005
▁퍼센트	-6006
라이언트	-6007
▁아날로그	-6008
▁굽	-6009
▁동생	-6010
▁봉투	-6011
▁약한	-6012
▁추억	-6013
▁출구	-6014
▁나선다	-6015
▁사무소	-6016
▁군인	-6017
▁난방	-6018
▁세션	-6019
▁신입	-6020
▁해수	-6021
▁확실히	-6022
▁클라이언트	-6023
으면	-6024
▁LD	-6025
▁발령	-6026
▁비추	-6027
▁증언	-6028
▁피스	-6029
테이너	-6030
▁불순물	-6031
▁찾아보	-6032
파일	-6033
▁그럴	-6034
▁데이	-6035
▁모자	-6036
▁수혜	-6037
닙니다	-6038
▁소송법	-6039
▁커넥터	-6040
ep	-6041
▁격려	-6042
▁멘토	-6043
▁석탄	-6044
▁아우	-6045
▁평탄	-6046
▁행해	-6047
▁아니한	-6048
▁액티브	-6049
▁HP	-6050
▁규격	-6051
▁적당	-6052
▁주류	-6053
▁즐겁	-6054
▁표창	-6055
▁일어났	-6056
IA	-6057
IN	-6058
먼스	-6059
▁경보	-6060
▁원주	-6061
▁의제	-6062
▁차장	-6063
▁퍼포	-6064
▁하수	-6065
소년단	-6066
▁퍼포먼스	-6067
▁』	-6068
▁DB	-6069
▁그건	-6070
▁기아	-6071
▁분화	-6072
▁시가	-6073
▁피로	-6074
▁해체	-6075
▁620	-6076
▁이뤄질	-6077
▁임피던스	-6078
▁방탄소년단	-6079
▁‧	-6080
▁『	-6081
▁워싱	-6082
▁이혼	-6083
▁세미나	-6084
▁트렌치	-6085
▁화웨이	-6086
▁컷	-6087
▁개봉	-6088
▁금고	-6089
▁미팅	-6090
▁응축	-6091
▁인민	-6092
▁출현	-6093
▁토론회	-6094
▁IB	-6095
▁감축	-6096
▁고대	-6097
▁고무	-6098
▁구할	-6099
▁동해	-6100
▁복제	-6101
▁선적	-6102
▁실외	-6103
▁입출	-6104
▁중기	-6105
▁트위터	-6106
▁할게요	-6107
▁밟	-6108
▁굴절	-6109
▁만났	-6110
▁부를	-6111
▁중반	-6112
▁패치	-6113
▁허브	-6114
▁MRI	-6115
▁돌아오	-6116
▁패스트	-6117
▁시그	-6118
▁정화	-6119
▁파생	-6120
▁해명	-6121
▁히트	-6122
▁돌출부	-6123
▁인버터	-6124
▁콜레스테롤	-6125
HA	-6126
▁쇄	-6127
디아	-6128
힌다	-6129
▁뇌물	-6130
▁월요일	-6131
he	-6132
우러	-6133
▁al	-6134
▁모았	-6135
▁믿음	-6136
▁유선	-6137
▁지목	-6138
▁지인	-6139
▁추락	-6140
▁혈장	-6141
▁차세대	-6142
▁특별법	-6143
▁COPD	-6144
PG	-6145
▁SM	-6146
▁구강	-6147
▁도핑	-6148
▁모순	-6149
▁숨진	-6150
▁유래	-6151
▁이윤	-6152
▁모른다	-6153
▁시너지	-6154
▁트렌드	-6155
▁컨테이너	-6156
RD	-6157
▁톱	-6158
▁NC	-6159
▁빠진	-6160
▁안팎	-6161
▁액션	-6162
▁자립	-6163
▁193	-6164
▁일요일	-6165
SH	-6166
교통	-6167
▁가짜	-6168
▁강성	-6169
▁관악	-6170
▁색깔	-6171
▁세균	-6172
▁정성	-6173
▁청산	-6174
▁포털	-6175
▁매니저	-6176
▁외교부	-6177
▁워싱턴	-6178
징금	-6179
▁공소	-6180
▁관념	-6181
▁너희	-6182
▁마침	-6183
▁안심	-6184
▁자고	-6185
▁정교	-6186
▁체인	-6187
▁플러	-6188
▁고령화	-6189
▁연예인	-6190
▁나사	-6191
▁노즐	-6192
▁누락	-6193
▁복호	-6194
▁습도	-6195
▁앞선	-6196
▁주재	-6197
▁차등	-6198
▁침대	-6199
▁포르	-6200
▁횡령	-6201
▁CEO	-6202
▁떨어졌	-6203
▁덩	-6204
▁FA	-6205
▁경도	-6206
▁교역	-6207
▁모션	-6208
▁배포	-6209
▁응시	-6210
▁친절	-6211
▁혼인	-6212
▁방위	-6213
▁브리	-6214
▁송파	-6215
▁안산	-6216
▁외상	-6217
▁접목	-6218
▁그래핀	-6219
▁늘어날	-6220
▁단면도	-6221
ib	-6222
수색	-6223
▁TD	-6224
▁개척	-6225
▁무너	-6226
▁밀착	-6227
▁악기	-6228
▁재건	-6229
▁파급	-6230
▁휘발	-6231
▁어우러	-6232
산부	-6233
▁가벼	-6234
▁경위	-6235
▁미러	-6236
▁소매	-6237
▁아크	-6238
▁특유	-6239
▁221	-6240
▁HbA	-6241
▁차이점	-6242
▁걸릴	-6243
▁과일	-6244
▁담론	-6245
▁메르	-6246
▁새해	-6247
▁생애	-6248
▁아카	-6249
▁이명	-6250
▁하천	-6251
▁흔적	-6252
▁끊임없이	-6253
▁드라이버	-6254
▁아닙니다	-6255
천시	-6256
▁과다	-6257
▁병력	-6258
▁본래	-6259
▁전액	-6260
▁종사	-6261
▁준공	-6262
▁터널	-6263
▁행보	-6264
▁곧바로	-6265
▁문화원	-6266
▁물리학	-6267
▁사망자	-6268
oT	-6269
▁나눌	-6270
▁단가	-6271
▁무죄	-6272
▁뮤직	-6273
▁배수	-6274
▁정면	-6275
▁과학자	-6276
▁부산시	-6277
▁심의회	-6278
▁핸드폰	-6279
▁꽤	-6280
ity	-6281
▁결산	-6282
▁심해	-6283
▁야외	-6284
▁충청	-6285
▁810	-6286
▁예산안	-6287
ff	-6288
▁옹	-6289
뜨리	-6290
어지	-6291
▁생길	-6292
▁총선	-6293
▁호의	-6294
▁라디오	-6295
▁방문객	-6296
▁비대칭	-6297
▁잠재력	-6298
▁틱	-6299
▁IN	-6300
▁교대	-6301
▁노화	-6302
▁마취	-6303
▁심볼	-6304
▁애초	-6305
▁외과	-6306
▁이슬	-6307
▁체감	-6308
▁통행	-6309
▁파형	-6310
릅니다	-6311
▁라이트	-6312
노이	-6313
▁걸려	-6314
▁계단	-6315
▁매달	-6316
▁미분	-6317
▁사찰	-6318
▁산모	-6319
▁유망	-6320
▁진상	-6321
▁추이	-6322
▁디스크	-6323
▁한계점	-6324
▁현미경	-6325
▁압수수색	-6326
▁힌	-6327
▁LN	-6328
▁신축	-6329
▁쓰이	-6330
▁유익	-6331
▁일각	-6332
▁전투	-6333
▁스토리지	-6334
▁잦	-6335
원장	-6336
▁EL	-6337
▁건의	-6338
▁뇌졸	-6339
▁대여	-6340
▁대주	-6341
▁슬롯	-6342
▁승용	-6343
▁총액	-6344
▁플립	-6345
▁보호자	-6346
▁컨트롤	-6347
▁이어진다	-6348
▁커뮤니케이션	-6349
▁릴	-6350
▁셰	-6351
▁TA	-6352
▁걸음	-6353
▁냄새	-6354
▁수료	-6355
▁자라	-6356
▁투약	-6357
▁파업	-6358
▁해방	-6359
▁중국인	-6360
▁하이브	-6361
▁튀	-6362
버그	-6363
연합	-6364
▁In	-6365
▁들려	-6366
▁리뷰	-6367
▁빌려	-6368
▁연설	-6369
▁인건	-6370
▁잔류	-6371
▁적법	-6372
▁조회	-6373
▁태아	-6374
▁공연장	-6375
▁섬유증	-6376
▁스프링	-6377
▁긴밀	-6378
▁담관	-6379
▁돋보	-6380
▁조심	-6381
▁반응기	-6382
▁부적절	-6383
▁자격증	-6384
▁즐거움	-6385
▁증폭기	-6386
IP	-6387
▁끄	-6388
▁랭	-6389
메달	-6390
▁걸렸	-6391
▁고마	-6392
▁내원	-6393
▁병렬	-6394
▁야간	-6395
▁토큰	-6396
▁담당관	-6397
▁애니메이션	-6398
▁낯	-6399
▁떼	-6400
▁단서	-6401
▁대두	-6402
▁드문	-6403
▁반경	-6404
▁서해	-6405
▁세탁	-6406
▁스카	-6407
▁업소	-6408
▁이룬	-6409
▁텐데	-6410
▁판독	-6411
▁합류	-6412
▁440	-6413
▁710	-6414
▁인건비	-6415
▁재산세	-6416
▁젊은이	-6417
운전	-6418
▁CL	-6419
▁간략	-6420
▁거동	-6421
▁배운	-6422
▁시신	-6423
▁전수	-6424
▁택배	-6425
▁한가	-6426
▁헬스	-6427
라이트	-6428
에이터	-6429
▁뇌졸중	-6430
▁아이스	-6431
▁닿	-6432
▁대피	-6433
▁수산	-6434
▁시중	-6435
▁쏟아	-6436
▁어휘	-6437
▁태권	-6438
▁IoT	-6439
시설	-6440
으로	-6441
▁내포	-6442
▁넘치	-6443
▁때로	-6444
▁목숨	-6445
▁몰랐	-6446
▁방북	-6447
▁백만	-6448
▁살리	-6449
▁열악	-6450
▁해운	-6451
▁108	-6452
▁노원구	-6453
▁갭	-6454
워서	-6455
코인	-6456
혈증	-6457
▁CF	-6458
▁FC	-6459
▁FF	-6460
▁권위	-6461
▁냉동	-6462
▁밀집	-6463
▁선제	-6464
▁우드	-6465
▁입금	-6466
▁재직	-6467
▁편견	-6468
▁해안	-6469
▁동남아	-6470
▁베이징	-6471
▁아마존	-6472
소송	-6473
▁미소	-6474
▁손님	-6475
▁시원	-6476
▁입국	-6477
▁자석	-6478
▁정할	-6479
▁짜리	-6480
▁과징금	-6481
▁샘플링	-6482
▁으니까	-6483
▁일본인	-6484
▁플러그	-6485
ate	-6486
▁MO	-6487
▁거든	-6488
▁목격	-6489
▁미용	-6490
▁북측	-6491
▁수차	-6492
▁증식	-6493
▁형제	-6494
▁챔피언	-6495
▁환경부	-6496
▁엇	-6497
북도	-6498
어진	-6499
▁SB	-6500
▁갤럭	-6501
▁군집	-6502
▁김현	-6503
▁발간	-6504
▁열기	-6505
▁외식	-6506
▁운항	-6507
▁이정	-6508
▁최상	-6509
▁통장	-6510
냅니다	-6511
▁1970	-6512
▁붉	-6513
맨드	-6514
▁강경	-6515
▁노무	-6516
▁놓여	-6517
▁던지	-6518
▁마트	-6519
▁시킴	-6520
▁압도	-6521
▁갤럭시	-6522
▁폴리머	-6523
▁비트코인	-6524
▁하이브리드	-6525
av	-6526
트륨	-6527
하우	-6528
▁내내	-6529
▁내릴	-6530
▁동장	-6531
▁신라	-6532
구역	-6533
수증	-6534
ase	-6535
▁MS	-6536
▁김경	-6537
▁농구	-6538
▁머무	-6539
▁창고	-6540
▁총수	-6541
▁효용	-6542
키스탄	-6543
▁해상도	-6544
▁프로파일	-6545
다리	-6546
▁마켓	-6547
▁저널	-6548
▁포화	-6549
▁흔하	-6550
▁슬라이	-6551
th	-6552
▁핫	-6553
다임	-6554
수소	-6555
▁Zn	-6556
▁남한	-6557
▁든다	-6558
▁마디	-6559
▁사각	-6560
▁투기	-6561
▁모집단	-6562
▁이재명	-6563
▁캠퍼스	-6564
▁트랜스	-6565
▁패러다임	-6566
DS	-6567
▁떡	-6568
▁캔	-6569
▁거시	-6570
▁권역	-6571
▁나아	-6572
▁뷰티	-6573
▁생계	-6574
▁아예	-6575
▁조율	-6576
▁침입	-6577
▁면세점	-6578
ES	-6579
▁읍	-6580
▁거점	-6581
▁걸린	-6582
▁문턱	-6583
▁민속	-6584
▁빨간	-6585
▁수주	-6586
▁절실	-6587
▁홈런	-6588
▁검출기	-6589
▁사이드	-6590
▁자신감	-6591
▁커맨드	-6592
▁3000	-6593
▁서비스업	-6594
▁템	-6595
유산	-6596
진구	-6597
▁나설	-6598
▁숙소	-6599
▁중위	-6600
▁하중	-6601
▁단체장	-6602
▁선호도	-6603
▁하노이	-6604
▁1100	-6605
▁카테고리	-6606
▁쇠	-6607
▁튜	-6608
▁과반	-6609
▁광부	-6610
▁러블	-6611
▁상사	-6612
▁주된	-6613
▁편하	-6614
합니다	-6615
▁달라진다	-6616
▁BC	-6617
▁내수	-6618
▁로스	-6619
▁마그	-6620
▁모의	-6621
▁미니	-6622
▁신임	-6623
▁미술관	-6624
▁중학생	-6625
▁Cr	-6626
▁SI	-6627
▁리듬	-6628
▁비르	-6629
▁횡단	-6630
▁개구부	-6631
▁질수록	-6632
▁취득세	-6633
제품	-6634
▁걸림	-6635
▁걸어	-6636
▁불교	-6637
▁상표	-6638
▁수위	-6639
▁콜라	-6640
▁KBS	-6641
▁노하우	-6642
▁성폭행	-6643
▁적외선	-6644
▁조합원	-6645
▁증발기	-6646
▁그렇지만	-6647
▁겉	-6648
도로	-6649
출산	-6650
▁알파	-6651
▁위약	-6652
▁퍼지	-6653
▁144	-6654
▁웨이퍼	-6655
▁즐거운	-6656
▁NO	-6657
▁나눈	-6658
▁나뉘	-6659
▁나름	-6660
▁문법	-6661
▁외주	-6662
▁조처	-6663
▁폭넓	-6664
▁한쪽	-6665
▁떠오르	-6666
▁응급실	-6667
▁추출물	-6668
▁플랫폼	-6669
▁대중교통	-6670
ct	-6671
▁강요	-6672
▁끝내	-6673
▁매월	-6674
▁복강	-6675
▁실물	-6676
▁위함	-6677
▁철거	-6678
원회	-6679
이도	-6680
ell	-6681
▁경주	-6682
▁골반	-6683
▁녹음	-6684
▁담겼	-6685
▁대거	-6686
▁미미	-6687
▁방열	-6688
▁배임	-6689
▁슬라	-6690
▁적립	-6691
▁점진	-6692
▁정정	-6693
▁침습	-6694
▁네이버	-6695
▁봉사자	-6696
▁식별자	-6697
▁회원국	-6698
ce	-6699
무사	-6700
시스	-6701
▁LS	-6702
▁개통	-6703
▁단절	-6704
▁드렸	-6705
▁랜드	-6706
▁부양	-6707
▁소거	-6708
▁수거	-6709
▁신한	-6710
▁정산	-6711
▁판문	-6712
스토랑	-6713
▁192	-6714
▁대법관	-6715
▁클래스	-6716
▁레스토랑	-6717
▁상관없이	-6718
방향	-6719
회계	-6720
▁경유	-6721
▁농협	-6722
▁높였	-6723
▁동맹	-6724
▁어드	-6725
▁이게	-6726
▁절약	-6727
▁정관	-6728
▁진심	-6729
▁강서구	-6730
▁송신기	-6731
▁1997	-6732
▁둥	-6733
르티	-6734
코딩	-6735
테크	-6736
▁갑작	-6737
▁당분	-6738
▁병증	-6739
▁부근	-6740
▁으신	-6741
▁증인	-6742
▁잇따라	-6743
▁더블	-6744
▁부딪	-6745
▁예배	-6746
▁차폐	-6747
▁풍경	-6748
▁합산	-6749
▁720	-6750
▁기울이	-6751
▁진행할	-6752
▁평균값	-6753
낸다	-6754
범죄	-6755
▁견인	-6756
▁대인	-6757
▁인형	-6758
▁차선	-6759
▁카르	-6760
▁터빈	-6761
▁합창	-6762
▁후생	-6763
▁별다른	-6764
▁상승세	-6765
▁해결책	-6766
끄러	-6767
나마	-6768
다보	-6769
친다	-6770
▁MA	-6771
▁대개	-6772
▁외곽	-6773
▁인센	-6774
▁주자	-6775
▁국세청	-6776
▁췌장염	-6777
▁인센티브	-6778
▁꼼	-6779
▁개폐	-6780
▁기차	-6781
▁마비	-6782
▁벨트	-6783
▁선배	-6784
▁의자	-6785
▁쾌적	-6786
▁특검	-6787
▁환급	-6788
▁116	-6789
▁공직자	-6790
▁꺾	-6791
시장	-6792
▁GS	-6793
▁NS	-6794
▁로우	-6795
▁모은	-6796
▁무더	-6797
▁역설	-6798
▁영세	-6799
▁134	-6800
▁승용차	-6801
▁아닌지	-6802
▁여서는	-6803
▁가장자리	-6804
본다	-6805
▁TR	-6806
▁re	-6807
▁만기	-6808
▁반박	-6809
▁비자	-6810
▁서열	-6811
▁외관	-6812
▁치킨	-6813
리스트	-6814
퍼런스	-6815
▁남학생	-6816
▁너무나	-6817
▁정의당	-6818
▁남겨	-6819
▁농민	-6820
▁시야	-6821
▁쏠리	-6822
▁중동	-6823
▁체질	-6824
▁추산	-6825
▁퇴근	-6826
으니	-6827
ACE	-6828
▁PS	-6829
▁경관	-6830
▁몰리	-6831
▁물러	-6832
▁심근	-6833
▁치과	-6834
▁크레	-6835
▁부담금	-6836
▁찾아볼	-6837
▁봅	-6838
▁펴	-6839
▁휩	-6840
▁경매	-6841
▁공예	-6842
▁세정	-6843
▁161	-6844
▁브레이	-6845
▁영수증	-6846
▁젠	-6847
서블	-6848
▁Li	-6849
▁구미	-6850
▁권익	-6851
▁며칠	-6852
▁액정	-6853
▁이종	-6854
▁전적	-6855
▁청취	-6856
▁계획서	-6857
▁이슬람	-6858
▁스튜디오	-6859
▁프로그래	-6860
▁김종	-6861
▁납품	-6862
▁레일	-6863
▁붙여	-6864
▁스탠	-6865
▁신앙	-6866
▁싸움	-6867
▁외면	-6868
▁좌석	-6869
▁탈락	-6870
▁편입	-6871
▁다공성	-6872
▁복합체	-6873
IV	-6874
규모	-6875
온다	-6876
▁구호	-6877
▁노총	-6878
▁로마	-6879
▁음원	-6880
▁최악	-6881
▁출원	-6882
▁치명	-6883
▁클로	-6884
▁탭	-6885
다란	-6886
▁Ti	-6887
▁교예	-6888
▁다채	-6889
▁당직	-6890
▁대입	-6891
▁동전	-6892
▁드래	-6893
▁본원	-6894
▁암종	-6895
▁의거	-6896
▁인명	-6897
▁인장	-6898
▁집안	-6899
▁트래	-6900
▁폭로	-6901
입니다	-6902
▁301	-6903
▁스테이	-6904
▁시켜야	-6905
▁입출력	-6906
▁접착제	-6907
▁항소심	-6908
▁곰	-6909
▁거울	-6910
▁기름	-6911
▁도약	-6912
▁두산	-6913
▁모이	-6914
▁애착	-6915
▁양형	-6916
▁얼음	-6917
▁차시	-6918
▁차입	-6919
▁허락	-6920
▁궁금증	-6921
▁넘어서	-6922
오스	-6923
▁IF	-6924
▁st	-6925
▁격리	-6926
▁뒤집	-6927
▁선율	-6928
▁없애	-6929
▁전염	-6930
▁정제	-6931
▁하고	-6932
▁고위험	-6933
▁관리법	-6934
▁디코더	-6935
▁신생아	-6936
▁1200	-6937
▁1998	-6938
전지	-6939
함수	-6940
▁PV	-6941
▁각기	-6942
▁구부	-6943
▁미터	-6944
▁붙잡	-6945
▁신재	-6946
▁태그	-6947
▁가져다	-6948
▁가져오	-6949
▁스트림	-6950
DI	-6951
▁겔	-6952
▁낫	-6953
▁닭	-6954
업자	-6955
▁동화	-6956
▁매핑	-6957
▁배울	-6958
▁어른	-6959
▁전승	-6960
▁폐암	-6961
▁630	-6962
▁지난주	-6963
▁통신망	-6964
▁한가요	-6965
▁가습	-6966
▁변위	-6967
▁상시	-6968
▁정답	-6969
▁최창	-6970
▁판문점	-6971
▁가상현실	-6972
▁글자	-6973
▁기둥	-6974
▁에피	-6975
▁창립	-6976
▁관심사	-6977
▁승무원	-6978
▁프로필	-6979
▁경연	-6980
▁골수	-6981
▁버렸	-6982
▁스텐	-6983
▁역전	-6984
▁화해	-6985
▁기울기	-6986
▁생산량	-6987
▁협동조합	-6988
▁남양	-6989
▁무려	-6990
▁승부	-6991
▁시세	-6992
▁아베	-6993
▁고양시	-6994
▁당분간	-6995
▁임대료	-6996
▁어드레스	-6997
▁플렉서블	-6998
▁건너	-6999
▁골목	-7000
▁균열	-7001
▁김용	-7002
▁김포	-7003
▁발의	-7004
▁방과	-7005
▁법조	-7006
▁서기	-7007
▁점막	-7008
▁냉각수	-7009
▁아니면	-7010
▁철저히	-7011
져서	-7012
and	-7013
▁견제	-7014
▁고르	-7015
▁공업	-7016
▁교양	-7017
▁다각	-7018
▁레저	-7019
▁맞춘	-7020
▁발화	-7021
▁불공	-7022
▁스캐	-7023
▁신인	-7024
▁장난	-7025
▁줘야	-7026
▁지법	-7027
▁집권	-7028
▁취미	-7029
폴리오	-7030
▁경영진	-7031
▁취업자	-7032
▁포트폴리오	-7033
▁골다	-7034
▁글루	-7035
▁넷째	-7036
▁명문	-7037
▁프로브	-7038
▁믹	-7039
▁BP	-7040
▁노년	-7041
▁브렉	-7042
▁염두	-7043
▁우유	-7044
▁유공	-7045
▁유료	-7046
▁출제	-7047
▁환기	-7048
▁143	-7049
▁나트륨	-7050
▁두려움	-7051
▁중합체	-7052
▁주식회사	-7053
▁맑	-7054
▁빵	-7055
공증	-7056
조건	-7057
▁농어	-7058
▁면책	-7059
▁세척	-7060
▁소진	-7061
▁신화	-7062
▁열려	-7063
▁유족	-7064
▁전주	-7065
▁증기	-7066
▁진리	-7067
▁채우	-7068
▁and	-7069
▁공기업	-7070
▁노이즈	-7071
▁커다란	-7072
▁골다공증	-7073
ub	-7074
사업	-7075
▁TC	-7076
▁고안	-7077
▁명목	-7078
▁반해	-7079
▁법학	-7080
▁슬릿	-7081
▁원본	-7082
▁재벌	-7083
▁취할	-7084
▁가져올	-7085
▁거래법	-7086
▁기술원	-7087
▁보건소	-7088
▁삼각형	-7089
▁소규모	-7090
▁아미노	-7091
▁덴	-7092
이브	-7093
▁교장	-7094
▁끼리	-7095
▁농단	-7096
▁리모	-7097
▁발목	-7098
▁상측	-7099
▁샌드	-7100
▁양심	-7101
▁유물	-7102
▁잡음	-7103
▁즐겨	-7104
▁직렬	-7105
▁파주	-7106
▁비활성	-7107
▁서초구	-7108
▁뚫	-7109
▁샀	-7110
▁국고	-7111
▁그저	-7112
▁래치	-7113
▁랜덤	-7114
▁리라	-7115
▁벌였	-7116
▁스택	-7117
▁오토	-7118
▁거주자	-7119
▁게시판	-7120
▁기술력	-7121
▁대주주	-7122
▁불법행위	-7123
▁썬	-7124
소판	-7125
▁DL	-7126
▁가용	-7127
▁대륙	-7128
▁동참	-7129
▁면밀	-7130
▁박수	-7131
▁방영	-7132
▁변호	-7133
▁상무	-7134
▁수년	-7135
▁오리	-7136
▁자성	-7137
▁조문	-7138
▁체력	-7139
▁출마	-7140
▁드러냈	-7141
Hz	-7142
▁젖	-7143
카르	-7144
티스	-7145
▁마땅	-7146
▁매듭	-7147
▁반하	-7148
▁세목	-7149
▁연체	-7150
▁오가	-7151
▁커졌	-7152
▁하원	-7153
▁학위	-7154
▁혈소판	-7155
ox	-7156
▁갖춰	-7157
▁런던	-7158
▁변이	-7159
▁세그	-7160
▁여객	-7161
▁의상	-7162
▁중등	-7163
▁처치	-7164
▁페르	-7165
▁포지	-7166
▁401	-7167
▁참석자	-7168
▁유럽연합	-7169
▁몫	-7170
▁얽	-7171
르크	-7172
리즘	-7173
▁PR	-7174
▁가려	-7175
▁공무	-7176
▁굳이	-7177
▁근위	-7178
▁마사	-7179
▁비싸	-7180
▁스키	-7181
▁연행	-7182
▁온실	-7183
▁취해	-7184
▁MBC	-7185
▁계약자	-7186
▁오피스	-7187
▁일으킬	-7188
▁저출산	-7189
▁부위원장	-7190
▁꾼	-7191
금속	-7192
마크	-7193
비전	-7194
▁Cu	-7195
▁DS	-7196
▁PB	-7197
▁관청	-7198
▁남기	-7199
▁상반	-7200
▁악성	-7201
▁이거	-7202
▁전선	-7203
▁탄핵	-7204
▁피보	-7205
▁가까워	-7206
▁독립성	-7207
▁측정치	-7208
▁크리스마스	-7209
▁촌	-7210
▁BT	-7211
▁RC	-7212
▁고가	-7213
▁농장	-7214
▁아스	-7215
▁약자	-7216
▁중부	-7217
▁코너	-7218
▁클리	-7219
▁포용	-7220
▁222	-7221
▁외국어	-7222
▁전기차	-7223
▁맘	-7224
▁켜	-7225
▁강행	-7226
▁개개	-7227
▁동북	-7228
▁소환	-7229
▁수유	-7230
▁숙련	-7231
▁스핀	-7232
▁정점	-7233
▁펀딩	-7234
▁기업가	-7235
▁스위스	-7236
▁스케일	-7237
▁최창식	-7238
▁디자이너	-7239
▁료	-7240
▁ME	-7241
▁김태	-7242
▁낭비	-7243
▁도청	-7244
▁들이	-7245
▁멋진	-7246
▁명품	-7247
▁소급	-7248
▁탈출	-7249
▁한진	-7250
▁혐오	-7251
▁베스트	-7252
▁불공정	-7253
▁사법부	-7254
▁시상식	-7255
▁의료진	-7256
▁인코딩	-7257
▁회사법	-7258
▁킬	-7259
▁턱	-7260
주파	-7261
▁ml	-7262
▁경감	-7263
▁나갔	-7264
▁부신	-7265
▁상고	-7266
▁일회	-7267
▁전당	-7268
▁주한	-7269
▁들어갈	-7270
▁부드러	-7271
▁부지사	-7272
▁사용량	-7273
▁수시로	-7274
▁캐리어	-7275
▁필터링	-7276
▁합니까	-7277
MC	-7278
다니	-7279
박스	-7280
커스	-7281
▁AB	-7282
▁교반	-7283
▁귀국	-7284
▁그날	-7285
▁기질	-7286
▁숨지	-7287
▁중고	-7288
▁치러	-7289
▁워크숍	-7290
▁화학식	-7291
▁메트	-7292
▁잉크	-7293
▁자식	-7294
▁조형	-7295
▁캘리	-7296
▁이뤄진	-7297
▁포스코	-7298
닉스	-7299
로겐	-7300
매매	-7301
▁다름	-7302
▁머신	-7303
▁빠졌	-7304
▁예선	-7305
▁위로	-7306
▁이견	-7307
▁이집	-7308
▁일면	-7309
▁자사	-7310
▁충성	-7311
▁203	-7312
▁불안감	-7313
▁상속인	-7314
▁아쉬움	-7315
ia	-7316
틸렌	-7317
▁김진	-7318
▁도산	-7319
▁리브	-7320
▁시드	-7321
▁열풍	-7322
▁유죄	-7323
▁전구	-7324
▁코인	-7325
▁가벼운	-7326
▁명령어	-7327
▁으세요	-7328
▁이집트	-7329
평양	-7330
▁MT	-7331
▁고성	-7332
▁구획	-7333
▁몰라	-7334
▁무언	-7335
▁빌리	-7336
▁산학	-7337
▁솔직	-7338
▁여섯	-7339
▁옮기	-7340
▁자재	-7341
▁절개	-7342
▁정공	-7343
▁지장	-7344
▁직권	-7345
▁청주	-7346
▁합계	-7347
▁합쳐	-7348
▁해고	-7349
▁지켜보	-7350
▁앰	-7351
타인	-7352
▁Fe	-7353
▁누설	-7354
▁만화	-7355
▁말기	-7356
▁바뀐	-7357
▁우정	-7358
▁인산	-7359
▁청각	-7360
▁표명	-7361
▁피곤	-7362
▁강아지	-7363
▁성범죄	-7364
▁세그먼트	-7365
▁Figure	-7366
▁BA	-7367
▁공판	-7368
▁누르	-7369
▁담낭	-7370
▁식단	-7371
▁일산	-7372
▁헤더	-7373
▁개발자	-7374
▁늘어났	-7375
▁아름답	-7376
▁피아노	-7377
▁2022	-7378
▁퀴	-7379
킨다	-7380
▁PF	-7381
▁네덜	-7382
▁돌입	-7383
▁변제	-7384
▁익명	-7385
▁인디	-7386
▁차익	-7387
▁SBS	-7388
▁기증자	-7389
▁스트링	-7390
▁장학금	-7391
▁네덜란드	-7392
ob	-7393
▁팁	-7394
▁03	-7395
▁고백	-7396
▁김해	-7397
▁다발	-7398
▁미지	-7399
▁성사	-7400
▁손잡	-7401
▁양산	-7402
▁접어	-7403
▁중견	-7404
▁합법	-7405
▁아닌가	-7406
▁이사회	-7407
들이	-7408
▁고인	-7409
▁귀사	-7410
▁농림	-7411
▁로컬	-7412
▁멈추	-7413
▁세운	-7414
▁신세	-7415
▁애인	-7416
▁열릴	-7417
▁진영	-7418
▁한미	-7419
▁해설	-7420
▁145	-7421
▁231	-7422
▁232	-7423
▁고령자	-7424
▁증가세	-7425
▁플러스	-7426
▁경제성장	-7427
▁음주운전	-7428
LA	-7429
▁명소	-7430
▁비로	-7431
▁빨라	-7432
▁아나	-7433
▁에지	-7434
▁영원	-7435
▁전임	-7436
▁171	-7437
▁광진구	-7438
▁원자력	-7439
▁일부분	-7440
▁지원자	-7441
▁회전축	-7442
TO	-7443
래요	-7444
▁FI	-7445
▁내비	-7446
▁동성	-7447
▁발부	-7448
▁산책	-7449
▁어쩌	-7450
▁영등	-7451
▁와인	-7452
▁위대	-7453
▁집값	-7454
▁어울리	-7455
▁정치인	-7456
▁통계학	-7457
플레이션	-7458
마자	-7459
자치	-7460
▁성희	-7461
▁승진	-7462
▁엇갈	-7463
▁에칭	-7464
▁였음	-7465
▁참사	-7466
▁촉직	-7467
▁공급자	-7468
▁보증금	-7469
▁브리핑	-7470
▁이어진	-7471
▁통계청	-7472
▁레지스터	-7473
▁쏘	-7474
▁켓	-7475
메인	-7476
RNA	-7477
▁개관	-7478
▁고요	-7479
▁네티	-7480
▁느라	-7481
▁다층	-7482
▁바깥	-7483
▁상체	-7484
▁유대	-7485
▁인덕	-7486
▁출국	-7487
▁마세요	-7488
▁성희롱	-7489
이익	-7490
▁고개	-7491
▁고수	-7492
▁무산	-7493
▁뭔가	-7494
▁여수	-7495
▁용지	-7496
▁적색	-7497
▁지름	-7498
▁트럭	-7499
▁푸드	-7500
▁흥행	-7501
▁126	-7502
▁136	-7503
▁550	-7504
▁보험자	-7505
▁으려고	-7506
▁인문학	-7507
▁호기심	-7508
▁RS	-7509
▁각호	-7510
▁걸친	-7511
▁공표	-7512
▁늘려	-7513
▁소원	-7514
▁욕망	-7515
▁저번	-7516
▁추모	-7517
▁SVR	-7518
▁감독원	-7519
▁네티즌	-7520
▁시계열	-7521
▁신청자	-7522
▁핀테크	-7523
HO	-7524
▁눌	-7525
▁엿	-7526
▁찌	-7527
▁수납	-7528
▁안성	-7529
▁역동	-7530
▁착오	-7531
▁대사관	-7532
▁레지스	-7533
▁에어컨	-7534
▁미친다는	-7535
▁펩	-7536
사체	-7537
어버	-7538
▁EM	-7539
▁NH	-7540
▁TP	-7541
▁시달	-7542
▁천억	-7543
▁판별	-7544
▁107	-7545
▁과반수	-7546
▁뛰어나	-7547
▁이민자	-7548
▁종로구	-7549
▁릭	-7550
오프	-7551
처분	-7552
혈구	-7553
▁TE	-7554
▁et	-7555
▁대결	-7556
▁돼서	-7557
▁리스	-7558
▁말초	-7559
▁소감	-7560
▁외모	-7561
▁의류	-7562
▁진지	-7563
▁차질	-7564
▁도메인	-7565
▁베어링	-7566
▁수요자	-7567
▁에이전	-7568
▁유공자	-7569
▁자마자	-7570
▁작곡가	-7571
▁컨버터	-7572
▁포스터	-7573
▁떨어진다	-7574
▁톡	-7575
▁CJ	-7576
▁RO	-7577
▁경색	-7578
▁명명	-7579
▁명성	-7580
▁비싼	-7581
▁설사	-7582
▁양질	-7583
▁창문	-7584
▁001	-7585
▁280	-7586
▁실린더	-7587
▁줄어드	-7588
▁독립운동	-7589
▁몬	-7590
복지	-7591
▁HR	-7592
▁비닐	-7593
▁소폭	-7594
▁식민	-7595
▁운명	-7596
▁전라	-7597
▁타일	-7598
▁홀더	-7599
▁화살	-7600
▁153	-7601
▁가르쳐	-7602
▁신경망	-7603
▁중요도	-7604
시효	-7605
▁그걸	-7606
▁금강	-7607
▁바인	-7608
▁번지	-7609
▁소각	-7610
▁손쉽	-7611
▁워킹	-7612
▁자부	-7613
▁전직	-7614
▁져야	-7615
▁해군	-7616
▁림프절	-7617
▁무언가	-7618
▁의정부	-7619
▁부가가치세	-7620
ov	-7621
up	-7622
▁곁	-7623
▁닥	-7624
▁햇	-7625
말로	-7626
아티	-7627
▁02	-7628
▁간다	-7629
▁감광	-7630
▁감당	-7631
▁국비	-7632
▁로지	-7633
▁맞물	-7634
▁사외	-7635
▁앞장	-7636
▁양면	-7637
▁연봉	-7638
▁연임	-7639
▁원산	-7640
▁작전	-7641
▁재화	-7642
▁지형	-7643
▁짐작	-7644
▁타워	-7645
아버지	-7646
▁펠	-7647
덩이	-7648
▁EB	-7649
▁내게	-7650
▁단식	-7651
▁아쉽	-7652
▁야생	-7653
▁어두	-7654
▁진주	-7655
▁판시	-7656
▁한강	-7657
▁회기	-7658
▁드린다	-7659
▁수상자	-7660
▁청정기	-7661
▁스테이지	-7662
데미	-7663
일보	-7664
▁PU	-7665
▁강세	-7666
▁기쁨	-7667
▁남쪽	-7668
▁내분	-7669
▁농지	-7670
▁오페	-7671
▁우호	-7672
▁적시	-7673
▁DMZ	-7674
▁공감대	-7675
▁기업인	-7676
▁연평균	-7677
▁이스라	-7678
▁이어져	-7679
▁자외선	-7680
▁찰	-7681
매김	-7682
티나	-7683
ers	-7684
▁감싸	-7685
▁고압	-7686
▁괴사	-7687
▁그루	-7688
▁내륙	-7689
▁농축	-7690
▁부득	-7691
▁부사	-7692
▁시효	-7693
▁쓰러	-7694
▁어때	-7695
▁우회	-7696
▁제보	-7697
▁한복	-7698
▁해지	-7699
▁Met	-7700
▁드레스	-7701
▁상거래	-7702
▁전자기	-7703
▁그라운드	-7704
▁아카데미	-7705
▁자리매김	-7706
▁텔레비전	-7707
▁령	-7708
▁룰	-7709
▁윌	-7710
부민	-7711
천구	-7712
▁AN	-7713
▁CG	-7714
▁공론	-7715
▁남긴	-7716
▁단단	-7717
▁리포	-7718
▁분열	-7719
▁빌딩	-7720
▁수습	-7721
▁신원	-7722
▁에폭	-7723
▁적분	-7724
▁직종	-7725
▁타운	-7726
▁항만	-7727
▁혈중	-7728
바이트	-7729
▁min	-7730
▁갑작스	-7731
▁인지도	-7732
▁자카르	-7733
▁할까요	-7734
▁이뤄지지	-7735
▁이스라엘	-7736
▁Ni	-7737
▁TN	-7738
▁공명	-7739
▁기피	-7740
▁동양	-7741
▁드려	-7742
▁분만	-7743
▁심도	-7744
▁연쇄	-7745
▁일까	-7746
▁조별	-7747
▁조현	-7748
▁키트	-7749
▁회동	-7750
▁흥국	-7751
▁540	-7752
▁안타까	-7753
▁유전체	-7754
▁자카르타	-7755
▁가볍	-7756
▁계통	-7757
▁공산	-7758
▁김재	-7759
▁끈다	-7760
▁맞서	-7761
▁배움	-7762
▁소문	-7763
▁시차	-7764
▁위계	-7765
▁유예	-7766
▁정통	-7767
▁준거	-7768
▁착공	-7769
▁토양	-7770
레이터	-7771
▁311	-7772
▁그나마	-7773
▁벌어졌	-7774
▁알부민	-7775
▁OLED	-7776
OD	-7777
▁AM	-7778
▁과소	-7779
▁급등	-7780
▁라벨	-7781
▁부수	-7782
▁불명	-7783
▁이영	-7784
▁첫날	-7785
▁거짓말	-7786
▁성장세	-7787
▁창업자	-7788
▁1995	-7789
▁문화유산	-7790
▁브레이크	-7791
유예	-7792
▁GP	-7793
▁구름	-7794
▁성추	-7795
▁식도	-7796
▁암모	-7797
▁인연	-7798
▁강점기	-7799
▁공통점	-7800
▁에폭시	-7801
▁클수록	-7802
▁판매량	-7803
▁국무총리	-7804
▁#	-7805
▁닮	-7806
▁봇	-7807
▁GT	-7808
▁HF	-7809
▁꿈꾸	-7810
▁담임	-7811
▁당사	-7812
▁돌리	-7813
▁모인	-7814
▁사내	-7815
▁어쩔	-7816
▁이룰	-7817
▁제언	-7818
▁종업	-7819
▁주고	-7820
▁코트	-7821
▁품종	-7822
▁피할	-7823
▁항의	-7824
▁다가오	-7825
▁수차례	-7826
▁지도부	-7827
ak	-7828
▁웅	-7829
너스	-7830
동생	-7831
▁고형	-7832
▁꼼꼼	-7833
▁미성	-7834
▁부종	-7835
▁북쪽	-7836
▁선두	-7837
▁수식	-7838
▁응집	-7839
▁일선	-7840
▁잔여	-7841
▁주권	-7842
▁철수	-7843
▁청색	-7844
▁162	-7845
▁갤러리	-7846
▁고주파	-7847
▁관악구	-7848
▁놀라운	-7849
▁단기간	-7850
▁범죄자	-7851
▁성추행	-7852
▁이명박	-7853
▁임산부	-7854
▁플래시	-7855
▁쉴	-7856
▁엽	-7857
스턴	-7858
편차	-7859
▁넘겨	-7860
▁리조	-7861
▁반송	-7862
▁배웠	-7863
▁부천	-7864
▁사형	-7865
▁소액	-7866
▁여비	-7867
▁원통	-7868
▁할까	-7869
▁획기	-7870
적으로	-7871
▁보좌관	-7872
▁신청인	-7873
▁종업원	-7874
▁인플레이션	-7875
▁땀	-7876
▁뭉	-7877
▁짙	-7878
쓰기	-7879
ore	-7880
▁경미	-7881
▁그랬	-7882
▁김민	-7883
▁김상	-7884
▁보복	-7885
▁스팀	-7886
▁제자	-7887
▁조종	-7888
▁지요	-7889
▁탁월	-7890
▁힘입	-7891
집니다	-7892
▁155	-7893
▁기울여	-7894
▁아무것	-7895
▁우즈베	-7896
▁유방암	-7897
▁표준편차	-7898
▁z	-7899
해서	-7900
ang	-7901
▁강구	-7902
▁도래	-7903
▁바늘	-7904
▁부활	-7905
▁사퇴	-7906
▁세웠	-7907
▁열화	-7908
▁응고	-7909
▁자존	-7910
▁자칫	-7911
▁증세	-7912
▁창구	-7913
▁태극	-7914
▁폐수	-7915
▁CKD	-7916
▁넘어가	-7917
▁제조사	-7918
▁테이프	-7919
▁피사체	-7920
▁다이어트	-7921
▁블레이드	-7922
if	-7923
천히	-7924
▁고립	-7925
▁녹화	-7926
▁미얀	-7927
▁부자	-7928
▁분당	-7929
▁치아	-7930
▁필라	-7931
▁하측	-7932
미디어	-7933
▁128	-7934
▁긴장감	-7935
▁장애물	-7936
▁천천히	-7937
▁보입니다	-7938
▁SG	-7939
▁공백	-7940
▁관료	-7941
▁구인	-7942
▁궤도	-7943
▁돌보	-7944
▁성경	-7945
▁자이	-7946
▁장사	-7947
▁전무	-7948
▁접할	-7949
▁지났	-7950
▁처한	-7951
▁한때	-7952
▁한하	-7953
▁헬기	-7954
▁pop	-7955
▁끌어올	-7956
▁비서관	-7957
▁하이드	-7958
▁여겨진다	-7959
막염	-7960
시험	-7961
▁계시	-7962
▁굴곡	-7963
▁극히	-7964
▁급부	-7965
▁송부	-7966
▁안양	-7967
▁이완	-7968
▁전단	-7969
▁책정	-7970
▁총체	-7971
▁캡슐	-7972
테리아	-7973
트로피	-7974
▁먹거리	-7975
▁부득이	-7976
▁비로소	-7977
▁엔트로피	-7978
▁간과	-7979
▁경부	-7980
▁경정	-7981
▁국채	-7982
▁김학	-7983
▁바꿀	-7984
▁생식	-7985
▁인출	-7986
▁정작	-7987
▁키로	-7988
▁미국인	-7989
▁방법론	-7990
▁이바지	-7991
노드	-7992
▁겨냥	-7993
▁계량	-7994
▁김수	-7995
▁서서	-7996
▁용부	-7997
▁워터	-7998
▁제휴	-7999
▁존경	-8000
▁침전	-8001
▁평창	-8002
▁포맷	-8003
▁ICO	-8004
▁난이도	-8005
▁무조건	-8006
Ag	-8007
▁넌	-8008
블릿	-8009
▁CB	-8010
▁MD	-8011
▁교직	-8012
▁리터	-8013
▁모방	-8014
▁변신	-8015
▁음반	-8016
▁주름	-8017
▁크리	-8018
▁토록	-8019
▁다문화	-8020
▁브레인	-8021
▁에탄올	-8022
▁회의실	-8023
▁Le	-8024
▁UA	-8025
▁WL	-8026
▁다량	-8027
▁동행	-8028
▁사면	-8029
▁수천	-8030
▁실망	-8031
▁취량	-8032
▁회절	-8033
▁POP	-8034
▁송파구	-8035
▁1960	-8036
TT	-8037
pm	-8038
국적	-8039
란트	-8040
턴스	-8041
▁GA	-8042
▁놓치	-8043
▁대항	-8044
▁미토	-8045
▁보훈	-8046
▁복소	-8047
▁비주	-8048
▁아랍	-8049
▁여파	-8050
▁연성	-8051
▁유적	-8052
▁일간	-8053
▁접대	-8054
▁선보였	-8055
▁으려는	-8056
▁주고받	-8057
▁청문회	-8058
▁태블릿	-8059
▁딥	-8060
▁쉼	-8061
화문	-8062
▁곡면	-8063
▁병합	-8064
▁소라	-8065
▁심부	-8066
▁원단	-8067
▁자진	-8068
▁제동	-8069
▁책무	-8070
▁협박	-8071
▁간단히	-8072
▁부서장	-8073
▁생산자	-8074
▁저작물	-8075
▁중공업	-8076
▁주어진다	-8077
US	-8078
일으	-8079
조사	-8080
▁밀봉	-8081
▁펼쳤	-8082
▁SPS	-8083
▁내려가	-8084
▁마포구	-8085
▁신고자	-8086
▁오페라	-8087
▁유의성	-8088
▁불러일으	-8089
▁프로세싱	-8090
▁HM	-8091
▁가축	-8092
▁깨달	-8093
▁매치	-8094
▁비장	-8095
▁서사	-8096
▁유포	-8097
▁은지	-8098
▁존엄	-8099
▁탄화	-8100
▁황금	-8101
▁다행히	-8102
▁TACE	-8103
▁온실가스	-8104
ri	-8105
▁벅	-8106
아내	-8107
▁격벽	-8108
▁고스	-8109
▁교란	-8110
▁구나	-8111
▁군대	-8112
▁나쁘	-8113
▁안방	-8114
▁연인	-8115
▁해법	-8116
▁환승	-8117
▁213	-8118
▁312	-8119
▁동대문	-8120
▁사이토	-8121
▁중국어	-8122
▁카운트	-8123
센터	-8124
▁계엄	-8125
▁꼽히	-8126
▁뒤늦	-8127
▁떠난	-8128
▁전계	-8129
▁조류	-8130
▁표출	-8131
▁프랜	-8132
▁거든요	-8133
▁대해선	-8134
▁바인더	-8135
▁보일러	-8136
▁은데요	-8137
▁파운드	-8138
▁카카오톡	-8139
▁쿨	-8140
토피	-8141
GFR	-8142
▁AV	-8143
▁GL	-8144
▁기전	-8145
▁도박	-8146
▁레버	-8147
▁바퀴	-8148
▁박탈	-8149
▁수련	-8150
▁원유	-8151
▁전향	-8152
▁조향	-8153
▁진폭	-8154
▁해킹	-8155
▁호출	-8156
드리아	-8157
▁돌아왔	-8158
▁보여준	-8159
▁오랜만	-8160
▁위해선	-8161
▁지나가	-8162
▁하락세	-8163
▁아르바이트	-8164
어리	-8165
▁GM	-8166
▁결손	-8167
▁담도	-8168
▁송풍	-8169
▁순응	-8170
▁시진	-8171
▁유추	-8172
▁학점	-8173
▁리조트	-8174
▁비해서	-8175
▁성매매	-8176
▁시그널	-8177
▁오프셋	-8178
▁다운로드	-8179
▁중앙은행	-8180
▁렀	-8181
공항	-8182
버시	-8183
▁다큐	-8184
▁비유	-8185
▁신기	-8186
▁양승	-8187
▁에겐	-8188
▁연준	-8189
▁외무	-8190
▁우세	-8191
▁장악	-8192
▁챙겨	-8193
▁합치	-8194
▁호수	-8195
▁CHB	-8196
▁네이트	-8197
▁수요일	-8198
▁이른다	-8199
▁슬라이딩	-8200
▁우즈베키스탄	-8201
▁짚	-8202
▁SR	-8203
▁공립	-8204
▁괴롭	-8205
▁김병	-8206
▁다룰	-8207
▁로맨	-8208
▁몰드	-8209
▁상충	-8210
▁상피	-8211
▁생생	-8212
▁연일	-8213
▁일괄	-8214
▁제로	-8215
▁820	-8216
▁다국적	-8217
▁캐소드	-8218
변수	-8219
토리	-8220
▁극심	-8221
▁램프	-8222
▁모둠	-8223
▁시일	-8224
▁실명	-8225
▁장래	-8226
▁커서	-8227
▁하도	-8228
▁시멘트	-8229
▁의존도	-8230
▁코르티	-8231
▁크로스	-8232
▁1999	-8233
지대	-8234
카인	-8235
▁OP	-8236
▁구형	-8237
▁그쳤	-8238
▁급수	-8239
▁달랐	-8240
▁동결	-8241
▁베네	-8242
▁손목	-8243
▁영위	-8244
▁증류	-8245
▁철강	-8246
▁침수	-8247
▁카자	-8248
▁크루	-8249
▁가치관	-8250
▁강동구	-8251
▁시진핑	-8252
▁앵	-8253
▁쫓	-8254
▁햄	-8255
레오	-8256
서리	-8257
▁가령	-8258
▁꺼내	-8259
▁동종	-8260
▁싱크	-8261
▁이를	-8262
▁적격	-8263
▁차분	-8264
▁탈퇴	-8265
▁통역	-8266
▁헌신	-8267
▁고혈압	-8268
▁금메달	-8269
▁소방서	-8270
▁자치구	-8271
▁카자흐	-8272
▁프로그래밍	-8273
ER	-8274
ra	-8275
▁벼	-8276
란색	-8277
▁과감	-8278
▁박정	-8279
▁법익	-8280
▁선전	-8281
▁차기	-8282
▁파열	-8283
▁학설	-8284
일랜드	-8285
▁175	-8286
▁글쓰기	-8287
▁아이폰	-8288
▁박테리아	-8289
▁탕	-8290
▁끼치	-8291
▁낙태	-8292
▁낭종	-8293
▁데려	-8294
▁라디	-8295
▁리바	-8296
▁리얼	-8297
▁민선	-8298
▁상원	-8299
▁아까	-8300
▁잡지	-8301
헨티나	-8302
▁910	-8303
▁시장법	-8304
▁인천시	-8305
▁임차인	-8306
▁클래식	-8307
▁키보드	-8308
▁현행법	-8309
▁아르헨티나	-8310
ss	-8311
ect	-8312
▁ML	-8313
▁고생	-8314
▁싱글	-8315
▁장례	-8316
▁치르	-8317
▁침범	-8318
▁토트	-8319
▁평형	-8320
▁흉기	-8321
▁가져왔	-8322
▁꼽힌다	-8323
▁사우디	-8324
▁샤프트	-8325
▁서서히	-8326
▁애노드	-8327
▁연구회	-8328
▁카운터	-8329
▁타임스	-8330
yp	-8331
투스	-8332
man	-8333
▁검체	-8334
▁결성	-8335
▁근원	-8336
▁깜짝	-8337
▁마드	-8338
▁민생	-8339
▁산란	-8340
▁상점	-8341
▁수험	-8342
▁액상	-8343
▁정합	-8344
▁치수	-8345
▁풀리	-8346
포니아	-8347
▁나란히	-8348
▁떨어질	-8349
▁사라졌	-8350
▁신용카드	-8351
▁캘리포니아	-8352
▁q	-8353
▁곽	-8354
▁공영	-8355
▁구두	-8356
▁볼륨	-8357
▁송치	-8358
▁여사	-8359
▁일수	-8360
▁잔액	-8361
▁통찰	-8362
▁평범	-8363
▁회신	-8364
▁가져야	-8365
▁설득력	-8366
▁운송인	-8367
▁케이크	-8368
KI	-8369
발전	-8370
워하	-8371
▁가교	-8372
▁공방	-8373
▁균등	-8374
▁도우	-8375
▁드루	-8376
▁드림	-8377
▁리셋	-8378
▁소홀	-8379
▁완충	-8380
▁자매	-8381
▁진통	-8382
▁집적	-8383
▁채소	-8384
▁고위급	-8385
▁부른다	-8386
▁화이트	-8387
▁*	-8388
▁씻	-8389
▁of	-8390
▁글리	-8391
▁기생	-8392
▁단락	-8393
▁발진	-8394
▁빅뱅	-8395
▁안쪽	-8396
▁어음	-8397
▁존속	-8398
▁촉발	-8399
▁204	-8400
▁302	-8401
▁RNA	-8402
▁들어와	-8403
▁장시간	-8404
▁정보원	-8405
▁최적화	-8406
▁1994	-8407
▁건데	-8408
▁공매	-8409
▁구급	-8410
▁금품	-8411
▁내막	-8412
▁누출	-8413
▁동구	-8414
▁메탄	-8415
▁안다	-8416
▁이걸	-8417
▁취향	-8418
▁타원	-8419
▁탄탄	-8420
▁트레	-8421
▁한창	-8422
▁환상	-8423
▁노무현	-8424
▁고스란히	-8425
IT	-8426
▁MB	-8427
▁공군	-8428
▁관습	-8429
▁근절	-8430
▁내구	-8431
▁다툼	-8432
▁무단	-8433
▁버려	-8434
▁사연	-8435
▁솔로	-8436
▁연루	-8437
▁위조	-8438
▁인테	-8439
▁일가	-8440
▁충당	-8441
▁특강	-8442
▁환호	-8443
▁가져가	-8444
▁개개인	-8445
▁심리학	-8446
▁오디션	-8447
▁타이틀	-8448
▁태평양	-8449
▁토트넘	-8450
▁대한항공	-8451
▁연료전지	-8452
nt	-8453
▁릿	-8454
▁붓	-8455
본부	-8456
총장	-8457
▁날개	-8458
▁동질	-8459
▁부유	-8460
▁분량	-8461
▁붙이	-8462
▁상온	-8463
▁스파	-8464
▁신약	-8465
▁지혜	-8466
▁칭찬	-8467
▁구성도	-8468
▁모회사	-8469
▁스트리	-8470
▁준다고	-8471
▁타이어	-8472
▁바이어스	-8473
▁피보험자	-8474
▁맙	-8475
계약	-8476
고사	-8477
번에	-8478
▁개질	-8479
▁거세	-8480
▁경협	-8481
▁모노	-8482
▁목포	-8483
▁밀려	-8484
▁반입	-8485
▁싸이	-8486
▁완공	-8487
▁클릭	-8488
▁휘도	-8489
▁321	-8490
▁전문의	-8491
▁증권사	-8492
▁최우선	-8493
ax	-8494
▁텀	-8495
마토	-8496
▁공용	-8497
▁망막	-8498
▁미루	-8499
▁벌인	-8500
▁아픈	-8501
▁이례	-8502
▁이원	-8503
▁이진	-8504
▁주방	-8505
▁지검	-8506
▁취한	-8507
▁캐시	-8508
▁페니	-8509
▁해산	-8510
▁후회	-8511
스트라	-8512
테이션	-8513
▁117	-8514
▁NFC	-8515
▁노트북	-8516
▁메르스	-8517
▁프린터	-8518
▁보건복지	-8519
▁시킨다는	-8520
▁자본주의	-8521
▁슛	-8522
아리	-8523
칼리	-8524
▁PH	-8525
▁고맙	-8526
▁동조	-8527
▁목회	-8528
▁무력	-8529
▁브로	-8530
▁색전	-8531
▁스코	-8532
▁어긋	-8533
▁인턴	-8534
▁줘서	-8535
▁캐스	-8536
▁쿠폰	-8537
▁행진	-8538
▁730	-8539
▁골프장	-8540
▁농어촌	-8541
▁로이터	-8542
▁메이저	-8543
▁원산지	-8544
▁준다는	-8545
▁코로나	-8546
▁행사장	-8547
▁1010	-8548
하여	-8549
all	-8550
art	-8551
son	-8552
▁Na	-8553
▁가난	-8554
▁광자	-8555
▁김지	-8556
▁납입	-8557
▁대대	-8558
▁무척	-8559
▁민관	-8560
▁발매	-8561
▁밸리	-8562
▁상권	-8563
▁수목	-8564
▁악보	-8565
▁원위	-8566
▁이직	-8567
▁저기	-8568
▁조만	-8569
▁초안	-8570
▁탄산	-8571
▁통치	-8572
▁호스	-8573
▁환수	-8574
▁공모전	-8575
▁모서리	-8576
▁안전성	-8577
▁찾아내	-8578
▁안전사고	-8579
DD	-8580
▁샷	-8581
습관	-8582
▁AL	-8583
▁TG	-8584
▁TS	-8585
▁권유	-8586
▁나열	-8587
▁리버	-8588
▁마쳤	-8589
▁무렵	-8590
▁불신	-8591
▁살려	-8592
▁스텝	-8593
▁안경	-8594
▁애정	-8595
▁언니	-8596
▁이소	-8597
▁확진	-8598
차이즈	-8599
▁미얀마	-8600
▁서대문	-8601
▁식습관	-8602
▁보건복지부	-8603
▁프랜차이즈	-8604
▁숭	-8605
기능	-8606
▁PI	-8607
▁VI	-8608
▁감량	-8609
▁경합	-8610
▁골드	-8611
▁그릇	-8612
▁마르	-8613
▁미비	-8614
▁열거	-8615
▁잠깐	-8616
▁청탁	-8617
▁특혜	-8618
▁고정부	-8619
▁광화문	-8620
▁더라고	-8621
▁위안부	-8622
▁동아시아	-8623
▁ER	-8624
▁IU	-8625
▁개장	-8626
▁깨닫	-8627
▁단편	-8628
▁당기	-8629
▁대원	-8630
▁뜨겁	-8631
▁반납	-8632
▁비극	-8633
▁사채	-8634
▁소명	-8635
▁신주	-8636
▁염기	-8637
▁제국	-8638
▁조도	-8639
▁한번	-8640
▁750	-8641
▁교육학	-8642
▁국무부	-8643
▁기준선	-8644
▁레이터	-8645
▁선거법	-8646
▁작업자	-8647
▁커플링	-8648
▁인테리어	-8649
▁집행유예	-8650
PC	-8651
▁윗	-8652
▁04	-8653
▁EV	-8654
▁견적	-8655
▁고사	-8656
▁기침	-8657
▁넓이	-8658
▁던데	-8659
▁로터	-8660
▁보트	-8661
▁부속	-8662
▁분실	-8663
▁선원	-8664
▁승소	-8665
▁약국	-8666
▁유착	-8667
▁주무	-8668
▁지성	-8669
▁프라	-8670
▁휴일	-8671
▁힌지	-8672
▁게스트	-8673
▁교과목	-8674
▁기념식	-8675
▁드래그	-8676
▁미토콘	-8677
▁상품권	-8678
▁미토콘드리아	-8679
▁썸	-8680
▁틸	-8681
두리	-8682
▁간극	-8683
▁강렬	-8684
▁공평	-8685
▁구경	-8686
▁기르	-8687
▁까다	-8688
▁농악	-8689
▁독창	-8690
▁민정	-8691
▁박리	-8692
▁예보	-8693
▁장내	-8694
▁질의	-8695
▁청도	-8696
▁청렴	-8697
▁체부	-8698
▁370	-8699
▁복강경	-8700
▁故	-8701
▁붐	-8702
기에	-8703
둥이	-8704
아제	-8705
▁Ag	-8706
▁남겼	-8707
▁내국	-8708
▁배워	-8709
▁병리	-8710
▁분단	-8711
▁워낙	-8712
▁원회	-8713
▁으러	-8714
▁저온	-8715
▁저조	-8716
▁접점	-8717
▁출납	-8718
▁포즈	-8719
▁대단히	-8720
▁데이트	-8721
▁알칼리	-8722
▁전처리	-8723
▁테크노	-8724
▁통신사	-8725
▁프라이버시	-8726
EV	-8727
▁TI	-8728
▁게이	-8729
▁대면	-8730
▁무늬	-8731
▁스쿨	-8732
▁알킬	-8733
▁약하	-8734
▁연이	-8735
▁원시	-8736
▁유독	-8737
▁이모	-8738
▁조속	-8739
▁중화	-8740
▁평판	-8741
▁해부	-8742
▁WHO	-8743
▁내분비	-8744
▁수원시	-8745
▁아토피	-8746
▁음식물	-8747
▁재건축	-8748
▁조만간	-8749
▁판매자	-8750
▁프린팅	-8751
▁플로우	-8752
▁아름다움	-8753
▁에이전트	-8754
▁엘리먼트	-8755
▁이뤄지고	-8756
▁그릴	-8757
▁내신	-8758
▁놓인	-8759
▁물어	-8760
▁미뤄	-8761
▁미시	-8762
▁사범	-8763
▁시연	-8764
▁캡쳐	-8765
▁필연	-8766
▁163	-8767
▁172	-8768
▁느냐는	-8769
▁미성년	-8770
▁벨기에	-8771
▁운동장	-8772
▁코스닥	-8773
▁1996	-8774
▁2030	-8775
▁로지스틱	-8776
▁갇	-8777
현진	-8778
▁UE	-8779
▁거뒀	-8780
▁곱셈	-8781
▁명제	-8782
▁무사	-8783
▁스리	-8784
▁정사	-8785
▁종단	-8786
▁필기	-8787
▁항산	-8788
▁118	-8789
▁본회의	-8790
▁쏟아지	-8791
▁아크릴	-8792
▁이용객	-8793
▁입주자	-8794
▁조직학	-8795
▁주어지	-8796
▁사각지대	-8797
▁사회주의	-8798
OP	-8799
ey	-8800
▁툴	-8801
▁UN	-8802
▁경피	-8803
▁무장	-8804
▁복음	-8805
▁빼앗	-8806
▁소결	-8807
▁약해	-8808
▁윤곽	-8809
▁처장	-8810
▁154	-8811
▁830	-8812
▁PCB	-8813
▁안타깝	-8814
▁통일부	-8815
▁플란트	-8816
▁흡착제	-8817
▁한국은행	-8818
ue	-8819
▁캄	-8820
이행	-8821
▁공략	-8822
▁군산	-8823
▁나빠	-8824
▁담합	-8825
▁등재	-8826
▁미혼	-8827
▁사설	-8828
▁약식	-8829
▁치우	-8830
▁키워	-8831
▁휴양	-8832
▁LNG	-8833
▁방송사	-8834
▁상상력	-8835
▁우연히	-8836
▁통신원	-8837
그룹	-8838
▁간판	-8839
▁김기	-8840
▁녹지	-8841
▁봐도	-8842
▁분식	-8843
▁비평	-8844
▁산지	-8845
▁숙제	-8846
▁실링	-8847
▁아라	-8848
▁악취	-8849
▁중년	-8850
▁트로	-8851
▁헤어	-8852
▁TDF	-8853
▁기록물	-8854
▁기업체	-8855
▁기준치	-8856
▁남북한	-8857
▁마침내	-8858
▁정류장	-8859
▁회로도	-8860
yl	-8861
▁굵	-8862
지않	-8863
ard	-8864
▁RE	-8865
▁각별	-8866
▁단정	-8867
▁만세	-8868
▁본선	-8869
▁불복	-8870
▁블럭	-8871
▁생쥐	-8872
▁섹션	-8873
▁수월	-8874
▁어떨	-8875
▁영토	-8876
▁전동	-8877
▁치가	-8878
▁카트	-8879
▁홍수	-8880
아티닌	-8881
▁살아남	-8882
▁조건부	-8883
그레이드	-8884
▁펼쳐진다	-8885
▁크레아티닌	-8886
▁닦	-8887
▁SN	-8888
▁기숙	-8889
▁난임	-8890
▁당첨	-8891
▁동포	-8892
▁마일	-8893
▁블라	-8894
▁삼각	-8895
▁세출	-8896
▁시동	-8897
▁어업	-8898
▁언젠	-8899
▁영광	-8900
▁우대	-8901
▁우월	-8902
▁원작	-8903
▁자제	-8904
▁재수	-8905
▁직류	-8906
▁촬상	-8907
▁판교	-8908
▁풍성	-8909
▁후배	-8910
▁뛰어넘	-8911
▁엑스선	-8912
▁여행객	-8913
▁태어나	-8914
▁플레이어	-8915
▁업그레이드	-8916
TP	-8917
ex	-8918
▁줌	-8919
아이	-8920
ran	-8921
▁나간	-8922
▁남경	-8923
▁노광	-8924
▁덕트	-8925
▁모유	-8926
▁방금	-8927
▁벤치	-8928
▁본문	-8929
▁산부	-8930
▁아끼	-8931
▁온수	-8932
▁육군	-8933
▁적성	-8934
▁종괴	-8935
▁증감	-8936
▁BMW	-8937
▁결혼식	-8938
▁목요일	-8939
▁수사관	-8940
▁스카이	-8941
▁지방산	-8942
▁흔들리	-8943
▁카자흐스탄	-8944
▁PG	-8945
▁건지	-8946
▁견고	-8947
▁극한	-8948
▁기일	-8949
▁대용	-8950
▁대향	-8951
▁명동	-8952
▁박지	-8953
▁방역	-8954
▁산후	-8955
▁심전	-8956
▁이의	-8957
▁하면	-8958
▁127	-8959
▁대구시	-8960
▁대표단	-8961
▁부사장	-8962
▁스러워	-8963
▁여행사	-8964
▁연락처	-8965
▁포상금	-8966
HD	-8967
가운	-8968
뉴얼	-8969
루엔	-8970
평구	-8971
ist	-8972
ort	-8973
▁결여	-8974
▁관중	-8975
▁구해	-8976
▁국군	-8977
▁기쁘	-8978
▁라우	-8979
▁상습	-8980
▁오를	-8981
▁이닝	-8982
▁입점	-8983
▁확고	-8984
▁희석	-8985
▁511	-8986
▁배리어	-8987
▁임대차	-8988
▁직장인	-8989
▁체질량	-8990
▁부드러운	-8991
▁뻔	-8992
▁쉐	-8993
▁개재	-8994
▁내놨	-8995
▁발라	-8996
▁블룸	-8997
▁시흥	-8998
▁엔지	-8999
▁총재	-9000
▁출하	-9001
▁팀원	-9002
▁화합	-9003
거래위	-9004
▁109	-9005
▁214	-9006
▁650	-9007
▁감광성	-9008
▁근거리	-9009
▁펼쳐지	-9010
▁프로모	-9011
▁공정거래위	-9012
ide	-9013
▁Ar	-9014
▁거둔	-9015
▁들리	-9016
▁배타	-9017
▁선포	-9018
▁위배	-9019
▁자의	-9020
▁재밌	-9021
▁지루	-9022
▁251	-9023
▁마사지	-9024
▁매뉴얼	-9025
▁모양새	-9026
▁선보인다	-9027
▁젤	-9028
로리	-9029
영향	-9030
ack	-9031
▁SF	-9032
▁감찰	-9033
▁누릴	-9034
▁마진	-9035
▁무서	-9036
▁배면	-9037
▁서포	-9038
▁염료	-9039
▁영입	-9040
▁중순	-9041
▁흰색	-9042
▁시공간	-9043
▁였음을	-9044
▁전구체	-9045
▁커진다	-9046
▁스트리밍	-9047
기구	-9048
렉스	-9049
ach	-9050
▁Re	-9051
▁꼬리	-9052
▁동법	-9053
▁떠났	-9054
▁불꽃	-9055
▁불렀	-9056
▁여고	-9057
▁응하	-9058
▁재심	-9059
▁제게	-9060
▁체적	-9061
▁희귀	-9062
▁ALT	-9063
▁스크롤	-9064
▁여름철	-9065
▁증명서	-9066
▁지닌다	-9067
▁그리스도	-9068
▁불휘발성	-9069
▁암모니아	-9070
LR	-9071
▁구정	-9072
▁독거	-9073
▁매번	-9074
▁몰아	-9075
▁반지	-9076
▁백색	-9077
▁불어	-9078
▁빈혈	-9079
▁산물	-9080
▁수조	-9081
▁연상	-9082
▁자질	-9083
▁종일	-9084
▁지갑	-9085
▁크림	-9086
▁회화	-9087
▁휴게	-9088
듭니다	-9089
▁181	-9090
▁470	-9091
▁교직원	-9092
▁사고력	-9093
▁양성자	-9094
▁양승태	-9095
▁재판관	-9096
▁지지율	-9097
▁책임지	-9098
▁트리거	-9099
▁트레이닝	-9100
▁할아버지	-9101
▁PX	-9102
▁결심	-9103
▁겹치	-9104
▁냐고	-9105
▁배향	-9106
▁불분	-9107
▁세심	-9108
▁연통	-9109
▁열쇠	-9110
▁정범	-9111
▁직사	-9112
▁천재	-9113
▁친밀	-9114
▁택지	-9115
▁폐업	-9116
▁한꺼	-9117
▁한방	-9118
▁향기	-9119
▁가처분	-9120
▁따라가	-9121
▁보이스	-9122
▁사생활	-9123
▁속한다	-9124
▁수학식	-9125
▁프린트	-9126
▁4000	-9127
▁슬라이드	-9128
▁한꺼번에	-9129
▁Th	-9130
▁각급	-9131
▁경직	-9132
▁계승	-9133
▁공작	-9134
▁모래	-9135
▁사슬	-9136
▁숨졌	-9137
▁슬러	-9138
▁신진	-9139
▁아메	-9140
▁액수	-9141
▁유류	-9142
▁저혈	-9143
▁중추	-9144
▁책상	-9145
▁카이	-9146
▁해변	-9147
▁호에	-9148
▁640	-9149
▁CNT	-9150
▁GPS	-9151
▁거쳐야	-9152
▁기관장	-9153
▁불분명	-9154
▁빠져나	-9155
▁생긴다	-9156
▁원한다	-9157
▁전기장	-9158
▁흡연자	-9159
▁SPSS	-9160
▁균형발전	-9161
ew	-9162
▁례	-9163
코드	-9164
▁감기	-9165
▁골든	-9166
▁끊이	-9167
▁두꺼	-9168
▁바닷	-9169
▁버린	-9170
▁선명	-9171
▁스터	-9172
▁염려	-9173
▁용융	-9174
▁육상	-9175
▁일기	-9176
▁적혀	-9177
▁합체	-9178
▁혈류	-9179
▁mmH	-9180
▁변호인	-9181
▁선교사	-9182
▁수영장	-9183
▁신세계	-9184
▁취재진	-9185
더링	-9186
욕장	-9187
▁계급	-9188
▁관제	-9189
▁광전	-9190
▁금호	-9191
▁기내	-9192
▁뉴런	-9193
▁대식	-9194
▁도형	-9195
▁동산	-9196
▁리소	-9197
▁범인	-9198
▁변속	-9199
▁사양	-9200
▁승강	-9201
▁우체	-9202
▁잉글	-9203
▁투영	-9204
▁특위	-9205
▁하강	-9206
▁IgG	-9207
▁노동당	-9208
▁벌어진	-9209
▁보유자	-9210
▁분자량	-9211
▁위장관	-9212
▁아일랜드	-9213
▁이뤄지는	-9214
iz	-9215
법인	-9216
ive	-9217
▁KO	-9218
▁UV	-9219
▁단행	-9220
▁리세	-9221
▁샤워	-9222
▁에코	-9223
▁컬럼	-9224
▁항구	-9225
▁휴직	-9226
▁감염병	-9227
▁고마워	-9228
▁구매자	-9229
▁다시피	-9230
▁청년층	-9231
▁코스피	-9232
▁태어난	-9233
▁프레스	-9234
▁옴	-9235
드리	-9236
래도	-9237
엘라	-9238
ill	-9239
▁HA	-9240
▁NM	-9241
▁궤양	-9242
▁넘기	-9243
▁로딩	-9244
▁베타	-9245
▁산재	-9246
▁소금	-9247
▁시립	-9248
▁언더	-9249
▁여주	-9250
▁주축	-9251
▁함몰	-9252
▁함의	-9253
▁휩싸	-9254
▁기무사	-9255
▁대표자	-9256
▁들어온	-9257
▁보상금	-9258
▁사라진	-9259
▁지방간	-9260
▁소득세법	-9261
▁멀티미디어	-9262
▁08	-9263
▁거꾸	-9264
▁공로	-9265
▁기성	-9266
▁살균	-9267
▁열매	-9268
▁월경	-9269
▁육체	-9270
▁제반	-9271
▁추계	-9272
▁폭탄	-9273
▁환산	-9274
▁411	-9275
▁렌더링	-9276
▁스토어	-9277
▁물리학자	-9278
▁～	-9279
바닥	-9280
one	-9281
▁감자	-9282
▁계측	-9283
▁교감	-9284
▁낯선	-9285
▁매진	-9286
▁불소	-9287
▁소망	-9288
▁실재	-9289
▁싸우	-9290
▁영혼	-9291
▁잠정	-9292
▁정시	-9293
▁정차	-9294
▁준하	-9295
▁지붕	-9296
▁초록	-9297
▁촉각	-9298
▁215	-9299
▁920	-9300
▁거꾸로	-9301
▁사각형	-9302
▁소식통	-9303
▁mmHg	-9304
▁그리하여	-9305
▁《	-9306
▁》	-9307
▁흙	-9308
순환	-9309
인드	-9310
증기	-9311
패드	-9312
IST	-9313
▁경량	-9314
▁과열	-9315
▁급락	-9316
▁기량	-9317
▁부러	-9318
▁불행	-9319
▁비준	-9320
▁신혼	-9321
▁연골	-9322
▁외형	-9323
▁채팅	-9324
▁치즈	-9325
▁침묵	-9326
▁핑크	-9327
▁해임	-9328
▁교육법	-9329
▁발생기	-9330
▁본다면	-9331
▁언젠가	-9332
▁에스트	-9333
▁유기물	-9334
▁접어들	-9335
▁포커스	-9336
ud	-9337
천군	-9338
▁GB	-9339
▁교복	-9340
▁근간	-9341
▁뉴질	-9342
▁라기	-9343
▁문명	-9344
▁발음	-9345
▁밝기	-9346
▁이터	-9347
▁일보	-9348
▁종량	-9349
▁치안	-9350
▁165	-9351
▁205	-9352
▁460	-9353
▁남경필	-9354
▁뉴질랜드	-9355
▁드러난다	-9356
▁아무래도	-9357
TE	-9358
▁낚	-9359
▁솜	-9360
둘러	-9361
여행	-9362
조화	-9363
▁문맥	-9364
▁바뀔	-9365
▁방수	-9366
▁부식	-9367
▁성황	-9368
▁옛날	-9369
▁제소	-9370
▁지면	-9371
▁체내	-9372
▁호평	-9373
▁PCR	-9374
▁공화국	-9375
▁보행자	-9376
▁조사단	-9377
▁관상동맥	-9378
▁사이토카인	-9379
▁닉	-9380
▁롱	-9381
가리	-9382
igh	-9383
▁09	-9384
▁FD	-9385
▁MM	-9386
▁가평	-9387
▁간암	-9388
▁거버	-9389
▁김대	-9390
▁난다	-9391
▁남아	-9392
▁내각	-9393
▁당황	-9394
▁도봉	-9395
▁독재	-9396
▁부리	-9397
▁악용	-9398
▁앞세	-9399
▁크라	-9400
▁290	-9401
▁공교육	-9402
▁기숙사	-9403
▁블로그	-9404
▁생성기	-9405
▁학년도	-9406
▁비휘발성	-9407
▁영등포구	-9408
긴다	-9409
산업	-9410
▁고충	-9411
▁괴리	-9412
▁근사	-9413
▁민영	-9414
▁부도	-9415
▁수확	-9416
▁아리	-9417
▁어선	-9418
▁임진	-9419
▁입소	-9420
▁친숙	-9421
▁화고	-9422
▁137	-9423
▁402	-9424
▁850	-9425
▁CVD	-9426
▁ETR	-9427
▁사회과	-9428
▁성취도	-9429
▁클리닉	-9430
▁1300	-9431
▁꼴	-9432
적분	-9433
▁Ca	-9434
▁개헌	-9435
▁내생	-9436
▁도자	-9437
▁먹이	-9438
▁방대	-9439
▁실형	-9440
▁영웅	-9441
▁외신	-9442
▁외출	-9443
▁유상	-9444
▁징용	-9445
▁칼럼	-9446
▁피자	-9447
▁호남	-9448
멘터리	-9449
▁구직자	-9450
▁기아차	-9451
▁노동력	-9452
▁미스터	-9453
▁지상파	-9454
▁1110	-9455
▁블룸버그	-9456
▁다큐멘터리	-9457
▁흠	-9458
다운	-9459
로스	-9460
의사	-9461
▁Mg	-9462
▁각광	-9463
▁감리	-9464
▁검거	-9465
▁뒤따	-9466
▁봐요	-9467
▁사격	-9468
▁상의	-9469
▁송도	-9470
▁액추	-9471
▁여력	-9472
▁처우	-9473
▁화력	-9474
▁갑니다	-9475
▁그림자	-9476
▁똑같이	-9477
▁벗어난	-9478
▁위법성	-9479
▁희생자	-9480
▁액추에이터	-9481
of	-9482
환자	-9483
▁ED	-9484
▁결석	-9485
▁고품	-9486
▁국부	-9487
▁금형	-9488
▁낙관	-9489
▁논증	-9490
▁달아	-9491
▁본청	-9492
▁사명	-9493
▁생검	-9494
▁소독	-9495
▁수장	-9496
▁오븐	-9497
▁인위	-9498
▁입각	-9499
▁처지	-9500
▁퍼져	-9501
▁회고	-9502
▁희곡	-9503
▁189	-9504
▁DAA	-9505
▁덩어리	-9506
▁따라야	-9507
▁레이더	-9508
▁메이커	-9509
▁발전기	-9510
▁봅니다	-9511
▁자부심	-9512
▁현지인	-9513
▁에스트로겐	-9514
NT	-9515
UT	-9516
▁촛	-9517
넌스	-9518
데이	-9519
자원	-9520
허가	-9521
화학	-9522
▁고농	-9523
▁공법	-9524
▁과민	-9525
▁내다	-9526
▁명분	-9527
▁미션	-9528
▁배지	-9529
▁소실	-9530
▁써야	-9531
▁어릴	-9532
▁위헌	-9533
▁임종	-9534
▁푸른	-9535
▁흑자	-9536
▁182	-9537
▁사령관	-9538
▁어두운	-9539
▁용산구	-9540
▁으려면	-9541
▁1500	-9542
▁거버넌스	-9543
▁두드러지	-9544
▁일어난다	-9545
▁끓	-9546
결정	-9547
려서	-9548
▁GE	-9549
▁거칠	-9550
▁공세	-9551
▁구사	-9552
▁밀리	-9553
▁성도	-9554
▁아픔	-9555
▁업적	-9556
▁오사	-9557
▁으리	-9558
▁은폐	-9559
▁입건	-9560
▁입양	-9561
▁재편	-9562
▁캐비	-9563
수엘라	-9564
▁412	-9565
▁CSR	-9566
▁들어왔	-9567
▁성장률	-9568
▁식민지	-9569
▁체납자	-9570
▁캐스팅	-9571
▁2021	-9572
▁MetS	-9573
▁유가증권	-9574
▁베네수엘라	-9575
풀이	-9576
▁강당	-9577
▁강해	-9578
▁거품	-9579
▁공범	-9580
▁과시	-9581
▁근력	-9582
▁메탈	-9583
▁미드	-9584
▁배부	-9585
▁백분	-9586
▁식량	-9587
▁아산	-9588
▁주지	-9589
▁클램	-9590
▁파고	-9591
▁가속도	-9592
▁거래량	-9593
▁물고기	-9594
▁소방관	-9595
▁실생활	-9596
▁영화관	-9597
▁장려금	-9598
▁포지션	-9599
▁1992	-9600
▁미친다고	-9601
▁지주회사	-9602
▁뽐	-9603
구니	-9604
글로	-9605
ode	-9606
▁mi	-9607
▁결단	-9608
▁넥센	-9609
▁맞대	-9610
▁석방	-9611
▁손익	-9612
▁염소	-9613
▁장병	-9614
▁진이	-9615
▁출간	-9616
▁특구	-9617
▁판로	-9618
▁페어	-9619
▁혼잡	-9620
▁AFP	-9621
▁BMD	-9622
▁겨울철	-9623
▁구제역	-9624
▁생존자	-9625
▁엄청나	-9626
바이러스	-9627
▁배기가스	-9628
▁잎	-9629
걸이	-9630
유소	-9631
처럼	-9632
플러	-9633
▁06	-9634
▁고는	-9635
▁단열	-9636
▁담즙	-9637
▁대본	-9638
▁대치	-9639
▁도정	-9640
▁리어	-9641
▁비스	-9642
▁셀프	-9643
▁아님	-9644
▁연내	-9645
▁유압	-9646
▁챙기	-9647
▁최다	-9648
▁통학	-9649
▁해시	-9650
▁형편	-9651
▁164	-9652
▁KBO	-9653
▁SEM	-9654
▁되돌아	-9655
▁선보인	-9656
▁중심지	-9657
▁간경변증	-9658
▁드라이브	-9659
▁갓	-9660
▁깎	-9661
머스	-9662
저스	-9663
존중	-9664
준영	-9665
크림	-9666
▁HS	-9667
▁MW	-9668
▁NF	-9669
▁가늠	-9670
▁간식	-9671
▁공리	-9672
▁공적	-9673
▁기밀	-9674
▁대국	-9675
▁방한	-9676
▁베를	-9677
▁부극	-9678
▁석회	-9679
▁세일	-9680
▁신비	-9681
▁앞당	-9682
▁위암	-9683
▁인플	-9684
▁직결	-9685
▁천공	-9686
▁초콜	-9687
▁템플	-9688
▁환부	-9689
글로빈	-9690
스크린	-9691
존중감	-9692
▁고소득	-9693
▁관련자	-9694
▁됐으나	-9695
▁멘토링	-9696
▁무거운	-9697
▁순이익	-9698
▁아세안	-9699
▁앞장서	-9700
▁움직일	-9701
▁지배력	-9702
▁하도급	-9703
▁자아존중감	-9704
▁뭘	-9705
거나	-9706
머리	-9707
vir	-9708
▁논술	-9709
▁도장	-9710
▁레인	-9711
▁백인	-9712
▁보류	-9713
▁분쇄	-9714
▁사자	-9715
▁스틸	-9716
▁실감	-9717
▁안드	-9718
▁양보	-9719
▁올릴	-9720
▁요하	-9721
▁침윤	-9722
▁탐방	-9723
▁패배	-9724
그래피	-9725
▁501	-9726
▁PET	-9727
▁SLE	-9728
▁SUV	-9729
▁보호관	-9730
▁부탁드	-9731
▁용의자	-9732
▁유권자	-9733
▁이어폰	-9734
▁중금속	-9735
▁토출구	-9736
▁1950	-9737
▁꾀	-9738
▁멍	-9739
관광	-9740
때로	-9741
▁Cl	-9742
▁Sp	-9743
▁wt	-9744
▁계곡	-9745
▁계신	-9746
▁광양	-9747
▁부전	-9748
▁살피	-9749
▁상급	-9750
▁서점	-9751
▁세외	-9752
▁엔드	-9753
▁예쁜	-9754
▁유보	-9755
▁초월	-9756
▁타깃	-9757
▁토로	-9758
▁호선	-9759
▁힐링	-9760
▁감사원	-9761
▁그리드	-9762
▁근무자	-9763
▁금강산	-9764
▁높인다	-9765
▁마그네	-9766
▁정말로	-9767
▁증여세	-9768
▁화살표	-9769
▁공기조화	-9770
BI	-9771
▁갚	-9772
▁콤	-9773
나이	-9774
산구	-9775
텍스	-9776
▁OH	-9777
▁니켈	-9778
▁동호	-9779
▁랭킹	-9780
▁로워	-9781
▁모른	-9782
▁변상	-9783
▁볼트	-9784
▁부조	-9785
▁시력	-9786
▁얼룩	-9787
▁연애	-9788
▁오케	-9789
▁용선	-9790
▁일일	-9791
▁잘라	-9792
▁정세	-9793
▁증서	-9794
▁천장	-9795
▁포집	-9796
▁하청	-9797
▁322	-9798
▁SOC	-9799
▁달한다	-9800
▁더욱더	-9801
▁로맨스	-9802
▁식생활	-9803
▁일으켰	-9804
▁타당도	-9805
▁매개변수	-9806
▁블루투스	-9807
▁터치스크린	-9808
▁$	-9809
▁땐	-9810
▁튼	-9811
▁훔	-9812
드럽	-9813
▁Sh	-9814
▁ng	-9815
▁낸다	-9816
▁다스	-9817
▁더위	-9818
▁리빙	-9819
▁몰래	-9820
▁박성	-9821
▁보석	-9822
▁복통	-9823
▁소생	-9824
▁수율	-9825
▁유성	-9826
▁자꾸	-9827
▁정무	-9828
▁타결	-9829
스테론	-9830
▁내년도	-9831
▁부드럽	-9832
▁선수단	-9833
▁아니요	-9834
▁어쩌면	-9835
▁오로지	-9836
▁초콜릿	-9837
▁증강현실	-9838
▁뻗	-9839
미드	-9840
▁광명	-9841
▁금방	-9842
▁농사	-9843
▁몰딩	-9844
▁발산	-9845
▁산입	-9846
▁스킨	-9847
▁실기	-9848
▁여타	-9849
▁조국	-9850
▁평일	-9851
▁146	-9852
▁241	-9853
▁CRP	-9854
▁HPV	-9855
▁거주지	-9856
▁교부세	-9857
▁동북아	-9858
▁류현진	-9859
▁릴레이	-9860
▁무너지	-9861
▁베를린	-9862
▁스파이	-9863
▁신분증	-9864
▁잃어버	-9865
▁진다는	-9866
▁합창단	-9867
▁민간단체	-9868
▁잉글랜드	-9869
▁나타났으며	-9870
GB	-9871
▁첩	-9872
다지	-9873
역학	-9874
ast	-9875
▁MV	-9876
▁남측	-9877
▁사출	-9878
▁상계	-9879
▁알람	-9880
▁여정	-9881
▁오스	-9882
▁왕복	-9883
▁외화	-9884
▁원조	-9885
▁이면	-9886
▁조상	-9887
▁클록	-9888
▁탈착	-9889
▁허혈	-9890
▁홍역	-9891
▁HIV	-9892
▁걸림돌	-9893
▁돋보이	-9894
▁시공사	-9895
▁이해력	-9896
▁일으킨	-9897
▁흩	-9898
배우	-9899
▁OR	-9900
▁감압	-9901
▁교도	-9902
▁데리	-9903
▁디젤	-9904
▁면은	-9905
▁상식	-9906
▁순천	-9907
▁이겨	-9908
▁직위	-9909
▁촛불	-9910
▁환전	-9911
▁223	-9912
▁225	-9913
▁때때로	-9914
▁엉덩이	-9915
▁해준다	-9916
모글로빈	-9917
▁미성년자	-9918
▁힙	-9919
인과	-9920
크로	-9921
휴일	-9922
ess	-9923
▁DI	-9924
▁TM	-9925
▁기점	-9926
▁눈치	-9927
▁목재	-9928
▁사흘	-9929
▁서장	-9930
▁약점	-9931
▁초고	-9932
▁터닝	-9933
▁평점	-9934
▁피치	-9935
▁한마	-9936
▁향유	-9937
▁TNF	-9938
▁대역폭	-9939
▁어떨까	-9940
▁이미드	-9941
▁일일이	-9942
▁통계량	-9943
▁폴리에	-9944
▁헤모글로빈	-9945
act	-9946
▁IA	-9947
▁기입	-9948
▁러시	-9949
▁밀어	-9950
▁블로	-9951
▁선점	-9952
▁슬픔	-9953
▁진도	-9954
▁캠핑	-9955
▁코미	-9956
▁특색	-9957
▁페널	-9958
▁합작	-9959
▁해져	-9960
▁206	-9961
▁그다지	-9962
▁림프구	-9963
▁우체국	-9964
▁전염병	-9965
▁지나친	-9966
▁칼로리	-9967
▁태극기	-9968
▁학교장	-9969
▁해본다	-9970
▁산부인과	-9971
▁줄기세포	-9972
▁해수욕장	-9973
PI	-9974
▁킨	-9975
건설	-9976
ass	-9977
▁BS	-9978
▁감별	-9979
▁관건	-9980
▁기장	-9981
▁다투	-9982
▁바쁜	-9983
▁볼록	-9984
▁사역	-9985
▁산단	-9986
▁생선	-9987
▁신학	-9988
▁아연	-9989
▁약품	-9990
▁우산	-9991
▁의향	-9992
▁이산	-9993
▁적힌	-9994
▁전격	-9995
▁전진	-9996
▁점착	-9997
▁정례	-9998
▁조짐	-9999
▁출고	-10000
▁통풍	-10001
▁풍속	-10002
▁242	-10003
▁공진기	-10004
▁다면서	-10005
▁아닐까	-10006
▁췌장암	-10007
▁한동안	-10008
▁안전교육	-10009
▁프로모션	-10010
OV	-10011
yc	-10012
▁닷	-10013
▁헝	-10014
버트	-10015
스키	-10016
턴트	-10017
▁07	-10018
▁DD	-10019
▁가마	-10020
▁극성	-10021
▁기뻐	-10022
▁기적	-10023
▁느리	-10024
▁도주	-10025
▁리콜	-10026
▁문해	-10027
▁상회	-10028
▁세밀	-10029
▁실비	-10030
▁안무	-10031
▁알선	-10032
▁약세	-10033
▁원화	-10034
▁월급	-10035
▁유역	-10036
▁제척	-10037
▁주연	-10038
▁평평	-10039
▁풍선	-10040
▁호환	-10041
▁가리키	-10042
▁동작구	-10043
▁될수록	-10044
▁마티스	-10045
▁변환기	-10046
▁부호화	-10047
▁으리라	-10048
▁잇따르	-10049
▁중환자	-10050
▁와이파이	-10051
▁오케스트라	-10052
BA	-10053
배상	-10054
부분	-10055
분해	-10056
셉트	-10057
타운	-10058
▁깔끔	-10059
▁바꾼	-10060
▁세관	-10061
▁애국	-10062
▁입수	-10063
▁접경	-10064
▁캄보	-10065
▁타협	-10066
▁학사	-10067
납니다	-10068
▁512	-10069
▁CPU	-10070
▁MAC	-10071
▁THA	-10072
▁감사관	-10073
▁개막식	-10074
▁스캔들	-10075
▁연출가	-10076
▁1991	-10077
봐야	-10078
수지	-10079
키퍼	-10080
타르	-10081
학년	-10082
▁과대	-10083
▁누진	-10084
▁독려	-10085
▁미수	-10086
▁바지	-10087
▁변론	-10088
▁본딩	-10089
▁분광	-10090
▁수법	-10091
▁영감	-10092
▁익히	-10093
▁증설	-10094
▁총생	-10095
▁춘천	-10096
▁풍력	-10097
▁건설업	-10098
▁검색어	-10099
▁골키퍼	-10100
▁사무관	-10101
▁수용액	-10102
▁시리아	-10103
▁진료비	-10104
▁평택항	-10105
▁NASH	-10106
▁유전자형	-10107
▁캄보디아	-10108
구나	-10109
안전	-10110
임스	-10111
크업	-10112
프로	-10113
▁EN	-10114
▁개그	-10115
▁결렬	-10116
▁과업	-10117
▁광교	-10118
▁광복	-10119
▁까닭	-10120
▁넓혀	-10121
▁노르	-10122
▁동서	-10123
▁미달	-10124
▁바쁘	-10125
▁사모	-10126
▁상쇄	-10127
▁엄밀	-10128
▁여전	-10129
▁원정	-10130
▁이양	-10131
▁일곱	-10132
▁조서	-10133
▁직교	-10134
▁체온	-10135
▁털어	-10136
▁특권	-10137
▁할리	-10138
▁흑연	-10139
옵니다	-10140
▁국정원	-10141
▁놀이터	-10142
▁열전도	-10143
▁오사카	-10144
▁대식세포	-10145
▁레이아웃	-10146
▁사무총장	-10147
▁나타냅니다	-10148
OL	-10149
디움	-10150
ens	-10151
▁고갈	-10152
▁공청	-10153
▁궤적	-10154
▁급감	-10155
▁내과	-10156
▁늘어	-10157
▁도매	-10158
▁도체	-10159
▁말단	-10160
▁맡기	-10161
▁매운	-10162
▁반주	-10163
▁번영	-10164
▁오목	-10165
▁유속	-10166
▁인치	-10167
▁코칭	-10168
▁탐사	-10169
베이터	-10170
텍스트	-10171
▁다가가	-10172
▁영양소	-10173
▁집중력	-10174
▁폴란드	-10175
▁6000	-10176
▁츠	-10177
▁GR	-10178
▁내주	-10179
▁넷플	-10180
▁동거	-10181
▁마운	-10182
▁상류	-10183
▁섬세	-10184
▁소성	-10185
▁소양	-10186
▁송달	-10187
▁수중	-10188
▁스톡	-10189
▁자막	-10190
▁좌절	-10191
▁특사	-10192
▁포천	-10193
타이드	-10194
▁상속세	-10195
▁생화학	-10196
▁전해액	-10197
자치단체	-10198
▁test	-10199
▁넷플릭스	-10200
▁청소년기	-10201
▁꽉	-10202
▁헐	-10203
수기	-10204
▁EA	-10205
▁LV	-10206
▁감쇠	-10207
▁골라	-10208
▁김부	-10209
▁도망	-10210
▁만점	-10211
▁박동	-10212
▁변함	-10213
▁부의	-10214
▁속초	-10215
▁시약	-10216
▁에다	-10217
▁음란	-10218
▁음파	-10219
▁이태	-10220
▁조력	-10221
▁카본	-10222
▁핸들	-10223
▁혼동	-10224
▁그레이	-10225
▁로직스	-10226
▁보호막	-10227
▁불거진	-10228
▁양방향	-10229
▁업로드	-10230
▁운동량	-10231
▁유가족	-10232
▁음악회	-10233
▁자본금	-10234
▁회의록	-10235
▁관광공사	-10236
▁오피스텔	-10237
ug	-10238
▁밭	-10239
어로	-10240
어져	-10241
ant	-10242
▁DV	-10243
▁OF	-10244
▁Sn	-10245
▁개원	-10246
▁귀여	-10247
▁기류	-10248
▁기리	-10249
▁따지	-10250
▁로비	-10251
▁송출	-10252
▁악재	-10253
▁온전	-10254
▁작물	-10255
▁제제	-10256
▁채점	-10257
▁추경	-10258
▁침착	-10259
▁카풀	-10260
▁필러	-10261
▁하방	-10262
▁항변	-10263
니스트	-10264
문화재	-10265
▁구로구	-10266
▁성남시	-10267
▁수용성	-10268
▁총생산	-10269
▁코미디	-10270
▁받아들일	-10271
▁손해배상	-10272
▁코르티코	-10273
▁띈	-10274
가루	-10275
가족	-10276
트라	-10277
ear	-10278
▁가죽	-10279
▁공주	-10280
▁광선	-10281
▁구한	-10282
▁김혜	-10283
▁낮출	-10284
▁논하	-10285
▁대졸	-10286
▁막판	-10287
▁메신	-10288
▁벅스	-10289
▁상주	-10290
▁신동	-10291
▁실례	-10292
▁오락	-10293
▁오존	-10294
▁창극	-10295
▁흘리	-10296
▁대장암	-10297
▁머무르	-10298
▁스캐닝	-10299
▁악영향	-10300
▁여행자	-10301
▁운영비	-10302
▁제임스	-10303
▁플라스	-10304
▁컨텍스트	-10305
qu	-10306
▁괄	-10307
클럽	-10308
▁HO	-10309
▁가파	-10310
▁강수	-10311
▁국기	-10312
▁동굴	-10313
▁메가	-10314
▁미투	-10315
▁옥상	-10316
▁원동	-10317
▁으셨	-10318
▁이라	-10319
▁재차	-10320
▁정함	-10321
▁지회	-10322
▁통관	-10323
▁트랩	-10324
▁공휴일	-10325
▁김성태	-10326
▁빨간색	-10327
▁신속히	-10328
▁아쉬운	-10329
▁중위수	-10330
▁테두리	-10331
▁국제공항	-10332
▁마이너스	-10333
▁스케줄링	-10334
벤션	-10335
톨릭	-10336
▁Hz	-10337
▁le	-10338
▁광물	-10339
▁그거	-10340
▁더러	-10341
▁도선	-10342
▁승낙	-10343
▁외치	-10344
▁CNN	-10345
▁교육비	-10346
▁난소암	-10347
▁모은다	-10348
▁상황실	-10349
▁지하수	-10350
▁컨벤션	-10351
▁페널티	-10352
▁피스톤	-10353
▁회사채	-10354
▁1988	-10355
▁감정평가	-10356
▁스타디움	-10357
▁탄화수소	-10358
EP	-10359
▁θ	-10360
대사	-10361
동강	-10362
섬유	-10363
퇴근	-10364
▁HT	-10365
▁고구	-10366
▁나뉜	-10367
▁러브	-10368
▁소량	-10369
▁신조	-10370
▁실점	-10371
▁영동	-10372
▁제사	-10373
▁질화	-10374
▁추첨	-10375
▁피복	-10376
▁현역	-10377
▁188	-10378
▁331	-10379
▁870	-10380
▁IMF	-10381
▁공청회	-10382
▁메신저	-10383
▁백혈구	-10384
▁상관없	-10385
▁일본어	-10386
▁지난번	-10387
▁테크놀	-10388
▁1993	-10389
▁못한다는	-10390
ON	-10391
량체	-10392
렉션	-10393
외과	-10394
▁EG	-10395
▁가뭄	-10396
▁내피	-10397
▁냉방	-10398
▁뜨거	-10399
▁렀다	-10400
▁매물	-10401
▁문단	-10402
▁발암	-10403
▁방조	-10404
▁선천	-10405
▁셔틀	-10406
▁쌍용	-10407
▁연다	-10408
▁예매	-10409
▁우린	-10410
▁유감	-10411
▁전처	-10412
▁져서	-10413
▁증액	-10414
루엔자	-10415
▁가져온	-10416
▁돌아온	-10417
▁림프종	-10418
▁아이디	-10419
▁오스트	-10420
▁요금제	-10421
▁잖아요	-10422
▁직사각	-10423
▁출퇴근	-10424
▁화요일	-10425
▁소멸시효	-10426
▁아시아나	-10427
▁자유주의	-10428
▁인플루엔자	-10429
pl	-10430
물산	-10431
비용	-10432
orm	-10433
▁겨우	-10434
▁계란	-10435
▁국산	-10436
▁놀랍	-10437
▁달했	-10438
▁동상	-10439
▁명료	-10440
▁배후	-10441
▁복막	-10442
▁볼루	-10443
▁불능	-10444
▁쉬워	-10445
▁여신	-10446
▁연안	-10447
▁장인	-10448
▁종시	-10449
▁줄게	-10450
▁진압	-10451
▁착색	-10452
▁출처	-10453
▁토의	-10454
▁트라	-10455
▁파인	-10456
▁표상	-10457
▁Con	-10458
▁고품질	-10459
▁공격수	-10460
▁국어과	-10461
▁드디어	-10462
▁라디칼	-10463
▁쌍둥이	-10464
▁유학생	-10465
▁저지른	-10466
▁제작사	-10467
▁출판사	-10468
▁부산광역시	-10469
CA	-10470
EF	-10471
▁갯	-10472
▁깃	-10473
▁Tr	-10474
▁과체	-10475
▁국공	-10476
▁노숙	-10477
▁노회	-10478
▁득표	-10479
▁분주	-10480
▁비춰	-10481
▁센트	-10482
▁신곡	-10483
▁신년	-10484
▁심폐	-10485
▁웹툰	-10486
▁이관	-10487
▁이병	-10488
▁이지	-10489
▁저질	-10490
▁추징	-10491
▁터지	-10492
▁펼칠	-10493
▁피질	-10494
▁한눈	-10495
▁함정	-10496
▁흑인	-10497
▁AKI	-10498
▁손잡이	-10499
▁슬러리	-10500
▁전문점	-10501
▁집니다	-10502
▁출발점	-10503
▁패리티	-10504
▁해부학	-10505
▁삼성물산	-10506
▁정사각형	-10507
▁아시아나항공	-10508
EM	-10509
▁≥	-10510
라마	-10511
주민	-10512
▁거쳤	-10513
▁글씨	-10514
▁논거	-10515
▁뉴턴	-10516
▁동쪽	-10517
▁맡겨	-10518
▁모기	-10519
▁무덤	-10520
▁미충	-10521
▁박원	-10522
▁발포	-10523
▁벽면	-10524
▁살짝	-10525
▁순회	-10526
▁신흥	-10527
▁쓰여	-10528
▁와의	-10529
▁유세	-10530
▁차광	-10531
▁총량	-10532
▁추격	-10533
▁퀴즈	-10534
▁하자	-10535
▁233	-10536
▁사업주	-10537
▁수비수	-10538
▁제작진	-10539
▁주유소	-10540
▁컷오프	-10541
▁프리뷰	-10542
TI	-10543
ark	-10544
▁RP	-10545
▁sc	-10546
▁간헐	-10547
▁건국	-10548
▁근데	-10549
▁남산	-10550
▁노령	-10551
▁모금	-10552
▁보람	-10553
▁보살	-10554
▁서쪽	-10555
▁시비	-10556
▁시한	-10557
▁심미	-10558
▁아인	-10559
▁양립	-10560
▁옹호	-10561
▁월세	-10562
▁유합	-10563
▁의석	-10564
▁장수	-10565
▁장터	-10566
▁절곡	-10567
▁정복	-10568
▁증빙	-10569
▁캐피	-10570
▁커널	-10571
▁피난	-10572
▁홍채	-10573
▁활기	-10574
▁회상	-10575
▁187	-10576
▁AST	-10577
▁교부금	-10578
▁달라진	-10579
▁돌아보	-10580
▁떠올리	-10581
▁수산물	-10582
▁언론사	-10583
▁요오드	-10584
▁트래픽	-10585
▁폐경기	-10586
MO	-10587
▁팜	-10588
▁험	-10589
개발	-10590
엑스	-10591
텔링	-10592
▁감경	-10593
▁감액	-10594
▁감추	-10595
▁개량	-10596
▁군부	-10597
▁김명	-10598
▁다자	-10599
▁도울	-10600
▁라돈	-10601
▁마라	-10602
▁물결	-10603
▁미약	-10604
▁성북	-10605
▁소주	-10606
▁속력	-10607
▁슬로	-10608
▁언스	-10609
▁운수	-10610
▁전속	-10611
▁정액	-10612
▁조부	-10613
▁지낸	-10614
▁차주	-10615
▁창설	-10616
▁초미	-10617
▁초상	-10618
세서리	-10619
위원회	-10620
▁DPP	-10621
▁들어선	-10622
▁무더위	-10623
▁복호화	-10624
▁부담감	-10625
▁의료인	-10626
▁텔레콤	-10627
▁서대문구	-10628
예술	-10629
티드	-10630
▁각지	-10631
▁간절	-10632
▁객석	-10633
▁결재	-10634
▁구석	-10635
▁기운	-10636
▁꾸며	-10637
▁당대	-10638
▁로고	-10639
▁미학	-10640
▁밀폐	-10641
▁법치	-10642
▁보스	-10643
▁사분	-10644
▁수성	-10645
▁시골	-10646
▁알렸	-10647
▁칼륨	-10648
▁138	-10649
▁303	-10650
▁PTC	-10651
▁Pro	-10652
▁단량체	-10653
▁벌금형	-10654
▁블라디	-10655
▁시달리	-10656
▁월평균	-10657
▁장난감	-10658
▁투과율	-10659
▁플래그	-10660
▁활동비	-10661
▁7000	-10662
▁임상시험	-10663
▁럭	-10664
▁탔	-10665
가정	-10666
금리	-10667
제표	-10668
청사	-10669
파크	-10670
하나	-10671
▁ch	-10672
▁구토	-10673
▁바위	-10674
▁배심	-10675
▁분진	-10676
▁심문	-10677
▁심정	-10678
▁앤드	-10679
▁영남	-10680
▁원상	-10681
▁자택	-10682
▁정직	-10683
▁제습	-10684
▁참모	-10685
▁취도	-10686
▁퇴행	-10687
▁해경	-10688
▁740	-10689
▁계산서	-10690
▁김경수	-10691
▁라이너	-10692
▁맞물려	-10693
▁매개체	-10694
▁볼거리	-10695
▁비교기	-10696
▁수익자	-10697
▁정준영	-10698
▁첨가제	-10699
▁펌웨어	-10700
▁당뇨병성	-10701
▁재무제표	-10702
▁테크놀로지	-10703
▁볶	-10704
▁챗	-10705
푸스	-10706
age	-10707
▁LH	-10708
▁RT	-10709
▁We	-10710
▁거북	-10711
▁낙찰	-10712
▁대세	-10713
▁벌여	-10714
▁부구	-10715
▁삭감	-10716
▁영하	-10717
▁입상	-10718
▁주부	-10719
▁참전	-10720
▁화부	-10721
▁화석	-10722
스테르	-10723
▁KTX	-10724
▁내다봤	-10725
▁방송국	-10726
▁사령부	-10727
▁아니할	-10728
▁조인트	-10729
▁피부염	-10730
▁히어로	-10731
▁고등교육	-10732
▁소위원회	-10733
▁특별회계	-10734
▁객관적으로	-10735
▁스토리텔링	-10736
▁〈	-10737
▁꿀	-10738
▁뒀	-10739
▁랙	-10740
그라	-10741
뜨렸	-10742
태프	-10743
피아	-10744
▁EP	-10745
▁TH	-10746
▁가드	-10747
▁간병	-10748
▁갈아	-10749
▁김연	-10750
▁무지	-10751
▁백제	-10752
▁변할	-10753
▁불참	-10754
▁사드	-10755
▁세련	-10756
▁속속	-10757
▁쉼터	-10758
▁압출	-10759
▁전철	-10760
▁착한	-10761
▁터져	-10762
▁특보	-10763
▁페놀	-10764
▁하얀	-10765
셀로나	-10766
▁502	-10767
▁매크로	-10768
▁사회학	-10769
▁설명력	-10770
▁수강료	-10771
▁양천구	-10772
▁예술인	-10773
▁표지판	-10774
▁혈전증	-10775
▁에피소드	-10776
▁바르셀로나	-10777
협회	-10778
▁FS	-10779
▁고쳐	-10780
▁과기	-10781
▁구독	-10782
▁급변	-10783
▁달린	-10784
▁당내	-10785
▁독도	-10786
▁따져	-10787
▁마모	-10788
▁반품	-10789
▁발레	-10790
▁분절	-10791
▁수개	-10792
▁원수	-10793
▁이월	-10794
▁장년	-10795
▁장미	-10796
▁전립	-10797
▁전설	-10798
▁제이	-10799
▁죽이	-10800
▁즉흥	-10801
▁직급	-10802
▁직속	-10803
▁체의	-10804
▁투사	-10805
▁현물	-10806
▁HDL	-10807
▁LTE	-10808
▁경화증	-10809
▁둘러보	-10810
▁매수인	-10811
▁베이비	-10812
▁브라우	-10813
▁성숙도	-10814
▁실리카	-10815
▁응축기	-10816
▁자연수	-10817
▁전문직	-10818
▁중심부	-10819
▁측정값	-10820
▁콘셉트	-10821
▁1210	-10822
경원	-10823
테스	-10824
패스	-10825
ype	-10826
▁강간	-10827
▁강판	-10828
▁끝날	-10829
▁날카	-10830
▁낭독	-10831
▁달콤	-10832
▁도발	-10833
▁도파	-10834
▁메디	-10835
▁무수	-10836
▁문식	-10837
▁바흐	-10838
▁심상	-10839
▁제의	-10840
▁지우	-10841
▁한전	-10842
▁행성	-10843
▁흥분	-10844
슈타인	-10845
▁380	-10846
▁421	-10847
▁가톨릭	-10848
▁공사장	-10849
▁금속판	-10850
▁길거리	-10851
▁넘어섰	-10852
▁대리점	-10853
▁방사성	-10854
▁배임죄	-10855
▁스티븐	-10856
▁시켜서	-10857
▁연세대	-10858
▁의한다	-10859
▁탑승자	-10860
▁학술지	-10861
▁활성제	-10862
▁드릴까요	-10863
▁보였으며	-10864
▁다문화가정	-10865
uc	-10866
공단	-10867
무기	-10868
▁JT	-10869
▁고액	-10870
▁곱하	-10871
▁남해	-10872
▁냉기	-10873
▁농약	-10874
▁단의	-10875
▁당위	-10876
▁본성	-10877
▁셔도	-10878
▁소용	-10879
▁주당	-10880
▁최장	-10881
▁추행	-10882
사이드	-10883
▁148	-10884
▁고지서	-10885
▁대동맥	-10886
▁로드맵	-10887
▁벗어날	-10888
▁쏟아졌	-10889
▁졌으며	-10890
▁주의보	-10891
▁철학자	-10892
▁평면도	-10893
▁8000	-10894
▁기본소득	-10895
▁상관관계	-10896
▁액세서리	-10897
▁펩타이드	-10898
▁u	-10899
▁쪼	-10900
▁츄	-10901
렘방	-10902
제한	-10903
폴트	-10904
▁교민	-10905
▁기동	-10906
▁눈빛	-10907
▁비단	-10908
▁심박	-10909
▁심신	-10910
▁양주	-10911
▁양해	-10912
▁용제	-10913
▁임하	-10914
▁지그	-10915
▁직물	-10916
▁차감	-10917
▁황제	-10918
▁185	-10919
▁USB	-10920
▁관리비	-10921
▁머물러	-10922
▁비주얼	-10923
▁올라오	-10924
▁이룬다	-10925
▁팔렘방	-10926
▁메이크업	-10927
▁전라남도	-10928
eg	-10929
ys	-10930
▁꽂	-10931
몬드	-10932
유럽	-10933
집행	-10934
▁개연	-10935
▁겹쳐	-10936
▁고부	-10937
▁골자	-10938
▁끼워	-10939
▁노벨	-10940
▁답답	-10941
▁될까	-10942
▁모세	-10943
▁배액	-10944
▁보름	-10945
▁비염	-10946
▁소련	-10947
▁의과	-10948
▁이듬	-10949
▁일조	-10950
▁적재	-10951
▁조업	-10952
▁주시	-10953
▁주조	-10954
▁집착	-10955
▁파우	-10956
▁패소	-10957
▁한양	-10958
▁행운	-10959
▁CLK	-10960
▁김동연	-10961
▁냉장실	-10962
▁느낀다	-10963
▁도자기	-10964
▁떠올랐	-10965
▁못지않	-10966
▁법률안	-10967
▁서둘러	-10968
▁스토퍼	-10969
▁업무상	-10970
▁여행지	-10971
▁이동성	-10972
▁찾아오	-10973
▁크루즈	-10974
▁해운대	-10975
▁경상북도	-10976
▁고속도로	-10977
▁공공시설	-10978
▁보험계약	-10979
EB	-10980
▁넉	-10981
▁벚	-10982
연히	-10983
팡이	-10984
해야	-10985
▁WC	-10986
▁경호	-10987
▁고추	-10988
▁날아	-10989
▁당당	-10990
▁더해	-10991
▁도식	-10992
▁동계	-10993
▁동태	-10994
▁마루	-10995
▁부응	-10996
▁색소	-10997
▁색채	-10998
▁승차	-10999
▁억울	-11000
▁온난	-11001
▁정자	-11002
▁찬반	-11003
▁파지	-11004
▁학적	-11005
▁현존	-11006
▁흡인	-11007
▁139	-11008
▁422	-11009
▁ppm	-11010
▁pro	-11011
▁그랜드	-11012
▁불거지	-11013
▁생성물	-11014
▁서해안	-11015
▁자치회	-11016
▁중간재	-11017
▁1120	-11018
▁보인다고	-11019
▁돔	-11020
▁콕	-11021
병대	-11022
사태	-11023
일러	-11024
ert	-11025
yst	-11026
▁GH	-11027
▁KC	-11028
▁VC	-11029
▁고창	-11030
▁구로	-11031
▁국영	-11032
▁기혼	-11033
▁답장	-11034
▁뒷면	-11035
▁모를	-11036
▁문언	-11037
▁선장	-11038
▁세원	-11039
▁수은	-11040
▁어학	-11041
▁여대	-11042
▁추위	-11043
▁타단	-11044
▁퇴출	-11045
▁파격	-11046
▁후손	-11047
▁면밀히	-11048
▁모스크	-11049
▁선보일	-11050
▁여동생	-11051
▁중환자실	-11052
▁렛	-11053
▁섰	-11054
▁셜	-11055
▁싼	-11056
높이	-11057
무게	-11058
어드	-11059
▁결실	-11060
▁고난	-11061
▁공문	-11062
▁김장	-11063
▁다항	-11064
▁리타	-11065
▁물음	-11066
▁받침	-11067
▁방면	-11068
▁배급	-11069
▁벤투	-11070
▁브루	-11071
▁셀룰	-11072
▁소나	-11073
▁스미	-11074
▁신성	-11075
▁십자	-11076
▁쌓여	-11077
▁액화	-11078
▁어시	-11079
▁요령	-11080
▁요지	-11081
▁자활	-11082
▁정문	-11083
▁총력	-11084
▁평론	-11085
▁폭우	-11086
▁푸틴	-11087
▁퓨즈	-11088
▁하동	-11089
▁구속력	-11090
▁급속히	-11091
▁기념품	-11092
▁기술자	-11093
▁내세우	-11094
▁몸무게	-11095
▁소비량	-11096
▁이듬해	-11097
▁존재감	-11098
▁좌표계	-11099
▁책임감	-11100
▁휘발유	-11101
▁아미노산	-11102
▁전통문화	-11103
▁지방세법	-11104
GS	-11105
UI	-11106
af	-11107
▁j	-11108
▁젝	-11109
▁An	-11110
▁간소	-11111
▁갈색	-11112
▁걸로	-11113
▁공구	-11114
▁귀결	-11115
▁기제	-11116
▁노리	-11117
▁단차	-11118
▁띈다	-11119
▁배리	-11120
▁석면	-11121
▁선로	-11122
▁쇼트	-11123
▁시터	-11124
▁억압	-11125
▁재의	-11126
▁적대	-11127
▁주저	-11128
▁집약	-11129
▁파울	-11130
▁포획	-11131
▁폭스	-11132
▁항해	-11133
▁해리	-11134
▁224	-11135
▁데스크	-11136
▁도우미	-11137
▁동성애	-11138
▁로그인	-11139
▁솔직히	-11140
▁원동력	-11141
▁이해찬	-11142
▁학자금	-11143
▁활성탄	-11144
▁시내버스	-11145
ph	-11146
▁닐	-11147
레나	-11148
보험	-11149
소시	-11150
ram	-11151
▁고집	-11152
▁곤충	-11153
▁균질	-11154
▁길러	-11155
▁다짐	-11156
▁대위	-11157
▁되찾	-11158
▁라미	-11159
▁모사	-11160
▁모수	-11161
▁발판	-11162
▁성당	-11163
▁쇼크	-11164
▁수감	-11165
▁안료	-11166
▁잠실	-11167
▁전두	-11168
▁전한	-11169
▁착륙	-11170
▁출품	-11171
▁친척	-11172
▁토끼	-11173
▁표결	-11174
▁향수	-11175
▁147	-11176
▁183	-11177
▁COV	-11178
▁기준점	-11179
▁마인드	-11180
▁발표회	-11181
▁붙잡혔	-11182
▁이해도	-11183
▁일회용	-11184
▁플로팅	-11185
▁스페이스	-11186
IF	-11187
ok	-11188
레지	-11189
방위	-11190
서치	-11191
셔널	-11192
연구	-11193
지노	-11194
테르	-11195
훈련	-11196
▁AU	-11197
▁강북	-11198
▁공분	-11199
▁과자	-11200
▁김창	-11201
▁눌러	-11202
▁대교	-11203
▁사소	-11204
▁수락	-11205
▁신상	-11206
▁연초	-11207
▁오렌	-11208
▁오빠	-11209
▁으실	-11210
▁이화	-11211
▁자정	-11212
▁지남	-11213
▁축사	-11214
▁클립	-11215
▁탈세	-11216
▁향토	-11217
▁156	-11218
▁235	-11219
▁365	-11220
▁거래세	-11221
▁달라졌	-11222
▁보험업	-11223
▁불명확	-11224
▁스티커	-11225
▁안전망	-11226
▁엔트리	-11227
▁일제히	-11228
▁전립선	-11229
▁조영제	-11230
▁진정한	-11231
▁다릅니다	-11232
▁들여다보	-11233
▁프리미어	-11234
EN	-11235
▁룩	-11236
경부	-11237
러드	-11238
▁간선	-11239
▁감마	-11240
▁강풍	-11241
▁농기	-11242
▁도보	-11243
▁박차	-11244
▁번거	-11245
▁병동	-11246
▁불황	-11247
▁비위	-11248
▁서예	-11249
▁실온	-11250
▁악수	-11251
▁안동	-11252
▁여인	-11253
▁원점	-11254
▁위력	-11255
▁이뤘	-11256
▁자생	-11257
▁재임	-11258
▁정동	-11259
▁콘크	-11260
▁포인	-11261
▁헌재	-11262
▁UAE	-11263
▁간략히	-11264
▁돌아와	-11265
▁리서치	-11266
▁소화기	-11267
▁십니다	-11268
▁온전히	-11269
▁올라갈	-11270
▁저장실	-11271
▁정해져	-11272
▁치료사	-11273
▁항암제	-11274
▁1920	-11275
▁1989	-11276
▁JTBC	-11277
▁어우러져	-11278
▁콘크리트	-11279
OR	-11280
io	-11281
▁첼	-11282
끄럽	-11283
당증	-11284
이탈	-11285
호흡	-11286
▁가야	-11287
▁고종	-11288
▁공복	-11289
▁관서	-11290
▁너비	-11291
▁느린	-11292
▁당원	-11293
▁드로	-11294
▁등지	-11295
▁리츠	-11296
▁선종	-11297
▁소포	-11298
▁안면	-11299
▁앵커	-11300
▁예견	-11301
▁일어	-11302
▁잔존	-11303
▁장자	-11304
▁전교	-11305
▁전복	-11306
▁점도	-11307
▁조지	-11308
▁친근	-11309
▁탄수	-11310
▁텍스	-11311
▁티타	-11312
▁교수자	-11313
▁기념관	-11314
▁나뉜다	-11315
▁남양주	-11316
▁미지수	-11317
▁생태계	-11318
▁수용자	-11319
▁시드니	-11320
▁양수인	-11321
▁연주자	-11322
▁올라왔	-11323
▁특산물	-11324
▁한마디	-11325
▁더라고요	-11326
▁탄수화물	-11327
RL	-11328
▁렉	-11329
구조	-11330
이어	-11331
are	-11332
ong	-11333
▁거실	-11334
▁광산	-11335
▁교착	-11336
▁교황	-11337
▁김희	-11338
▁니체	-11339
▁대지	-11340
▁모국	-11341
▁발길	-11342
▁복권	-11343
▁부추	-11344
▁분장	-11345
▁사임	-11346
▁스페	-11347
▁어리	-11348
▁영문	-11349
▁유교	-11350
▁이드	-11351
▁이색	-11352
▁일용	-11353
▁장군	-11354
▁천문	-11355
▁치솟	-11356
▁한자	-11357
▁황교	-11358
▁315	-11359
▁560	-11360
▁840	-11361
▁돌아갈	-11362
▁방송인	-11363
▁부적합	-11364
▁성실히	-11365
▁소비재	-11366
▁십이지	-11367
▁카지노	-11368
레지스트	-11369
▁1400	-11370
▁교통안전	-11371
▁카트리지	-11372
▁엘리베이터	-11373
▁포토레지스트	-11374
OT	-11375
▁엣	-11376
년기	-11377
레마	-11378
일리	-11379
폭력	-11380
ain	-11381
out	-11382
▁GC	-11383
▁가래	-11384
▁갈라	-11385
▁강우	-11386
▁게끔	-11387
▁급하	-11388
▁김승	-11389
▁대미	-11390
▁등산	-11391
▁면모	-11392
▁문양	-11393
▁백성	-11394
▁버섯	-11395
▁베르	-11396
▁복장	-11397
▁새겨	-11398
▁선하	-11399
▁수처	-11400
▁유클	-11401
▁이강	-11402
▁장이	-11403
▁전락	-11404
▁정국	-11405
▁지냈	-11406
▁편중	-11407
▁풀어	-11408
▁험자	-11409
▁화가	-11410
▁157	-11411
▁173	-11412
▁313	-11413
▁글루코	-11414
▁대상물	-11415
▁수증기	-11416
▁열전달	-11417
▁영원히	-11418
▁종량제	-11419
▁주머니	-11420
▁지역구	-11421
▁초미세	-11422
▁경상남도	-11423
▁유클리드	-11424
▁컨퍼런스	-11425
▁해외여행	-11426
▁게이트웨이	-11427
ie	-11428
▁솟	-11429
요건	-11430
테일	-11431
CCH	-11432
▁ND	-11433
▁NP	-11434
▁다뤄	-11435
▁다쳤	-11436
▁동두	-11437
▁따를	-11438
▁로움	-11439
▁르노	-11440
▁만찬	-11441
▁멈춰	-11442
▁모시	-11443
▁벽화	-11444
▁비틀	-11445
▁서산	-11446
▁숨기	-11447
▁심청	-11448
▁양념	-11449
▁양평	-11450
▁와중	-11451
▁인계	-11452
▁입안	-11453
▁정유	-11454
▁조망	-11455
▁취했	-11456
▁헌장	-11457
게이션	-11458
소시엄	-11459
▁The	-11460
▁건설사	-11461
▁디폴트	-11462
▁면역력	-11463
▁스트립	-11464
▁엑스포	-11465
▁임상의	-11466
▁헝가리	-11467
▁eGFR	-11468
▁들어간다	-11469
▁컨소시엄	-11470
▁페이스트	-11471
▁내비게이션	-11472
▁뇨	-11473
▁럴	-11474
걸음	-11475
▁KA	-11476
▁NK	-11477
▁국지	-11478
▁기수	-11479
▁낚시	-11480
▁납치	-11481
▁내정	-11482
▁농작	-11483
▁다치	-11484
▁덮개	-11485
▁드린	-11486
▁마산	-11487
▁만연	-11488
▁수취	-11489
▁시안	-11490
▁실존	-11491
▁역행	-11492
▁연마	-11493
▁올레	-11494
▁우물	-11495
▁절부	-11496
▁키즈	-11497
▁헤지	-11498
▁황산	-11499
▁흉막	-11500
▁186	-11501
▁930	-11502
▁FFF	-11503
▁ZnO	-11504
▁경제력	-11505
▁교육장	-11506
▁낙동강	-11507
▁뛰어들	-11508
▁생겨나	-11509
▁수출입	-11510
▁실무자	-11511
▁인코더	-11512
▁청구인	-11513
▁충전기	-11514
▁투과성	-11515
이탈주민	-11516
▁동남아시아	-11517
▁북한이탈주민	-11518
tr	-11519
면체	-11520
바람	-11521
볶이	-11522
하수	-11523
▁LP	-11524
▁ha	-11525
▁구금	-11526
▁국유	-11527
▁김의	-11528
▁꾸려	-11529
▁동요	-11530
▁레그	-11531
▁맛집	-11532
▁범프	-11533
▁불쾌	-11534
▁셰프	-11535
▁역류	-11536
▁예쁘	-11537
▁워치	-11538
▁유쾌	-11539
▁이길	-11540
▁주성	-11541
▁차체	-11542
▁품격	-11543
▁후퇴	-11544
▁WTO	-11545
▁가습기	-11546
▁경사면	-11547
▁고전압	-11548
▁그루브	-11549
▁글라스	-11550
▁넘어선	-11551
▁다이아	-11552
▁만족감	-11553
▁부의장	-11554
▁소수자	-11555
▁안산시	-11556
▁예술단	-11557
▁오렌지	-11558
▁한다며	-11559
▁합격자	-11560
▁합시다	-11561
▁나옵니다	-11562
▁자연환경	-11563
▁테러리즘	-11564
바이러스제	-11565
▁항바이러스제	-11566
날두	-11567
라리	-11568
레탄	-11569
산성	-11570
위치	-11571
크라	-11572
▁MI	-11573
▁간장	-11574
▁귀하	-11575
▁낙하	-11576
▁넓히	-11577
▁대검	-11578
▁대내	-11579
▁던져	-11580
▁듀얼	-11581
▁로켓	-11582
▁모욕	-11583
▁몰수	-11584
▁박용	-11585
▁박해	-11586
▁상봉	-11587
▁설탕	-11588
▁신나	-11589
▁신종	-11590
▁어지	-11591
▁엄중	-11592
▁엿볼	-11593
▁욕설	-11594
▁용적	-11595
▁유네	-11596
▁육박	-11597
▁이노	-11598
▁이데	-11599
▁입맛	-11600
▁전증	-11601
▁충동	-11602
▁친수	-11603
▁한참	-11604
▁할게	-11605
▁합당	-11606
▁항고	-11607
▁현명	-11608
▁흑색	-11609
▁159	-11610
▁304	-11611
▁ILD	-11612
▁딜레마	-11613
▁불린다	-11614
▁색다른	-11615
▁성황리	-11616
▁아우르	-11617
▁알킬기	-11618
▁제작자	-11619
▁좀처럼	-11620
▁최우수	-11621
▁호날두	-11622
▁황교안	-11623
▁1987	-11624
▁마그네슘	-11625
▁신진대사	-11626
▁원합니다	-11627
▁COVID	-11628
▁딘	-11629
▁람	-11630
경화	-11631
날레	-11632
운서	-11633
인수	-11634
팩트	-11635
▁FT	-11636
▁OC	-11637
▁Sc	-11638
▁가담	-11639
▁각계	-11640
▁결장	-11641
▁그분	-11642
▁김광	-11643
▁김일	-11644
▁도대	-11645
▁리플	-11646
▁서빙	-11647
▁시아	-11648
▁악의	-11649
▁어렸	-11650
▁예우	-11651
▁요산	-11652
▁잔차	-11653
▁중형	-11654
▁체조	-11655
▁총기	-11656
▁케인	-11657
▁콘트	-11658
▁크롬	-11659
▁클린	-11660
▁폐색	-11661
▁한약	-11662
▁후유	-11663
▁332	-11664
▁GDM	-11665
▁가르침	-11666
▁결승전	-11667
▁대용량	-11668
▁돌아올	-11669
▁떡볶이	-11670
▁라면서	-11671
▁라인업	-11672
▁분석기	-11673
▁불어넣	-11674
▁수혜자	-11675
▁스캐너	-11676
▁에틸렌	-11677
▁일으켜	-11678
▁파일럿	-11679
▁프레드	-11680
▁갑상선암	-11681
▁기울여야	-11682
▁아나운서	-11683
▁유네스코	-11684
▁할리우드	-11685
GI	-11686
RP	-11687
ge	-11688
▁껍	-11689
▁랄	-11690
▁밍	-11691
▁잭	-11692
독성	-11693
들여	-11694
셔츠	-11695
하이	-11696
ite	-11697
▁과언	-11698
▁그해	-11699
▁다녔	-11700
▁무증	-11701
▁백업	-11702
▁비엔	-11703
▁수열	-11704
▁순찰	-11705
▁스템	-11706
▁안락	-11707
▁알릴	-11708
▁야채	-11709
▁외기	-11710
▁입대	-11711
▁자명	-11712
▁정년	-11713
▁지평	-11714
▁차액	-11715
▁출토	-11716
▁파단	-11717
▁파도	-11718
▁풍토	-11719
▁함침	-11720
▁획일	-11721
▁253	-11722
▁RFA	-11723
▁경쟁자	-11724
▁국공립	-11725
▁라오스	-11726
▁메탄올	-11727
▁스트로	-11728
▁인산염	-11729
▁지지층	-11730
▁충실히	-11731
▁1986	-11732
▁대통령령	-11733
▁무형문화재	-11734
GO	-11735
노동	-11736
방울	-11737
벌이	-11738
텐셜	-11739
ath	-11740
ost	-11741
▁개년	-11742
▁경진	-11743
▁곡률	-11744
▁구원	-11745
▁그립	-11746
▁기형	-11747
▁노예	-11748
▁다닐	-11749
▁머니	-11750
▁모성	-11751
▁바스	-11752
▁박상	-11753
▁베드	-11754
▁생소	-11755
▁신도	-11756
▁에듀	-11757
▁영아	-11758
▁온갖	-11759
▁원금	-11760
▁유두	-11761
▁이분	-11762
▁자릿	-11763
▁조경	-11764
▁진열	-11765
▁통영	-11766
▁페달	-11767
▁피력	-11768
▁피우	-11769
라비아	-11770
시경제	-11771
▁314	-11772
▁ACT	-11773
▁백분율	-11774
▁완성도	-11775
▁클러치	-11776
▁타이머	-11777
▁플랜트	-11778
▁회의소	-11779
▁1310	-11780
▁거시경제	-11781
▁샌드위치	-11782
▁십이지장	-11783
▁아이스크림	-11784
▁럼	-11785
ial	-11786
▁AE	-11787
▁LM	-11788
▁WS	-11789
▁간행	-11790
▁고치	-11791
▁관용	-11792
▁기압	-11793
▁내기	-11794
▁내열	-11795
▁넥슨	-11796
▁닫힌	-11797
▁만만	-11798
▁박종	-11799
▁비관	-11800
▁산술	-11801
▁선의	-11802
▁실사	-11803
▁쌓이	-11804
▁예민	-11805
▁원했	-11806
▁월등	-11807
▁이너	-11808
▁잇달	-11809
▁잉여	-11810
▁페미	-11811
▁펜션	-11812
▁한시	-11813
ment	-11814
▁601	-11815
▁con	-11816
▁고용부	-11817
▁과체중	-11818
▁교육자	-11819
▁도봉구	-11820
▁매립지	-11821
▁성동구	-11822
▁1020	-11823
▁1930	-11824
▁가리킨다	-11825
▁교섭단체	-11826
▁구성요건	-11827
▁오토바이	-11828
ND	-11829
그러	-11830
랑이	-11831
전압	-11832
체어	-11833
회로	-11834
our	-11835
▁공극	-11836
▁모였	-11837
▁모험	-11838
▁바빠	-11839
▁반기	-11840
▁벚꽃	-11841
▁서두	-11842
▁요철	-11843
▁원해	-11844
▁인삼	-11845
▁일탈	-11846
▁재선	-11847
▁전보	-11848
▁전소	-11849
▁지르	-11850
▁창단	-11851
▁체지	-11852
▁초보	-11853
▁출사	-11854
▁홀딩	-11855
▁611	-11856
▁강력히	-11857
▁고려대	-11858
▁기다렸	-11859
▁레이스	-11860
▁매도인	-11861
▁이마트	-11862
▁전도도	-11863
▁전시관	-11864
▁중개사	-11865
▁진통제	-11866
▁천안시	-11867
▁콜라겐	-11868
▁핵무기	-11869
▁화성시	-11870
▁휠체어	-11871
▁1220	-11872
▁2025	-11873
▁아메리카	-11874
▁련	-11875
로움	-11876
집합	-11877
▁GI	-11878
▁QR	-11879
▁RB	-11880
▁교구	-11881
▁내보	-11882
▁담석	-11883
▁디포	-11884
▁막히	-11885
▁미숙	-11886
▁변색	-11887
▁병사	-11888
▁새우	-11889
▁속해	-11890
▁슬립	-11891
▁아민	-11892
▁에버	-11893
▁여라	-11894
▁일행	-11895
▁임부	-11896
▁잡힌	-11897
▁조원	-11898
▁축물	-11899
▁후임	-11900
갑니다	-11901
▁234	-11902
▁CSI	-11903
▁국제법	-11904
▁나아갈	-11905
▁로버트	-11906
▁무증상	-11907
▁바이올	-11908
▁전자파	-11909
▁출납원	-11910
▁커머스	-11911
▁패혈증	-11912
▁히스토	-11913
▁마이크로폰	-11914
권법	-11915
리안	-11916
무늬	-11917
은색	-11918
▁Bl	-11919
▁가락	-11920
▁간질	-11921
▁개조	-11922
▁계발	-11923
▁고해	-11924
▁귀추	-11925
▁규약	-11926
▁나마	-11927
▁놀랐	-11928
▁대관	-11929
▁등판	-11930
▁미스	-11931
▁반감	-11932
▁발상	-11933
▁방범	-11934
▁부풀	-11935
▁상국	-11936
▁상소	-11937
▁쌍방	-11938
▁연신	-11939
▁연정	-11940
▁울리	-11941
▁월별	-11942
▁의안	-11943
▁재결	-11944
▁주먹	-11945
▁증도	-11946
▁증자	-11947
▁착각	-11948
▁처하	-11949
▁측근	-11950
▁팝업	-11951
▁하한	-11952
▁형량	-11953
킵니다	-11954
ical	-11955
▁LCD	-11956
▁관찰자	-11957
▁냉동실	-11958
▁노회찬	-11959
▁민원인	-11960
▁바로잡	-11961
▁불거졌	-11962
▁유니폼	-11963
▁전시장	-11964
▁조형물	-11965
▁지방분	-11966
▁지지대	-11967
▁출산율	-11968
▁마드리드	-11969
▁놨	-11970
▁톨	-11971
▁풋	-11972
▁걸맞	-11973
▁그렸	-11974
▁김선	-11975
▁낙후	-11976
▁다원	-11977
▁두부	-11978
▁뚜껑	-11979
▁마술	-11980
▁무당	-11981
▁바나	-11982
▁본연	-11983
▁송영	-11984
▁양단	-11985
▁엣지	-11986
▁연차	-11987
▁열광	-11988
▁인내	-11989
▁점프	-11990
▁정반	-11991
▁주전	-11992
▁지날	-11993
▁청결	-11994
▁체형	-11995
▁치밀	-11996
▁커리	-11997
▁LPG	-11998
▁SiC	-11999
▁개발비	-12000
▁느껴졌	-12001
▁도대체	-12002
▁반지름	-12003
▁수자원	-12004
▁스태프	-12005
▁주성분	-12006
▁축산물	-12007
▁카타르	-12008
▁티셔츠	-12009
▁아인슈타인	-12010
az	-12011
싸움	-12012
재단	-12013
ale	-12014
▁DF	-12015
▁NT	-12016
▁VP	-12017
▁계류	-12018
▁관문	-12019
▁논평	-12020
▁두루	-12021
▁리프	-12022
▁명창	-12023
▁미묘	-12024
▁배럴	-12025
▁버티	-12026
▁브릿	-12027
▁빛나	-12028
▁새끼	-12029
▁셔터	-12030
▁수제	-12031
▁역세	-12032
▁연어	-12033
▁오더	-12034
▁이체	-12035
▁자수	-12036
▁절망	-12037
▁조장	-12038
▁체외	-12039
▁친한	-12040
▁한중	-12041
▁항균	-12042
▁해온	-12043
데이터	-12044
부르크	-12045
▁413	-12046
▁나이트	-12047
▁돌파구	-12048
▁들어올	-12049
▁밝혀진	-12050
▁생리학	-12051
▁소비세	-12052
▁소재지	-12053
▁인터랙	-12054
▁조용히	-12055
▁중앙값	-12056
▁태권도	-12057
▁스튜어드	-12058
▁줄어든다	-12059
▁메타데이터	-12060
더스	-12061
루빈	-12062
소성	-12063
end	-12064
ock	-12065
▁AH	-12066
▁EX	-12067
▁근래	-12068
▁내달	-12069
▁네이	-12070
▁든든	-12071
▁막혀	-12072
▁반투	-12073
▁발신	-12074
▁북구	-12075
▁서적	-12076
▁세르	-12077
▁수혈	-12078
▁신의	-12079
▁안티	-12080
▁어딘	-12081
▁오바	-12082
▁잔디	-12083
▁재검	-12084
▁재계	-12085
▁점용	-12086
▁접한	-12087
▁제빙	-12088
▁중과	-12089
▁중산	-12090
▁참관	-12091
▁청춘	-12092
▁틀림	-12093
▁패킹	-12094
▁평상	-12095
▁행할	-12096
▁화질	-12097
▁LDL	-12098
▁가용성	-12099
▁볼게요	-12100
▁브라운	-12101
▁어서다	-12102
▁언론인	-12103
▁원통형	-12104
▁출입국	-12105
▁펼쳐졌	-12106
▁후유증	-12107
▁대표소송	-12108
▁모스크바	-12109
▁빌리루빈	-12110
▁자궁경부	-12111
pp	-12112
▁닛	-12113
▁찔	-12114
▁켄	-12115
구심	-12116
무실	-12117
사항	-12118
소비	-12119
ver	-12120
▁kW	-12121
▁가라	-12122
▁가성	-12123
▁낮춰	-12124
▁던졌	-12125
▁말미	-12126
▁민중	-12127
▁백금	-12128
▁불길	-12129
▁사육	-12130
▁선체	-12131
▁수호	-12132
▁스퍼	-12133
▁시카	-12134
▁씨앗	-12135
▁육종	-12136
▁은닉	-12137
▁제천	-12138
▁직각	-12139
▁추운	-12140
▁칸트	-12141
▁피트	-12142
▁하류	-12143
▁한옥	-12144
케이터	-12145
▁208	-12146
▁216	-12147
▁괴롭힘	-12148
▁덴마크	-12149
▁산업체	-12150
▁스테인	-12151
▁여배우	-12152
▁의구심	-12153
▁정맥류	-12154
▁정밀도	-12155
▁컨디션	-12156
▁파주시	-12157
▁퍼텐셜	-12158
▁돌아다니	-12159
▁플라스마	-12160
RI	-12161
▁쳤	-12162
권력	-12163
내리	-12164
병원	-12165
상도	-12166
에이	-12167
저우	-12168
철수	-12169
통일	-12170
▁Mo	-12171
▁VS	-12172
▁간결	-12173
▁공천	-12174
▁누워	-12175
▁대마	-12176
▁딸기	-12177
▁맛볼	-12178
▁무슬	-12179
▁민요	-12180
▁반고	-12181
▁복리	-12182
▁부임	-12183
▁상설	-12184
▁스승	-12185
▁열망	-12186
▁우버	-12187
▁위쪽	-12188
▁유총	-12189
▁의례	-12190
▁인보	-12191
▁일당	-12192
▁임박	-12193
▁장갑	-12194
▁전가	-12195
▁조카	-12196
▁차종	-12197
▁착안	-12198
▁최후	-12199
▁코레	-12200
▁폴더	-12201
▁표방	-12202
▁플리	-12203
▁하급	-12204
▁학살	-12205
▁해촉	-12206
▁호조	-12207
▁184	-12208
▁261	-12209
▁305	-12210
▁480	-12211
▁넘겨진	-12212
▁눈높이	-12213
▁십니까	-12214
▁어려우	-12215
▁이동하	-12216
▁지휘자	-12217
▁진동수	-12218
▁토론토	-12219
▁폐쇄성	-12220
▁핀란드	-12221
▁오스트리아	-12222
▁낱	-12223
▁녀	-12224
지배	-12225
행사	-12226
▁VA	-12227
▁강령	-12228
▁개도	-12229
▁급기	-12230
▁김준	-12231
▁다변	-12232
▁대시	-12233
▁덧셈	-12234
▁변해	-12235
▁사본	-12236
▁선관	-12237
▁선착	-12238
▁성기	-12239
▁송환	-12240
▁순조	-12241
▁아바	-12242
▁오산	-12243
▁완만	-12244
▁운임	-12245
▁유휴	-12246
▁유흥	-12247
▁음수	-12248
▁제네	-12249
▁춘향	-12250
▁쿠키	-12251
▁퇴장	-12252
▁티저	-12253
▁프론	-12254
▁픽업	-12255
▁한우	-12256
▁힙합	-12257
으므로	-12258
체스터	-12259
▁166	-12260
▁RRC	-12261
▁나경원	-12262
▁나와서	-12263
▁못해서	-12264
▁무슬림	-12265
▁박원순	-12266
▁열분해	-12267
▁의견서	-12268
▁지켜야	-12269
▁후보자	-12270
▁흘러나	-12271
젠테이션	-12272
▁SGLT	-12273
▁사우디아	-12274
▁이뤄져야	-12275
OA	-12276
▁샵	-12277
▁켈	-12278
벨트	-12279
부즈	-12280
저트	-12281
촉매	-12282
▁De	-12283
▁간직	-12284
▁경학	-12285
▁궁중	-12286
▁낸드	-12287
▁농경	-12288
▁늘릴	-12289
▁동창	-12290
▁리무	-12291
▁매질	-12292
▁미네	-12293
▁부검	-12294
▁부시	-12295
▁비린	-12296
▁수액	-12297
▁슈팅	-12298
▁스윙	-12299
▁암기	-12300
▁연탄	-12301
▁영암	-12302
▁유언	-12303
▁인조	-12304
▁잠수	-12305
▁탈피	-12306
▁파편	-12307
▁펜스	-12308
▁포수	-12309
▁호가	-12310
▁252	-12311
▁CAS	-12312
▁HBs	-12313
▁VDD	-12314
▁XRD	-12315
▁고속도	-12316
▁공정성	-12317
▁기간제	-12318
▁다룬다	-12319
▁도시락	-12320
▁명백히	-12321
▁발열체	-12322
▁브릿지	-12323
▁슬레이	-12324
▁오리지	-12325
▁옴부즈	-12326
▁일본군	-12327
▁창원시	-12328
▁청구서	-12329
▁필요시	-12330
▁mRNA	-12331
▁사우디아라비아	-12332
기성	-12333
수단	-12334
지가	-12335
테랑	-12336
ice	-12337
▁BD	-12338
▁감옥	-12339
▁강정	-12340
▁견디	-12341
▁극도	-12342
▁납득	-12343
▁누나	-12344
▁말라	-12345
▁매몰	-12346
▁베젤	-12347
▁봉합	-12348
▁불문	-12349
▁빠질	-12350
▁소증	-12351
▁안구	-12352
▁연중	-12353
▁옥외	-12354
▁온천	-12355
▁왕실	-12356
▁의병	-12357
▁장로	-12358
▁찬양	-12359
▁책자	-12360
▁총무	-12361
▁충원	-12362
▁충주	-12363
▁피싱	-12364
▁화두	-12365
▁후진	-12366
소비세	-12367
bach	-12368
▁API	-12369
▁ECC	-12370
▁게시물	-12371
▁경쟁사	-12372
▁블랙홀	-12373
▁세계인	-12374
▁암세포	-12375
▁융자금	-12376
▁메타분석	-12377
▁바이패스	-12378
▁법인세법	-12379
▁지방소비세	-12380
VC	-12381
군요	-12382
근무	-12383
▁BN	-12384
▁de	-12385
▁내전	-12386
▁니스	-12387
▁력사	-12388
▁메달	-12389
▁모빌	-12390
▁부른	-12391
▁사냥	-12392
▁소오	-12393
▁수고	-12394
▁아릴	-12395
▁앙상	-12396
▁어색	-12397
▁에르	-12398
▁전경	-12399
▁처해	-12400
▁케미	-12401
▁쿠션	-12402
▁파문	-12403
▁하차	-12404
▁호황	-12405
▁178	-12406
▁333	-12407
▁TFT	-12408
▁관리관	-12409
▁다녀왔	-12410
▁디저트	-12411
▁보증인	-12412
▁브로드	-12413
▁사업소	-12414
▁설계사	-12415
▁시각화	-12416
▁심박수	-12417
▁에이스	-12418
▁올바르	-12419
▁음악가	-12420
▁플랜지	-12421
스테로이드	-12422
▁인디케이터	-12423
▁코르티코스테로이드	-12424
래스	-12425
슬러	-12426
재판	-12427
▁GF	-12428
▁IH	-12429
▁UC	-12430
▁UL	-12431
▁가급	-12432
▁건네	-12433
▁과부	-12434
▁기포	-12435
▁꼬집	-12436
▁낙상	-12437
▁낭만	-12438
▁도표	-12439
▁멜로	-12440
▁무주	-12441
▁반론	-12442
▁반장	-12443
▁삼국	-12444
▁손꼽	-12445
▁실전	-12446
▁외장	-12447
▁육안	-12448
▁의외	-12449
▁일터	-12450
▁자각	-12451
▁작사	-12452
▁장력	-12453
▁조수	-12454
▁지반	-12455
▁토너	-12456
▁평정	-12457
▁피타	-12458
▁학제	-12459
▁한파	-12460
▁허벅	-12461
ight	-12462
▁BTS	-12463
▁KIA	-12464
▁TSH	-12465
▁가구원	-12466
▁김영철	-12467
▁바라본	-12468
▁발생량	-12469
▁보고회	-12470
▁살아갈	-12471
▁신가요	-12472
▁실외기	-12473
▁주거지	-12474
▁줄게요	-12475
▁지지자	-12476
▁포르투	-12477
▁그러니까	-12478
▁맨체스터	-12479
스레	-12480
양호	-12481
▁갖췄	-12482
▁고취	-12483
▁교내	-12484
▁교훈	-12485
▁구면	-12486
▁깔려	-12487
▁넘겼	-12488
▁단과	-12489
▁답방	-12490
▁도왔	-12491
▁박영	-12492
▁부친	-12493
▁열대	-12494
▁예제	-12495
▁용서	-12496
▁원어	-12497
▁이치	-12498
▁입술	-12499
▁정극	-12500
▁즉석	-12501
▁축전	-12502
▁치중	-12503
▁파란	-12504
▁폐질	-12505
▁하트	-12506
▁학령	-12507
▁관리인	-12508
▁기념일	-12509
▁베테랑	-12510
▁부산물	-12511
▁서포터	-12512
▁쏠린다	-12513
▁인허가	-12514
▁진다고	-12515
▁측정기	-12516
▁케이티	-12517
▁호산구	-12518
▁고해상도	-12519
▁교통수단	-12520
▁브라우저	-12521
YP	-12522
ai	-12523
밀리	-12524
시블	-12525
전력	-12526
종일	-12527
지르	-12528
취업	-12529
ork	-12530
▁Me	-12531
▁an	-12532
▁가부	-12533
▁개요	-12534
▁군데	-12535
▁농성	-12536
▁니다	-12537
▁당면	-12538
▁던진	-12539
▁디아	-12540
▁맞출	-12541
▁먹방	-12542
▁몸통	-12543
▁비드	-12544
▁사막	-12545
▁서정	-12546
▁세븐	-12547
▁숙명	-12548
▁승점	-12549
▁심방	-12550
▁야권	-12551
▁연고	-12552
▁예탁	-12553
▁울릉	-12554
▁원안	-12555
▁잡아	-12556
▁적폐	-12557
▁절충	-12558
▁첨예	-12559
▁치른	-12560
▁허약	-12561
▁화염	-12562
▁323	-12563
▁660	-12564
▁HBe	-12565
▁가급적	-12566
▁가압류	-12567
▁남다른	-12568
▁노란색	-12569
▁단거리	-12570
▁동반자	-12571
▁비대위	-12572
▁숨겨진	-12573
▁알려야	-12574
▁자릿수	-12575
▁코엑스	-12576
▁파란색	-12577
▁포인터	-12578
▁오리지널	-12579
▁플렉시블	-12580
▁하이닉스	-12581
▁다이아몬드	-12582
GA	-12583
LL	-12584
TS	-12585
▁끔	-12586
고루	-12587
능력	-12588
무장	-12589
사스	-12590
중독	-12591
퍼니	-12592
EAM	-12593
▁tv	-12594
▁개회	-12595
▁고착	-12596
▁굴착	-12597
▁극우	-12598
▁나비	-12599
▁동점	-12600
▁뒤쪽	-12601
▁려던	-12602
▁모음	-12603
▁방증	-12604
▁보물	-12605
▁비빔	-12606
▁서원	-12607
▁세이	-12608
▁신작	-12609
▁쓰인	-12610
▁알맞	-12611
▁은혜	-12612
▁이끈	-12613
▁이순	-12614
▁자력	-12615
▁장성	-12616
▁증정	-12617
▁징벌	-12618
▁청자	-12619
▁최정	-12620
▁커진	-12621
▁탈구	-12622
▁폭락	-12623
▁표집	-12624
▁혼재	-12625
▁화기	-12626
▁회색	-12627
하수체	-12628
ence	-12629
▁ETV	-12630
▁MOU	-12631
▁경로당	-12632
▁마라톤	-12633
▁법인격	-12634
▁봅시다	-12635
▁부작위	-12636
▁생활비	-12637
▁실업자	-12638
▁쏟아져	-12639
▁에어백	-12640
▁원활히	-12641
▁은평구	-12642
▁자이로	-12643
▁장거리	-12644
▁증류수	-12645
▁차가운	-12646
▁체육회	-12647
▁컴퍼니	-12648
▁활동가	-12649
▁1600	-12650
▁뇌하수체	-12651
▁통합교육	-12652
▁행정소송	-12653
onbach	-12654
축구	-12655
프란	-12656
▁PW	-12657
▁Pl	-12658
▁Se	-12659
▁ac	-12660
▁가꾸	-12661
▁감응	-12662
▁강자	-12663
▁거둘	-12664
▁경골	-12665
▁굽힘	-12666
▁낯설	-12667
▁마법	-12668
▁맥스	-12669
▁문체	-12670
▁물려	-12671
▁방제	-12672
▁방화	-12673
▁베어	-12674
▁석사	-12675
▁섞여	-12676
▁수의	-12677
▁스런	-12678
▁아사	-12679
▁안개	-12680
▁엑소	-12681
▁연패	-12682
▁예치	-12683
▁잡히	-12684
▁주역	-12685
▁차동	-12686
▁컴백	-12687
▁쿼터	-12688
▁탄압	-12689
▁피어	-12690
▁한두	-12691
▁Sch	-12692
▁골격계	-12693
▁골고루	-12694
▁다저스	-12695
▁사우스	-12696
▁시간대	-12697
▁어긋나	-12698
▁어때요	-12699
▁요컨대	-12700
▁재취업	-12701
▁제안서	-12702
▁주민세	-12703
▁텍사스	-12704
▁폐질환	-12705
▁한국학	-12706
▁1985	-12707
▁돼지고기	-12708
▁사회단체	-12709
▁어린아이	-12710
보기	-12711
차원	-12712
ann	-12713
ole	-12714
▁고졸	-12715
▁광경	-12716
▁기승	-12717
▁끌려	-12718
▁눈앞	-12719
▁니트	-12720
▁따랐	-12721
▁래퍼	-12722
▁불기	-12723
▁불변	-12724
▁불화	-12725
▁비결	-12726
▁비수	-12727
▁사체	-12728
▁설렘	-12729
▁수임	-12730
▁시속	-12731
▁약사	-12732
▁우아	-12733
▁위수	-12734
▁이낙	-12735
▁조산	-12736
▁주둔	-12737
▁펀트	-12738
▁하프	-12739
▁화음	-12740
▁129	-12741
▁Kim	-12742
▁com	-12743
▁교차로	-12744
▁두꺼운	-12745
▁발사체	-12746
▁새로이	-12747
▁소수성	-12748
▁아래쪽	-12749
▁의료법	-12750
▁장례식	-12751
▁조속히	-12752
▁최상위	-12753
▁2100	-12754
▁샌드박스	-12755
▁이산가족	-12756
▁할지라도	-12757
▁블랙리스트	-12758
▁부탁드립니다	-12759
▁잣	-12760
▁톰	-12761
걸리	-12762
냅스	-12763
로기	-12764
버거	-12765
수수	-12766
화기	-12767
ber	-12768
▁AG	-12769
▁Pt	-12770
▁sp	-12771
▁가닥	-12772
▁각하	-12773
▁강국	-12774
▁거액	-12775
▁견지	-12776
▁공과	-12777
▁군민	-12778
▁끔찍	-12779
▁담회	-12780
▁도예	-12781
▁떠날	-12782
▁마실	-12783
▁버블	-12784
▁보컬	-12785
▁본점	-12786
▁불허	-12787
▁사멸	-12788
▁사방	-12789
▁서귀	-12790
▁성금	-12791
▁센스	-12792
▁실은	-12793
▁어촌	-12794
▁영미	-12795
▁욕심	-12796
▁유창	-12797
▁응모	-12798
▁이리	-12799
▁줄지	-12800
▁키움	-12801
▁판타	-12802
▁팽팽	-12803
▁해역	-12804
▁431	-12805
▁결정립	-12806
▁계획안	-12807
▁농작물	-12808
▁드러낸	-12809
▁리소스	-12810
▁맞벌이	-12811
▁소나무	-12812
▁시냅스	-12813
▁심부전	-12814
▁의무자	-12815
▁이재용	-12816
▁인증서	-12817
▁찾아와	-12818
▁특례법	-12819
▁펼친다	-12820
▁했으니	-12821
▁허벅지	-12822
▁횡단면	-12823
▁1945	-12824
▁테마파크	-12825
▁포르투갈	-12826
▁HBeAg	-12827
▁Cronbach	-12828
듀서	-12829
려요	-12830
ata	-12831
▁HV	-12832
▁OA	-12833
▁검열	-12834
▁격렬	-12835
▁경신	-12836
▁경추	-12837
▁기종	-12838
▁노브	-12839
▁다지	-12840
▁대물	-12841
▁동공	-12842
▁레시	-12843
▁레알	-12844
▁모닝	-12845
▁무궁	-12846
▁믹스	-12847
▁보궐	-12848
▁본능	-12849
▁봉쇄	-12850
▁암묵	-12851
▁연희	-12852
▁예년	-12853
▁원만	-12854
▁자르	-12855
▁장마	-12856
▁재물	-12857
▁저변	-12858
▁전입	-12859
▁전장	-12860
▁정우	-12861
▁제지	-12862
▁조재	-12863
▁주춤	-12864
▁탈수	-12865
▁택하	-12866
▁형질	-12867
▁후견	-12868
불이행	-12869
칩니다	-12870
▁701	-12871
▁RAS	-12872
▁공매도	-12873
▁내용물	-12874
▁더해져	-12875
▁반대편	-12876
▁스크립	-12877
▁엘리트	-12878
▁이낙연	-12879
▁주어졌	-12880
▁취약점	-12881
▁키패드	-12882
▁티타늄	-12883
▁펼쳐질	-12884
▁함유량	-12885
▁강제집행	-12886
▁국민은행	-12887
▁충청남도	-12888
▁패스워드	-12889
▁프로듀서	-12890
NO	-12891
오르	-12892
프레	-12893
하인	-12894
ind	-12895
rop	-12896
▁YG	-12897
▁pl	-12898
▁각오	-12899
▁각인	-12900
▁기말	-12901
▁노란	-12902
▁반찬	-12903
▁벌크	-12904
▁손길	-12905
▁온다	-12906
▁원부	-12907
▁이별	-12908
▁이적	-12909
▁일명	-12910
▁자백	-12911
▁자형	-12912
▁잠복	-12913
▁절염	-12914
▁준칙	-12915
▁채울	-12916
▁추심	-12917
▁파기	-12918
▁평년	-12919
▁풍물	-12920
▁해답	-12921
▁해커	-12922
▁휴먼	-12923
▁히스	-12924
▁167	-12925
▁MHz	-12926
▁갱년기	-12927
▁국내법	-12928
▁급속도	-12929
▁기획사	-12930
▁나간다	-12931
▁돌아갔	-12932
▁동일시	-12933
▁루푸스	-12934
▁리포트	-12935
▁배출구	-12936
▁밸런스	-12937
▁스미스	-12938
▁시카고	-12939
▁식중독	-12940
▁오바마	-12941
▁올라온	-12942
▁절연체	-12943
▁항공편	-12944
▁현대인	-12945
▁날카로운	-12946
▁시킵니다	-12947
▁어우러진	-12948
▁채무불이행	-12949
ry	-12950
▁촘	-12951
매스	-12952
미르	-12953
센스	-12954
시마	-12955
어졌	-12956
학규	-12957
▁OO	-12958
▁fl	-12959
▁갈비	-12960
▁강건	-12961
▁개학	-12962
▁내실	-12963
▁넉넉	-12964
▁더리	-12965
▁동방	-12966
▁루트	-12967
▁맞닿	-12968
▁반증	-12969
▁상륙	-12970
▁선반	-12971
▁소추	-12972
▁손금	-12973
▁수온	-12974
▁실과	-12975
▁아밀	-12976
▁앞쪽	-12977
▁여겼	-12978
▁외벽	-12979
▁유능	-12980
▁점령	-12981
▁키스	-12982
▁평활	-12983
▁포탈	-12984
▁폭풍	-12985
▁피처	-12986
▁학식	-12987
▁해독	-12988
▁회식	-12989
시스코	-12990
올로기	-12991
▁158	-12992
▁168	-12993
▁405	-12994
▁602	-12995
▁ABC	-12996
▁STA	-12997
▁감소세	-12998
▁경기력	-12999
▁그런지	-13000
▁금천구	-13001
▁내려오	-13002
▁대상지	-13003
▁동물원	-13004
▁부딪히	-13005
▁서귀포	-13006
▁소방대	-13007
▁앙상블	-13008
▁왔으며	-13009
▁저질렀	-13010
▁테니스	-13011
▁통찰력	-13012
ystem	-13013
▁마이크로파	-13014
▁바이오매스	-13015
▁이데올로기	-13016
렉터	-13017
바다	-13018
oll	-13019
▁DO	-13020
▁FM	-13021
▁가루	-13022
▁고강	-13023
▁관사	-13024
▁그야	-13025
▁닥터	-13026
▁덕목	-13027
▁독보	-13028
▁되살	-13029
▁듀이	-13030
▁라틴	-13031
▁몸매	-13032
▁바둑	-13033
▁백두	-13034
▁베리	-13035
▁보직	-13036
▁부결	-13037
▁부들	-13038
▁사제	-13039
▁선동	-13040
▁성관	-13041
▁성악	-13042
▁세팅	-13043
▁스쳐	-13044
▁실려	-13045
▁심포	-13046
▁온열	-13047
▁요새	-13048
▁용출	-13049
▁인트	-13050
▁일률	-13051
▁집필	-13052
▁차용	-13053
▁추궁	-13054
▁키울	-13055
▁팔리	-13056
▁편평	-13057
▁협소	-13058
▁흡기	-13059
▁힘쓰	-13060
▁570	-13061
▁TGF	-13062
▁경계선	-13063
▁금융업	-13064
▁꼼꼼히	-13065
▁내려진	-13066
▁다항식	-13067
▁무한히	-13068
▁바라볼	-13069
▁손학규	-13070
▁스터디	-13071
▁스페셜	-13072
▁아리랑	-13073
▁아세트	-13074
▁원리금	-13075
▁월스트	-13076
▁음란물	-13077
▁정통부	-13078
▁페르마	-13079
▁햄버거	-13080
▁의료관광	-13081
▁조선일보	-13082
▁월스트리트	-13083
AP	-13084
ne	-13085
se	-13086
▁싹	-13087
라틴	-13088
마리	-13089
셀러	-13090
즈니	-13091
혈병	-13092
ich	-13093
ium	-13094
▁on	-13095
▁계양	-13096
▁과천	-13097
▁구가	-13098
▁국사	-13099
▁금년	-13100
▁급진	-13101
▁남구	-13102
▁넘긴	-13103
▁넘쳐	-13104
▁느슨	-13105
▁동지	-13106
▁라스	-13107
▁마스	-13108
▁머릿	-13109
▁명사	-13110
▁미추	-13111
▁밤새	-13112
▁복도	-13113
▁북방	-13114
▁사당	-13115
▁소품	-13116
▁숨겨	-13117
▁승자	-13118
▁신사	-13119
▁신자	-13120
▁아키	-13121
▁어찌	-13122
▁요추	-13123
▁인대	-13124
▁저서	-13125
▁터부	-13126
▁포크	-13127
▁한라	-13128
고라스	-13129
스타일	-13130
아시아	-13131
▁Com	-13132
▁가구주	-13133
▁교수법	-13134
▁귀여운	-13135
▁끊임없	-13136
▁더구나	-13137
▁델파이	-13138
▁동시대	-13139
▁동의서	-13140
▁됩니까	-13141
▁막걸리	-13142
▁사무국	-13143
▁세탁기	-13144
▁수신자	-13145
▁열역학	-13146
▁원거리	-13147
▁유도체	-13148
▁적혈구	-13149
▁조양호	-13150
▁그야말로	-13151
▁노르웨이	-13152
▁랜드마크	-13153
▁보인다는	-13154
▁에너지원	-13155
▁커질수록	-13156
oh	-13157
▁깅	-13158
런트	-13159
보호	-13160
카락	-13161
ace	-13162
▁게놈	-13163
▁경질	-13164
▁귀가	-13165
▁급한	-13166
▁나흘	-13167
▁남미	-13168
▁단조	-13169
▁동사	-13170
▁리치	-13171
▁면부	-13172
▁발작	-13173
▁부트	-13174
▁사위	-13175
▁수화	-13176
▁습지	-13177
▁연한	-13178
▁열띤	-13179
▁영농	-13180
▁요동	-13181
▁월간	-13182
▁이럴	-13183
▁제발	-13184
▁줘요	-13185
▁지킴	-13186
▁진작	-13187
▁진증	-13188
▁차려	-13189
▁참작	-13190
▁통용	-13191
▁픽처	-13192
▁하와	-13193
▁학당	-13194
▁휴지	-13195
▁217	-13196
▁711	-13197
▁교도소	-13198
▁그림책	-13199
▁내다보	-13200
▁다시금	-13201
▁목격자	-13202
▁바이저	-13203
▁발걸음	-13204
▁불기소	-13205
▁산출물	-13206
▁수산화	-13207
▁시니어	-13208
▁아레나	-13209
▁이주민	-13210
▁인해서	-13211
▁자아냈	-13212
▁자존심	-13213
▁작아지	-13214
▁킨텍스	-13215
▁2200	-13216
▁국제기구	-13217
▁머리카락	-13218
▁보냅니다	-13219
▁덤	-13220
공원	-13221
빨리	-13222
잡이	-13223
철도	-13224
추어	-13225
▁갇혀	-13226
▁견학	-13227
▁고법	-13228
▁끝단	-13229
▁농담	-13230
▁동래	-13231
▁무방	-13232
▁무분	-13233
▁반원	-13234
▁배설	-13235
▁벤트	-13236
▁별세	-13237
▁불상	-13238
▁브레	-13239
▁사지	-13240
▁숙주	-13241
▁스와	-13242
▁압착	-13243
▁억지	-13244
▁연립	-13245
▁요트	-13246
▁자선	-13247
▁전례	-13248
▁절도	-13249
▁초임	-13250
▁촘촘	-13251
▁충무	-13252
▁카라	-13253
▁퇴치	-13254
▁포섭	-13255
▁피상	-13256
▁햇빛	-13257
끄러운	-13258
▁CMV	-13259
▁HMD	-13260
▁거듭나	-13261
▁단일팀	-13262
▁마음껏	-13263
▁마이클	-13264
▁목적물	-13265
▁복소수	-13266
▁숙박업	-13267
▁신다면	-13268
▁올라와	-13269
▁입주민	-13270
▁자유도	-13271
▁중성자	-13272
▁차단제	-13273
▁찾아왔	-13274
▁청소기	-13275
▁플라톤	-13276
지배구조	-13277
▁공시지가	-13278
▁두드러졌	-13279
▁기업지배구조	-13280
▁띤	-13281
▁킴	-13282
모니	-13283
실험	-13284
이크	-13285
재해	-13286
▁Ex	-13287
▁Gr	-13288
▁Mn	-13289
▁Te	-13290
▁가창	-13291
▁간혹	-13292
▁갈래	-13293
▁경선	-13294
▁고밀	-13295
▁구슬	-13296
▁규소	-13297
▁꼽혔	-13298
▁날로	-13299
▁낭성	-13300
▁농수	-13301
▁뇌파	-13302
▁니코	-13303
▁목욕	-13304
▁분무	-13305
▁사리	-13306
▁산다	-13307
▁수득	-13308
▁앞면	-13309
▁예기	-13310
▁왕세	-13311
▁유자	-13312
▁유혹	-13313
▁이시	-13314
▁잡혀	-13315
▁전열	-13316
▁톡톡	-13317
▁튜버	-13318
▁펼친	-13319
▁폐해	-13320
▁하남	-13321
러스트	-13322
주의자	-13323
ance	-13324
▁404	-13325
▁670	-13326
▁SUB	-13327
▁가족력	-13328
▁고용주	-13329
▁광촉매	-13330
▁당국자	-13331
▁두려워	-13332
▁머물렀	-13333
▁무분별	-13334
▁백혈병	-13335
▁부여받	-13336
▁상여금	-13337
▁샌프란	-13338
▁원발성	-13339
▁원어민	-13340
▁입소문	-13341
▁제자리	-13342
▁취한다	-13343
▁통지서	-13344
▁떨어뜨리	-13345
▁빠져나가	-13346
▁아마추어	-13347
▁이야말로	-13348
▁자연재해	-13349
▁피타고라스	-13350
▁샌프란시스코	-13351
ix	-13352
ps	-13353
▁뷔	-13354
▁팟	-13355
가상	-13356
간접	-13357
돌이	-13358
동기	-13359
명령	-13360
비드	-13361
사관	-13362
소연	-13363
풍기	-13364
▁He	-13365
▁Wi	-13366
▁경성	-13367
▁경청	-13368
▁관성	-13369
▁구절	-13370
▁난수	-13371
▁드럼	-13372
▁무겁	-13373
▁박자	-13374
▁사직	-13375
▁사학	-13376
▁슬리	-13377
▁아가	-13378
▁양대	-13379
▁어림	-13380
▁영산	-13381
▁오찬	-13382
▁외생	-13383
▁요가	-13384
▁워너	-13385
▁육지	-13386
▁이쪽	-13387
▁잡혔	-13388
▁재즈	-13389
▁차수	-13390
▁칼라	-13391
▁특기	-13392
▁튼튼	-13393
▁표했	-13394
▁한겨	-13395
▁해라	-13396
▁해치	-13397
▁174	-13398
▁176	-13399
▁255	-13400
▁ERC	-13401
▁VAS	-13402
▁가야금	-13403
▁곰팡이	-13404
▁그래야	-13405
▁덧붙여	-13406
▁메틸화	-13407
▁미적분	-13408
▁밝혀냈	-13409
▁복지부	-13410
▁사업단	-13411
▁생명체	-13412
▁유기농	-13413
▁전도체	-13414
▁징역형	-13415
▁차이나	-13416
▁청주시	-13417
▁취업률	-13418
▁케이싱	-13419
▁행복감	-13420
▁후원금	-13421
▁끌어올리	-13422
▁만듭니다	-13423
▁인터랙션	-13424
▁자동차세	-13425
▁중등학교	-13426
▁셉	-13427
경기	-13428
든지	-13429
들인	-13430
연맹	-13431
커트	-13432
혜원	-13433
ick	-13434
▁FO	-13435
▁RD	-13436
▁가미	-13437
▁가옥	-13438
▁경련	-13439
▁구립	-13440
▁담사	-13441
▁도마	-13442
▁독감	-13443
▁둥근	-13444
▁물성	-13445
▁바보	-13446
▁반갑	-13447
▁발탁	-13448
▁배드	-13449
▁뱅킹	-13450
▁본관	-13451
▁시조	-13452
▁예멘	-13453
▁이젠	-13454
▁전치	-13455
▁철폐	-13456
▁탈취	-13457
▁태안	-13458
▁파스	-13459
▁풍요	-13460
▁피임	-13461
▁항로	-13462
▁회선	-13463
노이드	-13464
미리트	-13465
▁503	-13466
▁521	-13467
▁GUI	-13468
▁IPO	-13469
▁the	-13470
▁걸어가	-13471
▁계약법	-13472
▁당선자	-13473
▁드라이	-13474
▁등록금	-13475
▁민간인	-13476
▁블라인	-13477
▁비무장	-13478
▁사라질	-13479
▁선거구	-13480
▁설계자	-13481
▁성과급	-13482
▁스러웠	-13483
▁실래요	-13484
▁알아볼	-13485
▁엇갈리	-13486
▁여겨졌	-13487
▁염색체	-13488
▁재정법	-13489
▁직간접	-13490
▁팬클럽	-13491
▁프리즘	-13492
▁한겨레	-13493
▁MELD	-13494
▁안타까운	-13495
▁저작권법	-13496
▁안드로이드	-13497
뜨린	-13498
셔야	-13499
우리	-13500
퀘어	-13501
▁MH	-13502
▁경막	-13503
▁고래	-13504
▁관례	-13505
▁권선	-13506
▁귀중	-13507
▁넘나	-13508
▁농부	-13509
▁놓이	-13510
▁달장	-13511
▁대접	-13512
▁댐퍼	-13513
▁되새	-13514
▁모스	-13515
▁방류	-13516
▁법체	-13517
▁수심	-13518
▁써서	-13519
▁어치	-13520
▁웨딩	-13521
▁위젯	-13522
▁인파	-13523
▁종로	-13524
▁지킬	-13525
▁컨셉	-13526
▁콜롬	-13527
▁쿼크	-13528
▁키나	-13529
▁후크	-13530
▁희박	-13531
▁CAP	-13532
▁tvN	-13533
▁가라앉	-13534
▁가로막	-13535
▁개그맨	-13536
▁계엄령	-13537
▁골격근	-13538
▁당선인	-13539
▁무사히	-13540
▁배심원	-13541
▁변한다	-13542
▁설명서	-13543
▁성북구	-13544
▁십자가	-13545
▁아세틸	-13546
▁악순환	-13547
▁오른손	-13548
▁일간지	-13549
▁자아내	-13550
▁조선인	-13551
▁판타지	-13552
▁홀딩스	-13553
▁1800	-13554
▁1910	-13555
▁NMOS	-13556
▁두드러진	-13557
▁모빌리티	-13558
▁스테이크	-13559
▁영재교육	-13560
EL	-13561
MI	-13562
심실	-13563
절기	-13564
차피	-13565
▁BI	-13566
▁감탄	-13567
▁갯벌	-13568
▁김은	-13569
▁담장	-13570
▁듀티	-13571
▁메스	-13572
▁몰두	-13573
▁민자	-13574
▁바우	-13575
▁분뇨	-13576
▁신차	-13577
▁에릭	-13578
▁열사	-13579
▁열흘	-13580
▁영변	-13581
▁오인	-13582
▁옮겼	-13583
▁위자	-13584
▁이방	-13585
▁전념	-13586
▁정주	-13587
▁청중	-13588
▁코디	-13589
▁태우	-13590
▁페리	-13591
▁품위	-13592
▁필립	-13593
▁한잔	-13594
▁흐를	-13595
동산세	-13596
▁271	-13597
▁ADC	-13598
▁CBS	-13599
▁COD	-13600
▁거래처	-13601
▁공사비	-13602
▁광학계	-13603
▁기다릴	-13604
▁사거리	-13605
▁어차피	-13606
▁이용료	-13607
▁종합부	-13608
▁중간층	-13609
▁Kore	-13610
▁기념행사	-13611
▁보호구역	-13612
▁종합부동산세	-13613
NC	-13614
te	-13615
데스	-13616
랭크	-13617
맞이	-13618
어야	-13619
이식	-13620
인물	-13621
타리	-13622
▁Ga	-13623
▁LR	-13624
▁강진	-13625
▁경증	-13626
▁구전	-13627
▁규탄	-13628
▁껍질	-13629
▁끼친	-13630
▁냉전	-13631
▁대각	-13632
▁대등	-13633
▁동선	-13634
▁본국	-13635
▁불린	-13636
▁비뇨	-13637
▁속출	-13638
▁스며	-13639
▁아데	-13640
▁연명	-13641
▁용돈	-13642
▁정재	-13643
▁초중	-13644
▁퇴임	-13645
▁퍼즐	-13646
▁폭언	-13647
▁해피	-13648
▁호재	-13649
▁휩쓸	-13650
ator	-13651
▁177	-13652
▁179	-13653
▁ALD	-13654
▁BLK	-13655
▁EUS	-13656
▁VAR	-13657
▁met	-13658
▁가까울	-13659
▁그려진	-13660
▁담아내	-13661
▁무더기	-13662
▁물러나	-13663
▁박정희	-13664
▁시작점	-13665
▁앞세워	-13666
▁연장선	-13667
▁장학생	-13668
▁주사기	-13669
▁지급액	-13670
▁차라리	-13671
▁친수성	-13672
▁투과도	-13673
▁1130	-13674
▁2500	-13675
▁느껴진다	-13676
▁비엔날레	-13677
▁시킨다고	-13678
대리	-13679
마다	-13680
사위	-13681
위생	-13682
ord	-13683
▁DH	-13684
▁Gl	-13685
▁가소	-13686
▁구균	-13687
▁김윤	-13688
▁김제	-13689
▁난치	-13690
▁능숙	-13691
▁다기	-13692
▁동국	-13693
▁동형	-13694
▁맥박	-13695
▁명할	-13696
▁무의	-13697
▁반출	-13698
▁배구	-13699
▁변모	-13700
▁서지	-13701
▁수표	-13702
▁안겨	-13703
▁애매	-13704
▁연부	-13705
▁연천	-13706
▁왼손	-13707
▁용수	-13708
▁웰빙	-13709
▁으라	-13710
▁입문	-13711
▁잔치	-13712
▁전일	-13713
▁제치	-13714
▁종신	-13715
▁줄곧	-13716
▁중상	-13717
▁지오	-13718
▁지혈	-13719
▁총점	-13720
▁치주	-13721
▁커져	-13722
▁큐브	-13723
▁타율	-13724
▁태세	-13725
▁틀린	-13726
▁포진	-13727
▁해낼	-13728
▁화자	-13729
▁회부	-13730
▁후단	-13731
▁243	-13732
▁가로수	-13733
▁김일성	-13734
▁들어설	-13735
▁미추홀	-13736
▁비정질	-13737
▁스코어	-13738
▁이라도	-13739
▁이용한	-13740
▁인데요	-13741
▁중앙부	-13742
▁창의력	-13743
▁체크인	-13744
▁침전물	-13745
▁STEAM	-13746
▁독립운동가	-13747
▁획기적으로	-13748
BG	-13749
난다	-13750
러운	-13751
린지	-13752
봐도	-13753
장치	-13754
▁HE	-13755
▁LI	-13756
▁NE	-13757
▁가혹	-13758
▁갔었	-13759
▁고독	-13760
▁귀농	-13761
▁금기	-13762
▁나쁨	-13763
▁납기	-13764
▁낭포	-13765
▁노위	-13766
▁노점	-13767
▁동탄	-13768
▁때리	-13769
▁로보	-13770
▁리코	-13771
▁멜라	-13772
▁몰렸	-13773
▁민심	-13774
▁번갈	-13775
▁비구	-13776
▁상방	-13777
▁선회	-13778
▁성동	-13779
▁성문	-13780
▁심실	-13781
▁심야	-13782
▁우상	-13783
▁절정	-13784
▁정했	-13785
▁줄줄	-13786
▁중세	-13787
▁지친	-13788
▁최강	-13789
▁퇴적	-13790
▁편한	-13791
▁폐부	-13792
▁피오	-13793
▁호감	-13794
▁흡광	-13795
스트림	-13796
▁207	-13797
▁403	-13798
▁ETF	-13799
▁가르칠	-13800
▁경사지	-13801
▁계산기	-13802
▁기자단	-13803
▁김부선	-13804
▁노년기	-13805
▁단백뇨	-13806
▁들이받	-13807
▁로스쿨	-13808
▁방사능	-13809
▁수백만	-13810
▁아랍에	-13811
▁알아내	-13812
▁용인시	-13813
▁원자재	-13814
▁이라크	-13815
▁장자연	-13816
▁정반대	-13817
▁찾아온	-13818
▁처리장	-13819
▁현상액	-13820
▁희망자	-13821
관리본부	-13822
▁ERCP	-13823
▁스테레오	-13824
▁스프레이	-13825
▁슬라이스	-13826
▁콘퍼런스	-13827
▁불러일으키	-13828
▁크리에이터	-13829
▁아랍에미리트	-13830
▁펫	-13831
글리	-13832
기부	-13833
렌즈	-13834
마켓	-13835
총액	-13836
큘럼	-13837
ime	-13838
▁GO	-13839
▁KS	-13840
▁TL	-13841
▁TT	-13842
▁가디	-13843
▁감속	-13844
▁강전	-13845
▁고고	-13846
▁공선	-13847
▁관철	-13848
▁구보	-13849
▁끼칠	-13850
▁남동	-13851
▁대강	-13852
▁동인	-13853
▁만주	-13854
▁박진	-13855
▁백서	-13856
▁본명	-13857
▁빗물	-13858
▁선상	-13859
▁숙달	-13860
▁쉴드	-13861
▁식욕	-13862
▁신단	-13863
▁알도	-13864
▁았었	-13865
▁야근	-13866
▁오름	-13867
▁유서	-13868
▁유화	-13869
▁의왕	-13870
▁재범	-13871
▁젠더	-13872
▁축복	-13873
▁친분	-13874
▁카바	-13875
▁킬로	-13876
▁탈모	-13877
▁화산	-13878
에너지	-13879
▁RCT	-13880
▁개시제	-13881
▁공급량	-13882
▁그만두	-13883
▁급성장	-13884
▁대내외	-13885
▁되풀이	-13886
▁모여서	-13887
▁부상자	-13888
▁사기죄	-13889
▁선택지	-13890
▁성장기	-13891
▁스러움	-13892
▁아닌데	-13893
▁어서요	-13894
▁원해요	-13895
▁유기체	-13896
▁참고인	-13897
▁캐스트	-13898
▁특징지	-13899
▁프론트	-13900
▁플라이	-13901
▁하와이	-13902
▁회복세	-13903
▁ADHD	-13904
▁가진다고	-13905
▁스테이션	-13906
▁시가총액	-13907
▁커리큘럼	-13908
▁다문화교육	-13909
▁다이어그램	-13910
▁스테인리스	-13911
▁폴리에틸렌	-13912
BM	-13913
▁쭉	-13914
경찰	-13915
명부	-13916
의무	-13917
인성	-13918
ult	-13919
▁BE	-13920
▁GW	-13921
▁NY	-13922
▁ON	-13923
▁가문	-13924
▁가역	-13925
▁교단	-13926
▁기미	-13927
▁답안	-13928
▁대동	-13929
▁동정	-13930
▁멋있	-13931
▁변성	-13932
▁사해	-13933
▁성주	-13934
▁수교	-13935
▁수만	-13936
▁애완	-13937
▁어둠	-13938
▁언덕	-13939
▁에프	-13940
▁열량	-13941
▁요통	-13942
▁위염	-13943
▁윌리	-13944
▁은산	-13945
▁의대	-13946
▁인제	-13947
▁제왕	-13948
▁클론	-13949
▁폭포	-13950
▁한껏	-13951
▁헤르	-13952
▁황의	-13953
수산부	-13954
진다는	-13955
▁341	-13956
▁IBM	-13957
▁걸린다	-13958
▁과산화	-13959
▁단시간	-13960
▁동호회	-13961
▁마운트	-13962
▁물놀이	-13963
▁배워야	-13964
▁복용량	-13965
▁사다리	-13966
▁소홀히	-13967
▁알파벳	-13968
▁원자로	-13969
▁친밀감	-13970
▁평상시	-13971
▁포항시	-13972
▁화물차	-13973
▁보였으나	-13974
▁셔틀버스	-13975
▁중등교육	-13976
▁HBsAg	-13977
▁알도스테론	-13978
▁질병관리본부	-13979
AN	-13980
▁겐	-13981
담보	-13982
자유	-13983
창기	-13984
▁NI	-13985
▁ph	-13986
▁th	-13987
▁가명	-13988
▁감금	-13989
▁경품	-13990
▁계몽	-13991
▁공여	-13992
▁구술	-13993
▁구장	-13994
▁구했	-13995
▁국빈	-13996
▁남원	-13997
▁대성	-13998
▁대손	-13999
▁무가	-14000
▁변별	-14001
▁불로	-14002
▁삭스	-14003
▁선분	-14004
▁숙지	-14005
▁스폰	-14006
▁승수	-14007
▁시어	-14008
▁실크	-14009
▁외경	-14010
▁인적	-14011
▁작아	-14012
▁전할	-14013
▁정선	-14014
▁제법	-14015
▁제철	-14016
▁진천	-14017
▁측량	-14018
▁침몰	-14019
▁169	-14020
▁415	-14021
▁603	-14022
▁FEV	-14023
▁MIC	-14024
▁NCS	-14025
▁강의실	-14026
▁거슬러	-14027
▁광섬유	-14028
▁내세운	-14029
▁동맥류	-14030
▁미끄러	-14031
▁발전량	-14032
▁부통령	-14033
▁산림청	-14034
▁상수도	-14035
▁수술실	-14036
▁우선시	-14037
▁유소년	-14038
▁일부러	-14039
▁장년층	-14040
▁중심축	-14041
▁증거인	-14042
▁지부장	-14043
▁체납액	-14044
▁트로피	-14045
▁특허청	-14046
▁회전자	-14047
▁흔들림	-14048
▁1979	-14049
▁스트라이	-14050
▁집적회로	-14051
▁크로마토	-14052
▁라이브러리	-14053
aw	-14054
▁뮬	-14055
난방	-14056
느리	-14057
수원	-14058
시티	-14059
지오	-14060
특구	-14061
형성	-14062
▁HH	-14063
▁IG	-14064
▁mM	-14065
▁결선	-14066
▁골관	-14067
▁과표	-14068
▁교인	-14069
▁나란	-14070
▁대명	-14071
▁명부	-14072
▁명세	-14073
▁모씨	-14074
▁몸짓	-14075
▁문희	-14076
▁방콕	-14077
▁베토	-14078
▁부직	-14079
▁비누	-14080
▁석출	-14081
▁순방	-14082
▁승격	-14083
▁어떡	-14084
▁엘지	-14085
▁영예	-14086
▁오지	-14087
▁요일	-14088
▁원할	-14089
▁인회	-14090
▁입경	-14091
▁재외	-14092
▁저면	-14093
▁좌파	-14094
▁주스	-14095
▁줄였	-14096
▁집진	-14097
▁침출	-14098
▁특약	-14099
▁판명	-14100
▁풀려	-14101
▁품안	-14102
▁하버	-14103
▁후문	-14104
▁256	-14105
▁IFN	-14106
▁계약직	-14107
▁구한다	-14108
▁금지법	-14109
▁다가왔	-14110
▁단면적	-14111
▁동두천	-14112
▁들으면	-14113
▁리버풀	-14114
▁모티브	-14115
▁바이너	-14116
▁시험장	-14117
▁아바타	-14118
▁아파서	-14119
▁음악학	-14120
▁전두환	-14121
▁접착력	-14122
▁창작자	-14123
▁클램프	-14124
▁DATA	-14125
▁mmol	-14126
▁기다려야	-14127
▁모릅니다	-14128
▁받아들였	-14129
▁엔지니어	-14130
▁원한다면	-14131
▁일으킨다	-14132
▁지하철역	-14133
▁컨설턴트	-14134
▁하나하나	-14135
▁하이드로	-14136
▁히어로즈	-14137
▁해양수산부	-14138
Cl	-14139
겨운	-14140
급수	-14141
니솔	-14142
로우	-14143
세기	-14144
세이	-14145
용수	-14146
인구	-14147
old	-14148
rom	-14149
▁Au	-14150
▁PN	-14151
▁ex	-14152
▁거센	-14153
▁거제	-14154
▁경총	-14155
▁관능	-14156
▁구심	-14157
▁김관	-14158
▁꾸미	-14159
▁날리	-14160
▁레오	-14161
▁로울	-14162
▁리베	-14163
▁마두	-14164
▁망명	-14165
▁미연	-14166
▁미처	-14167
▁발동	-14168
▁베인	-14169
▁산타	-14170
▁섞인	-14171
▁쇄신	-14172
▁시수	-14173
▁알렉	-14174
▁왕자	-14175
▁원로	-14176
▁원론	-14177
▁지극	-14178
▁채운	-14179
▁측은	-14180
▁쾌락	-14181
▁통산	-14182
▁페닐	-14183
▁합하	-14184
▁홍영	-14185
니솔론	-14186
▁245	-14187
▁254	-14188
▁DCI	-14189
▁GLP	-14190
▁JIA	-14191
▁SPC	-14192
▁TiO	-14193
▁고기압	-14194
▁고학년	-14195
▁노년층	-14196
▁니코틴	-14197
▁단열재	-14198
▁목표치	-14199
▁미네랄	-14200
▁법체계	-14201
▁베토벤	-14202
▁브로커	-14203
▁비빔밥	-14204
▁삽입부	-14205
▁수출액	-14206
▁연구실	-14207
▁인산화	-14208
▁주소지	-14209
▁태어났	-14210
자유구역	-14211
▁주주명부	-14212
▁천연가스	-14213
▁경제자유구역	-14214
▁프레드니솔론	-14215
DF	-14216
버리	-14217
사이	-14218
젯밤	-14219
탬프	-14220
터카	-14221
필락	-14222
호텔	-14223
▁DE	-14224
▁DT	-14225
▁En	-14226
▁ms	-14227
▁강호	-14228
▁격화	-14229
▁고심	-14230
▁그물	-14231
▁그칠	-14232
▁단풍	-14233
▁도급	-14234
▁돌이	-14235
▁동문	-14236
▁마신	-14237
▁만지	-14238
▁미쳐	-14239
▁밀레	-14240
▁밝힐	-14241
▁벽돌	-14242
▁볶음	-14243
▁분지	-14244
▁살린	-14245
▁승마	-14246
▁실란	-14247
▁실버	-14248
▁역임	-14249
▁엿보	-14250
▁용사	-14251
▁우스	-14252
▁원서	-14253
▁이석	-14254
▁일사	-14255
▁자란	-14256
▁전월	-14257
▁중남	-14258
▁지양	-14259
▁총격	-14260
▁친서	-14261
▁키를	-14262
▁테일	-14263
▁테터	-14264
▁티티	-14265
▁피막	-14266
▁함축	-14267
▁합부	-14268
▁해냈	-14269
▁홍대	-14270
▁화랑	-14271
▁236	-14272
▁504	-14273
▁770	-14274
▁ICU	-14275
▁NLR	-14276
▁게이지	-14277
▁과거사	-14278
▁김병준	-14279
▁내려졌	-14280
▁달러화	-14281
▁디즈니	-14282
▁렌터카	-14283
▁마크롱	-14284
▁무한대	-14285
▁부조리	-14286
▁어젯밤	-14287
▁엄격히	-14288
▁월등히	-14289
▁일회성	-14290
▁임대인	-14291
▁재검토	-14292
▁체지방	-14293
▁타이거	-14294
▁펼쳐진	-14295
▁표준액	-14296
▁황의조	-14297
필락시스	-14298
▁type	-14299
▁블라인드	-14300
▁스테이트	-14301
▁알려준다	-14302
▁인과관계	-14303
▁아나필락시스	-14304
거장	-14305
결핵	-14306
균관	-14307
긍심	-14308
마르	-14309
말라	-14310
비례	-14311
여겨	-14312
준호	-14313
타이	-14314
펠러	-14315
포화	-14316
▁BK	-14317
▁IE	-14318
▁WP	-14319
▁Wh	-14320
▁가만	-14321
▁감산	-14322
▁강동	-14323
▁광대	-14324
▁기세	-14325
▁내걸	-14326
▁노스	-14327
▁다듬	-14328
▁맞췄	-14329
▁메리	-14330
▁몰린	-14331
▁무결	-14332
▁배신	-14333
▁버거	-14334
▁버릴	-14335
▁변했	-14336
▁본회	-14337
▁부설	-14338
▁분모	-14339
▁성상	-14340
▁수기	-14341
▁연비	-14342
▁원판	-14343
▁익스	-14344
▁인서	-14345
▁접시	-14346
▁좁혀	-14347
▁진한	-14348
▁진해	-14349
▁파쇄	-14350
▁한은	-14351
▁핵산	-14352
▁현수	-14353
▁호우	-14354
▁활짝	-14355
▁휴업	-14356
니어링	-14357
▁FDA	-14358
▁PBS	-14359
▁USA	-14360
▁고려인	-14361
▁끌어내	-14362
▁남대문	-14363
▁눈여겨	-14364
▁돌려주	-14365
▁디테일	-14366
▁성균관	-14367
▁영상물	-14368
▁잊어버	-14369
▁자긍심	-14370
▁전화기	-14371
▁접합부	-14372
▁정거장	-14373
▁정전기	-14374
▁지배주	-14375
▁출입구	-14376
▁토마토	-14377
▁페어링	-14378
▁늘어난다	-14379
▁드러낸다	-14380
▁슈퍼마켓	-14381
▁광역자치단체	-14382
기술	-14383
난히	-14384
노소	-14385
영장	-14386
예산	-14387
이자	-14388
재료	-14389
▁sh	-14390
▁to	-14391
▁각성	-14392
▁경인	-14393
▁공관	-14394
▁관은	-14395
▁구세	-14396
▁그늘	-14397
▁긴축	-14398
▁길항	-14399
▁대왕	-14400
▁대타	-14401
▁동경	-14402
▁뜻깊	-14403
▁리간	-14404
▁만이	-14405
▁멋지	-14406
▁반등	-14407
▁배틀	-14408
▁보리	-14409
▁부업	-14410
▁부제	-14411
▁생후	-14412
▁선인	-14413
▁성산	-14414
▁소박	-14415
▁수인	-14416
▁순도	-14417
▁얽혀	-14418
▁엄정	-14419
▁염원	-14420
▁온몸	-14421
▁으론	-14422
▁인텔	-14423
▁장신	-14424
▁재연	-14425
▁천주	-14426
▁치렀	-14427
▁토니	-14428
▁투숙	-14429
▁226	-14430
▁325	-14431
▁612	-14432
▁BBC	-14433
▁MPa	-14434
▁day	-14435
▁고구려	-14436
▁공권력	-14437
▁관세청	-14438
▁구급차	-14439
▁기울였	-14440
▁누리꾼	-14441
▁대국민	-14442
▁떠오른	-14443
▁레시피	-14444
▁뮤지션	-14445
▁상임위	-14446
▁시간표	-14447
▁시프트	-14448
▁옥수수	-14449
▁울산시	-14450
▁유적지	-14451
▁은행장	-14452
▁이나마	-14453
▁이뤄져	-14454
▁저마다	-14455
▁적립금	-14456
▁절대로	-14457
▁패밀리	-14458
▁평론가	-14459
▁회의장	-14460
▁후보지	-14461
▁흡입구	-14462
asvir	-14463
▁1030	-14464
▁사물놀이	-14465
▁신한은행	-14466
KA	-14467
기사	-14468
댓값	-14469
치료	-14470
크스	-14471
ign	-14472
ung	-14473
▁갈음	-14474
▁겸직	-14475
▁경희	-14476
▁골문	-14477
▁기득	-14478
▁너스	-14479
▁닛산	-14480
▁독소	-14481
▁동승	-14482
▁때려	-14483
▁문인	-14484
▁반짝	-14485
▁병기	-14486
▁보임	-14487
▁사귀	-14488
▁약학	-14489
▁여럿	-14490
▁완결	-14491
▁유람	-14492
▁융통	-14493
▁이과	-14494
▁인척	-14495
▁일감	-14496
▁저밀	-14497
▁증과	-14498
▁지워	-14499
▁통사	-14500
▁파노	-14501
▁푸시	-14502
▁한결	-14503
▁행법	-14504
▁행안	-14505
프리카	-14506
▁ESR	-14507
▁ICS	-14508
▁SEC	-14509
▁강수량	-14510
▁검찰청	-14511
▁구동력	-14512
▁노래방	-14513
▁대나무	-14514
▁더라면	-14515
▁도플러	-14516
▁리간드	-14517
▁멜로디	-14518
▁보험법	-14519
▁부평구	-14520
▁불이행	-14521
▁선제골	-14522
▁스트레	-14523
▁아리스	-14524
▁아이러	-14525
▁안락사	-14526
▁연구비	-14527
▁오버랩	-14528
▁오프닝	-14529
▁용이성	-14530
▁원재료	-14531
▁재조사	-14532
▁제작비	-14533
▁조선업	-14534
▁조종사	-14535
▁지역민	-14536
▁초창기	-14537
ction	-14538
▁1320	-14539
▁1982	-14540
▁2023	-14541
▁가로지르	-14542
▁남양주시	-14543
▁동물보호	-14544
▁마일리지	-14545
▁문화예술	-14546
▁블랙박스	-14547
▁요구사항	-14548
▁전해진다	-14549
▁직업훈련	-14550
▁퍼레이드	-14551
▁필라멘트	-14552
▁프레젠테이션	-14553
▁롬	-14554
▁욱	-14555
가액	-14556
럭스	-14557
방송	-14558
유리	-14559
터링	-14560
희정	-14561
DNA	-14562
ier	-14563
▁Am	-14564
▁DQ	-14565
▁RI	-14566
▁Ro	-14567
▁cc	-14568
▁개업	-14569
▁곱한	-14570
▁공룡	-14571
▁교량	-14572
▁국수	-14573
▁귀찮	-14574
▁깊숙	-14575
▁끝났	-14576
▁남방	-14577
▁달력	-14578
▁마른	-14579
▁마셨	-14580
▁막연	-14581
▁민국	-14582
▁박재	-14583
▁발맞	-14584
▁변질	-14585
▁볼턴	-14586
▁불평	-14587
▁비소	-14588
▁빼돌	-14589
▁사영	-14590
▁설교	-14591
▁설레	-14592
▁성령	-14593
▁수계	-14594
▁습기	-14595
▁승산	-14596
▁심경	-14597
▁연하	-14598
▁원용	-14599
▁원치	-14600
▁이뇨	-14601
▁일몰	-14602
▁자책	-14603
▁절박	-14604
▁종자	-14605
▁짜증	-14606
▁측력	-14607
▁트윈	-14608
▁해선	-14609
▁화법	-14610
▁환형	-14611
▁262	-14612
▁414	-14613
▁MSC	-14614
▁RGB	-14615
▁간기능	-14616
▁고용량	-14617
▁골드만	-14618
▁기준일	-14619
▁바이트	-14620
▁부직포	-14621
▁색전증	-14622
▁수익금	-14623
▁안보리	-14624
▁어울려	-14625
▁이스트	-14626
▁인사말	-14627
▁절연성	-14628
▁줄줄이	-14629
▁지도안	-14630
▁퇴직금	-14631
▁판결문	-14632
▁1230	-14633
▁가져다주	-14634
▁등장인물	-14635
▁매트리스	-14636
▁보여진다	-14637
▁아리스토	-14638
▁엑스레이	-14639
▁캘리포니아주	-14640
cy	-14641
▁뱃	-14642
노총	-14643
사무	-14644
토록	-14645
▁과점	-14646
▁국과	-14647
▁국왕	-14648
▁귀납	-14649
▁김순	-14650
▁김형	-14651
▁꺼리	-14652
▁남짓	-14653
▁명하	-14654
▁묘지	-14655
▁무섭	-14656
▁베일	-14657
▁병실	-14658
▁사옥	-14659
▁산염	-14660
▁손자	-14661
▁쇠퇴	-14662
▁순진	-14663
▁스톱	-14664
▁실상	-14665
▁쌓인	-14666
▁아테	-14667
▁압연	-14668
▁유영	-14669
▁유희	-14670
▁은유	-14671
▁응대	-14672
▁일인	-14673
▁자가	-14674
▁자화	-14675
▁재적	-14676
▁저명	-14677
▁정경	-14678
▁제올	-14679
▁차림	-14680
▁차후	-14681
▁청계	-14682
▁카톡	-14683
▁크다	-14684
▁타선	-14685
▁토리	-14686
▁합헌	-14687
▁390	-14688
▁940	-14689
▁BTD	-14690
▁CRC	-14691
▁NDA	-14692
▁경동맥	-14693
▁계약금	-14694
▁글래스	-14695
▁라이드	-14696
▁마운드	-14697
▁무용단	-14698
▁무용수	-14699
▁반비례	-14700
▁분석법	-14701
▁브리지	-14702
▁선보여	-14703
▁스탠드	-14704
▁신부전	-14705
▁용선자	-14706
▁의뢰인	-14707
▁이승만	-14708
▁춤사위	-14709
▁충실하	-14710
▁트래킹	-14711
▁폴리아	-14712
▁호랑이	-14713
▁9000	-14714
▁OFDM	-14715
▁가정폭력	-14716
▁갑작스럽	-14717
▁남녀노소	-14718
▁보험가액	-14719
▁산업은행	-14720
▁전라북도	-14721
▁떨어진다는	-14722
▁제올라이트	-14723
▁크로마토그래피	-14724
KT	-14725
▁궐	-14726
▁닌	-14727
▁헨	-14728
료품	-14729
만금	-14730
왜란	-14731
택시	-14732
파린	-14733
프리	-14734
ron	-14735
▁WT	-14736
▁건식	-14737
▁결부	-14738
▁결집	-14739
▁공보	-14740
▁근속	-14741
▁꾀하	-14742
▁다단	-14743
▁명상	-14744
▁묶여	-14745
▁방광	-14746
▁불씨	-14747
▁사익	-14748
▁생전	-14749
▁석탑	-14750
▁선조	-14751
▁실거	-14752
▁영주	-14753
▁음영	-14754
▁이국	-14755
▁이항	-14756
▁입량	-14757
▁입부	-14758
▁작위	-14759
▁재전	-14760
▁정육	-14761
▁정현	-14762
▁종식	-14763
▁크류	-14764
▁타점	-14765
▁피리	-14766
모비스	-14767
클레오	-14768
▁149	-14769
▁244	-14770
▁FDI	-14771
▁FGF	-14772
▁그려졌	-14773
▁남동생	-14774
▁다각형	-14775
▁대전시	-14776
▁머릿속	-14777
▁모국어	-14778
▁몰려들	-14779
▁무서운	-14780
▁벌어질	-14781
▁빌보드	-14782
▁섬유질	-14783
▁성수기	-14784
▁수목원	-14785
▁연기금	-14786
▁움직여	-14787
▁유나이	-14788
▁유병률	-14789
▁음료수	-14790
▁자성체	-14791
▁좌심실	-14792
▁질화물	-14793
▁카운티	-14794
▁평택시	-14795
▁하이퍼	-14796
▁형태학	-14797
▁1975	-14798
▁IPTV	-14799
▁PMOS	-14800
▁모른다는	-14801
▁미스터리	-14802
▁잃어버린	-14803
▁임진왜란	-14804
▁중앙아시아	-14805
▁하이라이트	-14806
▁현대모비스	-14807
광선	-14808
네마	-14809
리에	-14810
민턴	-14811
방식	-14812
ash	-14813
▁Be	-14814
▁Bi	-14815
▁CU	-14816
▁Pa	-14817
▁SH	-14818
▁가짐	-14819
▁검역	-14820
▁결권	-14821
▁공수	-14822
▁교향	-14823
▁구실	-14824
▁구이	-14825
▁내몰	-14826
▁너머	-14827
▁논점	-14828
▁도저	-14829
▁라니	-14830
▁라운	-14831
▁박경	-14832
▁배추	-14833
▁버너	-14834
▁변비	-14835
▁변혁	-14836
▁불펜	-14837
▁섹터	-14838
▁수건	-14839
▁수역	-14840
▁스팟	-14841
▁습식	-14842
▁시판	-14843
▁쓴다	-14844
▁알라	-14845
▁어퍼	-14846
▁오너	-14847
▁옥시	-14848
▁요로	-14849
▁유급	-14850
▁입도	-14851
▁저압	-14852
▁정계	-14853
▁집광	-14854
▁체가	-14855
▁크랙	-14856
▁타고	-14857
▁탐험	-14858
▁토종	-14859
▁항일	-14860
▁행한	-14861
▁흡사	-14862
▁316	-14863
▁335	-14864
▁342	-14865
▁950	-14866
▁BRA	-14867
▁PBL	-14868
▁PFS	-14869
▁SiO	-14870
▁WSJ	-14871
▁rpm	-14872
▁가디언	-14873
▁골목길	-14874
▁공급원	-14875
▁긴밀히	-14876
▁김용균	-14877
▁레이블	-14878
▁모노머	-14879
▁미용실	-14880
▁민원실	-14881
▁밝힌다	-14882
▁배상액	-14883
▁베이커	-14884
▁부시장	-14885
▁새만금	-14886
▁선착순	-14887
▁아동학	-14888
▁안내문	-14889
▁옮겨졌	-14890
▁우승자	-14891
▁자이언	-14892
▁제곱근	-14893
▁중소형	-14894
▁진행자	-14895
▁취임식	-14896
▁페인트	-14897
▁확인서	-14898
▁공소시효	-14899
▁사교육비	-14900
▁선하증권	-14901
▁지날수록	-14902
▁콜롬비아	-14903
▁평화통일	-14904
▁비트스트림	-14905
▁스타일러스	-14906
▁엔지니어링	-14907
yn	-14908
▁둬	-14909
▁혀	-14910
게임	-14911
고속	-14912
순위	-14913
슬라	-14914
종양	-14915
쳐서	-14916
▁NR	-14917
▁Sm	-14918
▁가연	-14919
▁가할	-14920
▁국물	-14921
▁규준	-14922
▁그랜	-14923
▁김인	-14924
▁능률	-14925
▁당할	-14926
▁만장	-14927
▁면도	-14928
▁목부	-14929
▁바랄	-14930
▁법전	-14931
▁별장	-14932
▁부팅	-14933
▁분임	-14934
▁삼척	-14935
▁선부	-14936
▁성대	-14937
▁쓰였	-14938
▁안마	-14939
▁오이	-14940
▁유실	-14941
▁의전	-14942
▁이연	-14943
▁잠식	-14944
▁전량	-14945
▁전성	-14946
▁주점	-14947
▁중장	-14948
▁침략	-14949
▁커싱	-14950
▁틈새	-14951
▁혼용	-14952
▁활주	-14953
▁획정	-14954
▁휘두	-14955
▁휘말	-14956
플렉스	-14957
▁324	-14958
▁가져와	-14959
▁간행물	-14960
▁겁니까	-14961
▁광고주	-14962
▁군부대	-14963
▁노숙인	-14964
▁다가올	-14965
▁다녀온	-14966
▁레코드	-14967
▁맞대결	-14968
▁무리수	-14969
▁석회화	-14970
▁소고기	-14971
▁소유주	-14972
▁연극제	-14973
▁연기자	-14974
▁왕세자	-14975
▁전투기	-14976
▁중남미	-14977
▁캐피탈	-14978
▁트리플	-14979
▁학기제	-14980
▁해산물	-14981
▁1984	-14982
▁동대문구	-14983
▁바이올린	-14984
▁사고방식	-14985
▁자연스레	-14986
▁파키스탄	-14987
무가	-14988
바꿈	-14989
십자	-14990
악단	-14991
에스	-14992
염수	-14993
종원	-14994
질러	-14995
토스	-14996
ARD	-14997
▁KN	-14998
▁Pr	-14999
▁ar	-15000
▁가세	-15001
▁개술	-15002
▁결말	-15003
▁고른	-15004
▁난제	-15005
▁내밀	-15006
▁느려	-15007
▁니즈	-15008
▁단호	-15009
▁달렸	-15010
▁당화	-15011
▁똑똑	-15012
▁리본	-15013
▁망가	-15014
▁문신	-15015
▁미진	-15016
▁밀양	-15017
▁발족	-15018
▁범용	-15019
▁부동	-15020
▁부록	-15021
▁빨대	-15022
▁서랍	-15023
▁수막	-15024
▁수작	-15025
▁승선	-15026
▁여왕	-15027
▁열등	-15028
▁염화	-15029
▁영유	-15030
▁유진	-15031
▁이따	-15032
▁이환	-15033
▁자장	-15034
▁장외	-15035
▁재래	-15036
▁저런	-15037
▁점선	-15038
▁정진	-15039
▁제때	-15040
▁주총	-15041
▁쪼개	-15042
▁치를	-15043
▁퇴비	-15044
▁패딩	-15045
▁표절	-15046
▁해저	-15047
▁행적	-15048
▁향했	-15049
▁호중	-15050
▁혼돈	-15051
주니어	-15052
텔레스	-15053
▁416	-15054
▁522	-15055
▁ACK	-15056
▁PTH	-15057
▁mol	-15058
▁공공재	-15059
▁김정숙	-15060
▁노사정	-15061
▁다섯째	-15062
▁대화방	-15063
▁데일리	-15064
▁레이팅	-15065
▁무형식	-15066
▁발주자	-15067
▁상무부	-15068
▁수입품	-15069
▁앞당겨	-15070
▁위자료	-15071
▁윌리엄	-15072
▁조선소	-15073
▁합의체	-15074
▁행정법	-15075
▁FIFA	-15076
▁대시보드	-15077
▁배드민턴	-15078
▁옴부즈만	-15079
▁슈퍼주니어	-15080
▁아리스토텔레스	-15081
DC	-15082
▁즘	-15083
▁핏	-15084
금융	-15085
대교	-15086
브스	-15087
산소	-15088
실조	-15089
학습	-15090
ile	-15091
▁Ac	-15092
▁As	-15093
▁걸러	-15094
▁경치	-15095
▁구문	-15096
▁극작	-15097
▁금식	-15098
▁김미	-15099
▁김주	-15100
▁담아	-15101
▁대별	-15102
▁도리	-15103
▁동체	-15104
▁동학	-15105
▁딱딱	-15106
▁리턴	-15107
▁맥파	-15108
▁번식	-15109
▁부흥	-15110
▁브래	-15111
▁산악	-15112
▁상보	-15113
▁선주	-15114
▁설령	-15115
▁스무	-15116
▁실직	-15117
▁악곡	-15118
▁안목	-15119
▁엄지	-15120
▁에드	-15121
▁유머	-15122
▁자폐	-15123
▁전대	-15124
▁주면	-15125
▁지중	-15126
▁차상	-15127
▁청량	-15128
▁총영	-15129
▁추방	-15130
▁커브	-15131
▁코티	-15132
▁통설	-15133
▁퇴사	-15134
▁특활	-15135
▁호모	-15136
▁환류	-15137
▁훈장	-15138
▁흐리	-15139
▁MAP	-15140
▁Med	-15141
▁for	-15142
▁개인전	-15143
▁낙태죄	-15144
▁남해안	-15145
▁답니다	-15146
▁대출금	-15147
▁멤버십	-15148
▁발명자	-15149
▁부산항	-15150
▁불활성	-15151
▁상하이	-15152
▁선거제	-15153
▁손바닥	-15154
▁연기력	-15155
▁완벽히	-15156
▁이승우	-15157
▁재전송	-15158
▁조현우	-15159
▁지출액	-15160
▁컬렉션	-15161
▁확연히	-15162
▁BRAF	-15163
▁HOMA	-15164
▁삼성그룹	-15165
▁아이러니	-15166
▁영양실조	-15167
▁움직인다	-15168
▁유나이티	-15169
▁크리스티	-15170
▁토너먼트	-15171
▁페널티킥	-15172
▁한국전력	-15173
MT	-15174
OH	-15175
꿈치	-15176
드려	-15177
마블	-15178
브라	-15179
준표	-15180
트랙	-15181
현동	-15182
erm	-15183
ish	-15184
▁EQ	-15185
▁FL	-15186
▁MU	-15187
▁광이	-15188
▁꼭지	-15189
▁나날	-15190
▁내화	-15191
▁네거	-15192
▁농양	-15193
▁도관	-15194
▁도미	-15195
▁류머	-15196
▁막강	-15197
▁망설	-15198
▁버킷	-15199
▁부평	-15200
▁사촌	-15201
▁산전	-15202
▁세브	-15203
▁섹시	-15204
▁술집	-15205
▁안주	-15206
▁엔딩	-15207
▁유승	-15208
▁재킷	-15209
▁증이	-15210
▁직진	-15211
▁척수	-15212
▁췌관	-15213
▁칠레	-15214
▁코오	-15215
▁통념	-15216
▁편찬	-15217
▁필사	-15218
▁허물	-15219
▁황달	-15220
▁209	-15221
▁802	-15222
▁901	-15223
▁기내식	-15224
▁넷마블	-15225
▁드려요	-15226
▁들어섰	-15227
▁막바지	-15228
▁바코드	-15229
▁발행인	-15230
▁분담금	-15231
▁세워진	-15232
▁스러울	-15233
▁영업자	-15234
▁저성장	-15235
▁적십자	-15236
▁천주교	-15237
▁탈바꿈	-15238
▁털어놨	-15239
▁1700	-15240
▁LDLT	-15241
▁네거티브	-15242
▁못한다면	-15243
▁법무법인	-15244
▁스크립트	-15245
▁스트레칭	-15246
▁스티어링	-15247
▁슬레이브	-15248
▁파노라마	-15249
▁자궁경부암	-15250
가역	-15251
민주	-15252
브이	-15253
서울	-15254
석희	-15255
식간	-15256
위수	-15257
퍼드	-15258
필더	-15259
호우	-15260
ree	-15261
ust	-15262
▁Br	-15263
▁mA	-15264
▁강타	-15265
▁검수	-15266
▁다크	-15267
▁달해	-15268
▁답한	-15269
▁대림	-15270
▁더운	-15271
▁도난	-15272
▁도피	-15273
▁라마	-15274
▁란스	-15275
▁마셔	-15276
▁명기	-15277
▁물권	-15278
▁박병	-15279
▁방점	-15280
▁배합	-15281
▁보청	-15282
▁부두	-15283
▁새삼	-15284
▁성급	-15285
▁성패	-15286
▁세습	-15287
▁세전	-15288
▁소동	-15289
▁스님	-15290
▁시화	-15291
▁식감	-15292
▁역점	-15293
▁외력	-15294
▁울림	-15295
▁원대	-15296
▁원뿔	-15297
▁일생	-15298
▁장담	-15299
▁증오	-15300
▁증축	-15301
▁지낼	-15302
▁질감	-15303
▁집사	-15304
▁초빙	-15305
▁카인	-15306
▁코믹	-15307
▁콜로	-15308
▁포드	-15309
▁한발	-15310
▁현관	-15311
▁황색	-15312
리스마	-15313
▁237	-15314
▁423	-15315
▁441	-15316
▁505	-15317
▁NAC	-15318
▁NSC	-15319
▁OOO	-15320
▁VIP	-15321
▁가산세	-15322
▁건축가	-15323
▁계산부	-15324
▁고지방	-15325
▁까다롭	-15326
▁드러날	-15327
▁로페이	-15328
▁민영화	-15329
▁방문자	-15330
▁색전술	-15331
▁생겨났	-15332
▁시야각	-15333
▁어딘가	-15334
▁온종일	-15335
▁외무성	-15336
▁입장권	-15337
▁재순환	-15338
▁전망대	-15339
▁지켜볼	-15340
▁현상학	-15341
▁혐기성	-15342
▁홍준표	-15343
▁후반기	-15344
▁경제학자	-15345
▁기말고사	-15346
▁까다로운	-15347
▁둘러싸인	-15348
▁미드필더	-15349
▁지질혈증	-15350
▁카리스마	-15351
▁페미니즘	-15352
▁썩	-15353
감치	-15354
끼리	-15355
사리	-15356
세종	-15357
언스	-15358
지엄	-15359
택트	-15360
ary	-15361
ian	-15362
ith	-15363
▁BF	-15364
▁BO	-15365
▁DJ	-15366
▁Fi	-15367
▁No	-15368
▁VO	-15369
▁공안	-15370
▁교무	-15371
▁귀환	-15372
▁그쪽	-15373
▁그친	-15374
▁높인	-15375
▁돌발	-15376
▁동명	-15377
▁두뇌	-15378
▁랭크	-15379
▁려다	-15380
▁리아	-15381
▁망간	-15382
▁불발	-15383
▁상층	-15384
▁소파	-15385
▁압통	-15386
▁어필	-15387
▁연필	-15388
▁이대	-15389
▁이불	-15390
▁정조	-15391
▁제너	-15392
▁종지	-15393
▁지켰	-15394
▁치마	-15395
▁치부	-15396
▁커튼	-15397
▁페로	-15398
▁퓨전	-15399
▁혼선	-15400
▁화보	-15401
▁황사	-15402
▁히팅	-15403
대표제	-15404
찌감치	-15405
▁580	-15406
▁FPG	-15407
▁GTX	-15408
▁ROM	-15409
▁log	-15410
▁가파르	-15411
▁간호학	-15412
▁걸어서	-15413
▁걸쳐서	-15414
▁고밀도	-15415
▁과민성	-15416
▁나아지	-15417
▁대장염	-15418
▁도저히	-15419
▁마이닝	-15420
▁매티스	-15421
▁몰라요	-15422
▁밀어붙	-15423
▁새겨진	-15424
▁생겨서	-15425
▁열대야	-15426
▁요한다	-15427
▁유람선	-15428
▁직거래	-15429
▁집무실	-15430
▁코멘트	-15431
▁콘택트	-15432
▁플럭스	-15433
▁1410	-15434
▁1973	-15435
▁1978	-15436
▁못한다고	-15437
▁사분위수	-15438
▁심포지엄	-15439
▁안타까움	-15440
▁자아낸다	-15441
▁홀로그램	-15442
AM	-15443
oL	-15444
드릴	-15445
마킹	-15446
일드	-15447
토닌	-15448
퇴직	-15449
혈관	-15450
app	-15451
ics	-15452
int	-15453
▁Ab	-15454
▁Fl	-15455
▁RV	-15456
▁간문	-15457
▁견줘	-15458
▁고질	-15459
▁공석	-15460
▁과립	-15461
▁관염	-15462
▁구워	-15463
▁군중	-15464
▁급전	-15465
▁나프	-15466
▁날인	-15467
▁내벽	-15468
▁단연	-15469
▁담지	-15470
▁당과	-15471
▁마포	-15472
▁메우	-15473
▁발문	-15474
▁배변	-15475
▁번개	-15476
▁변천	-15477
▁본안	-15478
▁봐서	-15479
▁북상	-15480
▁사계	-15481
▁상근	-15482
▁세울	-15483
▁소켓	-15484
▁식탁	-15485
▁신병	-15486
▁신빙	-15487
▁애도	-15488
▁열가	-15489
▁우발	-15490
▁유수	-15491
▁인신	-15492
▁접선	-15493
▁정장	-15494
▁죄책	-15495
▁지청	-15496
▁참신	-15497
▁채굴	-15498
▁천국	-15499
▁철분	-15500
▁첼시	-15501
▁코발	-15502
▁투스	-15503
▁투시	-15504
▁트림	-15505
▁페닙	-15506
▁포식	-15507
▁피터	-15508
▁화사	-15509
▁황해	-15510
▁훈훈	-15511
젤레스	-15512
프로필	-15513
▁218	-15514
▁ESD	-15515
▁ESS	-15516
▁HLA	-15517
▁검은색	-15518
▁김대중	-15519
▁다녀오	-15520
▁루이스	-15521
▁버린다	-15522
▁보청기	-15523
▁비대증	-15524
▁살아온	-15525
▁스퀘어	-15526
▁식료품	-15527
▁쓰러져	-15528
▁예정일	-15529
▁오른발	-15530
▁올라갔	-15531
▁유리수	-15532
▁장단점	-15533
▁저지르	-15534
▁지극히	-15535
▁카르텔	-15536
▁코오롱	-15537
▁털어놓	-15538
▁테슬라	-15539
▁하급심	-15540
▁홍영표	-15541
▁흡수성	-15542
▁1919	-15543
▁1962	-15544
▁1963	-15545
▁1976	-15546
▁가전제품	-15547
▁고혈당증	-15548
▁데이비드	-15549
▁벤치마킹	-15550
▁중간고사	-15551
▁체크아웃	-15552
▁파트너십	-15553
▁한국노총	-15554
▁블라디미르	-15555
▁비례대표제	-15556
80	-15557
▁렐	-15558
국수	-15559
나와	-15560
노스	-15561
다이	-15562
라기	-15563
복실	-15564
부진	-15565
의지	-15566
질서	-15567
cal	-15568
ern	-15569
ild	-15570
ref	-15571
▁LF	-15572
▁VE	-15573
▁강했	-15574
▁결속	-15575
▁고층	-15576
▁공대	-15577
▁공신	-15578
▁과신	-15579
▁교포	-15580
▁기무	-15581
▁김구	-15582
▁김밥	-15583
▁나치	-15584
▁녹여	-15585
▁눈부	-15586
▁당정	-15587
▁로열	-15588
▁모던	-15589
▁밀러	-15590
▁번들	-15591
▁보습	-15592
▁비료	-15593
▁살림	-15594
▁삼진	-15595
▁성원	-15596
▁수관	-15597
▁시시	-15598
▁아로	-15599
▁양사	-15600
▁위태	-15601
▁유재	-15602
▁은밀	-15603
▁적잖	-15604
▁전법	-15605
▁전인	-15606
▁절벽	-15607
▁주상	-15608
▁즈음	-15609
▁짝수	-15610
▁초계	-15611
▁토스	-15612
▁통공	-15613
▁퇴진	-15614
▁특집	-15615
▁평안	-15616
▁피폭	-15617
▁필지	-15618
▁하인	-15619
▁훌쩍	-15620
라이나	-15621
▁227	-15622
▁264	-15623
▁291	-15624
▁760	-15625
▁ATP	-15626
▁CES	-15627
▁CGV	-15628
▁DAS	-15629
▁Fed	-15630
▁구상권	-15631
▁기울일	-15632
▁기원전	-15633
▁기자재	-15634
▁뇌종양	-15635
▁리무스	-15636
▁무주택	-15637
▁문자열	-15638
▁사라져	-15639
▁사상자	-15640
▁산사태	-15641
▁살균제	-15642
▁소매업	-15643
▁소설가	-15644
▁쓰인다	-15645
▁아무개	-15646
▁위탁자	-15647
▁유산균	-15648
▁작업장	-15649
▁적법성	-15650
▁주거비	-15651
▁즐거웠	-15652
▁휴게소	-15653
▁1948	-15654
▁CMOS	-15655
▁고마워요	-15656
▁레버리지	-15657
▁레퍼런스	-15658
▁에버랜드	-15659
▁miRNA	-15660
▁파이프라인	-15661
▁플레이오프	-15662
GE	-15663
▁칫	-15664
공간	-15665
레드	-15666
면적	-15667
자재	-15668
전드	-15669
티즘	-15670
포밍	-15671
하성	-15672
헤란	-15673
회전	-15674
효과	-15675
▁Di	-15676
▁FR	-15677
▁Pd	-15678
▁각질	-15679
▁강대	-15680
▁강변	-15681
▁견딜	-15682
▁귀족	-15683
▁기꺼	-15684
▁대란	-15685
▁대차	-15686
▁뒤편	-15687
▁르네	-15688
▁막론	-15689
▁막말	-15690
▁맛보	-15691
▁멸종	-15692
▁모발	-15693
▁무색	-15694
▁배석	-15695
▁벤츠	-15696
▁보라	-15697
▁부디	-15698
▁비약	-15699
▁수력	-15700
▁스가	-15701
▁싫어	-15702
▁심재	-15703
▁앰프	-15704
▁울려	-15705
▁원사	-15706
▁유라	-15707
▁일깨	-15708
▁일예	-15709
▁잔인	-15710
▁장골	-15711
▁재가	-15712
▁제명	-15713
▁제압	-15714
▁주심	-15715
▁지경	-15716
▁지탱	-15717
▁창안	-15718
▁춤추	-15719
▁취학	-15720
▁취합	-15721
▁클레	-15722
▁투병	-15723
▁폴라	-15724
▁피라	-15725
▁피지	-15726
▁항문	-15727
▁향교	-15728
▁425	-15729
▁AMP	-15730
▁bar	-15731
▁개소식	-15732
▁경향성	-15733
▁관리사	-15734
▁네이션	-15735
▁다름없	-15736
▁도파관	-15737
▁마땅히	-15738
▁면서도	-15739
▁바깥쪽	-15740
▁바닷가	-15741
▁반송파	-15742
▁부정맥	-15743
▁사업가	-15744
▁선언문	-15745
▁스피드	-15746
▁슬로건	-15747
▁시위대	-15748
▁연산자	-15749
▁오일러	-15750
▁외로움	-15751
▁요리사	-15752
▁요양원	-15753
▁우선주	-15754
▁을지로	-15755
▁일찍이	-15756
▁전한다	-15757
▁절차법	-15758
▁제거율	-15759
▁지방증	-15760
▁질문지	-15761
▁터뜨리	-15762
▁테헤란	-15763
▁플라자	-15764
▁1977	-15765
▁마음대로	-15766
▁사라진다	-15767
▁스파이크	-15768
▁집중호우	-15769
▁챔피언십	-15770
▁이해관계인	-15771
PT	-15772
▁뚝	-15773
다르	-15774
세동	-15775
센서	-15776
수리	-15777
재욱	-15778
ond	-15779
ual	-15780
▁..	-15781
▁Go	-15782
▁MF	-15783
▁PJ	-15784
▁VF	-15785
▁가든	-15786
▁갖출	-15787
▁개교	-15788
▁겸손	-15789
▁경복	-15790
▁나르	-15791
▁내경	-15792
▁담체	-15793
▁대담	-15794
▁돌풍	-15795
▁딱히	-15796
▁루머	-15797
▁리시	-15798
▁마블	-15799
▁만두	-15800
▁몰카	-15801
▁묶음	-15802
▁박주	-15803
▁백지	-15804
▁분홍	-15805
▁불릴	-15806
▁붙인	-15807
▁비강	-15808
▁상지	-15809
▁선입	-15810
▁성막	-15811
▁야경	-15812
▁여백	-15813
▁연승	-15814
▁오타	-15815
▁윤활	-15816
▁이오	-15817
▁이인	-15818
▁잠들	-15819
▁주선	-15820
▁지가	-15821
▁질산	-15822
▁청력	-15823
▁촉촉	-15824
▁총론	-15825
▁취직	-15826
▁치사	-15827
▁키운	-15828
▁탁구	-15829
▁테라	-15830
▁판막	-15831
▁포켓	-15832
▁푸르	-15833
▁플루	-15834
▁하층	-15835
▁화주	-15836
이스터	-15837
▁...	-15838
▁Lee	-15839
▁VOD	-15840
▁경영학	-15841
▁기꺼이	-15842
▁길항제	-15843
▁대각선	-15844
▁라우터	-15845
▁마이코	-15846
▁몰라서	-15847
▁무인기	-15848
▁문해력	-15849
▁벌인다	-15850
▁보스턴	-15851
▁불고기	-15852
▁빔포밍	-15853
▁생각나	-15854
▁세입자	-15855
▁소극장	-15856
▁안희정	-15857
▁연극인	-15858
▁예술제	-15859
▁위상차	-15860
▁재판장	-15861
▁최대치	-15862
▁치료비	-15863
▁파이낸	-15864
▁행정관	-15865
▁흡수제	-15866
크라테스	-15867
▁1900	-15868
▁1972	-15869
▁남한산성	-15870
▁대학원생	-15871
▁돋보인다	-15872
▁민족주의	-15873
▁방사선학	-15874
▁세포독성	-15875
▁에스테르	-15876
▁정당방위	-15877
▁체험학습	-15878
▁강남스타일	-15879
▁프로그래머	-15880
▁히스토그램	-15881
결연	-15882
공명	-15883
도록	-15884
스틴	-15885
정부	-15886
행정	-15887
흡연	-15888
히드	-15889
ies	-15890
▁LB	-15891
▁OB	-15892
▁RM	-15893
▁TO	-15894
▁dB	-15895
▁가단	-15896
▁각색	-15897
▁국책	-15898
▁근린	-15899
▁노골	-15900
▁달래	-15901
▁두어	-15902
▁둔부	-15903
▁들러	-15904
▁따돌	-15905
▁막상	-15906
▁매기	-15907
▁메카	-15908
▁모레	-15909
▁모토	-15910
▁변압	-15911
▁불면	-15912
▁비비	-15913
▁빼놓	-15914
▁뿌듯	-15915
▁뿌려	-15916
▁사표	-15917
▁선례	-15918
▁소사	-15919
▁송장	-15920
▁앞뒤	-15921
▁양반	-15922
▁에틸	-15923
▁오세	-15924
▁와야	-15925
▁윈드	-15926
▁이경	-15927
▁자임	-15928
▁전곡	-15929
▁절삭	-15930
▁정설	-15931
▁제대	-15932
▁좁히	-15933
▁종가	-15934
▁주정	-15935
▁최순	-15936
▁펀치	-15937
▁포구	-15938
▁핑거	-15939
▁해짐	-15940
▁회가	-15941
atin	-15942
▁229	-15943
▁432	-15944
▁CAR	-15945
▁IPA	-15946
▁Pan	-15947
▁ZnS	-15948
▁각별히	-15949
▁건조기	-15950
▁기초선	-15951
▁김현미	-15952
▁내세워	-15953
▁된다며	-15954
▁레전드	-15955
▁무기물	-15956
▁문희상	-15957
▁분기점	-15958
▁불포화	-15959
▁산책로	-15960
▁세계관	-15961
▁소개서	-15962
▁손혜원	-15963
▁스턴스	-15964
▁시베이	-15965
▁시험지	-15966
▁연결망	-15967
▁올라간	-15968
▁취해야	-15969
▁크레인	-15970
▁활주로	-15971
▁후반부	-15972
▁휴가철	-15973
▁1940	-15974
▁2300	-15975
▁기념사업	-15976
▁뉴클레오	-15977
▁열가소성	-15978
▁일찌감치	-15979
▁자매결연	-15980
▁Korea	-15981
▁륜	-15982
도르	-15983
뜨려	-15984
사실	-15985
용품	-15986
우마	-15987
원지	-15988
의식	-15989
제곱	-15990
lex	-15991
▁OD	-15992
▁가결	-15993
▁계파	-15994
▁고비	-15995
▁관로	-15996
▁구배	-15997
▁균주	-15998
▁길래	-15999
▁김도	-16000
▁노포	-16001
▁당은	-16002
▁델타	-16003
▁도농	-16004
▁도제	-16005
▁마중	-16006
▁모재	-16007
▁미주	-16008
▁발제	-16009
▁배척	-16010
▁복식	-16011
▁뽐내	-16012
▁선위	-16013
▁숙성	-16014
▁신변	-16015
▁실소	-16016
▁실익	-16017
▁약수	-16018
▁약침	-16019
▁엉뚱	-16020
▁에오	-16021
▁열교	-16022
▁예절	-16023
▁왼발	-16024
▁우터	-16025
▁이니	-16026
▁종국	-16027
▁직영	-16028
▁진척	-16029
▁체불	-16030
▁코코	-16031
▁키웠	-16032
▁토기	-16033
▁토목	-16034
▁평결	-16035
▁플롯	-16036
베이션	-16037
십니까	-16038
플라틴	-16039
odel	-16040
umab	-16041
▁308	-16042
▁860	-16043
▁DTC	-16044
▁HAR	-16045
▁URL	-16046
▁간문맥	-16047
▁강경화	-16048
▁강릉시	-16049
▁계양구	-16050
▁고의로	-16051
▁김명수	-16052
▁내려놓	-16053
▁내려야	-16054
▁노동계	-16055
▁뇌혈관	-16056
▁는군요	-16057
▁다가온	-16058
▁돌려받	-16059
▁메트로	-16060
▁반투명	-16061
▁블로킹	-16062
▁비가역	-16063
▁생산품	-16064
▁성형술	-16065
▁스턴트	-16066
▁쌍방향	-16067
▁연주회	-16068
▁영양사	-16069
▁예정자	-16070
▁용해도	-16071
▁이순신	-16072
▁작성자	-16073
▁준거법	-16074
▁치러진	-16075
▁투자가	-16076
▁튀어나	-16077
▁팀워크	-16078
▁한국식	-16079
▁해병대	-16080
▁환급금	-16081
공명영상	-16082
▁IFRS	-16083
▁롯데마트	-16084
▁못합니다	-16085
▁베이커리	-16086
▁커버리지	-16087
▁특수교육	-16088
▁시스플라틴	-16089
▁이노베이션	-16090
▁프레임워크	-16091
▁자기공명영상	-16092
구석	-16093
에르	-16094
워진	-16095
임새	-16096
정동	-16097
조리	-16098
테면	-16099
티콘	-16100
amp	-16101
ull	-16102
▁Bo	-16103
▁DN	-16104
▁or	-16105
▁강소	-16106
▁거미	-16107
▁경의	-16108
▁공자	-16109
▁관대	-16110
▁김원	-16111
▁다방	-16112
▁단결	-16113
▁닷컴	-16114
▁도비	-16115
▁도수	-16116
▁등식	-16117
▁발렌	-16118
▁배아	-16119
▁변종	-16120
▁별명	-16121
▁보단	-16122
▁서리	-16123
▁수억	-16124
▁수형	-16125
▁승려	-16126
▁시식	-16127
▁실로	-16128
▁에도	-16129
▁완치	-16130
▁왕성	-16131
▁원기	-16132
▁음모	-16133
▁음압	-16134
▁이마	-16135
▁이준	-16136
▁지의	-16137
▁철새	-16138
▁체액	-16139
▁초당	-16140
▁최영	-16141
▁탄도	-16142
▁특목	-16143
▁폐열	-16144
▁포터	-16145
▁해이	-16146
대리인	-16147
하이머	-16148
▁352	-16149
▁513	-16150
▁515	-16151
▁702	-16152
▁가만히	-16153
▁공예품	-16154
▁과부하	-16155
▁기록부	-16156
▁당사국	-16157
▁라스트	-16158
▁맞춰서	-16159
▁며느리	-16160
▁배당금	-16161
▁부분군	-16162
▁빈번히	-16163
▁성취감	-16164
▁순식간	-16165
▁신의칙	-16166
▁신축성	-16167
▁실마리	-16168
▁심전도	-16169
▁아르곤	-16170
▁웨이브	-16171
▁초계기	-16172
▁초상화	-16173
▁클로로	-16174
▁표기법	-16175
▁해로운	-16176
▁협력체	-16177
▁흘러가	-16178
▁1983	-16179
▁과소평가	-16180
▁류머티즘	-16181
▁아닌가요	-16182
▁이를테면	-16183
▁이모티콘	-16184
▁트라우마	-16185
▁트레이드	-16186
▁리소그래피	-16187
▁커패시턴스	-16188
XA	-16189
▁닙	-16190
동물	-16191
서부	-16192
선스	-16193
어냈	-16194
어요	-16195
우진	-16196
저씨	-16197
anc	-16198
▁FP	-16199
▁UP	-16200
▁가곡	-16201
▁감작	-16202
▁거창	-16203
▁검경	-16204
▁고루	-16205
▁극소	-16206
▁근종	-16207
▁김세	-16208
▁끼쳤	-16209
▁늘렸	-16210
▁다친	-16211
▁도립	-16212
▁도상	-16213
▁도요	-16214
▁루타	-16215
▁리만	-16216
▁명심	-16217
▁모로	-16218
▁묵시	-16219
▁방울	-16220
▁복조	-16221
▁봄철	-16222
▁부갑	-16223
▁분극	-16224
▁불임	-16225
▁빌린	-16226
▁옮길	-16227
▁위크	-16228
▁인멸	-16229
▁정중	-16230
▁제트	-16231
▁주치	-16232
▁추종	-16233
▁친해	-16234
▁침탄	-16235
▁칫솔	-16236
▁캐슬	-16237
▁템포	-16238
▁포부	-16239
▁필두	-16240
▁합한	-16241
▁행방	-16242
▁히로	-16243
가상각	-16244
olog	-16245
rans	-16246
▁228	-16247
▁275	-16248
▁351	-16249
▁531	-16250
▁811	-16251
▁HRD	-16252
▁ISP	-16253
▁거래일	-16254
▁구독자	-16255
▁그래요	-16256
▁김포시	-16257
▁나타남	-16258
▁난치성	-16259
▁다거나	-16260
▁들려주	-16261
▁리프트	-16262
▁바스켓	-16263
▁백종원	-16264
▁소방차	-16265
▁수입금	-16266
▁스탬프	-16267
▁아저씨	-16268
▁알리바	-16269
▁야구장	-16270
▁올린다	-16271
▁우편물	-16272
▁이재민	-16273
▁일용직	-16274
▁자연인	-16275
▁저금리	-16276
▁적응증	-16277
▁전해져	-16278
▁전환점	-16279
▁캐비닛	-16280
▁코끼리	-16281
▁투명도	-16282
▁틀림없	-16283
▁팩토리	-16284
▁행정청	-16285
▁현수막	-16286
▁후원자	-16287
▁1420	-16288
▁CRRT	-16289
▁감가상각	-16290
▁라이선스	-16291
▁기초자치단체	-16292
QI	-16293
드라	-16294
바겐	-16295
브리	-16296
생명	-16297
이나	-16298
저기	-16299
정보	-16300
치기	-16301
카스	-16302
화원	-16303
vel	-16304
▁경각	-16305
▁곡물	-16306
▁기이	-16307
▁김소	-16308
▁낙인	-16309
▁다분	-16310
▁독촉	-16311
▁돌렸	-16312
▁등교	-16313
▁리페	-16314
▁마킹	-16315
▁막힌	-16316
▁뭔지	-16317
▁박유	-16318
▁변증	-16319
▁불출	-16320
▁사도	-16321
▁산포	-16322
▁삼출	-16323
▁성년	-16324
▁성탄	-16325
▁소인	-16326
▁시집	-16327
▁시클	-16328
▁식용	-16329
▁심심	-16330
▁양재	-16331
▁얼른	-16332
▁여량	-16333
▁외피	-16334
▁요한	-16335
▁우량	-16336
▁원두	-16337
▁의논	-16338
▁이공	-16339
▁이징	-16340
▁일화	-16341
▁장구	-16342
▁전차	-16343
▁제상	-16344
▁조그	-16345
▁지단	-16346
▁첩보	-16347
▁체코	-16348
▁카피	-16349
▁쿠바	-16350
▁크론	-16351
▁타르	-16352
▁판재	-16353
▁현판	-16354
▁홍익	-16355
▁후두	-16356
▁휴전	-16357
▁흘려	-16358
기무사	-16359
로오스	-16360
우레탄	-16361
적외선	-16362
틀랜드	-16363
하우스	-16364
▁281	-16365
▁801	-16366
▁CRM	-16367
▁PEG	-16368
▁가격대	-16369
▁간이식	-16370
▁개도국	-16371
▁건축법	-16372
▁경복궁	-16373
▁고소장	-16374
▁그려지	-16375
▁납니다	-16376
▁라이온	-16377
▁명문화	-16378
▁바빠서	-16379
▁보여요	-16380
▁복잡도	-16381
▁분리기	-16382
▁빈도수	-16383
▁신호등	-16384
▁유난히	-16385
▁이력서	-16386
▁입장료	-16387
▁정수기	-16388
▁지정학	-16389
▁파스타	-16390
▁파티션	-16391
▁페이팔	-16392
▁활성도	-16393
▁휩싸였	-16394
제한구역	-16395
▁갑작스런	-16396
▁마이스터	-16397
▁여기저기	-16398
▁인공호흡	-16399
▁합니다만	-16400
▁행동주의	-16401
▁국군기무사	-16402
▁폴리우레탄	-16403
▁개발제한구역	-16404
LI	-16405
NB	-16406
네스	-16407
덤핑	-16408
어내	-16409
정지	-16410
학력	-16411
효소	-16412
NES	-16413
▁HU	-16414
▁KD	-16415
▁di	-16416
▁간내	-16417
▁강직	-16418
▁겨루	-16419
▁고율	-16420
▁공민	-16421
▁공전	-16422
▁구자	-16423
▁굴뚝	-16424
▁귀식	-16425
▁근막	-16426
▁금번	-16427
▁기산	-16428
▁김보	-16429
▁나뭇	-16430
▁내사	-16431
▁담화	-16432
▁대진	-16433
▁두통	-16434
▁둥지	-16435
▁러스	-16436
▁류량	-16437
▁릴리	-16438
▁미공	-16439
▁박은	-16440
▁방통	-16441
▁병상	-16442
▁보태	-16443
▁북극	-16444
▁분업	-16445
▁비산	-16446
▁상변	-16447
▁소시	-16448
▁손톱	-16449
▁솜씨	-16450
▁수선	-16451
▁식후	-16452
▁신천	-16453
▁약액	-16454
▁역내	-16455
▁외투	-16456
▁저탄	-16457
▁직군	-16458
▁채식	-16459
▁챙긴	-16460
▁초연	-16461
▁침실	-16462
▁컬링	-16463
▁탈의	-16464
▁토픽	-16465
▁톱니	-16466
▁팬덤	-16467
▁편파	-16468
▁학창	-16469
▁행장	-16470
▁황당	-16471
▁후군	-16472
▁307	-16473
▁406	-16474
▁AFC	-16475
▁EBS	-16476
▁Ind	-16477
▁결의안	-16478
▁고시원	-16479
▁공산당	-16480
▁교통량	-16481
▁구급대	-16482
▁그래피	-16483
▁김관영	-16484
▁단결정	-16485
▁들으며	-16486
▁목걸이	-16487
▁반가운	-16488
▁반덤핑	-16489
▁반응물	-16490
▁보낸다	-16491
▁부천시	-16492
▁살아나	-16493
▁스며들	-16494
▁시험관	-16495
▁실종자	-16496
▁아사히	-16497
▁안양시	-16498
▁이동식	-16499
▁입법례	-16500
▁준비금	-16501
▁피로감	-16502
▁한라산	-16503
▁1974	-16504
▁HARQ	-16505
▁Park	-16506
▁둘러싸여	-16507
▁백라이트	-16508
▁소용돌이	-16509
▁운전기사	-16510
▁폭스바겐	-16511
각각	-16512
거진	-16513
뉴스	-16514
돋움	-16515
상스	-16516
실히	-16517
연대	-16518
쿠버	-16519
티지	-16520
푸드	-16521
하루	-16522
SCH	-16523
▁BJ	-16524
▁BR	-16525
▁UF	-16526
▁Un	-16527
▁ad	-16528
▁강압	-16529
▁공해	-16530
▁관현	-16531
▁교제	-16532
▁국도	-16533
▁굳건	-16534
▁기용	-16535
▁깨지	-16536
▁담판	-16537
▁당진	-16538
▁대의	-16539
▁대포	-16540
▁도둑	-16541
▁레퍼	-16542
▁로선	-16543
▁만취	-16544
▁말소	-16545
▁미인	-16546
▁발자	-16547
▁방산	-16548
▁부녀	-16549
▁붙였	-16550
▁뼈대	-16551
▁소란	-16552
▁속옷	-16553
▁송이	-16554
▁슬픈	-16555
▁아쿠	-16556
▁애호	-16557
▁억류	-16558
▁업인	-16559
▁영종	-16560
▁옮긴	-16561
▁완수	-16562
▁외자	-16563
▁이창	-16564
▁자음	-16565
▁자취	-16566
▁적금	-16567
▁전폭	-16568
▁정오	-16569
▁조식	-16570
▁존슨	-16571
▁주안	-16572
▁지옥	-16573
▁천명	-16574
▁천지	-16575
▁초석	-16576
▁카탈	-16577
▁평준	-16578
▁필로	-16579
▁할애	-16580
▁혈구	-16581
▁휴무	-16582
▁흉터	-16583
▁451	-16584
▁621	-16585
▁ABO	-16586
▁OTT	-16587
▁PPG	-16588
▁간다는	-16589
▁견적서	-16590
▁경각심	-16591
▁경비원	-16592
▁경주시	-16593
▁기억력	-16594
▁넘어설	-16595
▁느껴질	-16596
▁달려가	-16597
▁대행업	-16598
▁등록증	-16599
▁려고요	-16600
▁로스앤	-16601
▁메스꺼	-16602
▁무너졌	-16603
▁발돋움	-16604
▁발열량	-16605
▁방해죄	-16606
▁변조기	-16607
▁부적응	-16608
▁선풍기	-16609
▁스폰서	-16610
▁아릴기	-16611
▁에어로	-16612
▁여대생	-16613
▁역사학	-16614
▁잉여금	-16615
▁정류소	-16616
▁컨베이	-16617
▁코리안	-16618
▁코발트	-16619
▁패션쇼	-16620
▁편광판	-16621
▁표면적	-16622
▁할인율	-16623
▁형사법	-16624
▁레퍼토리	-16625
▁르네상스	-16626
▁부대시설	-16627
▁스퍼터링	-16628
▁시켰으며	-16629
▁피라미드	-16630
▁셀룰로오스	-16631
▁소송대리인	-16632
▁로스앤젤레스	-16633
Pa	-16634
ik	-16635
sh	-16636
▁킥	-16637
거지	-16638
기지	-16639
깨비	-16640
대기	-16641
동원	-16642
들였	-16643
로워	-16644
부로	-16645
삼성	-16646
솔린	-16647
숭이	-16648
어붙	-16649
운용	-16650
일치	-16651
착륙	-16652
ank	-16653
arm	-16654
row	-16655
▁Pb	-16656
▁Ph	-16657
▁개미	-16658
▁개진	-16659
▁경전	-16660
▁근저	-16661
▁날려	-16662
▁노멀	-16663
▁놓였	-16664
▁달할	-16665
▁당권	-16666
▁령부	-16667
▁로즈	-16668
▁리파	-16669
▁말리	-16670
▁맡길	-16671
▁매사	-16672
▁박찬	-16673
▁반가	-16674
▁보잉	-16675
▁본드	-16676
▁분출	-16677
▁빈소	-16678
▁빌드	-16679
▁사관	-16680
▁사적	-16681
▁살포	-16682
▁서방	-16683
▁선단	-16684
▁설날	-16685
▁센티	-16686
▁스킬	-16687
▁아악	-16688
▁알츠	-16689
▁야심	-16690
▁어스	-16691
▁열의	-16692
▁왕국	-16693
▁용자	-16694
▁원도	-16695
▁원룸	-16696
▁이광	-16697
▁익산	-16698
▁인입	-16699
▁일식	-16700
▁자처	-16701
▁재일	-16702
▁종점	-16703
▁지폐	-16704
▁진위	-16705
▁체증	-16706
▁총합	-16707
▁최재	-16708
▁최하	-16709
▁충만	-16710
▁쿼리	-16711
▁투광	-16712
▁특급	-16713
▁패권	-16714
▁하의	-16715
▁학장	-16716
▁항복	-16717
▁헤이	-16718
▁화답	-16719
경화성	-16720
스트리	-16721
roup	-16722
▁GHz	-16723
▁SBP	-16724
▁가산점	-16725
▁가솔린	-16726
▁간절히	-16727
▁감독관	-16728
▁경희대	-16729
▁농경지	-16730
▁동맹국	-16731
▁라우팅	-16732
▁리커트	-16733
▁비뇨기	-16734
▁사계절	-16735
▁생산물	-16736
▁서두르	-16737
▁수정안	-16738
▁시제품	-16739
▁외교관	-16740
▁이뇨제	-16741
▁일본식	-16742
▁잉크젯	-16743
▁작용기	-16744
▁저혈압	-16745
▁전시실	-16746
▁중심점	-16747
▁치환기	-16748
▁카페인	-16749
▁톡톡히	-16750
▁합의서	-16751
▁ECMO	-16752
▁가져온다	-16753
▁르노삼성	-16754
▁스케일링	-16755
▁슬라이더	-16756
▁심방세동	-16757
▁알리바바	-16758
▁열경화성	-16759
▁전자기파	-16760
▁베스트셀러	-16761
▁알츠하이머	-16762
DR	-16763
ky	-16764
po	-16765
고제	-16766
니언	-16767
미트	-16768
반응	-16769
밸리	-16770
스피	-16771
야마	-16772
워야	-16773
저리	-16774
질소	-16775
차림	-16776
착오	-16777
찰청	-16778
커녕	-16779
타임	-16780
RAM	-16781
eck	-16782
ory	-16783
▁KP	-16784
▁LE	-16785
▁개표	-16786
▁검지	-16787
▁견과	-16788
▁경작	-16789
▁급히	-16790
▁기를	-16791
▁기망	-16792
▁기보	-16793
▁김남	-16794
▁늦추	-16795
▁늦춰	-16796
▁다산	-16797
▁단언	-16798
▁대문	-16799
▁동월	-16800
▁두껍	-16801
▁리니	-16802
▁마구	-16803
▁맥도	-16804
▁묵묵	-16805
▁바비	-16806
▁벌레	-16807
▁봉제	-16808
▁부류	-16809
▁분립	-16810
▁비표	-16811
▁상완	-16812
▁세속	-16813
▁소소	-16814
▁수문	-16815
▁신일	-16816
▁실세	-16817
▁씨름	-16818
▁아랫	-16819
▁암살	-16820
▁얽힌	-16821
▁여긴	-16822
▁연못	-16823
▁원청	-16824
▁유령	-16825
▁이룩	-16826
▁자비	-16827
▁절친	-16828
▁절편	-16829
▁점액	-16830
▁제니	-16831
▁조롱	-16832
▁존치	-16833
▁중원	-16834
▁처했	-16835
▁캡처	-16836
▁콕스	-16837
▁클락	-16838
▁토막	-16839
▁투구	-16840
▁틸팅	-16841
▁파행	-16842
▁판촉	-16843
▁할랄	-16844
▁항응	-16845
▁허구	-16846
▁헌혈	-16847
▁후쿠	-16848
▁훈육	-16849
ress	-16850
▁343	-16851
▁EGR	-16852
▁HSC	-16853
▁INH	-16854
▁miR	-16855
▁res	-16856
▁교통망	-16857
▁구미시	-16858
▁기계식	-16859
▁기생충	-16860
▁동반성	-16861
▁등록부	-16862
▁라이벌	-16863
▁바꿔야	-16864
▁발라드	-16865
▁복막염	-16866
▁북한산	-16867
▁분류기	-16868
▁센트럴	-16869
▁수십억	-16870
▁수천만	-16871
▁스레드	-16872
▁아울렛	-16873
▁안무가	-16874
▁영등포	-16875
▁오염원	-16876
▁요구서	-16877
▁울타리	-16878
▁인구학	-16879
▁일함수	-16880
▁전교조	-16881
▁전년도	-16882
▁조리실	-16883
▁주택가	-16884
▁준다면	-16885
▁중재자	-16886
▁진다면	-16887
▁출연진	-16888
▁침출수	-16889
▁캐피털	-16890
▁함부로	-16891
▁흩어져	-16892
고속도로	-16893
공항공사	-16894
▁EGFR	-16895
▁대검찰청	-16896
▁받아들인	-16897
▁부갑상선	-16898
▁시행착오	-16899
▁양도담보	-16900
▁어우러지	-16901
▁장례식장	-16902
▁컨베이어	-16903
▁항응고제	-16904
UN	-16905
VI	-16906
▁뉘	-16907
곡선	-16908
막이	-16909
모습	-16910
무지	-16911
시노	-16912
어질	-16913
은혜	-16914
이온	-16915
전하	-16916
정리	-16917
제이	-16918
젝터	-16919
찌개	-16920
페론	-16921
OVA	-16922
ade	-16923
oly	-16924
ros	-16925
▁RR	-16926
▁개항	-16927
▁결격	-16928
▁경시	-16929
▁공채	-16930
▁구내	-16931
▁구연	-16932
▁국교	-16933
▁귀신	-16934
▁근황	-16935
▁금회	-16936
▁나미	-16937
▁난관	-16938
▁낮춘	-16939
▁단골	-16940
▁단수	-16941
▁델라	-16942
▁동독	-16943
▁로펌	-16944
▁리딩	-16945
▁만전	-16946
▁매너	-16947
▁범퍼	-16948
▁변의	-16949
▁불빛	-16950
▁불연	-16951
▁블리	-16952
▁비시	-16953
▁사칭	-16954
▁상각	-16955
▁상파	-16956
▁샤오	-16957
▁설화	-16958
▁섭씨	-16959
▁섭외	-16960
▁수협	-16961
▁쉬프	-16962
▁시부	-16963
▁신예	-16964
▁애널	-16965
▁양파	-16966
▁에티	-16967
▁열부	-16968
▁열연	-16969
▁용종	-16970
▁유신	-16971
▁육류	-16972
▁은하	-16973
▁재앙	-16974
▁쟁의	-16975
▁전광	-16976
▁정순	-16977
▁증원	-16978
▁직격	-16979
▁직계	-16980
▁진에	-16981
▁체하	-16982
▁친일	-16983
▁칭하	-16984
▁태운	-16985
▁터보	-16986
▁틀리	-16987
▁퍼졌	-16988
▁편곡	-16989
▁폐막	-16990
▁해내	-16991
▁협진	-16992
▁화분	-16993
십니다	-16994
코이드	-16995
틸리티	-16996
▁306	-16997
▁KOS	-16998
▁NSA	-16999
▁SAR	-17000
▁off	-17001
▁감지기	-17002
▁고구마	-17003
▁관계식	-17004
▁그리워	-17005
▁남아공	-17006
▁내세웠	-17007
▁다니엘	-17008
▁대장균	-17009
▁데려다	-17010
▁뜨거웠	-17011
▁무궁화	-17012
▁미혼모	-17013
▁바리스	-17014
▁부끄러	-17015
▁불면증	-17016
▁사무직	-17017
▁선관위	-17018
▁세포질	-17019
▁소방청	-17020
▁수개월	-17021
▁수행자	-17022
▁스케이	-17023
▁시흥시	-17024
▁아쉬웠	-17025
▁어워드	-17026
▁저학년	-17027
▁참으로	-17028
▁초록색	-17029
▁커리어	-17030
▁티브이	-17031
▁폴리스	-17032
▁합법화	-17033
서울청사	-17034
▁1981	-17035
▁만장일치	-17036
▁명예훼손	-17037
▁스페인어	-17038
▁인터페론	-17039
▁프로젝터	-17040
▁Panel	-17041
▁갑작스러운	-17042
▁소크라테스	-17043
▁정부서울청사	-17044
▁늄	-17045
감사	-17046
로이	-17047
북자	-17048
업소	-17049
이상	-17050
잭션	-17051
처치	-17052
피린	-17053
혜진	-17054
ink	-17055
ule	-17056
▁be	-17057
▁거용	-17058
▁계상	-17059
▁고덕	-17060
▁귀책	-17061
▁귀촌	-17062
▁그대	-17063
▁꾸리	-17064
▁노필	-17065
▁녹조	-17066
▁도가	-17067
▁도용	-17068
▁돼왔	-17069
▁메밀	-17070
▁문예	-17071
▁방재	-17072
▁배율	-17073
▁백자	-17074
▁병인	-17075
▁복직	-17076
▁불응	-17077
▁빨래	-17078
▁뽐냈	-17079
▁사구	-17080
▁선암	-17081
▁셔츠	-17082
▁슬래	-17083
▁승무	-17084
▁식재	-17085
▁실렸	-17086
▁안장	-17087
▁알린	-17088
▁양손	-17089
▁연꽃	-17090
▁오키	-17091
▁욕실	-17092
▁울음	-17093
▁으셔	-17094
▁은가	-17095
▁음량	-17096
▁자민	-17097
▁재인	-17098
▁저당	-17099
▁점성	-17100
▁제비	-17101
▁조이	-17102
▁중진	-17103
▁즐비	-17104
▁지어	-17105
▁진찰	-17106
▁착취	-17107
▁카스	-17108
▁콘솔	-17109
▁큰일	-17110
▁탁자	-17111
▁터전	-17112
▁파마	-17113
▁편식	-17114
▁포일	-17115
▁표류	-17116
▁헬륨	-17117
▁호박	-17118
▁홀수	-17119
▁홍삼	-17120
▁환송	-17121
▁후천	-17122
레인지	-17123
form	-17124
▁532	-17125
▁604	-17126
▁712	-17127
▁ATM	-17128
▁FVC	-17129
▁ISO	-17130
▁MTB	-17131
▁RMS	-17132
▁가려움	-17133
▁공격자	-17134
▁구부러	-17135
▁권리금	-17136
▁극작가	-17137
▁기대치	-17138
▁내비쳤	-17139
▁는지요	-17140
▁대수학	-17141
▁들어야	-17142
▁듭니다	-17143
▁마리아	-17144
▁바우처	-17145
▁밝혀져	-17146
▁번호판	-17147
▁법정형	-17148
▁변속기	-17149
▁변압기	-17150
▁보조제	-17151
▁빈곤층	-17152
▁사무처	-17153
▁소수점	-17154
▁온난화	-17155
▁위기감	-17156
▁이어받	-17157
▁입법안	-17158
▁조정안	-17159
▁지리산	-17160
▁출입문	-17161
▁특목고	-17162
▁파우더	-17163
▁펩티드	-17164
▁프리랜	-17165
▁행한다	-17166
▁호중구	-17167
▁가진다는	-17168
▁광역버스	-17169
▁되돌아보	-17170
▁리베이트	-17171
▁모아진다	-17172
▁오버레이	-17173
▁유틸리티	-17174
▁트랜잭션	-17175
▁패스트푸드	-17176
▁피아니스트	-17177
FE	-17178
TR	-17179
겹살	-17180
고래	-17181
공서	-17182
뜨릴	-17183
리닝	-17184
매기	-17185
배기	-17186
숭아	-17187
저가	-17188
지도	-17189
치소	-17190
코프	-17191
ISA	-17192
iss	-17193
ugh	-17194
▁DG	-17195
▁KL	-17196
▁se	-17197
▁up	-17198
▁가했	-17199
▁기습	-17200
▁나스	-17201
▁누수	-17202
▁단선	-17203
▁독해	-17204
▁동식	-17205
▁만능	-17206
▁맞붙	-17207
▁매료	-17208
▁매설	-17209
▁못함	-17210
▁무제	-17211
▁박민	-17212
▁산수	-17213
▁서론	-17214
▁석영	-17215
▁선후	-17216
▁성모	-17217
▁성수	-17218
▁속여	-17219
▁숭고	-17220
▁스릴	-17221
▁시발	-17222
▁신촌	-17223
▁안과	-17224
▁액적	-17225
▁연가	-17226
▁연민	-17227
▁열렬	-17228
▁오거	-17229
▁오작	-17230
▁유모	-17231
▁이만	-17232
▁일컬	-17233
▁임파	-17234
▁제하	-17235
▁주범	-17236
▁즐겼	-17237
▁천사	-17238
▁최단	-17239
▁취수	-17240
▁통근	-17241
▁편법	-17242
▁폐원	-17243
▁플레	-17244
▁후드	-17245
무가설	-17246
미화원	-17247
▁219	-17248
▁361	-17249
▁442	-17250
▁CIS	-17251
▁MWC	-17252
▁PAR	-17253
▁PCI	-17254
▁VTE	-17255
▁글리세	-17256
▁기뻐하	-17257
▁넘겨졌	-17258
▁뉴타운	-17259
▁들여다	-17260
▁말미암	-17261
▁멀티플	-17262
▁무너진	-17263
▁방사체	-17264
▁백두산	-17265
▁병원균	-17266
▁삼겹살	-17267
▁세무사	-17268
▁소송물	-17269
▁신중히	-17270
▁여객기	-17271
▁연면적	-17272
▁우주선	-17273
▁원주민	-17274
▁을게요	-17275
▁이대로	-17276
▁이동은	-17277
▁이분법	-17278
▁인권위	-17279
▁임종헌	-17280
▁접촉면	-17281
▁정상급	-17282
▁중저가	-17283
▁청도군	-17284
▁코디네	-17285
▁통제력	-17286
▁플레인	-17287
▁해석론	-17288
▁회계사	-17289
축구연맹	-17290
▁1001	-17291
▁ESRD	-17292
▁cell	-17293
▁귀무가설	-17294
▁메스꺼움	-17295
▁미칩니다	-17296
▁보호관찰	-17297
▁일지라도	-17298
▁자산운용	-17299
▁자이언츠	-17300
▁프라이머	-17301
▁프리랜서	-17302
▁부탁드려요	-17303
▁환경미화원	-17304
CT	-17305
LK	-17306
bs	-17307
▁놈	-17308
▁덱	-17309
▁랍	-17310
▁럽	-17311
▁므	-17312
급식	-17313
날드	-17314
마드	-17315
미수	-17316
베리	-17317
절로	-17318
책임	-17319
프팅	-17320
현수	-17321
ake	-17322
▁Gy	-17323
▁RL	-17324
▁vs	-17325
▁간신	-17326
▁강박	-17327
▁거머	-17328
▁관망	-17329
▁기화	-17330
▁넘버	-17331
▁니콜	-17332
▁대분	-17333
▁대청	-17334
▁독주	-17335
▁동자	-17336
▁망치	-17337
▁박남	-17338
▁봉착	-17339
▁상도	-17340
▁상병	-17341
▁서강	-17342
▁세간	-17343
▁수광	-17344
▁수설	-17345
▁수컷	-17346
▁쓰일	-17347
▁악마	-17348
▁액티	-17349
▁양말	-17350
▁었었	-17351
▁여아	-17352
▁오퍼	-17353
▁원문	-17354
▁전과	-17355
▁전조	-17356
▁정품	-17357
▁지드	-17358
▁특감	-17359
▁티아	-17360
▁티오	-17361
▁팩스	-17362
▁항쟁	-17363
글라스	-17364
▁272	-17365
▁CAN	-17366
▁IgE	-17367
▁LPS	-17368
▁PAN	-17369
▁SSc	-17370
▁간병인	-17371
▁경상도	-17372
▁고인돌	-17373
▁그려져	-17374
▁기념사	-17375
▁기판력	-17376
▁나눈다	-17377
▁내린다	-17378
▁넘어지	-17379
▁뒤따르	-17380
▁모멘트	-17381
▁반대쪽	-17382
▁분석가	-17383
▁사령탑	-17384
▁사분면	-17385
▁설립자	-17386
▁성인기	-17387
▁수사대	-17388
▁수작업	-17389
▁신경전	-17390
▁아세톤	-17391
▁양주시	-17392
▁연령층	-17393
▁연수원	-17394
▁윤리학	-17395
▁이태원	-17396
▁임신부	-17397
▁저전압	-17398
▁저절로	-17399
▁전라도	-17400
▁전임자	-17401
▁전주시	-17402
▁제안자	-17403
▁지금껏	-17404
▁지주사	-17405
▁천문학	-17406
▁테트라	-17407
▁특이점	-17408
▁퍼스트	-17409
▁평가전	-17410
▁할로겐	-17411
▁홍보물	-17412
프로필렌	-17413
ition	-17414
▁LTBI	-17415
▁가시광선	-17416
▁걸립니다	-17417
▁무상급식	-17418
▁소방본부	-17419
▁열에너지	-17420
▁정형외과	-17421
▁Inter	-17422
▁가까울수록	-17423
▁폴리프로필렌	-17424
BB	-17425
CP	-17426
cl	-17427
yd	-17428
▁얀	-17429
곡동	-17430
과점	-17431
모토	-17432
속도	-17433
스텐	-17434
악기	-17435
줄기	-17436
지역	-17437
체육	-17438
회복	-17439
oph	-17440
▁FE	-17441
▁LL	-17442
▁감내	-17443
▁감호	-17444
▁게르	-17445
▁결력	-17446
▁고아	-17447
▁광량	-17448
▁교종	-17449
▁구명	-17450
▁구애	-17451
▁국화	-17452
▁권영	-17453
▁극동	-17454
▁김무	-17455
▁김시	-17456
▁꺼지	-17457
▁데스	-17458
▁뒤덮	-17459
▁드나	-17460
▁로프	-17461
▁망원	-17462
▁멸실	-17463
▁모리	-17464
▁묻혀	-17465
▁물놀	-17466
▁미모	-17467
▁박보	-17468
▁방청	-17469
▁배고	-17470
▁부연	-17471
▁분별	-17472
▁산발	-17473
▁색감	-17474
▁선서	-17475
▁성행	-17476
▁쇄골	-17477
▁수세	-17478
▁스마	-17479
▁스몰	-17480
▁슬퍼	-17481
▁식구	-17482
▁신데	-17483
▁쓸모	-17484
▁알콜	-17485
▁야드	-17486
▁양당	-17487
▁역외	-17488
▁오만	-17489
▁와도	-17490
▁이학	-17491
▁잊혀	-17492
▁잔혹	-17493
▁접견	-17494
▁준위	-17495
▁직구	-17496
▁차년	-17497
▁추리	-17498
▁측방	-17499
▁친선	-17500
▁케톤	-17501
▁콜린	-17502
▁타석	-17503
▁토사	-17504
▁토익	-17505
▁티스	-17506
▁편감	-17507
▁폴드	-17508
▁풍미	-17509
▁홍성	-17510
내셔널	-17511
코르티	-17512
▁317	-17513
▁345	-17514
▁424	-17515
▁631	-17516
▁CMD	-17517
▁PLA	-17518
▁kHz	-17519
▁가평군	-17520
▁결산서	-17521
▁결합제	-17522
▁공분산	-17523
▁굿거리	-17524
▁김성수	-17525
▁김수현	-17526
▁내려와	-17527
▁노동법	-17528
▁다각화	-17529
▁대표부	-17530
▁돌려보	-17531
▁바나나	-17532
▁방지법	-17533
▁세로축	-17534
▁소나기	-17535
▁소지자	-17536
▁스케치	-17537
▁식염수	-17538
▁신년사	-17539
▁약리학	-17540
▁여객선	-17541
▁연예계	-17542
▁이동한	-17543
▁잇따랐	-17544
▁재수사	-17545
▁지식인	-17546
▁집행부	-17547
▁타고난	-17548
▁플로리	-17549
▁학령기	-17550
▁1968	-17551
▁2400	-17552
▁델라웨어	-17553
▁미적분학	-17554
▁서귀포시	-17555
▁소방대원	-17556
▁아스피린	-17557
▁어려워질	-17558
▁원상회복	-17559
▁인덕턴스	-17560
▁지켜봐야	-17561
▁인터내셔널	-17562
코르티코이드	-17563
▁글루코코르티코이드	-17564
ME	-17565
ma	-17566
▁윙	-17567
경궁	-17568
글스	-17569
내믹	-17570
더욱	-17571
덴서	-17572
록시	-17573
링크	-17574
망이	-17575
부리	-17576
비티	-17577
창호	-17578
칼슘	-17579
토르	-17580
EAN	-17581
FET	-17582
ner	-17583
ome	-17584
▁bl	-17585
▁cl	-17586
▁me	-17587
▁가점	-17588
▁갈지	-17589
▁강인	-17590
▁강철	-17591
▁거스	-17592
▁괄호	-17593
▁광축	-17594
▁괴물	-17595
▁난해	-17596
▁논산	-17597
▁다던	-17598
▁도화	-17599
▁루수	-17600
▁루스	-17601
▁무고	-17602
▁바리	-17603
▁벌일	-17604
▁변기	-17605
▁복습	-17606
▁비축	-17607
▁비티	-17608
▁빌릴	-17609
▁뽑혔	-17610
▁색조	-17611
▁서약	-17612
▁서한	-17613
▁셰익	-17614
▁소공	-17615
▁손수	-17616
▁수박	-17617
▁수순	-17618
▁숙고	-17619
▁스노	-17620
▁식기	-17621
▁신드	-17622
▁악장	-17623
▁어벤	-17624
▁영제	-17625
▁오갔	-17626
▁유비	-17627
▁일주	-17628
▁일품	-17629
▁입히	-17630
▁잔뜩	-17631
▁전업	-17632
▁절전	-17633
▁정족	-17634
▁조교	-17635
▁준법	-17636
▁지와	-17637
▁초급	-17638
▁치닫	-17639
▁타크	-17640
▁탐침	-17641
▁터졌	-17642
▁트립	-17643
▁표제	-17644
▁후발	-17645
▁흑백	-17646
다리기	-17647
떨어진	-17648
스토크	-17649
스피어	-17650
연구원	-17651
테이트	-17652
cess	-17653
▁490	-17654
▁514	-17655
▁605	-17656
▁680	-17657
▁DSR	-17658
▁KEB	-17659
▁MOS	-17660
▁NRS	-17661
▁간다면	-17662
▁공소장	-17663
▁김태우	-17664
▁나와야	-17665
▁내려앉	-17666
▁늘어남	-17667
▁대마초	-17668
▁더더욱	-17669
▁동해안	-17670
▁드로잉	-17671
▁마니아	-17672
▁맞춰져	-17673
▁무너져	-17674
▁무제한	-17675
▁복숭아	-17676
▁부산대	-17677
▁부적격	-17678
▁불가결	-17679
▁비틀림	-17680
▁오작동	-17681
▁이승현	-17682
▁일까요	-17683
▁자연어	-17684
▁저수지	-17685
▁절실히	-17686
▁제약사	-17687
▁주지사	-17688
▁출판물	-17689
▁콘덴서	-17690
▁턱없이	-17691
▁헤드셋	-17692
▁1946	-17693
▁kcal	-17694
▁다이내믹	-17695
▁듀레이션	-17696
▁리바운드	-17697
▁문화재청	-17698
▁바리스타	-17699
▁였으므로	-17700
▁올라간다	-17701
▁재무회계	-17702
▁줄다리기	-17703
▁하루빨리	-17704
▁합성수지	-17705
▁호스피스	-17706
▁두드러진다	-17707
▁셰익스피어	-17708
CH	-17709
GT	-17710
XT	-17711
▁긋	-17712
남기	-17713
모스	-17714
케인	-17715
킨슨	-17716
lit	-17717
und	-17718
▁Mc	-17719
▁tr	-17720
▁가면	-17721
▁거침	-17722
▁검장	-17723
▁검침	-17724
▁극판	-17725
▁기강	-17726
▁기와	-17727
▁기탁	-17728
▁기해	-17729
▁난동	-17730
▁남대	-17731
▁내연	-17732
▁뉴딜	-17733
▁당겨	-17734
▁뒤흔	-17735
▁등등	-17736
▁등온	-17737
▁문경	-17738
▁문합	-17739
▁미량	-17740
▁박인	-17741
▁북동	-17742
▁북아	-17743
▁북적	-17744
▁사절	-17745
▁삼현	-17746
▁서재	-17747
▁세리	-17748
▁소작	-17749
▁수다	-17750
▁승화	-17751
▁심초	-17752
▁쏠림	-17753
▁악단	-17754
▁안부	-17755
▁애로	-17756
▁양양	-17757
▁여분	-17758
▁여진	-17759
▁연제	-17760
▁예뻐	-17761
▁예열	-17762
▁유격	-17763
▁일삼	-17764
▁잣대	-17765
▁장상	-17766
▁장염	-17767
▁장충	-17768
▁저부	-17769
▁전유	-17770
▁점주	-17771
▁좌상	-17772
▁지국	-17773
▁채웠	-17774
▁천막	-17775
▁천자	-17776
▁철원	-17777
▁추월	-17778
▁침식	-17779
▁코르	-17780
▁타개	-17781
▁태워	-17782
▁편도	-17783
▁해녀	-17784
▁허술	-17785
▁헤딩	-17786
▁현시	-17787
▁혈종	-17788
▁형체	-17789
▁화각	-17790
▁황화	-17791
▁황희	-17792
▁흐른	-17793
▁흡습	-17794
ower	-17795
▁407	-17796
▁409	-17797
▁506	-17798
▁Cox	-17799
▁Lik	-17800
▁ind	-17801
▁kPa	-17802
▁가부장	-17803
▁가파른	-17804
▁감수성	-17805
▁개막전	-17806
▁결정짓	-17807
▁깊숙이	-17808
▁다이얼	-17809
▁달라서	-17810
▁대타협	-17811
▁두드리	-17812
▁만난다	-17813
▁머지않	-17814
▁모아서	-17815
▁바닷물	-17816
▁보여서	-17817
▁서포트	-17818
▁소식지	-17819
▁양전자	-17820
▁어떤지	-17821
▁에세이	-17822
▁여실히	-17823
▁연구관	-17824
▁연습생	-17825
▁왔으나	-17826
▁이영자	-17827
▁정족수	-17828
▁주니어	-17829
▁즐거워	-17830
▁폐결핵	-17831
▁하수도	-17832
▁후견인	-17833
▁1965	-17834
▁강원랜드	-17835
▁그린벨트	-17836
▁법치주의	-17837
▁비상근무	-17838
▁세계주의	-17839
▁소송비용	-17840
▁수행평가	-17841
▁액티비티	-17842
▁오키나와	-17843
▁완벽주의	-17844
▁일러스트	-17845
▁재능기부	-17846
▁트레일러	-17847
▁해줍니다	-17848
CO	-17849
IL	-17850
ah	-17851
데시	-17852
렉트	-17853
무라	-17854
베르	-17855
보이	-17856
선언	-17857
알데	-17858
전도	-17859
정원	-17860
팽창	-17861
RCA	-17862
ans	-17863
ori	-17864
▁개각	-17865
▁고점	-17866
▁광의	-17867
▁그레	-17868
▁급상	-17869
▁나인	-17870
▁난항	-17871
▁내림	-17872
▁니얼	-17873
▁동위	-17874
▁동축	-17875
▁됐었	-17876
▁땅콩	-17877
▁레스	-17878
▁마녀	-17879
▁망라	-17880
▁망상	-17881
▁명함	-17882
▁모셔	-17883
▁물꼬	-17884
▁물자	-17885
▁민화	-17886
▁박준	-17887
▁백남	-17888
▁백일	-17889
▁범하	-17890
▁불렸	-17891
▁불용	-17892
▁뷔페	-17893
▁브이	-17894
▁사선	-17895
▁서핑	-17896
▁서훈	-17897
▁선결	-17898
▁선비	-17899
▁수두	-17900
▁수서	-17901
▁신영	-17902
▁신태	-17903
▁심벌	-17904
▁영성	-17905
▁우도	-17906
▁우안	-17907
▁울진	-17908
▁유념	-17909
▁유례	-17910
▁이장	-17911
▁자손	-17912
▁자판	-17913
▁자행	-17914
▁재분	-17915
▁점자	-17916
▁점하	-17917
▁정인	-17918
▁주형	-17919
▁지필	-17920
▁차로	-17921
▁충고	-17922
▁커팅	-17923
▁탈루	-17924
▁택했	-17925
▁표피	-17926
▁피시	-17927
▁핑장	-17928
▁회향	-17929
▁힘줄	-17930
▁371	-17931
▁516	-17932
▁CSF	-17933
▁Car	-17934
▁FDG	-17935
▁QOL	-17936
▁SnO	-17937
▁TOP	-17938
▁검사장	-17939
▁궤양성	-17940
▁급기야	-17941
▁나날이	-17942
▁내려갔	-17943
▁다수결	-17944
▁더한다	-17945
▁도깨비	-17946
▁되돌려	-17947
▁두꺼워	-17948
▁메르켈	-17949
▁몰라도	-17950
▁무의미	-17951
▁미스트	-17952
▁보조자	-17953
▁상변화	-17954
▁상행위	-17955
▁소집단	-17956
▁시험편	-17957
▁오리엔	-17958
▁올리브	-17959
▁음악사	-17960
▁이상일	-17961
▁입법론	-17962
▁저탄소	-17963
▁적격성	-17964
▁접어든	-17965
▁조직원	-17966
▁죄책감	-17967
▁줄거리	-17968
▁탈의실	-17969
▁파이버	-17970
▁포천시	-17971
▁학생회	-17972
▁홍남기	-17973
▁휴양지	-17974
▁Case	-17975
▁끌어들이	-17976
▁비상사태	-17977
▁스크리닝	-17978
▁어려워졌	-17979
▁자립생활	-17980
▁증거능력	-17981
▁충청북도	-17982
▁카르복실	-17983
▁파이낸셜	-17984
▁하루하루	-17985
▁PDCCH	-17986
▁강원도지사	-17987
▁실리콘밸리	-17988
▁아세테이트	-17989
90	-17990
AD	-17991
닐라	-17992
동작	-17993
디스	-17994
런저	-17995
렉서	-17996
모리	-17997
바탕	-17998
벌레	-17999
베스	-18000
암동	-18001
잖아	-18002
조기	-18003
처드	-18004
춘기	-18005
쿠르	-18006
항력	-18007
ene	-18008
▁AW	-18009
▁Im	-18010
▁Or	-18011
▁PK	-18012
▁Qu	-18013
▁RX	-18014
▁Sr	-18015
▁VL	-18016
▁가벌	-18017
▁감식	-18018
▁고작	-18019
▁과속	-18020
▁과오	-18021
▁관전	-18022
▁구르	-18023
▁군포	-18024
▁김홍	-18025
▁담수	-18026
▁답사	-18027
▁뒤바	-18028
▁루터	-18029
▁막내	-18030
▁망언	-18031
▁무거	-18032
▁무소	-18033
▁무안	-18034
▁미들	-18035
▁미립	-18036
▁반죽	-18037
▁반포	-18038
▁보답	-18039
▁본토	-18040
▁볼넷	-18041
▁볼리	-18042
▁사치	-18043
▁상전	-18044
▁상존	-18045
▁상증	-18046
▁성지	-18047
▁수발	-18048
▁순례	-18049
▁스틱	-18050
▁신명	-18051
▁신지	-18052
▁실연	-18053
▁악구	-18054
▁양분	-18055
▁언행	-18056
▁업주	-18057
▁연달	-18058
▁연례	-18059
▁오승	-18060
▁왔었	-18061
▁윤석	-18062
▁이문	-18063
▁이은	-18064
▁이철	-18065
▁일축	-18066
▁임면	-18067
▁자위	-18068
▁장막	-18069
▁점쳐	-18070
▁제설	-18071
▁졸음	-18072
▁종말	-18073
▁주휴	-18074
▁지기	-18075
▁지뢰	-18076
▁진부	-18077
▁질타	-18078
▁챙겼	-18079
▁택스	-18080
▁통틀	-18081
▁펜타	-18082
▁폐사	-18083
▁풍자	-18084
▁프란	-18085
▁피츠	-18086
▁햇살	-18087
▁282	-18088
▁408	-18089
▁Des	-18090
▁Fre	-18091
▁NYT	-18092
▁ROC	-18093
▁교수진	-18094
▁내실화	-18095
▁늘려야	-18096
▁다각도	-18097
▁동역학	-18098
▁드레싱	-18099
▁모자라	-18100
▁몸싸움	-18101
▁묵묵히	-18102
▁버퍼링	-18103
▁법원장	-18104
▁분홍색	-18105
▁상대국	-18106
▁생명력	-18107
▁서울역	-18108
▁수출국	-18109
▁신탁법	-18110
▁안철수	-18111
▁알렉산	-18112
▁연수구	-18113
▁오른다	-18114
▁우레탄	-18115
▁운전석	-18116
▁원숭이	-18117
▁원피스	-18118
▁으라고	-18119
▁장하성	-18120
▁전기금	-18121
▁전용기	-18122
▁제주시	-18123
▁중개업	-18124
▁직격탄	-18125
▁진학률	-18126
▁터뜨렸	-18127
▁팔레스	-18128
▁플런저	-18129
▁행해진	-18130
▁1140	-18131
▁1510	-18132
▁1969	-18133
▁가로질러	-18134
▁고지혈증	-18135
▁대행업체	-18136
▁두려워하	-18137
▁바이너리	-18138
▁부정행위	-18139
▁불가항력	-18140
▁아시아인	-18141
▁트레이너	-18142
▁멀티플렉서	-18143
▁아밀로이드	-18144
▁탄화수소기	-18145
▁팔레스타인	-18146
co	-18147
tt	-18148
라노	-18149
박이	-18150
부족	-18151
속인	-18152
악산	-18153
알라	-18154
제국	-18155
즈키	-18156
토류	-18157
▁gl	-18158
▁un	-18159
▁가한	-18160
▁결점	-18161
▁겸비	-18162
▁금주	-18163
▁김천	-18164
▁김한	-18165
▁깨우	-18166
▁나주	-18167
▁단발	-18168
▁당근	-18169
▁드롭	-18170
▁락할	-18171
▁레진	-18172
▁리오	-18173
▁모태	-18174
▁무혐	-18175
▁빌라	-18176
▁샤이	-18177
▁석학	-18178
▁선뜻	-18179
▁성벽	-18180
▁성서	-18181
▁세례	-18182
▁소니	-18183
▁소신	-18184
▁수칙	-18185
▁순종	-18186
▁슈뢰	-18187
▁스모	-18188
▁스펜	-18189
▁식음	-18190
▁신다	-18191
▁신전	-18192
▁실지	-18193
▁실화	-18194
▁암컷	-18195
▁액면	-18196
▁업장	-18197
▁여보	-18198
▁연회	-18199
▁우루	-18200
▁우익	-18201
▁운문	-18202
▁이겼	-18203
▁인양	-18204
▁입단	-18205
▁정태	-18206
▁조개	-18207
▁좌익	-18208
▁줄인	-18209
▁지재	-18210
▁진하	-18211
▁처할	-18212
▁총칙	-18213
▁켈리	-18214
▁쿨러	-18215
▁포물	-18216
▁하전	-18217
▁허수	-18218
▁헌정	-18219
▁회자	-18220
▁흔치	-18221
▁흘렀	-18222
ater	-18223
▁524	-18224
▁721	-18225
▁ALP	-18226
▁SSC	-18227
▁TAC	-18228
▁개회식	-18229
▁고농도	-18230
▁관공서	-18231
▁구심점	-18232
▁귀금속	-18233
▁내려갈	-18234
▁내부자	-18235
▁닭고기	-18236
▁대응책	-18237
▁대출자	-18238
▁마그넷	-18239
▁새겨져	-18240
▁생겨난	-18241
▁생식기	-18242
▁송하인	-18243
▁수료생	-18244
▁수입액	-18245
▁시발점	-18246
▁심판원	-18247
▁쓰러진	-18248
▁아로마	-18249
▁아테네	-18250
▁엘리엇	-18251
▁와이프	-18252
▁울릉도	-18253
▁은메달	-18254
▁임차료	-18255
▁전성기	-18256
▁접촉자	-18257
▁조부모	-18258
▁졸업식	-18259
▁중독자	-18260
▁테이퍼	-18261
▁통일성	-18262
▁투자액	-18263
▁형광체	-18264
▁회전력	-18265
▁휩싸인	-18266
▁휴머니	-18267
▁희토류	-18268
▁1971	-18269
▁EBUS	-18270
▁기울어진	-18271
▁모의재판	-18272
▁세계유산	-18273
▁어떠세요	-18274
▁유지관리	-18275
▁이뤄지면	-18276
▁전립선암	-18277
▁중개업자	-18278
▁플로리다	-18279
▁피상속인	-18280
▁흘러나오	-18281
▁inter	-18282
▁실리사이드	-18283
▁코디네이터	-18284
IR	-18285
과세	-18286
과이	-18287
구리	-18288
나리	-18289
남동	-18290
누리	-18291
닐링	-18292
드름	-18293
르겐	-18294
릴라	-18295
부담	-18296
푸르	-18297
ina	-18298
▁BH	-18299
▁La	-18300
▁가뜩	-18301
▁갈릴	-18302
▁게을	-18303
▁게인	-18304
▁경리	-18305
▁경지	-18306
▁과금	-18307
▁광안	-18308
▁근방	-18309
▁기쁜	-18310
▁끝점	-18311
▁너트	-18312
▁능가	-18313
▁당산	-18314
▁리티	-18315
▁마냥	-18316
▁민첩	-18317
▁발육	-18318
▁방글	-18319
▁밸류	-18320
▁버디	-18321
▁벌칙	-18322
▁복선	-18323
▁부영	-18324
▁부쩍	-18325
▁블러	-18326
▁비법	-18327
▁사극	-18328
▁산성	-18329
▁산조	-18330
▁산증	-18331
▁서남	-18332
▁성비	-18333
▁슬프	-18334
▁심했	-18335
▁아보	-18336
▁아자	-18337
▁알바	-18338
▁야산	-18339
▁어기	-18340
▁오니	-18341
▁요골	-18342
▁요도	-18343
▁유시	-18344
▁이브	-18345
▁자급	-18346
▁잔금	-18347
▁장세	-18348
▁장승	-18349
▁저수	-18350
▁전작	-18351
▁정은	-18352
▁제청	-18353
▁줄리	-18354
▁질주	-18355
▁최태	-18356
▁파출	-18357
▁팔렸	-18358
▁페일	-18359
▁호일	-18360
▁홍반	-18361
▁확연	-18362
▁흔했	-18363
플리터	-18364
▁BPA	-18365
▁ELV	-18366
▁IGF	-18367
▁PAD	-18368
▁ROI	-18369
▁WBC	-18370
▁ant	-18371
▁cyc	-18372
▁거쳐서	-18373
▁거친다	-18374
▁고차원	-18375
▁김부겸	-18376
▁김재환	-18377
▁내셔널	-18378
▁높여야	-18379
▁당첨자	-18380
▁동승자	-18381
▁리처드	-18382
▁미술가	-18383
▁상영관	-18384
▁샌더스	-18385
▁손꼽히	-18386
▁신드롬	-18387
▁실정법	-18388
▁싸이클	-18389
▁양이온	-18390
▁어닐링	-18391
▁어벤져	-18392
▁억지로	-18393
▁여고생	-18394
▁연소실	-18395
▁운동가	-18396
▁유대인	-18397
▁응시자	-18398
▁임팩트	-18399
▁입력단	-18400
▁입법부	-18401
▁재조합	-18402
▁제보자	-18403
▁종아리	-18404
▁줄여야	-18405
▁취소권	-18406
▁케이지	-18407
▁페이징	-18408
▁페이퍼	-18409
▁하버드	-18410
▁혈액학	-18411
▁후처리	-18412
▁흐른다	-18413
드릴까요	-18414
▁1967	-18415
▁GRDP	-18416
▁가뜩이나	-18417
▁도로공사	-18418
▁블라디보	-18419
▁사회생활	-18420
▁스플리터	-18421
▁어려워하	-18422
▁이뤄지기	-18423
▁저혈당증	-18424
▁페이로드	-18425
▁NSAID	-18426
▁나타난다는	-18427
ational	-18428
OM	-18429
bu	-18430
개골	-18431
거름	-18432
공업	-18433
러시	-18434
레일	-18435
맥상	-18436
버섯	-18437
소자	-18438
쟁이	-18439
전기	-18440
정맥	-18441
징계	-18442
orr	-18443
▁MN	-18444
▁op	-18445
▁거둬	-18446
▁건선	-18447
▁계조	-18448
▁골재	-18449
▁공교	-18450
▁관류	-18451
▁국감	-18452
▁그쳐	-18453
▁금세	-18454
▁누공	-18455
▁니들	-18456
▁대충	-18457
▁도라	-18458
▁도축	-18459
▁두터	-18460
▁뒤섞	-18461
▁들썩	-18462
▁딜러	-18463
▁레몬	-18464
▁리가	-18465
▁매회	-18466
▁모식	-18467
▁목동	-18468
▁몰락	-18469
▁무성	-18470
▁물의	-18471
▁미쓰	-18472
▁바울	-18473
▁바텀	-18474
▁번복	-18475
▁범람	-18476
▁비고	-18477
▁비지	-18478
▁빌미	-18479
▁상작	-18480
▁색인	-18481
▁설시	-18482
▁세세	-18483
▁속상	-18484
▁쇄도	-18485
▁수긍	-18486
▁시찰	-18487
▁시합	-18488
▁식생	-18489
▁식수	-18490
▁실에	-18491
▁심플	-18492
▁아부	-18493
▁아지	-18494
▁아형	-18495
▁알짜	-18496
▁약재	-18497
▁에디	-18498
▁예대	-18499
▁오라	-18500
▁와류	-18501
▁외연	-18502
▁외향	-18503
▁워커	-18504
▁이천	-18505
▁잠겨	-18506
▁저쪽	-18507
▁전범	-18508
▁정돈	-18509
▁조밀	-18510
▁주법	-18511
▁주효	-18512
▁지로	-18513
▁질투	-18514
▁참패	-18515
▁청담	-18516
▁퍼진	-18517
▁폭격	-18518
▁하지	-18519
▁회차	-18520
▁흉통	-18521
김없이	-18522
베르트	-18523
적분할	-18524
통화기	-18525
ated	-18526
ject	-18527
ovir	-18528
▁265	-18529
▁309	-18530
▁334	-18531
▁523	-18532
▁622	-18533
▁AUC	-18534
▁CGM	-18535
▁HFD	-18536
▁ITO	-18537
▁KDI	-18538
▁LAM	-18539
▁MVP	-18540
▁New	-18541
▁OUT	-18542
▁PSA	-18543
▁UAV	-18544
▁감염자	-18545
▁갖춰져	-18546
▁고마움	-18547
▁과학고	-18548
▁광저우	-18549
▁급부상	-18550
▁기념비	-18551
▁김혜경	-18552
▁맞물리	-18553
▁모세관	-18554
▁박지성	-18555
▁분산제	-18556
▁사춘기	-18557
▁산업재	-18558
▁샤오미	-18559
▁선인장	-18560
▁슬리브	-18561
▁어리석	-18562
▁역기능	-18563
▁올레핀	-18564
▁용접부	-18565
▁유은혜	-18566
▁임재욱	-18567
▁적당히	-18568
▁정순균	-18569
▁조정부	-18570
▁중앙선	-18571
▁진료소	-18572
▁진에어	-18573
▁첨가량	-18574
▁청렴도	-18575
▁콜라보	-18576
▁콩쿠르	-18577
▁탈북자	-18578
▁평균치	-18579
▁혜경궁	-18580
▁휴게실	-18581
통화기금	-18582
▁1953	-18583
▁공산주의	-18584
▁관광특구	-18585
▁글루코스	-18586
▁들어와서	-18587
▁사해행위	-18588
▁쇼트트랙	-18589
▁스트레인	-18590
▁아름다워	-18591
▁안전장치	-18592
▁정육면체	-18593
▁지지부진	-18594
▁프랑스어	-18595
▁플레이스	-18596
▁ASEAN	-18597
▁라디에이터	-18598
▁System	-18599
▁국제통화기금	-18600
FT	-18601
▁넬	-18602
▁탱	-18603
거스	-18604
경정	-18605
고시	-18606
군다	-18607
규칙	-18608
데타	-18609
랑카	-18610
랑크	-18611
모직	-18612
분포	-18613
불리	-18614
신수	-18615
심판	-18616
오리	-18617
월드	-18618
조명	-18619
주군	-18620
짓점	-18621
텍터	-18622
투리	-18623
폭풍	-18624
필품	-18625
▁Ba	-18626
▁GN	-18627
▁TX	-18628
▁가칭	-18629
▁강습	-18630
▁객담	-18631
▁거니	-18632
▁경쾌	-18633
▁곧장	-18634
▁공언	-18635
▁괄목	-18636
▁광중	-18637
▁교모	-18638
▁교우	-18639
▁김유	-18640
▁끊기	-18641
▁눈가	-18642
▁다닌	-18643
▁대박	-18644
▁데카	-18645
▁도료	-18646
▁도막	-18647
▁동박	-18648
▁두피	-18649
▁등극	-18650
▁랜딩	-18651
▁만회	-18652
▁매스	-18653
▁메세	-18654
▁모종	-18655
▁무균	-18656
▁박기	-18657
▁발리	-18658
▁밥상	-18659
▁배차	-18660
▁백범	-18661
▁벽지	-18662
▁변국	-18663
▁보온	-18664
▁분경	-18665
▁비식	-18666
▁빈약	-18667
▁산행	-18668
▁살릴	-18669
▁생동	-18670
▁생육	-18671
▁서른	-18672
▁서문	-18673
▁선다	-18674
▁손질	-18675
▁신대	-18676
▁신보	-18677
▁싱어	-18678
▁어미	-18679
▁영덕	-18680
▁왕비	-18681
▁원더	-18682
▁음력	-18683
▁이단	-18684
▁이덕	-18685
▁이선	-18686
▁입힌	-18687
▁자간	-18688
▁자조	-18689
▁장영	-18690
▁재기	-18691
▁전등	-18692
▁점토	-18693
▁정월	-18694
▁제인	-18695
▁존립	-18696
▁지민	-18697
▁집어	-18698
▁첫해	-18699
▁토프	-18700
▁투신	-18701
▁파싱	-18702
▁편취	-18703
▁평온	-18704
▁포체	-18705
▁피서	-18706
▁하계	-18707
▁학비	-18708
▁항법	-18709
▁헐리	-18710
▁헨리	-18711
▁흐려	-18712
▁힘써	-18713
라데시	-18714
라이드	-18715
자치부	-18716
플러스	-18717
▁263	-18718
▁355	-18719
▁705	-18720
▁722	-18721
▁780	-18722
▁ASC	-18723
▁CYP	-18724
▁DSA	-18725
▁DVT	-18726
▁FNA	-18727
▁LiD	-18728
▁MDR	-18729
▁MMP	-18730
▁Res	-18731
▁SNP	-18732
▁out	-18733
▁갈아타	-18734
▁경화제	-18735
▁기록관	-18736
▁김해시	-18737
▁꼭대기	-18738
▁꼭짓점	-18739
▁날아가	-18740
▁단단히	-18741
▁대졸자	-18742
▁돌아섰	-18743
▁득표율	-18744
▁뜨거워	-18745
▁라이언	-18746
▁리모컨	-18747
▁매거진	-18748
▁몰아주	-18749
▁벗어났	-18750
▁상한선	-18751
▁생필품	-18752
▁선입견	-18753
▁선천성	-18754
▁순천시	-18755
▁신다고	-18756
▁실체법	-18757
▁어울릴	-18758
▁에테르	-18759
▁오브제	-18760
▁원기둥	-18761
▁유관순	-18762
▁전력량	-18763
▁조선족	-18764
▁주의자	-18765
▁주정차	-18766
▁체육계	-18767
▁추신수	-18768
▁출근길	-18769
▁펼쳐져	-18770
▁프라임	-18771
▁프로덕	-18772
▁해석학	-18773
▁협상력	-18774
경정예산	-18775
HANES	-18776
▁1040	-18777
▁구석구석	-18778
▁독립선언	-18779
▁말라리아	-18780
▁모의실험	-18781
▁선거관리	-18782
▁어벤져스	-18783
▁유라시아	-18784
▁자산관리	-18785
▁제일모직	-18786
▁방글라데시	-18787
▁스코틀랜드	-18788
▁시뮬레이터	-18789
▁행정자치부	-18790
▁국제축구연맹	-18791
▁추가경정예산	-18792
▁선거관리위원회	-18793
oS	-18794
oy	-18795
게티	-18796
넘기	-18797
르드	-18798
실습	-18799
쓴이	-18800
연금	-18801
완전	-18802
은편	-18803
진영	-18804
테로	-18805
티노	-18806
파업	-18807
포폴	-18808
eth	-18809
ger	-18810
red	-18811
▁KR	-18812
▁MG	-18813
▁NB	-18814
▁Ta	-18815
▁각서	-18816
▁경이	-18817
▁계명	-18818
▁고상	-18819
▁고선	-18820
▁궁전	-18821
▁극본	-18822
▁기틀	-18823
▁노릇	-18824
▁늘린	-18825
▁된장	-18826
[...]
